#pragma once

#include <cstdint>

const uint8_t layer_13[] = {
28, 0, 0, 0, 84, 70, 76, 51, 20, 0, 32, 0, 28, 0, 24, 0, 20, 0, 16, 0, 12, 0, 0, 0, 8, 0, 4, 0, 20, 0, 0, 0, 28, 0, 0, 0, 160, 0, 0, 0, 248, 0, 0, 0, 68, 3, 0, 0, 84, 3, 0, 0, 104, 6, 0, 0, 3, 0, 0, 0, 1, 0, 0, 0, 16, 0, 0, 0, 0, 0, 10, 0, 16, 0, 12, 0, 8, 0, 4, 0, 10, 0, 0, 0, 12, 0, 0, 0, 28, 0, 0, 0, 72, 0, 0, 0, 15, 0, 0, 0, 115, 101, 114, 118, 105, 110, 103, 95, 100, 101, 102, 97, 117, 108, 116, 0, 1, 0, 0, 0, 4, 0, 0, 0, 136, 255, 255, 255, 4, 0, 0, 0, 4, 0, 0, 0, 20, 0, 0, 0, 98, 108, 111, 99, 107, 95, 49, 95, 100, 101, 112, 116, 104, 119, 105, 115, 101, 95, 66, 78, 0, 0, 0, 0, 1, 0, 0, 0, 4, 0, 0, 0, 22, 254, 255, 255, 4, 0, 0, 0, 8, 0, 0, 0, 105, 110, 112, 117, 116, 95, 49, 52, 0, 0, 0, 0, 2, 0, 0, 0, 52, 0, 0, 0, 4, 0, 0, 0, 220, 255, 255, 255, 7, 0, 0, 0, 4, 0, 0, 0, 19, 0, 0, 0, 67, 79, 78, 86, 69, 82, 83, 73, 79, 78, 95, 77, 69, 84, 65, 68, 65, 84, 65, 0, 8, 0, 12, 0, 8, 0, 4, 0, 8, 0, 0, 0, 6, 0, 0, 0, 4, 0, 0, 0, 19, 0, 0, 0, 109, 105, 110, 95, 114, 117, 110, 116, 105, 109, 101, 95, 118, 101, 114, 115, 105, 111, 110, 0, 8, 0, 0, 0, 72, 2, 0, 0, 64, 2, 0, 0, 112, 1, 0, 0, 152, 0, 0, 0, 144, 0, 0, 0, 136, 0, 0, 0, 104, 0, 0, 0, 4, 0, 0, 0, 174, 254, 255, 255, 4, 0, 0, 0, 84, 0, 0, 0, 12, 0, 0, 0, 8, 0, 14, 0, 8, 0, 4, 0, 8, 0, 0, 0, 16, 0, 0, 0, 36, 0, 0, 0, 0, 0, 6, 0, 8, 0, 4, 0, 6, 0, 0, 0, 4, 0, 0, 0, 0, 0, 0, 0, 0, 0, 10, 0, 16, 0, 12, 0, 8, 0, 4, 0, 10, 0, 0, 0, 2, 0, 0, 0, 2, 0, 0, 0, 4, 0, 0, 0, 6, 0, 0, 0, 50, 46, 49, 53, 46, 48, 0, 0, 14, 255, 255, 255, 4, 0, 0, 0, 16, 0, 0, 0, 49, 46, 53, 46, 48, 0, 0, 0, 0, 0, 0, 0, 0, 0, 0, 0, 24, 251, 255, 255, 28, 251, 255, 255, 50, 255, 255, 255, 4, 0, 0, 0, 192, 0, 0, 0, 120, 97, 192, 64, 134, 91, 127, 64, 81, 31, 22, 65, 85, 153, 173, 64, 218, 111, 55, 189, 52, 92, 28, 64, 219, 177, 206, 62, 181, 102, 241, 63, 34, 67, 12, 64, 48, 11, 117, 63, 142, 57, 37, 64, 120, 124, 49, 62, 24, 103, 3, 193, 113, 129, 52, 191, 54, 135, 36, 64, 237, 92, 223, 61, 149, 114, 15, 191, 246, 255, 69, 63, 24, 214, 163, 61, 99, 164, 180, 62, 149, 234, 239, 191, 4, 169, 234, 63, 241, 157, 189, 64, 21, 112, 168, 63, 76, 253, 201, 191, 236, 222, 49, 64, 142, 75, 184, 63, 85, 226, 98, 63, 18, 227, 64, 191, 109, 180, 57, 63, 122, 139, 168, 190, 255, 221, 19, 193, 87, 207, 28, 64, 20, 5, 133, 63, 161, 114, 27, 64, 112, 120, 116, 62, 120, 130, 121, 63, 200, 43, 139, 189, 30, 97, 148, 64, 224, 151, 244, 191, 42, 207, 105, 63, 179, 109, 184, 192, 8, 131, 74, 62, 121, 240, 135, 63, 246, 243, 75, 190, 108, 86, 192, 64, 246, 140, 135, 62, 21, 185, 65, 192, 0, 0, 6, 0, 8, 0, 4, 0, 6, 0, 0, 0, 4, 0, 0, 0, 192, 0, 0, 0, 173, 125, 239, 61, 205, 227, 2, 62, 62, 161, 53, 62, 199, 137, 64, 62, 82, 20, 122, 62, 75, 133, 89, 62, 89, 229, 20, 62, 123, 212, 223, 61, 201, 197, 32, 62, 201, 10, 104, 61, 226, 205, 42, 62, 166, 63, 89, 61, 57, 163, 125, 62, 196, 229, 157, 65, 33, 206, 123, 61, 88, 18, 155, 62, 56, 113, 125, 65, 57, 153, 56, 61, 167, 64, 16, 62, 199, 123, 70, 62, 162, 73, 37, 62, 215, 123, 13, 63, 239, 235, 52, 62, 97, 106, 134, 61, 69, 173, 227, 61, 151, 79, 129, 62, 109, 231, 129, 61, 176, 37, 221, 61, 131, 233, 250, 62, 185, 213, 113, 61, 253, 61, 119, 61, 92, 23, 156, 62, 143, 1, 125, 62, 200, 141, 172, 60, 191, 222, 14, 62, 75, 120, 230, 62, 204, 128, 219, 60, 179, 144, 230, 62, 179, 148, 89, 61, 22, 249, 195, 61, 72, 135, 136, 61, 36, 12, 87, 62, 20, 238, 116, 62, 204, 24, 184, 60, 251, 81, 55, 62, 236, 2, 217, 61, 158, 227, 134, 62, 36, 239, 109, 62, 192, 252, 255, 255, 196, 252, 255, 255, 15, 0, 0, 0, 77, 76, 73, 82, 32, 67, 111, 110, 118, 101, 114, 116, 101, 100, 46, 0, 1, 0, 0, 0, 20, 0, 0, 0, 0, 0, 14, 0, 24, 0, 20, 0, 16, 0, 12, 0, 8, 0, 4, 0, 14, 0, 0, 0, 20, 0, 0, 0, 28, 0, 0, 0, 160, 0, 0, 0, 164, 0, 0, 0, 168, 0, 0, 0, 4, 0, 0, 0, 109, 97, 105, 110, 0, 0, 0, 0, 2, 0, 0, 0, 88, 0, 0, 0, 20, 0, 0, 0, 0, 0, 14, 0, 24, 0, 20, 0, 16, 0, 12, 0, 11, 0, 4, 0, 14, 0, 0, 0, 20, 0, 0, 0, 0, 0, 0, 11, 16, 0, 0, 0, 20, 0, 0, 0, 1, 0, 0, 0, 76, 253, 255, 255, 1, 0, 0, 0, 4, 0, 0, 0, 2, 0, 0, 0, 3, 0, 0, 0, 2, 0, 0, 0, 0, 0, 14, 0, 20, 0, 0, 0, 16, 0, 12, 0, 11, 0, 4, 0, 14, 0, 0, 0, 16, 0, 0, 0, 0, 0, 0, 21, 12, 0, 0, 0, 16, 0, 0, 0, 136, 253, 255, 255, 1, 0, 0, 0, 3, 0, 0, 0, 2, 0, 0, 0, 0, 0, 0, 0, 1, 0, 0, 0, 1, 0, 0, 0, 4, 0, 0, 0, 1, 0, 0, 0, 0, 0, 0, 0, 5, 0, 0, 0, 216, 1, 0, 0, 100, 1, 0, 0, 240, 0, 0, 0, 112, 0, 0, 0, 4, 0, 0, 0, 82, 254, 255, 255, 0, 0, 0, 1, 20, 0, 0, 0, 36, 0, 0, 0, 36, 0, 0, 0, 5, 0, 0, 0, 60, 0, 0, 0, 4, 0, 0, 0, 255, 255, 255, 255, 24, 0, 0, 0, 24, 0, 0, 0, 48, 0, 0, 0, 248, 253, 255, 255, 25, 0, 0, 0, 83, 116, 97, 116, 101, 102, 117, 108, 80, 97, 114, 116, 105, 116, 105, 111, 110, 101, 100, 67, 97, 108, 108, 58, 48, 0, 0, 0, 4, 0, 0, 0, 1, 0, 0, 0, 24, 0, 0, 0, 24, 0, 0, 0, 48, 0, 0, 0, 186, 254, 255, 255, 0, 0, 0, 1, 20, 0, 0, 0, 36, 0, 0, 0, 36, 0, 0, 0, 4, 0, 0, 0, 80, 0, 0, 0, 4, 0, 0, 0, 255, 255, 255, 255, 24, 0, 0, 0, 24, 0, 0, 0, 48, 0, 0, 0, 96, 254, 255, 255, 47, 0, 0, 0, 109, 111, 100, 101, 108, 95, 49, 51, 47, 98, 108, 111, 99, 107, 95, 49, 95, 100, 101, 112, 116, 104, 119, 105, 115, 101, 95, 66, 78, 47, 70, 117, 115, 101, 100, 66, 97, 116, 99, 104, 78, 111, 114, 109, 86, 51, 50, 0, 4, 0, 0, 0, 1, 0, 0, 0, 24, 0, 0, 0, 24, 0, 0, 0, 48, 0, 0, 0, 166, 255, 255, 255, 0, 0, 0, 1, 16, 0, 0, 0, 16, 0, 0, 0, 3, 0, 0, 0, 60, 0, 0, 0, 196, 254, 255, 255, 47, 0, 0, 0, 109, 111, 100, 101, 108, 95, 49, 51, 47, 98, 108, 111, 99, 107, 95, 49, 95, 100, 101, 112, 116, 104, 119, 105, 115, 101, 95, 66, 78, 47, 70, 117, 115, 101, 100, 66, 97, 116, 99, 104, 78, 111, 114, 109, 86, 51, 49, 0, 1, 0, 0, 0, 48, 0, 0, 0, 0, 0, 22, 0, 24, 0, 20, 0, 0, 0, 16, 0, 12, 0, 8, 0, 0, 0, 0, 0, 0, 0, 7, 0, 22, 0, 0, 0, 0, 0, 0, 1, 16, 0, 0, 0, 16, 0, 0, 0, 2, 0, 0, 0, 60, 0, 0, 0, 52, 255, 255, 255, 46, 0, 0, 0, 109, 111, 100, 101, 108, 95, 49, 51, 47, 98, 108, 111, 99, 107, 95, 49, 95, 100, 101, 112, 116, 104, 119, 105, 115, 101, 95, 66, 78, 47, 70, 117, 115, 101, 100, 66, 97, 116, 99, 104, 78, 111, 114, 109, 86, 51, 0, 0, 1, 0, 0, 0, 48, 0, 0, 0, 0, 0, 22, 0, 28, 0, 24, 0, 0, 0, 20, 0, 16, 0, 12, 0, 0, 0, 0, 0, 8, 0, 7, 0, 22, 0, 0, 0, 0, 0, 0, 1, 20, 0, 0, 0, 36, 0, 0, 0, 36, 0, 0, 0, 1, 0, 0, 0, 60, 0, 0, 0, 4, 0, 0, 0, 255, 255, 255, 255, 24, 0, 0, 0, 24, 0, 0, 0, 48, 0, 0, 0, 188, 255, 255, 255, 26, 0, 0, 0, 115, 101, 114, 118, 105, 110, 103, 95, 100, 101, 102, 97, 117, 108, 116, 95, 105, 110, 112, 117, 116, 95, 49, 52, 58, 48, 0, 0, 4, 0, 0, 0, 1, 0, 0, 0, 24, 0, 0, 0, 24, 0, 0, 0, 48, 0, 0, 0, 2, 0, 0, 0, 28, 0, 0, 0, 8, 0, 0, 0, 4, 0, 4, 0, 4, 0, 0, 0, 12, 0, 12, 0, 11, 0, 0, 0, 0, 0, 4, 0, 12, 0, 0, 0, 18, 0, 0, 0, 0, 0, 0, 18
};
