#pragma once

#include <cstdint>

const uint8_t layer_6[] = {
28, 0, 0, 0, 84, 70, 76, 51, 20, 0, 32, 0, 28, 0, 24, 0, 20, 0, 16, 0, 12, 0, 0, 0, 8, 0, 4, 0, 20, 0, 0, 0, 28, 0, 0, 0, 156, 0, 0, 0, 244, 0, 0, 0, 216, 3, 0, 0, 232, 3, 0, 0, 80, 6, 0, 0, 3, 0, 0, 0, 1, 0, 0, 0, 16, 0, 0, 0, 0, 0, 10, 0, 16, 0, 12, 0, 8, 0, 4, 0, 10, 0, 0, 0, 12, 0, 0, 0, 28, 0, 0, 0, 72, 0, 0, 0, 15, 0, 0, 0, 115, 101, 114, 118, 105, 110, 103, 95, 100, 101, 102, 97, 117, 108, 116, 0, 1, 0, 0, 0, 4, 0, 0, 0, 140, 255, 255, 255, 3, 0, 0, 0, 4, 0, 0, 0, 21, 0, 0, 0, 101, 120, 112, 97, 110, 100, 101, 100, 95, 99, 111, 110, 118, 95, 112, 114, 111, 106, 101, 99, 116, 0, 0, 0, 1, 0, 0, 0, 4, 0, 0, 0, 226, 252, 255, 255, 4, 0, 0, 0, 7, 0, 0, 0, 105, 110, 112, 117, 116, 95, 55, 0, 2, 0, 0, 0, 52, 0, 0, 0, 4, 0, 0, 0, 220, 255, 255, 255, 6, 0, 0, 0, 4, 0, 0, 0, 19, 0, 0, 0, 67, 79, 78, 86, 69, 82, 83, 73, 79, 78, 95, 77, 69, 84, 65, 68, 65, 84, 65, 0, 8, 0, 12, 0, 8, 0, 4, 0, 8, 0, 0, 0, 5, 0, 0, 0, 4, 0, 0, 0, 19, 0, 0, 0, 109, 105, 110, 95, 114, 117, 110, 116, 105, 109, 101, 95, 118, 101, 114, 115, 105, 111, 110, 0, 7, 0, 0, 0, 224, 2, 0, 0, 216, 2, 0, 0, 168, 2, 0, 0, 144, 0, 0, 0, 136, 0, 0, 0, 104, 0, 0, 0, 4, 0, 0, 0, 114, 253, 255, 255, 4, 0, 0, 0, 84, 0, 0, 0, 12, 0, 0, 0, 8, 0, 14, 0, 8, 0, 4, 0, 8, 0, 0, 0, 16, 0, 0, 0, 36, 0, 0, 0, 0, 0, 6, 0, 8, 0, 4, 0, 6, 0, 0, 0, 4, 0, 0, 0, 0, 0, 0, 0, 0, 0, 10, 0, 16, 0, 12, 0, 8, 0, 4, 0, 10, 0, 0, 0, 2, 0, 0, 0, 2, 0, 0, 0, 4, 0, 0, 0, 6, 0, 0, 0, 50, 46, 49, 53, 46, 48, 0, 0, 210, 253, 255, 255, 4, 0, 0, 0, 16, 0, 0, 0, 49, 46, 53, 46, 48, 0, 0, 0, 0, 0, 0, 0, 0, 0, 0, 0, 112, 251, 255, 255, 242, 253, 255, 255, 4, 0, 0, 0, 0, 2, 0, 0, 95, 70, 135, 156, 39, 99, 13, 190, 228, 137, 187, 60, 93, 238, 130, 188, 47, 221, 68, 63, 198, 74, 181, 187, 4, 95, 69, 60, 135, 129, 209, 59, 39, 237, 82, 58, 229, 38, 73, 191, 42, 42, 17, 191, 18, 164, 248, 188, 199, 8, 116, 28, 204, 149, 60, 63, 86, 83, 199, 187, 217, 138, 245, 28, 124, 172, 125, 28, 30, 75, 95, 190, 91, 89, 17, 188, 4, 143, 31, 63, 232, 244, 9, 63, 114, 86, 227, 61, 32, 85, 39, 62, 50, 109, 67, 61, 178, 7, 199, 57, 233, 117, 26, 189, 111, 250, 112, 63, 191, 205, 162, 190, 179, 87, 7, 29, 149, 244, 99, 62, 15, 33, 178, 189, 139, 117, 94, 158, 110, 133, 188, 27, 211, 172, 47, 60, 235, 161, 62, 60, 190, 134, 192, 189, 170, 6, 11, 191, 27, 140, 208, 60, 207, 66, 225, 61, 122, 173, 13, 60, 4, 242, 99, 60, 10, 158, 140, 60, 59, 189, 40, 190, 33, 24, 195, 60, 64, 87, 121, 28, 252, 19, 144, 63, 116, 10, 141, 189, 106, 11, 202, 155, 70, 142, 172, 156, 47, 1, 152, 189, 154, 140, 16, 190, 12, 179, 78, 191, 99, 32, 254, 62, 52, 34, 19, 62, 3, 205, 219, 62, 50, 155, 225, 61, 177, 96, 223, 187, 69, 19, 191, 62, 245, 4, 118, 59, 151, 110, 115, 62, 28, 181, 129, 156, 78, 193, 117, 188, 36, 134, 214, 61, 184, 122, 127, 157, 230, 190, 175, 154, 136, 173, 157, 62, 204, 171, 21, 190, 158, 233, 89, 62, 221, 100, 175, 190, 79, 168, 79, 62, 199, 113, 72, 63, 90, 69, 97, 61, 152, 66, 140, 59, 93, 185, 194, 190, 109, 90, 205, 61, 111, 24, 61, 189, 166, 174, 247, 156, 33, 103, 57, 189, 100, 71, 210, 61, 84, 86, 122, 29, 243, 104, 86, 156, 133, 235, 59, 190, 238, 15, 195, 189, 28, 194, 128, 188, 92, 110, 100, 190, 156, 95, 92, 190, 167, 33, 2, 190, 18, 211, 47, 62, 3, 37, 12, 188, 190, 218, 202, 61, 78, 21, 38, 189, 200, 236, 238, 190, 36, 20, 45, 157, 129, 238, 29, 189, 169, 99, 161, 63, 157, 44, 110, 158, 88, 135, 109, 156, 180, 10, 212, 61, 56, 98, 9, 189, 18, 94, 77, 59, 216, 135, 146, 62, 99, 86, 249, 189, 31, 190, 12, 190, 214, 70, 59, 189, 97, 166, 2, 60, 172, 113, 28, 191, 231, 234, 38, 63, 205, 133, 175, 62, 29, 18, 22, 28, 127, 63, 62, 63, 131, 255, 179, 62, 27, 81, 113, 29, 166, 11, 54, 156, 120, 134, 153, 189, 215, 108, 227, 61, 27, 60, 67, 191, 165, 45, 79, 189, 208, 254, 133, 60, 205, 169, 174, 189, 186, 185, 85, 189, 51, 224, 200, 59, 58, 131, 212, 190, 188, 234, 159, 62, 108, 100, 242, 190, 203, 224, 4, 156, 98, 143, 53, 61, 13, 159, 148, 190, 100, 80, 162, 29, 0, 0, 6, 0, 8, 0, 4, 0, 6, 0, 0, 0, 4, 0, 0, 0, 32, 0, 0, 0, 0, 0, 0, 0, 0, 0, 0, 0, 0, 0, 0, 0, 0, 0, 0, 0, 0, 0, 0, 0, 0, 0, 0, 0, 0, 0, 0, 0, 0, 0, 0, 0, 180, 253, 255, 255, 184, 253, 255, 255, 15, 0, 0, 0, 77, 76, 73, 82, 32, 67, 111, 110, 118, 101, 114, 116, 101, 100, 46, 0, 1, 0, 0, 0, 20, 0, 0, 0, 0, 0, 14, 0, 24, 0, 20, 0, 16, 0, 12, 0, 8, 0, 4, 0, 14, 0, 0, 0, 20, 0, 0, 0, 28, 0, 0, 0, 116, 0, 0, 0, 120, 0, 0, 0, 124, 0, 0, 0, 4, 0, 0, 0, 109, 97, 105, 110, 0, 0, 0, 0, 1, 0, 0, 0, 20, 0, 0, 0, 0, 0, 14, 0, 22, 0, 0, 0, 16, 0, 12, 0, 11, 0, 4, 0, 14, 0, 0, 0, 28, 0, 0, 0, 0, 0, 0, 1, 32, 0, 0, 0, 36, 0, 0, 0, 0, 0, 10, 0, 12, 0, 0, 0, 8, 0, 4, 0, 10, 0, 0, 0, 1, 0, 0, 0, 1, 0, 0, 0, 1, 0, 0, 0, 3, 0, 0, 0, 3, 0, 0, 0, 0, 0, 0, 0, 2, 0, 0, 0, 1, 0, 0, 0, 1, 0, 0, 0, 3, 0, 0, 0, 1, 0, 0, 0, 0, 0, 0, 0, 4, 0, 0, 0, 84, 1, 0, 0, 232, 0, 0, 0, 112, 0, 0, 0, 4, 0, 0, 0, 210, 254, 255, 255, 0, 0, 0, 1, 20, 0, 0, 0, 36, 0, 0, 0, 36, 0, 0, 0, 4, 0, 0, 0, 60, 0, 0, 0, 4, 0, 0, 0, 255, 255, 255, 255, 48, 0, 0, 0, 48, 0, 0, 0, 8, 0, 0, 0, 188, 254, 255, 255, 25, 0, 0, 0, 83, 116, 97, 116, 101, 102, 117, 108, 80, 97, 114, 116, 105, 116, 105, 111, 110, 101, 100, 67, 97, 108, 108, 58, 48, 0, 0, 0, 4, 0, 0, 0, 1, 0, 0, 0, 48, 0, 0, 0, 48, 0, 0, 0, 8, 0, 0, 0, 162, 255, 255, 255, 0, 0, 0, 1, 16, 0, 0, 0, 16, 0, 0, 0, 3, 0, 0, 0, 52, 0, 0, 0, 12, 255, 255, 255, 37, 0, 0, 0, 109, 111, 100, 101, 108, 95, 54, 47, 101, 120, 112, 97, 110, 100, 101, 100, 95, 99, 111, 110, 118, 95, 112, 114, 111, 106, 101, 99, 116, 47, 67, 111, 110, 118, 50, 68, 49, 0, 0, 0, 4, 0, 0, 0, 8, 0, 0, 0, 1, 0, 0, 0, 1, 0, 0, 0, 16, 0, 0, 0, 0, 0, 22, 0, 24, 0, 20, 0, 0, 0, 16, 0, 12, 0, 8, 0, 0, 0, 0, 0, 0, 0, 7, 0, 22, 0, 0, 0, 0, 0, 0, 1, 16, 0, 0, 0, 16, 0, 0, 0, 2, 0, 0, 0, 52, 0, 0, 0, 128, 255, 255, 255, 36, 0, 0, 0, 109, 111, 100, 101, 108, 95, 54, 47, 101, 120, 112, 97, 110, 100, 101, 100, 95, 99, 111, 110, 118, 95, 112, 114, 111, 106, 101, 99, 116, 47, 67, 111, 110, 118, 50, 68, 0, 0, 0, 0, 1, 0, 0, 0, 8, 0, 0, 0, 0, 0, 22, 0, 28, 0, 24, 0, 0, 0, 20, 0, 16, 0, 12, 0, 0, 0, 0, 0, 8, 0, 7, 0, 22, 0, 0, 0, 0, 0, 0, 1, 20, 0, 0, 0, 40, 0, 0, 0, 40, 0, 0, 0, 1, 0, 0, 0, 64, 0, 0, 0, 4, 0, 0, 0, 255, 255, 255, 255, 48, 0, 0, 0, 48, 0, 0, 0, 16, 0, 0, 0, 4, 0, 4, 0, 4, 0, 0, 0, 25, 0, 0, 0, 115, 101, 114, 118, 105, 110, 103, 95, 100, 101, 102, 97, 117, 108, 116, 95, 105, 110, 112, 117, 116, 95, 55, 58, 48, 0, 0, 0, 4, 0, 0, 0, 1, 0, 0, 0, 48, 0, 0, 0, 48, 0, 0, 0, 16, 0, 0, 0, 1, 0, 0, 0, 16, 0, 0, 0, 12, 0, 12, 0, 11, 0, 0, 0, 0, 0, 4, 0, 12, 0, 0, 0, 3, 0, 0, 0, 0, 0, 0, 3
};
