#pragma once

#include <cstdint>

const uint8_t layer_31[] = {
28, 0, 0, 0, 84, 70, 76, 51, 20, 0, 32, 0, 28, 0, 24, 0, 20, 0, 16, 0, 12, 0, 0, 0, 8, 0, 4, 0, 20, 0, 0, 0, 28, 0, 0, 0, 160, 0, 0, 0, 248, 0, 0, 0, 68, 3, 0, 0, 84, 3, 0, 0, 104, 6, 0, 0, 3, 0, 0, 0, 1, 0, 0, 0, 16, 0, 0, 0, 0, 0, 10, 0, 16, 0, 12, 0, 8, 0, 4, 0, 10, 0, 0, 0, 12, 0, 0, 0, 28, 0, 0, 0, 72, 0, 0, 0, 15, 0, 0, 0, 115, 101, 114, 118, 105, 110, 103, 95, 100, 101, 102, 97, 117, 108, 116, 0, 1, 0, 0, 0, 4, 0, 0, 0, 136, 255, 255, 255, 4, 0, 0, 0, 4, 0, 0, 0, 20, 0, 0, 0, 98, 108, 111, 99, 107, 95, 51, 95, 100, 101, 112, 116, 104, 119, 105, 115, 101, 95, 66, 78, 0, 0, 0, 0, 1, 0, 0, 0, 4, 0, 0, 0, 22, 254, 255, 255, 4, 0, 0, 0, 8, 0, 0, 0, 105, 110, 112, 117, 116, 95, 51, 51, 0, 0, 0, 0, 2, 0, 0, 0, 52, 0, 0, 0, 4, 0, 0, 0, 220, 255, 255, 255, 7, 0, 0, 0, 4, 0, 0, 0, 19, 0, 0, 0, 67, 79, 78, 86, 69, 82, 83, 73, 79, 78, 95, 77, 69, 84, 65, 68, 65, 84, 65, 0, 8, 0, 12, 0, 8, 0, 4, 0, 8, 0, 0, 0, 6, 0, 0, 0, 4, 0, 0, 0, 19, 0, 0, 0, 109, 105, 110, 95, 114, 117, 110, 116, 105, 109, 101, 95, 118, 101, 114, 115, 105, 111, 110, 0, 8, 0, 0, 0, 72, 2, 0, 0, 64, 2, 0, 0, 112, 1, 0, 0, 152, 0, 0, 0, 144, 0, 0, 0, 136, 0, 0, 0, 104, 0, 0, 0, 4, 0, 0, 0, 174, 254, 255, 255, 4, 0, 0, 0, 84, 0, 0, 0, 12, 0, 0, 0, 8, 0, 14, 0, 8, 0, 4, 0, 8, 0, 0, 0, 16, 0, 0, 0, 36, 0, 0, 0, 0, 0, 6, 0, 8, 0, 4, 0, 6, 0, 0, 0, 4, 0, 0, 0, 0, 0, 0, 0, 0, 0, 10, 0, 16, 0, 12, 0, 8, 0, 4, 0, 10, 0, 0, 0, 2, 0, 0, 0, 2, 0, 0, 0, 4, 0, 0, 0, 6, 0, 0, 0, 50, 46, 49, 53, 46, 48, 0, 0, 14, 255, 255, 255, 4, 0, 0, 0, 16, 0, 0, 0, 49, 46, 53, 46, 48, 0, 0, 0, 0, 0, 0, 0, 0, 0, 0, 0, 24, 251, 255, 255, 28, 251, 255, 255, 50, 255, 255, 255, 4, 0, 0, 0, 192, 0, 0, 0, 76, 9, 144, 62, 187, 32, 199, 63, 168, 127, 100, 190, 253, 199, 11, 64, 32, 243, 24, 63, 143, 18, 4, 65, 84, 92, 221, 190, 183, 132, 186, 64, 52, 158, 111, 62, 13, 242, 182, 63, 0, 207, 140, 63, 152, 196, 63, 62, 224, 12, 43, 189, 156, 44, 142, 63, 224, 67, 174, 189, 91, 173, 162, 190, 93, 171, 218, 189, 0, 44, 109, 189, 216, 209, 137, 61, 18, 73, 157, 190, 32, 173, 30, 189, 134, 6, 27, 191, 124, 140, 56, 189, 104, 86, 25, 192, 161, 45, 12, 191, 29, 92, 142, 64, 75, 29, 54, 64, 188, 31, 225, 64, 7, 236, 149, 62, 100, 76, 245, 62, 107, 172, 89, 190, 54, 65, 23, 62, 23, 7, 164, 63, 32, 200, 173, 188, 20, 223, 136, 63, 128, 61, 124, 190, 154, 185, 187, 64, 16, 209, 125, 62, 238, 86, 188, 64, 112, 168, 145, 62, 8, 209, 13, 62, 245, 116, 188, 64, 176, 189, 106, 189, 208, 35, 147, 62, 211, 39, 200, 63, 208, 159, 111, 189, 0, 134, 249, 60, 223, 93, 197, 63, 0, 0, 6, 0, 8, 0, 4, 0, 6, 0, 0, 0, 4, 0, 0, 0, 192, 0, 0, 0, 225, 98, 16, 62, 199, 35, 199, 61, 101, 9, 167, 62, 160, 60, 224, 61, 32, 194, 89, 62, 54, 239, 186, 61, 246, 211, 141, 62, 177, 161, 47, 62, 100, 164, 20, 62, 219, 70, 225, 61, 111, 220, 223, 61, 216, 82, 11, 62, 79, 135, 134, 61, 203, 152, 200, 61, 234, 49, 148, 62, 110, 111, 158, 62, 87, 149, 161, 62, 228, 172, 37, 62, 20, 217, 72, 62, 188, 21, 139, 62, 133, 136, 53, 62, 212, 157, 173, 62, 111, 109, 38, 62, 90, 7, 46, 62, 239, 172, 101, 62, 181, 228, 57, 62, 180, 255, 97, 61, 255, 169, 207, 61, 102, 7, 61, 62, 106, 85, 24, 62, 135, 225, 50, 62, 176, 57, 151, 62, 141, 218, 16, 62, 32, 46, 116, 62, 188, 136, 50, 61, 8, 107, 178, 61, 56, 251, 67, 62, 174, 36, 12, 62, 128, 44, 63, 62, 146, 157, 68, 62, 255, 210, 32, 62, 245, 85, 49, 62, 136, 65, 29, 62, 209, 114, 12, 62, 235, 106, 173, 61, 75, 87, 127, 62, 203, 119, 61, 62, 136, 13, 148, 61, 192, 252, 255, 255, 196, 252, 255, 255, 15, 0, 0, 0, 77, 76, 73, 82, 32, 67, 111, 110, 118, 101, 114, 116, 101, 100, 46, 0, 1, 0, 0, 0, 20, 0, 0, 0, 0, 0, 14, 0, 24, 0, 20, 0, 16, 0, 12, 0, 8, 0, 4, 0, 14, 0, 0, 0, 20, 0, 0, 0, 28, 0, 0, 0, 160, 0, 0, 0, 164, 0, 0, 0, 168, 0, 0, 0, 4, 0, 0, 0, 109, 97, 105, 110, 0, 0, 0, 0, 2, 0, 0, 0, 88, 0, 0, 0, 20, 0, 0, 0, 0, 0, 14, 0, 24, 0, 20, 0, 16, 0, 12, 0, 11, 0, 4, 0, 14, 0, 0, 0, 20, 0, 0, 0, 0, 0, 0, 11, 16, 0, 0, 0, 20, 0, 0, 0, 1, 0, 0, 0, 76, 253, 255, 255, 1, 0, 0, 0, 4, 0, 0, 0, 2, 0, 0, 0, 3, 0, 0, 0, 2, 0, 0, 0, 0, 0, 14, 0, 20, 0, 0, 0, 16, 0, 12, 0, 11, 0, 4, 0, 14, 0, 0, 0, 16, 0, 0, 0, 0, 0, 0, 21, 12, 0, 0, 0, 16, 0, 0, 0, 136, 253, 255, 255, 1, 0, 0, 0, 3, 0, 0, 0, 2, 0, 0, 0, 0, 0, 0, 0, 1, 0, 0, 0, 1, 0, 0, 0, 4, 0, 0, 0, 1, 0, 0, 0, 0, 0, 0, 0, 5, 0, 0, 0, 216, 1, 0, 0, 100, 1, 0, 0, 240, 0, 0, 0, 112, 0, 0, 0, 4, 0, 0, 0, 82, 254, 255, 255, 0, 0, 0, 1, 20, 0, 0, 0, 36, 0, 0, 0, 36, 0, 0, 0, 5, 0, 0, 0, 60, 0, 0, 0, 4, 0, 0, 0, 255, 255, 255, 255, 12, 0, 0, 0, 12, 0, 0, 0, 48, 0, 0, 0, 248, 253, 255, 255, 25, 0, 0, 0, 83, 116, 97, 116, 101, 102, 117, 108, 80, 97, 114, 116, 105, 116, 105, 111, 110, 101, 100, 67, 97, 108, 108, 58, 48, 0, 0, 0, 4, 0, 0, 0, 1, 0, 0, 0, 12, 0, 0, 0, 12, 0, 0, 0, 48, 0, 0, 0, 186, 254, 255, 255, 0, 0, 0, 1, 20, 0, 0, 0, 36, 0, 0, 0, 36, 0, 0, 0, 4, 0, 0, 0, 80, 0, 0, 0, 4, 0, 0, 0, 255, 255, 255, 255, 12, 0, 0, 0, 12, 0, 0, 0, 48, 0, 0, 0, 96, 254, 255, 255, 47, 0, 0, 0, 109, 111, 100, 101, 108, 95, 51, 49, 47, 98, 108, 111, 99, 107, 95, 51, 95, 100, 101, 112, 116, 104, 119, 105, 115, 101, 95, 66, 78, 47, 70, 117, 115, 101, 100, 66, 97, 116, 99, 104, 78, 111, 114, 109, 86, 51, 50, 0, 4, 0, 0, 0, 1, 0, 0, 0, 12, 0, 0, 0, 12, 0, 0, 0, 48, 0, 0, 0, 166, 255, 255, 255, 0, 0, 0, 1, 16, 0, 0, 0, 16, 0, 0, 0, 3, 0, 0, 0, 60, 0, 0, 0, 196, 254, 255, 255, 47, 0, 0, 0, 109, 111, 100, 101, 108, 95, 51, 49, 47, 98, 108, 111, 99, 107, 95, 51, 95, 100, 101, 112, 116, 104, 119, 105, 115, 101, 95, 66, 78, 47, 70, 117, 115, 101, 100, 66, 97, 116, 99, 104, 78, 111, 114, 109, 86, 51, 49, 0, 1, 0, 0, 0, 48, 0, 0, 0, 0, 0, 22, 0, 24, 0, 20, 0, 0, 0, 16, 0, 12, 0, 8, 0, 0, 0, 0, 0, 0, 0, 7, 0, 22, 0, 0, 0, 0, 0, 0, 1, 16, 0, 0, 0, 16, 0, 0, 0, 2, 0, 0, 0, 60, 0, 0, 0, 52, 255, 255, 255, 46, 0, 0, 0, 109, 111, 100, 101, 108, 95, 51, 49, 47, 98, 108, 111, 99, 107, 95, 51, 95, 100, 101, 112, 116, 104, 119, 105, 115, 101, 95, 66, 78, 47, 70, 117, 115, 101, 100, 66, 97, 116, 99, 104, 78, 111, 114, 109, 86, 51, 0, 0, 1, 0, 0, 0, 48, 0, 0, 0, 0, 0, 22, 0, 28, 0, 24, 0, 0, 0, 20, 0, 16, 0, 12, 0, 0, 0, 0, 0, 8, 0, 7, 0, 22, 0, 0, 0, 0, 0, 0, 1, 20, 0, 0, 0, 36, 0, 0, 0, 36, 0, 0, 0, 1, 0, 0, 0, 60, 0, 0, 0, 4, 0, 0, 0, 255, 255, 255, 255, 12, 0, 0, 0, 12, 0, 0, 0, 48, 0, 0, 0, 188, 255, 255, 255, 26, 0, 0, 0, 115, 101, 114, 118, 105, 110, 103, 95, 100, 101, 102, 97, 117, 108, 116, 95, 105, 110, 112, 117, 116, 95, 51, 51, 58, 48, 0, 0, 4, 0, 0, 0, 1, 0, 0, 0, 12, 0, 0, 0, 12, 0, 0, 0, 48, 0, 0, 0, 2, 0, 0, 0, 28, 0, 0, 0, 8, 0, 0, 0, 4, 0, 4, 0, 4, 0, 0, 0, 12, 0, 12, 0, 11, 0, 0, 0, 0, 0, 4, 0, 12, 0, 0, 0, 18, 0, 0, 0, 0, 0, 0, 18
};
