#pragma once

#include <cstdint>

const uint8_t layer_12[] = {
28, 0, 0, 0, 84, 70, 76, 51, 20, 0, 32, 0, 28, 0, 24, 0, 20, 0, 16, 0, 12, 0, 0, 0, 8, 0, 4, 0, 20, 0, 0, 0, 28, 0, 0, 0, 156, 0, 0, 0, 244, 0, 0, 0, 56, 9, 0, 0, 72, 9, 0, 0, 184, 11, 0, 0, 3, 0, 0, 0, 1, 0, 0, 0, 16, 0, 0, 0, 0, 0, 10, 0, 16, 0, 12, 0, 8, 0, 4, 0, 10, 0, 0, 0, 12, 0, 0, 0, 28, 0, 0, 0, 68, 0, 0, 0, 15, 0, 0, 0, 115, 101, 114, 118, 105, 110, 103, 95, 100, 101, 102, 97, 117, 108, 116, 0, 1, 0, 0, 0, 4, 0, 0, 0, 140, 255, 255, 255, 3, 0, 0, 0, 4, 0, 0, 0, 17, 0, 0, 0, 98, 108, 111, 99, 107, 95, 49, 95, 100, 101, 112, 116, 104, 119, 105, 115, 101, 0, 0, 0, 1, 0, 0, 0, 4, 0, 0, 0, 30, 248, 255, 255, 4, 0, 0, 0, 8, 0, 0, 0, 105, 110, 112, 117, 116, 95, 49, 51, 0, 0, 0, 0, 2, 0, 0, 0, 52, 0, 0, 0, 4, 0, 0, 0, 220, 255, 255, 255, 6, 0, 0, 0, 4, 0, 0, 0, 19, 0, 0, 0, 67, 79, 78, 86, 69, 82, 83, 73, 79, 78, 95, 77, 69, 84, 65, 68, 65, 84, 65, 0, 8, 0, 12, 0, 8, 0, 4, 0, 8, 0, 0, 0, 5, 0, 0, 0, 4, 0, 0, 0, 19, 0, 0, 0, 109, 105, 110, 95, 114, 117, 110, 116, 105, 109, 101, 95, 118, 101, 114, 115, 105, 111, 110, 0, 7, 0, 0, 0, 64, 8, 0, 0, 56, 8, 0, 0, 104, 7, 0, 0, 144, 0, 0, 0, 136, 0, 0, 0, 104, 0, 0, 0, 4, 0, 0, 0, 178, 248, 255, 255, 4, 0, 0, 0, 84, 0, 0, 0, 12, 0, 0, 0, 8, 0, 14, 0, 8, 0, 4, 0, 8, 0, 0, 0, 16, 0, 0, 0, 36, 0, 0, 0, 0, 0, 6, 0, 8, 0, 4, 0, 6, 0, 0, 0, 4, 0, 0, 0, 0, 0, 0, 0, 0, 0, 10, 0, 16, 0, 12, 0, 8, 0, 4, 0, 10, 0, 0, 0, 2, 0, 0, 0, 2, 0, 0, 0, 4, 0, 0, 0, 6, 0, 0, 0, 50, 46, 49, 53, 46, 48, 0, 0, 18, 249, 255, 255, 4, 0, 0, 0, 16, 0, 0, 0, 49, 46, 53, 46, 48, 0, 0, 0, 0, 0, 0, 0, 0, 0, 0, 0, 8, 246, 255, 255, 50, 249, 255, 255, 4, 0, 0, 0, 192, 6, 0, 0, 253, 97, 178, 191, 12, 197, 4, 191, 220, 166, 130, 190, 125, 171, 252, 190, 46, 71, 108, 62, 243, 133, 178, 191, 57, 134, 72, 192, 109, 21, 222, 191, 171, 196, 46, 191, 58, 166, 149, 191, 65, 191, 56, 62, 160, 93, 193, 63, 44, 11, 131, 63, 205, 128, 88, 191, 156, 82, 167, 64, 127, 85, 173, 191, 87, 121, 85, 191, 219, 168, 206, 191, 242, 250, 142, 63, 196, 78, 107, 190, 84, 48, 11, 189, 42, 229, 80, 191, 243, 80, 93, 192, 188, 6, 228, 191, 246, 104, 142, 191, 212, 26, 3, 192, 0, 246, 177, 191, 104, 91, 177, 190, 198, 139, 251, 63, 105, 111, 3, 63, 45, 217, 58, 64, 244, 20, 46, 63, 40, 253, 131, 192, 35, 17, 219, 191, 21, 138, 76, 190, 197, 240, 135, 63, 88, 58, 248, 62, 233, 186, 245, 63, 154, 33, 95, 192, 46, 2, 55, 64, 72, 163, 57, 192, 53, 169, 23, 191, 131, 59, 11, 64, 143, 77, 0, 192, 105, 196, 192, 189, 152, 213, 154, 191, 111, 190, 75, 192, 236, 138, 41, 64, 122, 45, 28, 64, 197, 251, 144, 62, 87, 194, 130, 191, 121, 68, 82, 191, 98, 168, 210, 63, 218, 112, 144, 192, 147, 170, 161, 192, 127, 5, 5, 192, 116, 224, 194, 63, 45, 108, 224, 191, 0, 190, 36, 192, 74, 91, 31, 64, 68, 39, 143, 63, 117, 96, 121, 191, 62, 220, 180, 188, 210, 250, 250, 63, 82, 202, 195, 190, 62, 184, 9, 192, 108, 199, 227, 63, 172, 88, 126, 62, 106, 6, 174, 62, 150, 52, 164, 191, 247, 209, 125, 192, 85, 199, 200, 191, 189, 51, 6, 190, 220, 67, 5, 192, 60, 205, 41, 192, 157, 28, 46, 191, 213, 203, 190, 191, 114, 33, 61, 63, 242, 53, 223, 191, 4, 12, 177, 63, 97, 144, 114, 63, 11, 108, 30, 192, 144, 247, 229, 63, 115, 108, 209, 63, 89, 163, 175, 62, 62, 55, 58, 64, 61, 44, 34, 192, 223, 158, 148, 64, 211, 81, 154, 192, 25, 212, 134, 62, 23, 198, 36, 64, 84, 109, 23, 192, 164, 20, 128, 61, 189, 173, 75, 191, 227, 55, 149, 192, 197, 67, 21, 64, 46, 72, 133, 191, 181, 206, 129, 63, 89, 211, 96, 62, 236, 126, 34, 190, 47, 128, 234, 191, 127, 103, 118, 192, 168, 121, 20, 192, 47, 154, 229, 190, 45, 151, 13, 64, 163, 87, 58, 190, 175, 128, 52, 192, 235, 66, 99, 63, 117, 248, 118, 62, 34, 23, 89, 191, 48, 205, 145, 192, 51, 31, 174, 190, 169, 191, 111, 191, 60, 5, 238, 190, 250, 215, 81, 63, 6, 0, 221, 62, 6, 11, 248, 190, 130, 1, 93, 191, 35, 25, 143, 191, 152, 33, 9, 191, 184, 37, 175, 190, 49, 124, 243, 190, 125, 230, 162, 191, 102, 105, 82, 190, 161, 37, 129, 190, 59, 11, 31, 63, 133, 57, 59, 191, 166, 71, 129, 62, 179, 94, 93, 64, 231, 203, 213, 191, 161, 168, 250, 63, 65, 223, 27, 63, 185, 184, 190, 62, 160, 133, 183, 63, 135, 174, 234, 189, 218, 90, 16, 63, 32, 169, 63, 192, 118, 44, 15, 62, 9, 115, 7, 62, 27, 176, 185, 191, 59, 51, 21, 191, 50, 103, 41, 62, 45, 243, 0, 192, 245, 196, 187, 62, 89, 194, 49, 192, 32, 108, 63, 192, 54, 76, 201, 191, 30, 194, 157, 191, 117, 254, 132, 190, 133, 61, 248, 63, 64, 111, 122, 64, 69, 238, 41, 192, 176, 88, 45, 191, 235, 30, 31, 192, 109, 159, 232, 190, 218, 223, 33, 64, 219, 175, 45, 64, 181, 193, 68, 191, 5, 225, 155, 63, 74, 112, 68, 192, 151, 25, 101, 191, 184, 215, 229, 191, 205, 117, 45, 64, 49, 44, 50, 192, 123, 78, 162, 63, 143, 166, 129, 191, 174, 87, 78, 192, 25, 198, 53, 192, 68, 254, 168, 63, 110, 57, 246, 191, 153, 78, 220, 191, 75, 187, 32, 191, 69, 87, 98, 64, 125, 125, 5, 192, 226, 85, 122, 64, 242, 245, 9, 64, 223, 144, 178, 191, 132, 82, 208, 191, 43, 254, 210, 190, 219, 251, 207, 63, 42, 110, 115, 191, 127, 90, 68, 192, 103, 169, 62, 192, 106, 92, 82, 64, 1, 230, 204, 63, 104, 38, 30, 64, 210, 69, 10, 64, 106, 55, 0, 192, 27, 207, 74, 192, 179, 43, 128, 192, 76, 4, 63, 64, 122, 197, 60, 64, 237, 242, 131, 64, 109, 6, 250, 191, 254, 22, 146, 192, 9, 23, 104, 192, 201, 1, 104, 64, 154, 224, 184, 63, 87, 141, 109, 64, 174, 224, 77, 192, 120, 41, 36, 64, 200, 49, 59, 192, 250, 41, 30, 192, 29, 243, 54, 64, 130, 230, 116, 64, 252, 2, 48, 190, 29, 93, 156, 190, 179, 178, 128, 64, 26, 46, 226, 190, 197, 16, 26, 192, 249, 229, 117, 64, 66, 193, 147, 192, 67, 84, 124, 64, 193, 45, 183, 191, 67, 239, 112, 192, 146, 183, 42, 192, 38, 55, 129, 64, 245, 152, 205, 191, 21, 249, 51, 192, 207, 162, 7, 192, 99, 242, 83, 192, 248, 225, 141, 192, 232, 43, 10, 192, 170, 187, 79, 64, 43, 56, 112, 63, 38, 115, 11, 192, 10, 75, 97, 64, 7, 254, 28, 64, 4, 19, 232, 191, 220, 102, 163, 192, 120, 96, 44, 192, 80, 128, 82, 64, 110, 180, 19, 64, 114, 196, 170, 64, 241, 90, 40, 64, 190, 69, 11, 192, 179, 156, 122, 192, 238, 247, 138, 192, 138, 84, 146, 64, 165, 200, 72, 64, 66, 235, 217, 191, 132, 112, 62, 63, 189, 97, 12, 192, 140, 158, 27, 192, 87, 53, 89, 192, 65, 21, 81, 191, 236, 42, 157, 63, 170, 114, 113, 191, 30, 15, 79, 64, 104, 171, 236, 190, 11, 159, 217, 191, 183, 2, 73, 63, 152, 23, 215, 63, 188, 182, 84, 191, 225, 131, 147, 191, 81, 250, 174, 191, 67, 177, 139, 190, 252, 74, 17, 191, 169, 206, 208, 63, 253, 188, 37, 192, 101, 202, 221, 63, 22, 169, 109, 191, 142, 110, 154, 191, 100, 73, 5, 191, 31, 109, 194, 63, 64, 70, 165, 189, 83, 29, 129, 191, 154, 21, 127, 191, 18, 122, 217, 62, 166, 197, 70, 192, 154, 171, 136, 191, 223, 254, 5, 63, 13, 170, 120, 63, 58, 222, 242, 191, 81, 95, 79, 64, 229, 10, 230, 62, 245, 131, 118, 191, 245, 80, 32, 192, 183, 163, 185, 60, 7, 81, 13, 191, 170, 103, 179, 63, 154, 46, 14, 64, 161, 120, 84, 62, 56, 232, 175, 191, 217, 39, 0, 192, 13, 187, 161, 191, 24, 246, 24, 64, 177, 151, 95, 63, 54, 76, 252, 191, 117, 18, 33, 192, 93, 104, 156, 191, 87, 195, 123, 191, 211, 107, 205, 60, 137, 237, 157, 63, 115, 227, 87, 190, 92, 1, 97, 191, 173, 130, 119, 191, 254, 153, 174, 191, 42, 85, 180, 190, 193, 194, 170, 63, 173, 153, 20, 64, 18, 250, 193, 191, 203, 99, 184, 192, 69, 248, 0, 192, 24, 86, 163, 190, 6, 153, 183, 190, 173, 56, 248, 63, 64, 76, 46, 64, 230, 136, 204, 63, 103, 239, 191, 190, 70, 200, 206, 190, 239, 239, 171, 191, 128, 94, 133, 63, 45, 34, 96, 191, 207, 166, 121, 190, 127, 226, 121, 191, 120, 132, 6, 64, 189, 187, 124, 63, 61, 33, 24, 64, 223, 162, 203, 63, 68, 244, 97, 64, 54, 129, 255, 190, 51, 236, 135, 191, 136, 112, 40, 190, 1, 101, 34, 192, 134, 125, 181, 63, 205, 167, 0, 191, 138, 84, 143, 63, 105, 17, 177, 62, 186, 172, 201, 63, 101, 87, 160, 62, 186, 155, 132, 191, 39, 234, 84, 64, 86, 192, 41, 192, 220, 29, 1, 62, 179, 234, 67, 63, 16, 117, 53, 64, 60, 54, 222, 191, 65, 181, 75, 192, 45, 28, 28, 192, 234, 241, 20, 64, 146, 242, 40, 63, 210, 13, 126, 62, 180, 21, 153, 191, 71, 89, 156, 63, 208, 25, 209, 191, 18, 57, 55, 191, 205, 128, 158, 63, 37, 61, 32, 64, 191, 252, 155, 190, 76, 93, 57, 63, 134, 144, 59, 64, 152, 216, 56, 190, 79, 244, 24, 191, 127, 2, 22, 64, 203, 85, 136, 64, 117, 9, 33, 64, 147, 151, 27, 191, 73, 35, 20, 191, 17, 45, 166, 191, 113, 34, 62, 64, 170, 86, 139, 191, 58, 177, 204, 190, 252, 51, 210, 191, 46, 223, 178, 191, 63, 20, 174, 63, 253, 0, 176, 191, 51, 95, 52, 64, 193, 50, 18, 191, 136, 167, 117, 191, 211, 186, 238, 63, 55, 80, 17, 62, 106, 102, 90, 192, 32, 188, 0, 64, 47, 142, 221, 190, 181, 233, 0, 189, 254, 177, 200, 62, 149, 105, 174, 63, 213, 52, 161, 62, 113, 99, 158, 191, 75, 107, 141, 64, 234, 192, 91, 192, 150, 149, 227, 190, 91, 222, 126, 63, 83, 67, 109, 191, 63, 139, 50, 63, 223, 111, 192, 191, 163, 85, 135, 191, 249, 2, 16, 192, 136, 63, 42, 191, 217, 40, 92, 63, 24, 42, 152, 190, 8, 57, 193, 63, 18, 190, 206, 189, 80, 150, 141, 190, 212, 242, 55, 63, 182, 205, 113, 63, 237, 180, 2, 191, 12, 148, 162, 64, 88, 251, 102, 191, 107, 208, 47, 191, 172, 139, 197, 189, 193, 44, 106, 63, 151, 40, 10, 64, 149, 253, 17, 64, 114, 143, 163, 190, 203, 214, 75, 189, 38, 157, 103, 189, 21, 60, 176, 63, 108, 124, 207, 60, 164, 200, 181, 189, 200, 145, 135, 191, 137, 170, 188, 190, 31, 205, 122, 63, 122, 117, 23, 191, 254, 74, 129, 63, 15, 168, 60, 192, 99, 203, 82, 191, 38, 8, 230, 63, 39, 94, 143, 61, 37, 251, 9, 191, 125, 77, 89, 63, 10, 92, 60, 63, 142, 79, 181, 191, 135, 17, 126, 62, 180, 189, 188, 63, 146, 235, 234, 189, 139, 211, 140, 190, 237, 172, 11, 64, 197, 94, 150, 191, 96, 129, 35, 190, 11, 27, 223, 62, 0, 0, 6, 0, 8, 0, 4, 0, 6, 0, 0, 0, 4, 0, 0, 0, 192, 0, 0, 0, 0, 0, 0, 0, 0, 0, 0, 0, 0, 0, 0, 0, 0, 0, 0, 0, 0, 0, 0, 0, 0, 0, 0, 0, 0, 0, 0, 0, 0, 0, 0, 0, 0, 0, 0, 0, 0, 0, 0, 0, 0, 0, 0, 0, 0, 0, 0, 0, 0, 0, 0, 0, 0, 0, 0, 0, 0, 0, 0, 0, 0, 0, 0, 0, 0, 0, 0, 0, 0, 0, 0, 0, 0, 0, 0, 0, 0, 0, 0, 0, 0, 0, 0, 0, 0, 0, 0, 0, 0, 0, 0, 0, 0, 0, 0, 0, 0, 0, 0, 0, 0, 0, 0, 0, 0, 0, 0, 0, 0, 0, 0, 0, 0, 0, 0, 0, 0, 0, 0, 0, 0, 0, 0, 0, 0, 0, 0, 0, 0, 0, 0, 0, 0, 0, 0, 0, 0, 0, 0, 0, 0, 0, 0, 0, 0, 0, 0, 0, 0, 0, 0, 0, 0, 0, 0, 0, 0, 0, 0, 0, 0, 0, 0, 0, 0, 0, 0, 0, 0, 0, 0, 0, 0, 0, 0, 0, 0, 0, 0, 0, 0, 0, 0, 0, 0, 0, 0, 0, 0, 0, 0, 0, 172, 253, 255, 255, 176, 253, 255, 255, 15, 0, 0, 0, 77, 76, 73, 82, 32, 67, 111, 110, 118, 101, 114, 116, 101, 100, 46, 0, 1, 0, 0, 0, 20, 0, 0, 0, 0, 0, 14, 0, 24, 0, 20, 0, 16, 0, 12, 0, 8, 0, 4, 0, 14, 0, 0, 0, 20, 0, 0, 0, 28, 0, 0, 0, 124, 0, 0, 0, 128, 0, 0, 0, 132, 0, 0, 0, 4, 0, 0, 0, 109, 97, 105, 110, 0, 0, 0, 0, 1, 0, 0, 0, 20, 0, 0, 0, 0, 0, 14, 0, 20, 0, 0, 0, 16, 0, 12, 0, 11, 0, 4, 0, 14, 0, 0, 0, 28, 0, 0, 0, 0, 0, 0, 2, 40, 0, 0, 0, 44, 0, 0, 0, 12, 0, 20, 0, 19, 0, 12, 0, 8, 0, 4, 0, 12, 0, 0, 0, 1, 0, 0, 0, 2, 0, 0, 0, 2, 0, 0, 0, 0, 0, 0, 1, 1, 0, 0, 0, 3, 0, 0, 0, 3, 0, 0, 0, 0, 0, 0, 0, 2, 0, 0, 0, 1, 0, 0, 0, 1, 0, 0, 0, 3, 0, 0, 0, 1, 0, 0, 0, 0, 0, 0, 0, 4, 0, 0, 0, 84, 1, 0, 0, 232, 0, 0, 0, 112, 0, 0, 0, 4, 0, 0, 0, 210, 254, 255, 255, 0, 0, 0, 1, 20, 0, 0, 0, 36, 0, 0, 0, 36, 0, 0, 0, 4, 0, 0, 0, 60, 0, 0, 0, 4, 0, 0, 0, 255, 255, 255, 255, 24, 0, 0, 0, 24, 0, 0, 0, 48, 0, 0, 0, 188, 254, 255, 255, 25, 0, 0, 0, 83, 116, 97, 116, 101, 102, 117, 108, 80, 97, 114, 116, 105, 116, 105, 111, 110, 101, 100, 67, 97, 108, 108, 58, 48, 0, 0, 0, 4, 0, 0, 0, 1, 0, 0, 0, 24, 0, 0, 0, 24, 0, 0, 0, 48, 0, 0, 0, 162, 255, 255, 255, 0, 0, 0, 1, 16, 0, 0, 0, 16, 0, 0, 0, 3, 0, 0, 0, 52, 0, 0, 0, 12, 255, 255, 255, 37, 0, 0, 0, 109, 111, 100, 101, 108, 95, 49, 50, 47, 98, 108, 111, 99, 107, 95, 49, 95, 100, 101, 112, 116, 104, 119, 105, 115, 101, 47, 100, 101, 112, 116, 104, 119, 105, 115, 101, 49, 0, 0, 0, 4, 0, 0, 0, 1, 0, 0, 0, 3, 0, 0, 0, 3, 0, 0, 0, 48, 0, 0, 0, 0, 0, 22, 0, 24, 0, 20, 0, 0, 0, 16, 0, 12, 0, 8, 0, 0, 0, 0, 0, 0, 0, 7, 0, 22, 0, 0, 0, 0, 0, 0, 1, 16, 0, 0, 0, 16, 0, 0, 0, 2, 0, 0, 0, 52, 0, 0, 0, 128, 255, 255, 255, 36, 0, 0, 0, 109, 111, 100, 101, 108, 95, 49, 50, 47, 98, 108, 111, 99, 107, 95, 49, 95, 100, 101, 112, 116, 104, 119, 105, 115, 101, 47, 100, 101, 112, 116, 104, 119, 105, 115, 101, 0, 0, 0, 0, 1, 0, 0, 0, 48, 0, 0, 0, 0, 0, 22, 0, 28, 0, 24, 0, 0, 0, 20, 0, 16, 0, 12, 0, 0, 0, 0, 0, 8, 0, 7, 0, 22, 0, 0, 0, 0, 0, 0, 1, 20, 0, 0, 0, 40, 0, 0, 0, 40, 0, 0, 0, 1, 0, 0, 0, 64, 0, 0, 0, 4, 0, 0, 0, 255, 255, 255, 255, 49, 0, 0, 0, 49, 0, 0, 0, 48, 0, 0, 0, 4, 0, 4, 0, 4, 0, 0, 0, 26, 0, 0, 0, 115, 101, 114, 118, 105, 110, 103, 95, 100, 101, 102, 97, 117, 108, 116, 95, 105, 110, 112, 117, 116, 95, 49, 51, 58, 48, 0, 0, 4, 0, 0, 0, 1, 0, 0, 0, 49, 0, 0, 0, 49, 0, 0, 0, 48, 0, 0, 0, 1, 0, 0, 0, 16, 0, 0, 0, 12, 0, 12, 0, 11, 0, 0, 0, 0, 0, 4, 0, 12, 0, 0, 0, 4, 0, 0, 0, 0, 0, 0, 4
};
