#pragma once

#include <cstdint>

const uint8_t layer_0[] = {
28, 0, 0, 0, 84, 70, 76, 51, 20, 0, 32, 0, 28, 0, 24, 0, 20, 0, 16, 0, 12, 0, 0, 0, 8, 0, 4, 0, 20, 0, 0, 0, 28, 0, 0, 0, 140, 0, 0, 0, 228, 0, 0, 0, 168, 8, 0, 0, 184, 8, 0, 0, 12, 11, 0, 0, 3, 0, 0, 0, 1, 0, 0, 0, 16, 0, 0, 0, 0, 0, 10, 0, 16, 0, 12, 0, 8, 0, 4, 0, 10, 0, 0, 0, 12, 0, 0, 0, 28, 0, 0, 0, 56, 0, 0, 0, 15, 0, 0, 0, 115, 101, 114, 118, 105, 110, 103, 95, 100, 101, 102, 97, 117, 108, 116, 0, 1, 0, 0, 0, 4, 0, 0, 0, 156, 255, 255, 255, 3, 0, 0, 0, 4, 0, 0, 0, 6, 0, 0, 0, 99, 111, 110, 118, 50, 100, 0, 0, 1, 0, 0, 0, 4, 0, 0, 0, 34, 248, 255, 255, 4, 0, 0, 0, 7, 0, 0, 0, 105, 110, 112, 117, 116, 95, 49, 0, 2, 0, 0, 0, 52, 0, 0, 0, 4, 0, 0, 0, 220, 255, 255, 255, 6, 0, 0, 0, 4, 0, 0, 0, 19, 0, 0, 0, 67, 79, 78, 86, 69, 82, 83, 73, 79, 78, 95, 77, 69, 84, 65, 68, 65, 84, 65, 0, 8, 0, 12, 0, 8, 0, 4, 0, 8, 0, 0, 0, 5, 0, 0, 0, 4, 0, 0, 0, 19, 0, 0, 0, 109, 105, 110, 95, 114, 117, 110, 116, 105, 109, 101, 95, 118, 101, 114, 115, 105, 111, 110, 0, 7, 0, 0, 0, 192, 7, 0, 0, 184, 7, 0, 0, 104, 7, 0, 0, 144, 0, 0, 0, 136, 0, 0, 0, 104, 0, 0, 0, 4, 0, 0, 0, 178, 248, 255, 255, 4, 0, 0, 0, 84, 0, 0, 0, 12, 0, 0, 0, 8, 0, 14, 0, 8, 0, 4, 0, 8, 0, 0, 0, 16, 0, 0, 0, 36, 0, 0, 0, 0, 0, 6, 0, 8, 0, 4, 0, 6, 0, 0, 0, 4, 0, 0, 0, 0, 0, 0, 0, 0, 0, 10, 0, 16, 0, 12, 0, 8, 0, 4, 0, 10, 0, 0, 0, 2, 0, 0, 0, 2, 0, 0, 0, 4, 0, 0, 0, 6, 0, 0, 0, 50, 46, 49, 53, 46, 48, 0, 0, 18, 249, 255, 255, 4, 0, 0, 0, 16, 0, 0, 0, 49, 46, 53, 46, 48, 0, 0, 0, 0, 0, 0, 0, 0, 0, 0, 0, 164, 246, 255, 255, 50, 249, 255, 255, 4, 0, 0, 0, 192, 6, 0, 0, 79, 23, 109, 61, 163, 98, 72, 60, 52, 64, 41, 190, 67, 221, 58, 62, 106, 229, 193, 189, 74, 114, 214, 61, 230, 40, 66, 62, 28, 123, 27, 190, 153, 221, 84, 58, 165, 171, 193, 188, 118, 48, 77, 61, 243, 98, 159, 61, 188, 228, 150, 61, 22, 143, 136, 188, 150, 114, 131, 61, 230, 215, 94, 190, 55, 98, 34, 188, 7, 124, 165, 61, 234, 70, 154, 60, 65, 138, 150, 61, 99, 56, 87, 61, 17, 29, 119, 190, 11, 148, 11, 190, 18, 236, 58, 62, 82, 251, 241, 189, 200, 150, 211, 61, 234, 89, 52, 190, 168, 108, 128, 190, 86, 148, 129, 189, 12, 32, 86, 190, 200, 246, 71, 190, 209, 185, 206, 187, 122, 80, 93, 189, 208, 180, 217, 61, 75, 199, 50, 62, 77, 124, 66, 190, 122, 197, 57, 62, 135, 197, 214, 61, 130, 172, 196, 61, 17, 227, 52, 61, 63, 99, 254, 189, 15, 33, 216, 188, 248, 40, 183, 60, 199, 83, 38, 189, 219, 64, 142, 61, 137, 130, 251, 189, 117, 254, 248, 60, 71, 141, 76, 62, 158, 213, 2, 190, 109, 244, 62, 60, 255, 6, 72, 62, 170, 246, 7, 60, 121, 189, 129, 59, 168, 69, 26, 62, 17, 52, 100, 62, 199, 149, 27, 190, 195, 126, 80, 190, 150, 131, 50, 62, 42, 41, 229, 189, 140, 147, 24, 61, 56, 66, 8, 62, 249, 178, 25, 190, 94, 212, 110, 61, 6, 228, 51, 62, 139, 21, 229, 61, 153, 148, 231, 189, 255, 167, 24, 62, 231, 26, 20, 190, 77, 127, 88, 189, 132, 249, 161, 189, 28, 75, 45, 190, 50, 231, 33, 62, 177, 91, 244, 61, 242, 46, 164, 189, 156, 81, 188, 188, 188, 215, 56, 61, 175, 214, 178, 188, 229, 29, 228, 187, 206, 228, 25, 62, 178, 60, 230, 61, 196, 145, 48, 190, 32, 179, 114, 190, 69, 37, 2, 189, 2, 148, 26, 62, 189, 65, 214, 61, 146, 138, 26, 62, 172, 232, 183, 186, 140, 27, 110, 189, 172, 23, 154, 61, 170, 219, 108, 62, 224, 141, 126, 187, 89, 168, 153, 61, 225, 56, 22, 62, 52, 16, 229, 187, 105, 105, 21, 62, 113, 142, 65, 62, 4, 72, 30, 61, 78, 5, 1, 62, 62, 224, 234, 61, 132, 121, 244, 189, 49, 23, 64, 190, 146, 67, 236, 189, 25, 166, 124, 189, 135, 107, 98, 61, 52, 219, 41, 62, 180, 65, 221, 61, 54, 138, 39, 190, 201, 42, 169, 189, 68, 104, 81, 62, 142, 131, 243, 188, 15, 105, 233, 189, 162, 117, 166, 61, 169, 139, 243, 188, 212, 208, 200, 189, 188, 234, 39, 62, 151, 29, 239, 188, 165, 241, 105, 189, 81, 4, 216, 189, 121, 233, 251, 189, 113, 189, 31, 190, 216, 124, 238, 189, 41, 231, 14, 189, 101, 6, 63, 62, 127, 18, 111, 189, 47, 217, 195, 189, 53, 17, 30, 62, 206, 95, 178, 189, 180, 47, 3, 190, 136, 189, 191, 61, 183, 208, 10, 62, 222, 28, 253, 189, 63, 148, 69, 62, 82, 244, 41, 61, 164, 204, 95, 189, 105, 215, 27, 189, 166, 234, 83, 61, 165, 219, 172, 61, 201, 247, 120, 62, 211, 165, 159, 189, 184, 33, 152, 189, 21, 95, 235, 189, 169, 175, 104, 61, 159, 21, 131, 189, 57, 34, 46, 190, 48, 188, 217, 61, 95, 205, 199, 60, 191, 137, 160, 62, 90, 147, 208, 60, 111, 253, 36, 188, 232, 245, 69, 190, 230, 90, 200, 189, 191, 114, 88, 61, 158, 89, 203, 61, 18, 143, 52, 61, 134, 76, 69, 62, 232, 5, 75, 189, 118, 70, 135, 61, 133, 164, 120, 189, 84, 103, 144, 190, 174, 148, 62, 189, 182, 172, 9, 190, 12, 37, 223, 188, 252, 126, 196, 61, 156, 83, 231, 188, 33, 194, 175, 189, 45, 198, 177, 189, 36, 206, 86, 190, 61, 28, 28, 190, 124, 111, 26, 189, 249, 96, 49, 60, 126, 86, 212, 189, 35, 138, 90, 61, 85, 153, 110, 189, 234, 242, 222, 188, 17, 0, 122, 189, 103, 92, 43, 62, 172, 240, 21, 60, 69, 128, 205, 60, 122, 242, 208, 61, 194, 153, 36, 190, 29, 153, 55, 190, 143, 83, 231, 189, 199, 171, 168, 189, 125, 202, 126, 61, 210, 177, 11, 190, 73, 222, 5, 61, 58, 54, 213, 60, 184, 228, 147, 189, 53, 189, 82, 190, 82, 13, 2, 62, 143, 11, 19, 62, 5, 176, 41, 62, 194, 7, 56, 190, 255, 110, 37, 189, 147, 229, 5, 62, 100, 244, 64, 60, 63, 14, 204, 189, 236, 242, 223, 189, 55, 206, 15, 190, 201, 51, 138, 189, 143, 146, 55, 190, 177, 246, 25, 62, 81, 12, 151, 61, 65, 29, 93, 62, 83, 124, 160, 189, 247, 194, 34, 62, 30, 158, 224, 187, 36, 227, 67, 61, 100, 222, 173, 61, 198, 141, 153, 189, 49, 67, 10, 190, 21, 230, 39, 190, 133, 178, 156, 60, 75, 10, 148, 188, 239, 66, 40, 62, 237, 1, 38, 61, 114, 37, 168, 61, 146, 31, 70, 187, 213, 61, 120, 189, 150, 91, 173, 189, 12, 134, 178, 189, 67, 255, 18, 190, 71, 188, 46, 190, 71, 78, 220, 186, 169, 19, 183, 189, 76, 44, 117, 190, 56, 70, 188, 189, 123, 207, 43, 61, 7, 218, 38, 189, 89, 21, 66, 190, 58, 75, 63, 190, 65, 156, 195, 61, 139, 192, 175, 189, 18, 186, 26, 189, 118, 124, 180, 188, 6, 131, 46, 62, 185, 209, 0, 62, 52, 84, 62, 62, 135, 185, 74, 188, 165, 14, 45, 62, 178, 37, 72, 59, 189, 80, 115, 62, 247, 119, 129, 62, 162, 85, 37, 190, 9, 154, 4, 62, 51, 24, 29, 62, 92, 13, 28, 62, 224, 4, 192, 188, 158, 139, 205, 189, 181, 221, 18, 190, 120, 4, 182, 61, 195, 242, 134, 188, 125, 89, 39, 62, 178, 97, 240, 189, 165, 22, 50, 61, 111, 28, 5, 190, 118, 13, 117, 189, 10, 118, 193, 61, 64, 145, 111, 190, 110, 184, 166, 61, 209, 179, 24, 62, 178, 181, 32, 190, 216, 251, 27, 190, 39, 17, 3, 189, 148, 89, 121, 61, 139, 72, 82, 62, 237, 161, 97, 62, 52, 244, 221, 189, 214, 226, 120, 189, 1, 224, 35, 190, 9, 225, 140, 62, 52, 92, 105, 190, 49, 130, 171, 189, 208, 21, 53, 62, 155, 218, 34, 190, 51, 184, 153, 189, 252, 170, 36, 190, 56, 3, 194, 61, 26, 21, 21, 61, 187, 180, 23, 62, 24, 197, 65, 190, 241, 195, 133, 61, 190, 33, 81, 189, 228, 172, 161, 190, 132, 51, 134, 189, 174, 120, 215, 61, 12, 203, 255, 61, 178, 238, 101, 61, 213, 18, 252, 188, 87, 234, 83, 190, 192, 78, 11, 59, 55, 46, 63, 61, 1, 144, 93, 189, 60, 28, 110, 189, 16, 5, 204, 188, 148, 42, 167, 189, 32, 46, 25, 62, 228, 65, 248, 187, 168, 76, 63, 190, 55, 204, 162, 189, 23, 18, 2, 61, 145, 158, 72, 190, 145, 221, 45, 190, 252, 26, 210, 61, 183, 186, 27, 188, 11, 2, 110, 61, 192, 74, 5, 61, 175, 12, 208, 61, 168, 25, 255, 61, 199, 88, 39, 62, 176, 202, 70, 190, 22, 26, 191, 59, 200, 142, 30, 62, 244, 187, 92, 61, 85, 193, 39, 61, 31, 222, 51, 60, 74, 22, 252, 61, 181, 9, 223, 189, 113, 54, 158, 189, 247, 75, 41, 61, 122, 55, 21, 190, 168, 143, 25, 62, 90, 232, 45, 189, 235, 238, 26, 190, 170, 66, 10, 190, 77, 4, 39, 62, 237, 224, 204, 188, 210, 150, 41, 62, 198, 33, 206, 60, 186, 78, 239, 61, 85, 80, 208, 61, 157, 194, 41, 62, 133, 121, 24, 190, 131, 189, 58, 190, 227, 118, 34, 190, 65, 215, 167, 189, 137, 117, 130, 189, 103, 144, 190, 61, 247, 210, 155, 189, 105, 45, 10, 61, 127, 91, 75, 189, 110, 173, 34, 190, 254, 133, 59, 62, 194, 231, 244, 61, 151, 209, 33, 61, 43, 97, 251, 189, 114, 119, 154, 188, 23, 26, 14, 190, 53, 37, 154, 189, 42, 187, 204, 61, 132, 188, 197, 61, 155, 19, 59, 61, 253, 136, 138, 61, 51, 10, 200, 60, 97, 208, 73, 61, 113, 225, 35, 62, 151, 173, 86, 62, 139, 166, 10, 62, 141, 242, 45, 61, 173, 157, 170, 61, 39, 45, 209, 61, 8, 133, 230, 189, 166, 209, 138, 190, 69, 209, 60, 190, 182, 142, 112, 61, 57, 208, 57, 62, 242, 45, 77, 62, 58, 39, 148, 188, 228, 116, 146, 61, 187, 22, 6, 190, 233, 95, 235, 189, 129, 236, 105, 190, 137, 235, 133, 61, 71, 39, 219, 189, 18, 141, 13, 190, 110, 140, 193, 189, 154, 49, 15, 190, 6, 96, 9, 62, 74, 125, 101, 62, 51, 131, 46, 61, 24, 181, 112, 189, 7, 153, 55, 190, 95, 214, 137, 190, 69, 22, 204, 188, 168, 192, 2, 190, 115, 32, 226, 189, 104, 229, 47, 62, 48, 107, 103, 61, 115, 203, 228, 61, 90, 181, 170, 61, 4, 96, 20, 183, 149, 163, 20, 59, 151, 122, 155, 189, 85, 34, 111, 190, 216, 233, 99, 190, 14, 230, 193, 60, 186, 33, 55, 62, 153, 187, 208, 189, 94, 109, 56, 190, 164, 170, 4, 61, 244, 255, 46, 62, 22, 95, 163, 61, 205, 0, 122, 61, 203, 182, 236, 61, 255, 20, 108, 61, 19, 163, 2, 61, 113, 188, 245, 61, 247, 0, 212, 61, 7, 199, 33, 62, 7, 110, 176, 188, 240, 212, 225, 189, 23, 174, 17, 190, 137, 239, 134, 61, 187, 130, 57, 62, 157, 22, 29, 186, 207, 235, 216, 61, 224, 190, 158, 188, 243, 185, 200, 187, 163, 61, 58, 62, 80, 188, 22, 62, 60, 148, 181, 189, 74, 71, 40, 62, 162, 166, 20, 190, 195, 134, 175, 189, 43, 43, 18, 190, 189, 81, 98, 189, 82, 104, 211, 189, 156, 144, 82, 190, 87, 26, 15, 188, 224, 56, 183, 188, 77, 10, 142, 190, 246, 225, 46, 190, 0, 0, 6, 0, 8, 0, 4, 0, 6, 0, 0, 0, 4, 0, 0, 0, 64, 0, 0, 0, 185, 166, 23, 60, 167, 9, 17, 188, 166, 36, 215, 189, 36, 187, 153, 189, 86, 163, 196, 61, 39, 115, 57, 189, 65, 29, 236, 61, 36, 146, 107, 189, 150, 14, 100, 61, 254, 181, 16, 61, 206, 243, 213, 187, 233, 238, 31, 189, 102, 203, 79, 60, 81, 181, 3, 189, 92, 141, 227, 60, 34, 237, 32, 61, 200, 253, 255, 255, 204, 253, 255, 255, 15, 0, 0, 0, 77, 76, 73, 82, 32, 67, 111, 110, 118, 101, 114, 116, 101, 100, 46, 0, 1, 0, 0, 0, 20, 0, 0, 0, 0, 0, 14, 0, 24, 0, 20, 0, 16, 0, 12, 0, 8, 0, 4, 0, 14, 0, 0, 0, 20, 0, 0, 0, 28, 0, 0, 0, 120, 0, 0, 0, 124, 0, 0, 0, 128, 0, 0, 0, 4, 0, 0, 0, 109, 97, 105, 110, 0, 0, 0, 0, 1, 0, 0, 0, 20, 0, 0, 0, 0, 0, 14, 0, 20, 0, 0, 0, 16, 0, 12, 0, 11, 0, 4, 0, 14, 0, 0, 0, 28, 0, 0, 0, 0, 0, 0, 1, 36, 0, 0, 0, 40, 0, 0, 0, 12, 0, 16, 0, 0, 0, 12, 0, 8, 0, 7, 0, 12, 0, 0, 0, 0, 0, 0, 1, 1, 0, 0, 0, 1, 0, 0, 0, 1, 0, 0, 0, 3, 0, 0, 0, 3, 0, 0, 0, 0, 0, 0, 0, 2, 0, 0, 0, 1, 0, 0, 0, 1, 0, 0, 0, 3, 0, 0, 0, 1, 0, 0, 0, 0, 0, 0, 0, 4, 0, 0, 0, 60, 1, 0, 0, 212, 0, 0, 0, 112, 0, 0, 0, 4, 0, 0, 0, 234, 254, 255, 255, 0, 0, 0, 1, 20, 0, 0, 0, 36, 0, 0, 0, 36, 0, 0, 0, 4, 0, 0, 0, 60, 0, 0, 0, 4, 0, 0, 0, 255, 255, 255, 255, 32, 0, 0, 0, 32, 0, 0, 0, 16, 0, 0, 0, 212, 254, 255, 255, 25, 0, 0, 0, 83, 116, 97, 116, 101, 102, 117, 108, 80, 97, 114, 116, 105, 116, 105, 111, 110, 101, 100, 67, 97, 108, 108, 58, 48, 0, 0, 0, 4, 0, 0, 0, 1, 0, 0, 0, 32, 0, 0, 0, 32, 0, 0, 0, 16, 0, 0, 0, 182, 255, 255, 255, 0, 0, 0, 1, 16, 0, 0, 0, 16, 0, 0, 0, 3, 0, 0, 0, 32, 0, 0, 0, 36, 255, 255, 255, 19, 0, 0, 0, 109, 111, 100, 101, 108, 47, 99, 111, 110, 118, 50, 100, 47, 67, 111, 110, 118, 50, 68, 0, 4, 0, 0, 0, 16, 0, 0, 0, 3, 0, 0, 0, 3, 0, 0, 0, 3, 0, 0, 0, 0, 0, 22, 0, 24, 0, 20, 0, 0, 0, 16, 0, 12, 0, 8, 0, 0, 0, 0, 0, 0, 0, 7, 0, 22, 0, 0, 0, 0, 0, 0, 1, 16, 0, 0, 0, 16, 0, 0, 0, 2, 0, 0, 0, 48, 0, 0, 0, 132, 255, 255, 255, 35, 0, 0, 0, 109, 111, 100, 101, 108, 47, 99, 111, 110, 118, 50, 100, 47, 66, 105, 97, 115, 65, 100, 100, 47, 82, 101, 97, 100, 86, 97, 114, 105, 97, 98, 108, 101, 79, 112, 0, 1, 0, 0, 0, 16, 0, 0, 0, 0, 0, 22, 0, 28, 0, 24, 0, 0, 0, 20, 0, 16, 0, 12, 0, 0, 0, 0, 0, 8, 0, 7, 0, 22, 0, 0, 0, 0, 0, 0, 1, 20, 0, 0, 0, 40, 0, 0, 0, 40, 0, 0, 0, 1, 0, 0, 0, 64, 0, 0, 0, 4, 0, 0, 0, 255, 255, 255, 255, 32, 0, 0, 0, 32, 0, 0, 0, 3, 0, 0, 0, 4, 0, 4, 0, 4, 0, 0, 0, 25, 0, 0, 0, 115, 101, 114, 118, 105, 110, 103, 95, 100, 101, 102, 97, 117, 108, 116, 95, 105, 110, 112, 117, 116, 95, 49, 58, 48, 0, 0, 0, 4, 0, 0, 0, 1, 0, 0, 0, 32, 0, 0, 0, 32, 0, 0, 0, 3, 0, 0, 0, 1, 0, 0, 0, 16, 0, 0, 0, 12, 0, 12, 0, 11, 0, 0, 0, 0, 0, 4, 0, 12, 0, 0, 0, 3, 0, 0, 0, 0, 0, 0, 3
};
