#pragma once

#include <cstdint>

const uint8_t layer_36[] = {
28, 0, 0, 0, 84, 70, 76, 51, 20, 0, 32, 0, 28, 0, 24, 0, 20, 0, 16, 0, 12, 0, 0, 0, 8, 0, 4, 0, 20, 0, 0, 0, 28, 0, 0, 0, 156, 0, 0, 0, 244, 0, 0, 0, 192, 4, 0, 0, 208, 4, 0, 0, 224, 7, 0, 0, 3, 0, 0, 0, 1, 0, 0, 0, 16, 0, 0, 0, 0, 0, 10, 0, 16, 0, 12, 0, 8, 0, 4, 0, 10, 0, 0, 0, 12, 0, 0, 0, 28, 0, 0, 0, 68, 0, 0, 0, 15, 0, 0, 0, 115, 101, 114, 118, 105, 110, 103, 95, 100, 101, 102, 97, 117, 108, 116, 0, 1, 0, 0, 0, 4, 0, 0, 0, 140, 255, 255, 255, 4, 0, 0, 0, 4, 0, 0, 0, 17, 0, 0, 0, 98, 108, 111, 99, 107, 95, 52, 95, 101, 120, 112, 97, 110, 100, 95, 66, 78, 0, 0, 0, 1, 0, 0, 0, 4, 0, 0, 0, 86, 253, 255, 255, 4, 0, 0, 0, 8, 0, 0, 0, 105, 110, 112, 117, 116, 95, 51, 56, 0, 0, 0, 0, 2, 0, 0, 0, 52, 0, 0, 0, 4, 0, 0, 0, 220, 255, 255, 255, 7, 0, 0, 0, 4, 0, 0, 0, 19, 0, 0, 0, 67, 79, 78, 86, 69, 82, 83, 73, 79, 78, 95, 77, 69, 84, 65, 68, 65, 84, 65, 0, 8, 0, 12, 0, 8, 0, 4, 0, 8, 0, 0, 0, 6, 0, 0, 0, 4, 0, 0, 0, 19, 0, 0, 0, 109, 105, 110, 95, 114, 117, 110, 116, 105, 109, 101, 95, 118, 101, 114, 115, 105, 111, 110, 0, 8, 0, 0, 0, 200, 3, 0, 0, 192, 3, 0, 0, 48, 2, 0, 0, 152, 0, 0, 0, 144, 0, 0, 0, 136, 0, 0, 0, 104, 0, 0, 0, 4, 0, 0, 0, 238, 253, 255, 255, 4, 0, 0, 0, 84, 0, 0, 0, 12, 0, 0, 0, 8, 0, 14, 0, 8, 0, 4, 0, 8, 0, 0, 0, 16, 0, 0, 0, 36, 0, 0, 0, 0, 0, 6, 0, 8, 0, 4, 0, 6, 0, 0, 0, 4, 0, 0, 0, 0, 0, 0, 0, 0, 0, 10, 0, 16, 0, 12, 0, 8, 0, 4, 0, 10, 0, 0, 0, 2, 0, 0, 0, 2, 0, 0, 0, 4, 0, 0, 0, 6, 0, 0, 0, 50, 46, 49, 53, 46, 48, 0, 0, 78, 254, 255, 255, 4, 0, 0, 0, 16, 0, 0, 0, 49, 46, 53, 46, 48, 0, 0, 0, 0, 0, 0, 0, 0, 0, 0, 0, 156, 249, 255, 255, 160, 249, 255, 255, 114, 254, 255, 255, 4, 0, 0, 0, 128, 1, 0, 0, 102, 141, 36, 64, 193, 46, 180, 62, 14, 118, 175, 63, 54, 9, 15, 191, 68, 205, 202, 63, 148, 179, 104, 63, 48, 186, 72, 64, 141, 62, 98, 64, 55, 139, 237, 190, 201, 45, 233, 63, 101, 35, 181, 63, 64, 50, 81, 63, 93, 60, 48, 64, 173, 213, 154, 64, 252, 140, 206, 189, 88, 132, 49, 191, 40, 44, 13, 64, 14, 18, 23, 64, 124, 137, 230, 62, 35, 91, 244, 189, 193, 194, 135, 190, 39, 26, 31, 64, 73, 247, 193, 63, 67, 6, 74, 63, 43, 178, 228, 63, 249, 163, 5, 64, 28, 109, 185, 63, 236, 210, 103, 63, 119, 186, 29, 61, 34, 159, 165, 188, 136, 7, 183, 63, 102, 12, 243, 63, 206, 92, 251, 63, 215, 246, 139, 63, 166, 68, 212, 63, 79, 160, 151, 190, 243, 38, 17, 64, 11, 200, 39, 64, 249, 62, 244, 62, 97, 0, 118, 63, 145, 20, 0, 63, 154, 106, 239, 63, 134, 158, 8, 64, 216, 32, 63, 63, 160, 112, 144, 63, 79, 75, 81, 64, 82, 24, 53, 64, 133, 84, 189, 63, 96, 105, 204, 63, 196, 89, 97, 63, 64, 90, 12, 62, 142, 87, 36, 191, 10, 79, 43, 64, 226, 117, 206, 63, 97, 83, 20, 64, 38, 191, 236, 63, 172, 76, 191, 189, 110, 68, 223, 63, 134, 93, 69, 63, 143, 74, 209, 63, 209, 7, 217, 63, 64, 194, 177, 63, 97, 62, 135, 63, 180, 63, 48, 64, 109, 201, 133, 63, 177, 207, 144, 63, 211, 210, 248, 63, 41, 224, 179, 190, 168, 193, 44, 64, 103, 253, 147, 63, 61, 49, 0, 64, 86, 193, 241, 190, 222, 91, 198, 190, 119, 238, 166, 63, 149, 191, 225, 62, 70, 118, 163, 63, 93, 26, 24, 64, 199, 98, 143, 64, 44, 75, 213, 63, 44, 6, 158, 191, 25, 222, 137, 63, 222, 143, 4, 192, 65, 39, 200, 190, 12, 254, 125, 62, 193, 232, 201, 63, 202, 71, 202, 63, 95, 155, 205, 63, 222, 96, 176, 63, 149, 151, 214, 63, 210, 65, 203, 63, 91, 167, 177, 63, 218, 173, 216, 63, 226, 198, 6, 64, 55, 185, 48, 64, 69, 65, 60, 192, 220, 48, 82, 64, 0, 0, 6, 0, 8, 0, 4, 0, 6, 0, 0, 0, 4, 0, 0, 0, 128, 1, 0, 0, 224, 9, 182, 62, 238, 196, 5, 63, 182, 130, 219, 62, 19, 102, 164, 63, 4, 55, 232, 62, 175, 107, 148, 62, 16, 91, 7, 63, 117, 71, 90, 63, 178, 84, 206, 62, 163, 202, 96, 62, 16, 8, 55, 63, 110, 97, 11, 63, 250, 155, 97, 63, 255, 169, 178, 62, 78, 54, 228, 62, 185, 232, 245, 62, 47, 209, 20, 63, 198, 120, 61, 62, 191, 60, 203, 62, 88, 2, 48, 63, 181, 185, 20, 63, 144, 88, 132, 62, 150, 174, 224, 62, 125, 49, 206, 62, 110, 4, 141, 62, 210, 127, 102, 63, 237, 28, 209, 62, 103, 75, 152, 62, 179, 243, 21, 63, 171, 1, 185, 62, 214, 72, 139, 62, 245, 33, 153, 62, 24, 66, 103, 62, 138, 252, 47, 63, 156, 79, 12, 63, 30, 211, 33, 63, 171, 141, 140, 62, 116, 243, 186, 62, 125, 193, 117, 63, 54, 50, 219, 62, 206, 88, 100, 63, 140, 215, 111, 62, 94, 81, 213, 62, 208, 110, 91, 62, 86, 209, 220, 62, 153, 89, 181, 62, 166, 106, 141, 62, 93, 224, 104, 62, 82, 153, 156, 62, 128, 137, 152, 62, 239, 72, 87, 63, 253, 29, 146, 63, 90, 159, 133, 62, 128, 144, 168, 62, 37, 41, 203, 62, 207, 187, 85, 62, 73, 214, 204, 62, 164, 136, 235, 62, 110, 157, 28, 63, 177, 215, 24, 63, 167, 35, 95, 62, 126, 137, 236, 62, 22, 162, 38, 63, 37, 133, 227, 62, 108, 141, 182, 62, 128, 147, 156, 62, 34, 175, 200, 62, 128, 126, 44, 63, 68, 165, 119, 62, 91, 140, 172, 62, 104, 102, 10, 63, 229, 79, 9, 63, 61, 10, 176, 62, 62, 31, 47, 63, 180, 127, 231, 62, 75, 48, 1, 63, 84, 218, 249, 61, 144, 183, 2, 63, 203, 6, 78, 62, 253, 27, 241, 62, 216, 25, 240, 62, 28, 186, 38, 63, 13, 181, 157, 62, 120, 14, 221, 62, 22, 14, 178, 62, 231, 155, 196, 62, 206, 244, 186, 62, 33, 215, 241, 62, 37, 21, 151, 62, 118, 159, 78, 63, 39, 93, 172, 62, 240, 195, 16, 63, 252, 242, 142, 62, 141, 199, 76, 62, 114, 138, 8, 63, 201, 56, 156, 62, 196, 252, 255, 255, 200, 252, 255, 255, 15, 0, 0, 0, 77, 76, 73, 82, 32, 67, 111, 110, 118, 101, 114, 116, 101, 100, 46, 0, 1, 0, 0, 0, 20, 0, 0, 0, 0, 0, 14, 0, 24, 0, 20, 0, 16, 0, 12, 0, 8, 0, 4, 0, 14, 0, 0, 0, 20, 0, 0, 0, 28, 0, 0, 0, 160, 0, 0, 0, 164, 0, 0, 0, 168, 0, 0, 0, 4, 0, 0, 0, 109, 97, 105, 110, 0, 0, 0, 0, 2, 0, 0, 0, 88, 0, 0, 0, 20, 0, 0, 0, 0, 0, 14, 0, 24, 0, 20, 0, 16, 0, 12, 0, 11, 0, 4, 0, 14, 0, 0, 0, 20, 0, 0, 0, 0, 0, 0, 11, 16, 0, 0, 0, 20, 0, 0, 0, 1, 0, 0, 0, 80, 253, 255, 255, 1, 0, 0, 0, 4, 0, 0, 0, 2, 0, 0, 0, 3, 0, 0, 0, 2, 0, 0, 0, 0, 0, 14, 0, 20, 0, 0, 0, 16, 0, 12, 0, 11, 0, 4, 0, 14, 0, 0, 0, 16, 0, 0, 0, 0, 0, 0, 21, 12, 0, 0, 0, 16, 0, 0, 0, 140, 253, 255, 255, 1, 0, 0, 0, 3, 0, 0, 0, 2, 0, 0, 0, 0, 0, 0, 0, 1, 0, 0, 0, 1, 0, 0, 0, 4, 0, 0, 0, 1, 0, 0, 0, 0, 0, 0, 0, 5, 0, 0, 0, 212, 1, 0, 0, 100, 1, 0, 0, 240, 0, 0, 0, 112, 0, 0, 0, 4, 0, 0, 0, 86, 254, 255, 255, 0, 0, 0, 1, 20, 0, 0, 0, 36, 0, 0, 0, 36, 0, 0, 0, 5, 0, 0, 0, 60, 0, 0, 0, 4, 0, 0, 0, 255, 255, 255, 255, 12, 0, 0, 0, 12, 0, 0, 0, 96, 0, 0, 0, 252, 253, 255, 255, 25, 0, 0, 0, 83, 116, 97, 116, 101, 102, 117, 108, 80, 97, 114, 116, 105, 116, 105, 111, 110, 101, 100, 67, 97, 108, 108, 58, 48, 0, 0, 0, 4, 0, 0, 0, 1, 0, 0, 0, 12, 0, 0, 0, 12, 0, 0, 0, 96, 0, 0, 0, 190, 254, 255, 255, 0, 0, 0, 1, 20, 0, 0, 0, 36, 0, 0, 0, 36, 0, 0, 0, 4, 0, 0, 0, 80, 0, 0, 0, 4, 0, 0, 0, 255, 255, 255, 255, 12, 0, 0, 0, 12, 0, 0, 0, 96, 0, 0, 0, 100, 254, 255, 255, 44, 0, 0, 0, 109, 111, 100, 101, 108, 95, 51, 54, 47, 98, 108, 111, 99, 107, 95, 52, 95, 101, 120, 112, 97, 110, 100, 95, 66, 78, 47, 70, 117, 115, 101, 100, 66, 97, 116, 99, 104, 78, 111, 114, 109, 86, 51, 50, 0, 0, 0, 0, 4, 0, 0, 0, 1, 0, 0, 0, 12, 0, 0, 0, 12, 0, 0, 0, 96, 0, 0, 0, 166, 255, 255, 255, 0, 0, 0, 1, 16, 0, 0, 0, 16, 0, 0, 0, 3, 0, 0, 0, 60, 0, 0, 0, 200, 254, 255, 255, 44, 0, 0, 0, 109, 111, 100, 101, 108, 95, 51, 54, 47, 98, 108, 111, 99, 107, 95, 52, 95, 101, 120, 112, 97, 110, 100, 95, 66, 78, 47, 70, 117, 115, 101, 100, 66, 97, 116, 99, 104, 78, 111, 114, 109, 86, 51, 49, 0, 0, 0, 0, 1, 0, 0, 0, 96, 0, 0, 0, 0, 0, 22, 0, 24, 0, 20, 0, 0, 0, 16, 0, 12, 0, 8, 0, 0, 0, 0, 0, 0, 0, 7, 0, 22, 0, 0, 0, 0, 0, 0, 1, 16, 0, 0, 0, 16, 0, 0, 0, 2, 0, 0, 0, 56, 0, 0, 0, 56, 255, 255, 255, 43, 0, 0, 0, 109, 111, 100, 101, 108, 95, 51, 54, 47, 98, 108, 111, 99, 107, 95, 52, 95, 101, 120, 112, 97, 110, 100, 95, 66, 78, 47, 70, 117, 115, 101, 100, 66, 97, 116, 99, 104, 78, 111, 114, 109, 86, 51, 0, 1, 0, 0, 0, 96, 0, 0, 0, 0, 0, 22, 0, 28, 0, 24, 0, 0, 0, 20, 0, 16, 0, 12, 0, 0, 0, 0, 0, 8, 0, 7, 0, 22, 0, 0, 0, 0, 0, 0, 1, 20, 0, 0, 0, 36, 0, 0, 0, 36, 0, 0, 0, 1, 0, 0, 0, 60, 0, 0, 0, 4, 0, 0, 0, 255, 255, 255, 255, 12, 0, 0, 0, 12, 0, 0, 0, 96, 0, 0, 0, 188, 255, 255, 255, 26, 0, 0, 0, 115, 101, 114, 118, 105, 110, 103, 95, 100, 101, 102, 97, 117, 108, 116, 95, 105, 110, 112, 117, 116, 95, 51, 56, 58, 48, 0, 0, 4, 0, 0, 0, 1, 0, 0, 0, 12, 0, 0, 0, 12, 0, 0, 0, 96, 0, 0, 0, 2, 0, 0, 0, 28, 0, 0, 0, 8, 0, 0, 0, 4, 0, 4, 0, 4, 0, 0, 0, 12, 0, 12, 0, 11, 0, 0, 0, 0, 0, 4, 0, 12, 0, 0, 0, 18, 0, 0, 0, 0, 0, 0, 18
};
