#pragma once

#include <cstdint>

const uint8_t layer_2[] = {
28, 0, 0, 0, 84, 70, 76, 51, 20, 0, 32, 0, 28, 0, 24, 0, 20, 0, 16, 0, 12, 0, 0, 0, 8, 0, 4, 0, 20, 0, 0, 0, 28, 0, 0, 0, 144, 0, 0, 0, 232, 0, 0, 0, 44, 74, 0, 0, 60, 74, 0, 0, 152, 76, 0, 0, 3, 0, 0, 0, 1, 0, 0, 0, 16, 0, 0, 0, 0, 0, 10, 0, 16, 0, 12, 0, 8, 0, 4, 0, 10, 0, 0, 0, 12, 0, 0, 0, 28, 0, 0, 0, 60, 0, 0, 0, 15, 0, 0, 0, 115, 101, 114, 118, 105, 110, 103, 95, 100, 101, 102, 97, 117, 108, 116, 0, 1, 0, 0, 0, 4, 0, 0, 0, 152, 255, 255, 255, 3, 0, 0, 0, 4, 0, 0, 0, 8, 0, 0, 0, 99, 111, 110, 118, 50, 100, 95, 49, 0, 0, 0, 0, 1, 0, 0, 0, 4, 0, 0, 0, 226, 182, 255, 255, 4, 0, 0, 0, 7, 0, 0, 0, 105, 110, 112, 117, 116, 95, 51, 0, 2, 0, 0, 0, 52, 0, 0, 0, 4, 0, 0, 0, 220, 255, 255, 255, 6, 0, 0, 0, 4, 0, 0, 0, 19, 0, 0, 0, 67, 79, 78, 86, 69, 82, 83, 73, 79, 78, 95, 77, 69, 84, 65, 68, 65, 84, 65, 0, 8, 0, 12, 0, 8, 0, 4, 0, 8, 0, 0, 0, 5, 0, 0, 0, 4, 0, 0, 0, 19, 0, 0, 0, 109, 105, 110, 95, 114, 117, 110, 116, 105, 109, 101, 95, 118, 101, 114, 115, 105, 111, 110, 0, 7, 0, 0, 0, 64, 73, 0, 0, 56, 73, 0, 0, 168, 72, 0, 0, 144, 0, 0, 0, 136, 0, 0, 0, 104, 0, 0, 0, 4, 0, 0, 0, 114, 183, 255, 255, 4, 0, 0, 0, 84, 0, 0, 0, 12, 0, 0, 0, 8, 0, 14, 0, 8, 0, 4, 0, 8, 0, 0, 0, 16, 0, 0, 0, 36, 0, 0, 0, 0, 0, 6, 0, 8, 0, 4, 0, 6, 0, 0, 0, 4, 0, 0, 0, 0, 0, 0, 0, 0, 0, 10, 0, 16, 0, 12, 0, 8, 0, 4, 0, 10, 0, 0, 0, 2, 0, 0, 0, 2, 0, 0, 0, 4, 0, 0, 0, 6, 0, 0, 0, 50, 46, 49, 53, 46, 48, 0, 0, 210, 183, 255, 255, 4, 0, 0, 0, 16, 0, 0, 0, 49, 46, 53, 46, 48, 0, 0, 0, 0, 0, 0, 0, 0, 0, 0, 0, 28, 181, 255, 255, 242, 183, 255, 255, 4, 0, 0, 0, 0, 72, 0, 0, 105, 207, 189, 189, 29, 49, 132, 61, 247, 227, 220, 189, 148, 251, 93, 61, 144, 202, 173, 189, 129, 123, 42, 61, 103, 86, 137, 189, 229, 168, 176, 61, 68, 25, 33, 61, 10, 40, 45, 190, 139, 7, 72, 190, 150, 204, 192, 61, 213, 129, 19, 61, 138, 78, 73, 62, 121, 216, 3, 61, 169, 87, 139, 61, 156, 118, 178, 189, 52, 1, 25, 189, 166, 105, 69, 190, 146, 62, 41, 62, 60, 72, 151, 188, 192, 90, 2, 62, 112, 59, 1, 62, 22, 251, 178, 60, 254, 109, 111, 189, 184, 229, 76, 190, 145, 64, 170, 189, 8, 155, 211, 61, 174, 25, 187, 61, 152, 27, 199, 61, 195, 220, 14, 190, 91, 173, 13, 62, 18, 117, 213, 61, 79, 120, 51, 59, 219, 131, 229, 189, 244, 238, 17, 62, 59, 85, 172, 61, 128, 26, 223, 60, 55, 38, 209, 188, 194, 26, 150, 188, 47, 4, 226, 61, 254, 15, 191, 189, 240, 186, 149, 61, 136, 85, 171, 61, 61, 87, 237, 59, 132, 89, 42, 188, 95, 172, 42, 189, 124, 216, 111, 62, 92, 66, 50, 190, 254, 232, 26, 190, 123, 135, 149, 188, 94, 157, 35, 61, 121, 61, 184, 61, 88, 40, 240, 60, 78, 30, 142, 60, 135, 147, 150, 189, 117, 78, 5, 62, 37, 4, 9, 190, 62, 21, 82, 189, 52, 210, 31, 190, 42, 243, 169, 60, 52, 124, 167, 61, 6, 250, 167, 60, 6, 199, 76, 189, 139, 143, 47, 190, 31, 2, 63, 190, 194, 124, 0, 190, 158, 72, 6, 190, 210, 3, 106, 61, 235, 122, 185, 60, 247, 241, 104, 62, 148, 112, 73, 190, 164, 39, 70, 61, 92, 39, 128, 190, 156, 182, 56, 188, 23, 34, 172, 189, 88, 174, 20, 61, 179, 67, 218, 59, 166, 26, 217, 189, 14, 134, 67, 61, 37, 147, 227, 189, 169, 128, 139, 189, 184, 127, 27, 190, 235, 13, 215, 189, 238, 218, 169, 59, 117, 17, 89, 187, 189, 111, 9, 62, 148, 212, 185, 189, 2, 115, 47, 62, 8, 9, 89, 190, 157, 217, 129, 61, 50, 167, 25, 190, 192, 30, 230, 189, 185, 60, 199, 59, 183, 234, 2, 190, 65, 197, 17, 62, 64, 245, 176, 61, 101, 129, 206, 59, 253, 87, 229, 189, 111, 13, 3, 190, 132, 230, 218, 60, 209, 19, 71, 62, 112, 78, 110, 61, 122, 65, 47, 188, 85, 20, 222, 61, 194, 199, 239, 189, 245, 130, 104, 189, 96, 214, 31, 190, 214, 104, 40, 190, 45, 152, 226, 188, 187, 149, 232, 188, 238, 23, 161, 61, 58, 246, 7, 61, 152, 74, 168, 187, 254, 234, 23, 190, 218, 98, 172, 189, 11, 235, 50, 62, 229, 225, 43, 62, 137, 213, 146, 188, 141, 14, 53, 190, 181, 119, 14, 62, 227, 16, 9, 190, 228, 109, 49, 190, 145, 93, 37, 190, 177, 147, 14, 190, 80, 181, 192, 185, 206, 116, 149, 189, 72, 65, 196, 61, 113, 214, 161, 189, 227, 159, 42, 60, 160, 111, 6, 190, 126, 217, 128, 189, 61, 184, 3, 62, 222, 118, 190, 60, 185, 90, 194, 187, 94, 222, 238, 189, 16, 167, 122, 188, 82, 38, 133, 190, 60, 188, 45, 61, 208, 48, 27, 190, 163, 47, 116, 189, 132, 221, 190, 59, 176, 98, 85, 61, 167, 155, 8, 62, 20, 56, 237, 61, 253, 212, 201, 188, 157, 54, 153, 189, 226, 49, 106, 189, 178, 97, 169, 61, 201, 52, 151, 189, 148, 52, 2, 62, 248, 87, 92, 61, 65, 74, 128, 62, 18, 58, 36, 61, 45, 209, 20, 189, 105, 173, 235, 189, 164, 230, 179, 59, 76, 108, 36, 61, 249, 236, 115, 189, 159, 211, 21, 62, 239, 246, 152, 188, 10, 45, 225, 61, 179, 21, 94, 189, 213, 67, 115, 61, 225, 62, 134, 62, 126, 130, 30, 190, 227, 0, 203, 188, 64, 119, 249, 189, 72, 133, 100, 187, 155, 54, 195, 61, 218, 83, 95, 189, 219, 54, 144, 188, 169, 93, 248, 188, 105, 161, 13, 61, 176, 113, 50, 60, 206, 241, 27, 187, 83, 13, 8, 190, 227, 197, 181, 61, 26, 49, 159, 60, 17, 160, 243, 189, 26, 97, 208, 189, 151, 244, 201, 188, 67, 183, 81, 190, 109, 121, 168, 189, 40, 158, 173, 189, 105, 89, 49, 189, 43, 183, 102, 190, 239, 206, 149, 188, 39, 73, 131, 188, 238, 20, 25, 61, 101, 39, 250, 59, 222, 55, 15, 190, 10, 65, 146, 62, 246, 241, 8, 62, 245, 171, 153, 61, 55, 120, 99, 61, 38, 23, 244, 61, 222, 6, 151, 61, 149, 229, 140, 61, 93, 181, 38, 189, 138, 210, 33, 62, 115, 188, 96, 60, 81, 129, 162, 189, 186, 173, 29, 62, 160, 216, 164, 188, 139, 10, 201, 189, 168, 223, 58, 62, 246, 19, 155, 61, 32, 110, 167, 61, 136, 114, 60, 61, 165, 197, 125, 61, 166, 170, 21, 188, 158, 129, 89, 62, 123, 198, 197, 189, 88, 1, 23, 62, 5, 109, 19, 61, 73, 43, 74, 190, 117, 253, 221, 189, 34, 3, 106, 190, 156, 219, 59, 62, 167, 235, 147, 189, 107, 170, 39, 189, 11, 176, 54, 190, 249, 110, 240, 189, 109, 9, 108, 188, 182, 145, 221, 188, 98, 217, 1, 189, 166, 221, 72, 188, 19, 88, 199, 188, 91, 84, 113, 189, 223, 128, 100, 59, 185, 150, 84, 60, 169, 143, 155, 189, 197, 151, 214, 61, 32, 233, 8, 190, 174, 111, 253, 61, 201, 170, 240, 189, 190, 115, 118, 188, 99, 21, 21, 62, 124, 247, 78, 188, 115, 166, 240, 61, 139, 174, 141, 61, 107, 116, 203, 188, 253, 201, 176, 188, 117, 151, 163, 62, 47, 135, 213, 61, 106, 60, 60, 189, 43, 25, 133, 188, 63, 100, 72, 188, 102, 55, 131, 62, 158, 31, 197, 61, 237, 147, 22, 61, 11, 56, 87, 190, 2, 227, 3, 61, 63, 93, 163, 188, 129, 116, 27, 60, 225, 124, 242, 60, 97, 5, 144, 61, 128, 83, 87, 61, 38, 176, 164, 61, 218, 188, 32, 62, 3, 97, 166, 59, 181, 172, 37, 62, 236, 210, 192, 189, 130, 67, 6, 60, 226, 143, 40, 190, 72, 11, 137, 190, 155, 57, 60, 61, 232, 101, 171, 187, 244, 94, 243, 188, 196, 159, 135, 189, 223, 246, 145, 61, 36, 250, 189, 189, 98, 51, 202, 188, 206, 169, 0, 61, 129, 174, 120, 187, 109, 81, 188, 189, 230, 155, 244, 60, 191, 0, 129, 189, 212, 19, 33, 190, 169, 63, 229, 189, 90, 141, 136, 62, 69, 98, 251, 189, 47, 173, 255, 59, 25, 43, 17, 190, 235, 3, 61, 189, 133, 208, 146, 189, 158, 39, 0, 189, 162, 35, 30, 190, 116, 208, 142, 60, 216, 130, 36, 188, 173, 23, 247, 59, 225, 145, 39, 62, 124, 0, 116, 61, 36, 131, 137, 62, 3, 237, 127, 188, 243, 207, 245, 189, 181, 17, 218, 60, 171, 122, 128, 190, 224, 155, 80, 62, 179, 156, 176, 61, 20, 118, 255, 60, 140, 186, 44, 189, 200, 237, 13, 61, 68, 234, 234, 189, 44, 136, 16, 189, 10, 109, 245, 61, 222, 39, 208, 189, 149, 199, 25, 61, 15, 238, 62, 62, 98, 156, 86, 62, 65, 79, 109, 189, 13, 95, 186, 188, 121, 200, 101, 189, 144, 152, 141, 190, 207, 129, 183, 189, 217, 22, 23, 190, 30, 27, 222, 61, 226, 145, 137, 62, 138, 175, 153, 189, 32, 154, 232, 189, 124, 57, 156, 58, 144, 141, 174, 189, 227, 186, 4, 190, 65, 166, 65, 62, 217, 123, 166, 60, 250, 200, 52, 189, 153, 154, 165, 61, 254, 136, 252, 189, 129, 143, 119, 190, 40, 96, 50, 190, 76, 254, 22, 61, 22, 234, 82, 61, 211, 204, 54, 62, 153, 248, 86, 62, 144, 154, 202, 60, 9, 132, 32, 190, 19, 255, 107, 189, 29, 83, 1, 189, 145, 220, 95, 61, 68, 45, 221, 61, 149, 33, 201, 61, 30, 122, 130, 189, 125, 176, 229, 189, 209, 241, 47, 190, 150, 170, 136, 60, 96, 168, 58, 190, 232, 100, 46, 189, 106, 72, 117, 189, 2, 96, 70, 62, 40, 163, 252, 189, 143, 89, 14, 189, 141, 165, 190, 190, 80, 142, 224, 61, 107, 131, 40, 189, 238, 143, 120, 61, 127, 254, 238, 60, 26, 131, 77, 189, 56, 132, 237, 189, 138, 102, 152, 61, 73, 75, 23, 190, 205, 41, 222, 188, 88, 73, 5, 189, 14, 66, 160, 189, 89, 43, 252, 188, 107, 34, 36, 62, 50, 10, 2, 62, 213, 48, 157, 190, 72, 29, 32, 190, 10, 175, 227, 60, 39, 239, 32, 62, 76, 187, 20, 190, 234, 53, 209, 189, 235, 98, 73, 61, 135, 51, 75, 190, 109, 156, 155, 188, 224, 126, 78, 189, 102, 232, 192, 60, 15, 125, 71, 190, 6, 88, 3, 62, 213, 163, 183, 188, 168, 119, 189, 189, 217, 121, 133, 62, 244, 146, 153, 190, 172, 235, 216, 189, 96, 41, 180, 189, 8, 92, 170, 188, 213, 171, 193, 61, 128, 26, 122, 188, 246, 112, 193, 61, 212, 243, 80, 61, 102, 2, 105, 61, 200, 123, 13, 190, 113, 59, 44, 188, 242, 97, 180, 189, 53, 83, 200, 61, 253, 130, 134, 188, 223, 125, 211, 61, 37, 195, 14, 62, 43, 225, 15, 62, 223, 242, 10, 189, 2, 153, 214, 189, 223, 156, 28, 190, 53, 224, 228, 61, 43, 96, 18, 62, 169, 79, 7, 62, 194, 96, 216, 189, 195, 157, 190, 61, 44, 116, 88, 190, 177, 173, 52, 190, 73, 63, 254, 189, 134, 73, 167, 189, 5, 24, 26, 60, 214, 227, 3, 61, 114, 133, 118, 61, 177, 234, 197, 60, 28, 234, 105, 189, 49, 204, 126, 59, 93, 66, 252, 60, 138, 207, 71, 189, 213, 115, 192, 189, 78, 242, 19, 62, 61, 210, 13, 190, 240, 129, 186, 189, 132, 253, 39, 190, 158, 166, 86, 61, 157, 64, 44, 190, 158, 153, 10, 190, 69, 197, 135, 190, 197, 194, 234, 189, 33, 47, 94, 61, 210, 23, 9, 61, 92, 182, 255, 61, 112, 12, 189, 188, 129, 94, 46, 62, 145, 10, 122, 189, 61, 248, 2, 62, 252, 197, 77, 190, 153, 121, 244, 189, 192, 125, 179, 189, 2, 26, 143, 189, 255, 50, 86, 60, 41, 152, 68, 189, 100, 156, 111, 188, 47, 9, 32, 189, 250, 11, 241, 61, 202, 76, 139, 60, 131, 113, 201, 187, 14, 126, 12, 189, 45, 217, 47, 190, 182, 191, 101, 60, 167, 177, 146, 185, 109, 152, 158, 189, 48, 230, 200, 188, 93, 76, 8, 190, 11, 90, 92, 61, 20, 19, 246, 188, 234, 228, 3, 62, 102, 110, 142, 189, 113, 145, 112, 61, 193, 83, 82, 190, 16, 7, 130, 188, 56, 23, 150, 189, 199, 168, 168, 189, 54, 244, 59, 189, 141, 141, 94, 60, 190, 52, 254, 61, 209, 32, 172, 60, 60, 83, 239, 60, 38, 176, 67, 189, 202, 218, 226, 61, 58, 68, 209, 189, 93, 53, 152, 61, 12, 78, 84, 62, 150, 89, 50, 190, 18, 163, 169, 189, 206, 14, 87, 190, 59, 95, 130, 61, 45, 192, 88, 189, 65, 7, 2, 190, 248, 226, 126, 62, 178, 85, 245, 60, 21, 99, 213, 61, 205, 150, 136, 188, 215, 214, 93, 62, 229, 172, 133, 189, 222, 70, 56, 62, 91, 105, 174, 189, 182, 35, 21, 62, 7, 154, 114, 62, 241, 126, 135, 189, 166, 104, 61, 189, 208, 160, 173, 189, 219, 34, 223, 61, 102, 179, 197, 61, 91, 0, 143, 189, 201, 50, 128, 62, 247, 38, 190, 189, 83, 67, 144, 61, 235, 36, 61, 188, 100, 226, 98, 62, 106, 242, 64, 190, 52, 189, 170, 189, 239, 130, 202, 189, 125, 9, 125, 61, 80, 172, 135, 62, 17, 218, 140, 189, 158, 62, 122, 61, 231, 104, 93, 188, 153, 245, 36, 60, 43, 111, 6, 189, 105, 159, 25, 61, 33, 73, 3, 62, 245, 230, 32, 190, 178, 5, 226, 61, 229, 218, 59, 61, 213, 194, 32, 62, 15, 213, 71, 59, 55, 109, 62, 189, 38, 232, 18, 190, 74, 102, 186, 61, 184, 196, 30, 62, 128, 132, 87, 61, 5, 122, 155, 60, 31, 204, 165, 189, 110, 63, 240, 187, 67, 100, 4, 62, 100, 19, 178, 189, 229, 240, 207, 188, 244, 214, 223, 189, 83, 80, 141, 188, 171, 165, 7, 190, 51, 239, 189, 61, 137, 222, 132, 61, 139, 142, 9, 190, 173, 128, 42, 189, 128, 243, 135, 60, 254, 9, 8, 62, 29, 95, 6, 187, 203, 75, 237, 61, 20, 95, 188, 187, 121, 124, 185, 189, 116, 253, 44, 62, 9, 155, 25, 188, 56, 16, 35, 61, 144, 206, 2, 62, 209, 132, 175, 59, 124, 223, 6, 189, 215, 211, 194, 61, 122, 91, 229, 60, 120, 60, 206, 61, 4, 248, 180, 189, 68, 157, 170, 189, 180, 239, 184, 187, 60, 248, 11, 190, 153, 41, 4, 189, 25, 223, 231, 189, 81, 170, 244, 60, 152, 69, 200, 61, 135, 49, 68, 189, 59, 178, 236, 188, 140, 47, 18, 62, 30, 248, 245, 189, 133, 110, 186, 61, 113, 209, 172, 61, 86, 84, 146, 62, 246, 226, 102, 189, 143, 129, 206, 61, 243, 249, 231, 189, 218, 156, 217, 59, 96, 139, 150, 189, 95, 220, 220, 189, 160, 154, 180, 189, 113, 102, 24, 190, 221, 163, 59, 62, 100, 38, 156, 190, 252, 180, 226, 189, 236, 73, 53, 190, 78, 142, 171, 188, 106, 87, 200, 61, 28, 144, 22, 190, 79, 147, 190, 189, 76, 68, 75, 189, 188, 166, 198, 61, 141, 233, 227, 188, 48, 123, 132, 188, 73, 253, 10, 190, 183, 32, 246, 60, 223, 127, 104, 186, 144, 234, 224, 61, 155, 234, 162, 188, 63, 7, 129, 62, 47, 42, 24, 188, 235, 237, 243, 189, 25, 226, 129, 189, 95, 203, 3, 188, 180, 250, 57, 189, 136, 99, 149, 188, 33, 50, 37, 62, 241, 80, 202, 61, 140, 213, 252, 189, 213, 16, 10, 189, 174, 7, 156, 187, 79, 85, 145, 61, 207, 58, 68, 61, 200, 80, 195, 61, 63, 123, 189, 189, 84, 72, 3, 62, 224, 25, 181, 188, 49, 153, 45, 190, 226, 69, 209, 61, 232, 249, 178, 189, 163, 159, 198, 189, 203, 10, 217, 61, 23, 210, 201, 61, 169, 242, 193, 188, 170, 102, 168, 189, 91, 156, 203, 61, 66, 35, 13, 62, 193, 32, 10, 62, 225, 154, 33, 62, 200, 58, 59, 62, 241, 120, 247, 189, 53, 49, 199, 61, 93, 145, 245, 189, 7, 130, 42, 189, 214, 100, 208, 189, 164, 156, 8, 190, 32, 228, 86, 55, 110, 120, 235, 60, 163, 136, 89, 62, 76, 101, 157, 61, 86, 183, 24, 189, 243, 234, 224, 189, 102, 208, 34, 60, 180, 70, 226, 60, 231, 250, 117, 62, 109, 185, 245, 61, 28, 211, 51, 190, 85, 234, 94, 189, 220, 159, 181, 189, 214, 44, 93, 189, 76, 118, 118, 189, 112, 5, 64, 190, 89, 232, 143, 61, 246, 254, 142, 189, 215, 162, 14, 62, 163, 63, 176, 186, 102, 212, 213, 60, 97, 236, 18, 61, 254, 22, 19, 189, 86, 135, 42, 62, 44, 47, 232, 61, 191, 94, 29, 62, 5, 197, 46, 188, 126, 70, 62, 59, 95, 15, 133, 61, 13, 5, 227, 61, 48, 229, 173, 61, 57, 226, 124, 190, 144, 161, 2, 62, 133, 198, 170, 189, 0, 212, 21, 62, 239, 120, 216, 189, 29, 88, 10, 61, 38, 123, 110, 190, 172, 161, 31, 190, 44, 246, 147, 61, 75, 234, 212, 59, 120, 126, 185, 58, 152, 148, 19, 61, 193, 3, 64, 189, 208, 162, 62, 60, 117, 168, 83, 188, 52, 230, 155, 188, 218, 81, 82, 190, 215, 127, 157, 61, 163, 117, 10, 60, 68, 35, 144, 61, 222, 4, 181, 189, 138, 156, 6, 62, 117, 218, 158, 60, 145, 7, 142, 61, 184, 171, 236, 61, 229, 214, 57, 189, 177, 16, 139, 60, 223, 107, 196, 61, 215, 94, 161, 189, 183, 241, 142, 189, 5, 33, 140, 61, 105, 224, 175, 188, 138, 181, 64, 190, 12, 231, 79, 61, 140, 183, 189, 61, 92, 34, 238, 61, 37, 24, 143, 60, 96, 5, 70, 188, 119, 207, 13, 190, 55, 237, 25, 189, 112, 56, 82, 189, 199, 126, 4, 62, 102, 80, 128, 61, 66, 202, 221, 61, 112, 195, 210, 60, 56, 174, 151, 60, 93, 42, 156, 61, 181, 85, 183, 187, 103, 213, 55, 188, 210, 148, 209, 60, 222, 224, 228, 60, 164, 48, 142, 60, 46, 167, 52, 189, 210, 118, 209, 60, 84, 107, 23, 190, 214, 114, 200, 60, 88, 107, 131, 189, 48, 99, 199, 61, 187, 62, 126, 61, 229, 170, 214, 61, 151, 94, 0, 190, 206, 55, 118, 187, 89, 186, 199, 61, 26, 84, 155, 189, 39, 140, 190, 189, 14, 3, 81, 60, 55, 150, 223, 188, 180, 197, 210, 61, 113, 204, 0, 190, 88, 144, 20, 61, 4, 95, 72, 187, 244, 255, 136, 189, 231, 102, 22, 190, 132, 206, 174, 189, 55, 246, 160, 188, 62, 221, 144, 61, 174, 73, 198, 61, 12, 186, 27, 189, 185, 75, 33, 61, 244, 76, 206, 60, 56, 239, 36, 61, 4, 229, 34, 62, 71, 229, 173, 188, 238, 44, 204, 188, 168, 198, 30, 189, 5, 29, 233, 61, 21, 127, 45, 190, 202, 61, 226, 189, 142, 15, 164, 189, 100, 53, 24, 189, 215, 235, 250, 189, 43, 93, 66, 61, 70, 19, 249, 61, 112, 252, 240, 61, 211, 39, 76, 189, 117, 56, 147, 189, 236, 187, 2, 190, 203, 47, 164, 61, 134, 176, 76, 61, 178, 16, 25, 62, 197, 126, 143, 189, 13, 107, 73, 189, 67, 97, 106, 189, 128, 117, 191, 189, 2, 153, 28, 189, 148, 223, 1, 189, 113, 179, 234, 189, 15, 175, 65, 189, 211, 221, 159, 61, 127, 14, 34, 62, 135, 117, 65, 62, 98, 86, 57, 189, 9, 70, 63, 61, 190, 3, 75, 188, 23, 251, 150, 189, 250, 20, 17, 62, 10, 203, 16, 61, 249, 26, 0, 62, 155, 29, 191, 188, 166, 167, 22, 189, 5, 230, 7, 61, 138, 146, 192, 60, 193, 241, 22, 190, 74, 203, 169, 61, 176, 191, 118, 59, 91, 43, 30, 62, 222, 53, 22, 62, 97, 173, 128, 61, 75, 85, 217, 189, 167, 204, 116, 188, 138, 190, 111, 61, 2, 13, 0, 59, 57, 197, 160, 188, 69, 2, 21, 62, 123, 96, 172, 61, 134, 199, 26, 190, 184, 218, 104, 60, 3, 173, 31, 190, 8, 170, 214, 189, 127, 40, 190, 60, 154, 53, 246, 61, 144, 230, 44, 62, 33, 102, 46, 62, 102, 4, 93, 189, 180, 88, 160, 61, 109, 177, 49, 189, 89, 214, 174, 189, 172, 254, 167, 188, 73, 229, 97, 189, 115, 60, 164, 61, 61, 209, 27, 61, 157, 112, 83, 60, 184, 52, 26, 189, 18, 176, 26, 190, 90, 7, 109, 189, 43, 180, 76, 61, 176, 105, 169, 61, 168, 176, 149, 61, 252, 87, 174, 189, 31, 196, 239, 189, 34, 115, 169, 60, 24, 222, 169, 188, 67, 116, 125, 59, 175, 106, 228, 189, 214, 162, 153, 61, 113, 165, 3, 190, 16, 164, 40, 62, 18, 241, 95, 188, 188, 114, 113, 190, 77, 155, 216, 189, 119, 195, 23, 189, 35, 130, 106, 190, 182, 125, 247, 189, 0, 124, 245, 61, 163, 146, 64, 59, 236, 210, 140, 189, 186, 229, 147, 61, 211, 132, 6, 189, 211, 2, 74, 190, 135, 45, 31, 189, 38, 242, 66, 60, 108, 72, 69, 190, 170, 170, 247, 61, 168, 112, 167, 61, 148, 16, 153, 190, 154, 106, 165, 189, 166, 237, 213, 189, 89, 101, 163, 189, 153, 6, 179, 59, 139, 83, 51, 61, 152, 24, 215, 189, 182, 195, 151, 61, 80, 100, 47, 60, 173, 192, 162, 61, 239, 211, 191, 189, 30, 112, 65, 61, 185, 59, 105, 61, 193, 174, 221, 189, 29, 220, 12, 62, 159, 41, 242, 188, 31, 216, 106, 190, 102, 3, 164, 189, 156, 215, 11, 60, 34, 17, 30, 189, 249, 7, 30, 61, 118, 144, 21, 62, 7, 211, 131, 61, 139, 17, 183, 189, 56, 48, 249, 60, 160, 219, 32, 62, 151, 118, 139, 188, 234, 82, 48, 190, 28, 43, 141, 59, 147, 67, 148, 60, 228, 235, 50, 189, 108, 138, 9, 189, 62, 98, 82, 189, 15, 87, 105, 189, 179, 52, 179, 61, 220, 4, 141, 189, 220, 74, 16, 190, 95, 10, 54, 62, 39, 12, 217, 189, 19, 236, 212, 61, 6, 214, 185, 60, 20, 39, 239, 61, 230, 36, 65, 189, 201, 16, 16, 190, 62, 109, 134, 61, 68, 35, 26, 62, 34, 220, 60, 61, 21, 21, 16, 190, 19, 174, 88, 188, 49, 104, 205, 61, 79, 70, 178, 189, 96, 168, 36, 62, 119, 91, 126, 189, 230, 180, 173, 189, 139, 53, 185, 61, 155, 55, 49, 189, 71, 66, 224, 59, 214, 208, 61, 61, 121, 131, 209, 189, 31, 76, 218, 189, 106, 82, 189, 189, 213, 60, 11, 190, 52, 232, 98, 189, 30, 75, 2, 190, 194, 202, 203, 189, 38, 197, 153, 189, 82, 56, 23, 62, 141, 174, 135, 61, 101, 141, 168, 189, 161, 117, 246, 185, 243, 171, 200, 61, 30, 68, 239, 61, 61, 189, 83, 188, 125, 33, 16, 62, 130, 47, 206, 61, 123, 215, 185, 61, 183, 57, 162, 189, 34, 238, 189, 184, 40, 164, 121, 62, 131, 59, 14, 189, 92, 25, 20, 62, 125, 54, 226, 61, 84, 12, 237, 187, 252, 96, 185, 61, 209, 154, 195, 189, 236, 116, 21, 62, 206, 186, 53, 190, 159, 92, 210, 61, 229, 183, 11, 190, 205, 210, 92, 61, 12, 7, 11, 61, 202, 13, 219, 189, 223, 26, 168, 188, 159, 206, 49, 189, 233, 54, 236, 61, 66, 48, 104, 190, 46, 69, 42, 60, 95, 54, 244, 60, 250, 82, 67, 188, 13, 170, 195, 60, 250, 14, 187, 59, 159, 128, 166, 189, 104, 173, 141, 188, 132, 108, 205, 61, 247, 31, 227, 60, 20, 110, 241, 61, 253, 225, 125, 189, 24, 232, 122, 189, 246, 10, 44, 61, 174, 68, 105, 61, 138, 7, 41, 61, 132, 125, 250, 189, 64, 166, 10, 190, 159, 188, 242, 61, 91, 30, 89, 59, 115, 175, 4, 62, 105, 102, 163, 60, 89, 32, 250, 188, 124, 155, 47, 190, 116, 113, 1, 61, 209, 156, 133, 189, 235, 236, 8, 61, 208, 67, 142, 61, 165, 131, 46, 61, 155, 226, 172, 189, 17, 37, 199, 189, 17, 116, 140, 61, 147, 223, 75, 189, 33, 207, 135, 186, 144, 102, 63, 62, 68, 186, 78, 187, 199, 45, 242, 188, 113, 57, 60, 189, 208, 53, 207, 61, 195, 209, 234, 59, 106, 137, 188, 61, 90, 33, 207, 187, 93, 123, 93, 61, 235, 69, 236, 61, 111, 94, 9, 189, 51, 208, 189, 189, 129, 214, 86, 189, 49, 246, 69, 61, 108, 37, 30, 190, 245, 15, 225, 59, 181, 191, 240, 61, 171, 240, 70, 188, 83, 182, 35, 62, 104, 229, 4, 190, 207, 83, 243, 61, 52, 30, 182, 59, 133, 7, 95, 189, 30, 94, 125, 60, 204, 3, 128, 189, 173, 74, 27, 190, 49, 216, 250, 189, 24, 41, 57, 188, 255, 168, 197, 186, 80, 133, 200, 189, 59, 154, 46, 190, 54, 43, 44, 189, 146, 131, 11, 62, 69, 247, 150, 189, 35, 0, 211, 189, 192, 219, 54, 190, 20, 247, 115, 61, 80, 149, 197, 60, 150, 119, 242, 189, 180, 85, 213, 61, 159, 61, 175, 59, 251, 226, 178, 188, 119, 150, 109, 188, 71, 241, 45, 61, 138, 170, 69, 61, 74, 132, 107, 189, 129, 0, 187, 61, 232, 136, 206, 61, 147, 179, 0, 62, 110, 43, 25, 188, 137, 44, 110, 61, 119, 152, 87, 61, 109, 141, 191, 61, 130, 17, 239, 60, 22, 42, 191, 189, 220, 90, 89, 61, 242, 186, 57, 190, 2, 113, 121, 189, 21, 146, 143, 190, 196, 166, 142, 189, 214, 108, 235, 189, 15, 29, 169, 61, 51, 124, 8, 61, 24, 86, 130, 189, 22, 226, 149, 61, 73, 206, 231, 59, 44, 238, 63, 61, 113, 240, 7, 190, 81, 236, 122, 60, 233, 68, 215, 59, 137, 240, 216, 189, 123, 165, 109, 61, 218, 187, 223, 61, 172, 65, 87, 60, 21, 236, 83, 190, 244, 142, 232, 189, 167, 255, 79, 61, 145, 84, 63, 60, 74, 216, 209, 189, 216, 58, 153, 61, 15, 146, 222, 61, 95, 192, 133, 61, 38, 205, 20, 190, 221, 126, 135, 60, 122, 104, 151, 62, 181, 16, 111, 190, 214, 177, 7, 190, 7, 217, 222, 188, 220, 234, 193, 189, 62, 35, 50, 189, 174, 120, 171, 189, 215, 71, 227, 60, 78, 15, 172, 189, 40, 94, 97, 62, 168, 48, 147, 188, 169, 43, 118, 190, 255, 238, 90, 62, 37, 244, 142, 188, 25, 210, 77, 189, 210, 60, 245, 189, 109, 44, 190, 61, 102, 207, 180, 61, 30, 42, 238, 189, 159, 102, 70, 187, 235, 94, 161, 188, 88, 4, 169, 189, 63, 75, 166, 190, 224, 78, 43, 61, 100, 137, 223, 61, 17, 133, 140, 61, 51, 15, 115, 61, 237, 174, 163, 189, 28, 75, 106, 62, 236, 95, 39, 190, 160, 109, 59, 189, 88, 228, 124, 61, 222, 135, 30, 62, 12, 255, 152, 61, 198, 109, 159, 61, 117, 57, 1, 61, 36, 171, 245, 187, 137, 149, 246, 188, 10, 118, 62, 59, 116, 230, 73, 61, 175, 23, 133, 62, 239, 196, 82, 61, 67, 214, 35, 61, 81, 10, 183, 188, 147, 112, 37, 62, 26, 61, 224, 189, 250, 14, 196, 61, 12, 62, 174, 189, 159, 14, 72, 61, 20, 244, 184, 187, 13, 187, 192, 189, 217, 29, 91, 188, 202, 25, 8, 190, 241, 113, 143, 61, 76, 151, 123, 190, 26, 66, 170, 189, 216, 19, 74, 60, 223, 193, 6, 189, 197, 117, 51, 61, 78, 90, 6, 188, 229, 230, 113, 62, 91, 190, 101, 60, 234, 213, 15, 62, 102, 64, 4, 190, 93, 163, 7, 61, 91, 174, 25, 62, 168, 132, 122, 189, 201, 87, 128, 189, 3, 184, 53, 61, 218, 143, 74, 189, 178, 184, 142, 190, 181, 132, 189, 61, 158, 135, 59, 62, 140, 45, 48, 60, 53, 144, 190, 61, 96, 146, 36, 62, 43, 232, 91, 62, 231, 189, 59, 190, 210, 110, 202, 61, 126, 117, 233, 189, 198, 103, 196, 61, 136, 246, 176, 59, 254, 30, 0, 62, 154, 174, 253, 187, 252, 140, 52, 59, 6, 65, 244, 188, 143, 122, 22, 190, 44, 86, 173, 60, 120, 235, 20, 190, 225, 5, 143, 61, 133, 247, 101, 189, 114, 182, 192, 61, 73, 32, 202, 60, 221, 10, 237, 189, 176, 202, 46, 190, 255, 252, 243, 61, 103, 21, 73, 62, 168, 127, 233, 61, 31, 123, 174, 61, 175, 164, 6, 62, 7, 156, 55, 189, 25, 146, 58, 190, 200, 15, 30, 190, 33, 161, 75, 190, 172, 77, 14, 60, 103, 182, 115, 61, 97, 99, 26, 190, 14, 184, 57, 189, 6, 127, 118, 189, 235, 159, 106, 61, 214, 42, 2, 190, 12, 70, 135, 188, 175, 53, 100, 61, 179, 242, 138, 189, 159, 100, 233, 61, 134, 231, 50, 189, 216, 138, 248, 189, 178, 213, 69, 190, 177, 76, 51, 190, 173, 32, 47, 61, 45, 74, 187, 188, 136, 208, 31, 61, 223, 88, 2, 190, 185, 73, 60, 61, 117, 84, 43, 189, 2, 187, 140, 61, 184, 84, 5, 187, 179, 215, 163, 189, 235, 140, 41, 62, 8, 81, 212, 189, 96, 174, 219, 61, 230, 158, 151, 61, 189, 50, 96, 60, 181, 161, 186, 188, 7, 255, 84, 190, 85, 236, 204, 188, 212, 145, 213, 188, 162, 15, 5, 190, 170, 95, 176, 190, 82, 142, 191, 61, 85, 27, 28, 189, 79, 71, 213, 188, 26, 151, 130, 61, 94, 49, 108, 190, 189, 108, 195, 62, 103, 230, 66, 190, 146, 70, 31, 60, 10, 116, 140, 61, 22, 160, 20, 189, 130, 201, 179, 61, 206, 4, 90, 190, 10, 54, 206, 189, 196, 236, 13, 190, 240, 245, 231, 61, 197, 47, 224, 189, 120, 129, 232, 189, 243, 29, 130, 189, 236, 191, 163, 189, 215, 183, 31, 190, 123, 146, 19, 188, 34, 231, 108, 62, 220, 159, 96, 190, 234, 0, 1, 61, 140, 77, 11, 189, 177, 248, 43, 62, 117, 142, 182, 188, 173, 91, 222, 188, 248, 41, 179, 189, 166, 26, 200, 61, 106, 112, 208, 60, 238, 183, 237, 189, 47, 12, 177, 189, 89, 246, 159, 189, 229, 1, 107, 187, 129, 174, 14, 61, 29, 167, 235, 188, 207, 173, 255, 61, 23, 226, 5, 60, 137, 169, 29, 62, 234, 149, 202, 61, 0, 219, 72, 62, 78, 65, 130, 188, 245, 107, 101, 60, 201, 230, 2, 190, 212, 7, 153, 61, 141, 182, 30, 62, 48, 4, 152, 189, 148, 36, 8, 189, 159, 212, 205, 189, 38, 157, 73, 189, 251, 91, 36, 62, 80, 200, 216, 189, 90, 43, 151, 61, 24, 110, 5, 190, 81, 86, 3, 190, 40, 105, 239, 188, 241, 201, 166, 60, 114, 5, 101, 62, 248, 178, 136, 61, 106, 117, 51, 189, 5, 182, 49, 62, 28, 179, 50, 62, 126, 212, 163, 189, 57, 105, 180, 60, 23, 161, 20, 62, 134, 179, 79, 61, 172, 70, 52, 62, 111, 132, 29, 190, 37, 247, 65, 62, 42, 229, 116, 189, 179, 76, 177, 189, 11, 46, 228, 189, 193, 110, 90, 62, 226, 178, 28, 61, 68, 163, 171, 189, 67, 103, 128, 189, 6, 71, 72, 62, 212, 183, 29, 189, 150, 244, 144, 190, 204, 104, 219, 61, 147, 120, 25, 189, 253, 183, 32, 189, 214, 224, 166, 60, 183, 92, 144, 61, 232, 79, 153, 62, 209, 124, 165, 189, 163, 75, 147, 189, 209, 49, 172, 189, 10, 159, 35, 62, 109, 95, 178, 61, 43, 8, 154, 189, 246, 203, 71, 61, 35, 77, 183, 187, 117, 41, 125, 189, 167, 164, 24, 189, 136, 222, 101, 189, 200, 128, 14, 190, 147, 111, 125, 61, 193, 132, 79, 62, 40, 160, 145, 189, 12, 122, 91, 61, 91, 23, 13, 60, 127, 65, 47, 186, 213, 141, 82, 61, 73, 160, 174, 60, 5, 90, 146, 189, 193, 180, 169, 61, 57, 123, 210, 189, 21, 109, 211, 60, 218, 162, 2, 190, 206, 183, 176, 189, 55, 58, 41, 60, 199, 139, 38, 189, 34, 248, 223, 189, 255, 18, 218, 188, 53, 58, 161, 61, 96, 161, 255, 188, 122, 146, 39, 61, 120, 99, 94, 61, 76, 167, 244, 189, 51, 213, 77, 61, 59, 126, 68, 55, 210, 78, 37, 61, 195, 60, 197, 189, 178, 95, 8, 189, 81, 146, 201, 189, 100, 29, 199, 189, 160, 28, 35, 188, 56, 24, 113, 188, 46, 29, 162, 187, 39, 166, 104, 189, 137, 42, 2, 189, 248, 165, 91, 189, 7, 249, 171, 189, 59, 75, 196, 61, 205, 199, 195, 189, 136, 22, 137, 61, 43, 130, 21, 62, 114, 21, 70, 188, 133, 5, 98, 190, 114, 108, 118, 189, 5, 46, 13, 190, 224, 38, 182, 189, 25, 173, 100, 60, 127, 78, 18, 189, 48, 105, 13, 189, 117, 101, 33, 188, 214, 8, 171, 61, 100, 239, 225, 61, 242, 93, 215, 59, 123, 114, 233, 61, 121, 139, 150, 60, 55, 165, 143, 61, 37, 203, 161, 189, 43, 213, 156, 61, 57, 43, 108, 61, 138, 68, 27, 62, 108, 152, 8, 190, 12, 45, 204, 189, 159, 6, 2, 62, 188, 250, 139, 61, 188, 217, 103, 61, 135, 227, 200, 61, 198, 246, 209, 61, 67, 220, 209, 61, 187, 240, 32, 189, 18, 148, 183, 61, 66, 183, 4, 190, 168, 105, 221, 61, 222, 102, 38, 190, 8, 216, 9, 62, 151, 35, 48, 190, 149, 61, 54, 62, 108, 34, 46, 190, 109, 156, 239, 189, 126, 165, 6, 61, 231, 96, 185, 188, 18, 239, 165, 189, 137, 223, 167, 60, 137, 184, 157, 61, 5, 53, 47, 60, 101, 71, 171, 189, 181, 121, 198, 61, 190, 164, 201, 189, 51, 4, 9, 62, 18, 166, 135, 60, 168, 208, 205, 61, 241, 5, 70, 190, 154, 172, 165, 60, 204, 182, 70, 190, 20, 77, 185, 188, 77, 244, 188, 61, 234, 59, 17, 62, 21, 56, 161, 61, 229, 45, 139, 61, 225, 240, 251, 184, 184, 42, 128, 189, 20, 178, 139, 60, 160, 119, 94, 188, 197, 98, 174, 61, 175, 96, 163, 61, 9, 35, 43, 189, 132, 104, 5, 190, 47, 19, 4, 62, 239, 73, 233, 188, 51, 154, 229, 188, 198, 238, 52, 190, 135, 224, 157, 61, 133, 24, 195, 61, 56, 185, 223, 189, 53, 156, 80, 188, 101, 181, 136, 61, 195, 25, 219, 189, 224, 65, 249, 61, 138, 53, 67, 189, 173, 34, 16, 61, 3, 249, 255, 189, 240, 79, 58, 190, 208, 45, 188, 60, 254, 236, 77, 188, 185, 88, 39, 184, 4, 93, 152, 61, 158, 222, 83, 190, 195, 39, 85, 189, 234, 32, 16, 62, 155, 242, 90, 61, 238, 252, 77, 61, 203, 219, 107, 188, 70, 165, 45, 61, 124, 159, 134, 188, 4, 123, 188, 60, 248, 116, 213, 188, 130, 227, 217, 189, 148, 25, 204, 189, 203, 82, 37, 189, 230, 41, 89, 61, 28, 115, 16, 62, 60, 227, 4, 61, 121, 23, 36, 190, 42, 173, 214, 188, 52, 193, 243, 60, 54, 185, 6, 61, 124, 255, 202, 61, 94, 145, 139, 189, 109, 148, 13, 61, 28, 32, 35, 189, 224, 59, 119, 61, 94, 43, 167, 61, 94, 221, 42, 189, 254, 192, 138, 189, 14, 177, 89, 189, 183, 147, 185, 189, 119, 45, 4, 61, 104, 236, 15, 190, 224, 164, 20, 190, 255, 249, 108, 189, 112, 235, 73, 61, 176, 15, 174, 189, 84, 102, 67, 189, 28, 239, 219, 61, 54, 80, 171, 62, 241, 88, 155, 61, 191, 56, 157, 188, 174, 118, 5, 62, 15, 22, 211, 61, 65, 17, 121, 190, 203, 84, 50, 60, 233, 15, 244, 189, 33, 81, 229, 61, 133, 131, 110, 189, 238, 66, 170, 189, 254, 246, 61, 61, 207, 28, 56, 190, 133, 29, 79, 188, 82, 96, 181, 189, 2, 152, 154, 189, 85, 210, 61, 61, 207, 92, 162, 189, 101, 65, 37, 189, 169, 25, 97, 61, 252, 248, 174, 189, 199, 74, 153, 189, 154, 5, 93, 60, 50, 150, 248, 60, 221, 87, 120, 189, 251, 36, 32, 190, 25, 176, 147, 190, 4, 248, 57, 60, 248, 47, 74, 190, 66, 159, 11, 60, 49, 123, 129, 190, 63, 178, 23, 62, 145, 66, 112, 62, 240, 177, 187, 61, 113, 22, 1, 62, 246, 201, 175, 61, 207, 15, 28, 62, 178, 63, 47, 190, 34, 220, 170, 61, 111, 37, 166, 189, 52, 241, 52, 62, 255, 131, 203, 60, 250, 114, 65, 190, 122, 249, 37, 61, 103, 214, 51, 61, 168, 57, 20, 190, 159, 209, 49, 189, 101, 224, 3, 189, 30, 200, 139, 62, 185, 100, 41, 190, 177, 184, 66, 189, 64, 69, 243, 61, 125, 206, 197, 60, 102, 118, 91, 187, 210, 141, 145, 61, 58, 232, 132, 188, 156, 193, 106, 189, 56, 51, 99, 61, 164, 129, 147, 190, 178, 192, 34, 60, 252, 31, 98, 190, 116, 101, 170, 189, 181, 17, 243, 188, 188, 140, 129, 189, 188, 64, 217, 61, 204, 94, 182, 189, 46, 16, 150, 189, 21, 56, 130, 189, 255, 130, 66, 62, 234, 252, 172, 189, 73, 112, 237, 189, 168, 153, 143, 189, 89, 188, 237, 61, 149, 34, 155, 188, 53, 202, 44, 189, 41, 48, 138, 61, 202, 162, 73, 190, 65, 110, 249, 60, 69, 140, 147, 189, 9, 143, 164, 61, 53, 151, 227, 62, 21, 102, 166, 190, 30, 0, 226, 60, 175, 122, 224, 59, 148, 210, 71, 61, 137, 46, 89, 62, 201, 7, 232, 187, 2, 134, 40, 190, 175, 216, 162, 189, 188, 110, 3, 61, 163, 3, 184, 60, 15, 225, 21, 61, 241, 198, 135, 61, 110, 109, 17, 61, 113, 48, 224, 189, 224, 67, 152, 60, 10, 216, 154, 60, 170, 245, 165, 189, 16, 245, 204, 60, 83, 70, 2, 190, 28, 34, 195, 61, 136, 14, 166, 189, 69, 74, 27, 59, 208, 225, 138, 189, 33, 205, 142, 62, 7, 166, 150, 189, 159, 28, 88, 61, 83, 206, 210, 189, 39, 215, 255, 187, 6, 176, 107, 59, 31, 168, 178, 61, 148, 162, 158, 61, 74, 173, 171, 189, 123, 83, 96, 188, 137, 177, 9, 62, 223, 214, 91, 61, 196, 224, 247, 61, 89, 122, 80, 187, 236, 4, 142, 60, 99, 171, 57, 190, 58, 57, 4, 62, 111, 95, 211, 189, 198, 207, 117, 190, 12, 119, 23, 62, 121, 188, 68, 190, 18, 183, 132, 188, 137, 228, 160, 189, 185, 116, 97, 189, 193, 68, 1, 189, 32, 144, 106, 189, 101, 70, 31, 62, 217, 218, 86, 189, 185, 29, 161, 188, 170, 39, 169, 189, 68, 222, 71, 189, 200, 126, 21, 60, 37, 231, 45, 188, 164, 115, 246, 189, 67, 191, 133, 190, 146, 221, 226, 189, 4, 222, 43, 62, 234, 106, 120, 61, 118, 254, 79, 62, 44, 160, 128, 189, 110, 179, 20, 187, 39, 213, 74, 190, 121, 146, 147, 189, 205, 147, 23, 189, 170, 119, 24, 61, 184, 210, 119, 189, 187, 62, 147, 190, 235, 77, 249, 61, 16, 95, 31, 190, 119, 51, 236, 61, 155, 236, 201, 189, 252, 141, 47, 190, 229, 122, 218, 61, 43, 66, 182, 61, 113, 28, 19, 188, 216, 84, 120, 190, 223, 247, 0, 190, 104, 160, 40, 189, 231, 67, 188, 189, 66, 151, 63, 61, 43, 253, 238, 60, 204, 218, 247, 61, 42, 146, 28, 189, 75, 213, 141, 61, 225, 114, 88, 189, 23, 149, 47, 189, 204, 241, 248, 59, 34, 248, 208, 189, 102, 19, 67, 188, 9, 134, 136, 188, 35, 69, 119, 62, 188, 229, 141, 188, 5, 92, 180, 189, 109, 242, 248, 59, 175, 161, 126, 189, 195, 189, 88, 189, 31, 126, 206, 188, 171, 101, 3, 61, 178, 130, 63, 190, 152, 253, 241, 60, 65, 62, 39, 62, 244, 165, 69, 62, 208, 54, 144, 190, 5, 148, 202, 61, 55, 8, 247, 60, 197, 41, 66, 189, 29, 145, 143, 62, 167, 187, 240, 188, 83, 118, 139, 189, 65, 139, 1, 60, 9, 223, 195, 189, 22, 14, 219, 187, 29, 206, 230, 188, 124, 209, 187, 61, 14, 255, 22, 190, 153, 23, 15, 61, 19, 88, 236, 189, 136, 76, 136, 189, 99, 15, 10, 62, 24, 185, 36, 61, 191, 55, 28, 62, 239, 197, 233, 61, 115, 228, 129, 60, 145, 81, 118, 189, 27, 179, 100, 59, 99, 21, 97, 189, 191, 161, 92, 61, 211, 209, 194, 187, 31, 126, 18, 189, 250, 158, 147, 188, 30, 214, 2, 189, 134, 215, 186, 61, 21, 245, 102, 188, 95, 219, 14, 62, 47, 130, 10, 62, 231, 10, 229, 61, 94, 43, 252, 61, 142, 166, 170, 61, 240, 242, 40, 61, 57, 202, 100, 189, 133, 32, 156, 60, 139, 7, 199, 189, 73, 200, 191, 187, 67, 7, 215, 189, 194, 170, 169, 188, 84, 96, 41, 190, 56, 225, 59, 189, 137, 72, 200, 61, 105, 48, 97, 189, 239, 131, 231, 61, 243, 79, 87, 189, 243, 219, 42, 189, 215, 34, 106, 189, 126, 185, 251, 61, 236, 110, 239, 61, 7, 139, 67, 61, 219, 248, 11, 189, 68, 112, 34, 61, 155, 229, 172, 189, 195, 225, 113, 61, 94, 189, 25, 189, 114, 135, 147, 188, 15, 120, 48, 190, 9, 218, 207, 60, 212, 98, 21, 189, 173, 166, 172, 61, 253, 51, 212, 189, 225, 80, 246, 188, 62, 9, 23, 188, 242, 14, 165, 61, 117, 98, 113, 62, 64, 251, 196, 189, 32, 6, 198, 189, 88, 37, 96, 189, 40, 152, 169, 61, 201, 51, 124, 60, 177, 0, 223, 188, 21, 34, 174, 189, 232, 92, 28, 188, 120, 177, 229, 59, 197, 82, 185, 189, 81, 112, 140, 60, 211, 203, 29, 189, 148, 244, 68, 61, 42, 162, 241, 61, 89, 25, 174, 189, 142, 2, 42, 62, 176, 49, 0, 189, 76, 152, 86, 189, 84, 22, 140, 190, 111, 56, 212, 188, 198, 176, 12, 62, 149, 246, 28, 61, 187, 16, 42, 190, 89, 106, 212, 189, 162, 103, 164, 189, 193, 247, 230, 189, 157, 117, 227, 61, 240, 218, 128, 189, 11, 67, 48, 190, 133, 154, 55, 190, 41, 97, 154, 58, 27, 240, 249, 189, 164, 69, 93, 61, 91, 105, 210, 61, 156, 226, 250, 189, 192, 113, 120, 186, 72, 150, 166, 188, 253, 103, 194, 60, 44, 151, 70, 189, 82, 62, 234, 60, 167, 27, 222, 188, 160, 157, 67, 189, 11, 77, 246, 188, 150, 8, 10, 189, 11, 97, 220, 189, 162, 11, 37, 190, 125, 13, 193, 188, 207, 220, 102, 189, 12, 101, 118, 61, 245, 39, 250, 61, 41, 51, 118, 57, 88, 64, 149, 59, 49, 154, 44, 189, 139, 80, 240, 61, 185, 34, 171, 189, 165, 73, 187, 188, 53, 88, 3, 60, 41, 192, 60, 188, 85, 226, 210, 187, 216, 242, 237, 188, 113, 106, 183, 188, 153, 164, 183, 188, 131, 98, 19, 189, 65, 14, 193, 189, 58, 169, 32, 61, 175, 223, 199, 58, 91, 19, 122, 60, 211, 1, 174, 189, 137, 239, 240, 188, 101, 112, 230, 59, 183, 20, 249, 189, 231, 165, 130, 60, 246, 189, 128, 189, 69, 231, 21, 189, 39, 78, 231, 61, 238, 212, 36, 190, 251, 163, 249, 60, 206, 116, 0, 190, 38, 248, 91, 187, 25, 126, 147, 61, 73, 149, 49, 62, 159, 25, 216, 61, 105, 161, 221, 189, 95, 162, 7, 190, 34, 127, 16, 190, 51, 0, 72, 62, 109, 102, 204, 189, 140, 37, 6, 62, 231, 142, 54, 60, 96, 142, 77, 61, 244, 46, 43, 61, 19, 123, 144, 61, 207, 87, 94, 61, 168, 175, 144, 188, 151, 15, 126, 189, 143, 169, 95, 61, 163, 6, 79, 188, 205, 245, 201, 187, 233, 142, 208, 61, 85, 107, 0, 190, 54, 121, 184, 189, 29, 170, 26, 62, 71, 128, 185, 61, 0, 60, 123, 60, 246, 192, 49, 61, 205, 150, 90, 62, 58, 38, 78, 61, 31, 86, 244, 189, 160, 187, 198, 61, 137, 119, 174, 189, 184, 245, 5, 190, 184, 38, 181, 61, 166, 143, 210, 61, 214, 96, 168, 61, 11, 27, 223, 188, 193, 206, 187, 61, 145, 197, 50, 189, 95, 237, 166, 61, 255, 138, 182, 189, 197, 34, 61, 186, 192, 103, 200, 189, 228, 182, 110, 62, 227, 101, 15, 186, 80, 160, 199, 189, 147, 70, 247, 60, 143, 33, 60, 60, 245, 62, 233, 189, 195, 138, 178, 187, 221, 31, 95, 60, 239, 22, 188, 61, 236, 52, 54, 61, 20, 10, 108, 61, 172, 47, 233, 61, 234, 76, 43, 62, 92, 140, 110, 186, 145, 28, 86, 62, 16, 50, 238, 189, 56, 246, 27, 62, 200, 51, 116, 189, 146, 246, 76, 190, 38, 174, 111, 61, 138, 217, 241, 189, 107, 88, 120, 189, 78, 236, 38, 189, 17, 7, 70, 189, 43, 6, 221, 61, 98, 80, 1, 62, 210, 11, 192, 61, 75, 233, 111, 60, 248, 170, 179, 61, 117, 120, 96, 190, 238, 17, 188, 61, 182, 52, 103, 61, 134, 179, 6, 62, 215, 46, 118, 60, 254, 119, 145, 189, 168, 22, 125, 189, 46, 200, 209, 189, 167, 44, 46, 189, 69, 101, 35, 190, 218, 55, 201, 61, 201, 240, 137, 190, 25, 42, 144, 189, 122, 60, 41, 190, 97, 67, 232, 189, 132, 205, 244, 188, 252, 111, 49, 62, 46, 32, 63, 61, 37, 141, 185, 189, 199, 74, 83, 190, 76, 160, 230, 58, 20, 129, 21, 189, 252, 145, 241, 188, 37, 51, 179, 61, 76, 110, 70, 189, 135, 115, 43, 62, 201, 151, 97, 190, 152, 25, 133, 190, 181, 103, 5, 190, 77, 26, 65, 190, 122, 237, 52, 61, 6, 174, 76, 190, 241, 55, 235, 60, 15, 44, 138, 188, 247, 231, 197, 61, 52, 237, 2, 190, 179, 59, 185, 190, 249, 17, 79, 190, 55, 124, 13, 190, 41, 221, 140, 62, 246, 202, 118, 61, 82, 155, 168, 61, 27, 0, 230, 189, 184, 35, 61, 190, 26, 188, 98, 61, 199, 221, 36, 189, 111, 253, 49, 189, 90, 58, 4, 61, 247, 69, 24, 60, 30, 82, 188, 60, 195, 28, 19, 189, 153, 97, 167, 60, 68, 142, 190, 60, 196, 102, 221, 189, 229, 178, 255, 188, 176, 238, 94, 61, 87, 16, 139, 189, 158, 81, 171, 61, 67, 208, 134, 62, 108, 157, 134, 190, 49, 67, 21, 189, 208, 125, 105, 188, 93, 225, 4, 61, 101, 131, 244, 189, 47, 167, 222, 61, 227, 121, 25, 62, 28, 194, 144, 188, 159, 178, 177, 60, 213, 186, 7, 190, 87, 123, 67, 190, 255, 101, 148, 189, 123, 100, 253, 61, 67, 66, 208, 61, 221, 220, 68, 61, 140, 211, 218, 189, 202, 196, 124, 190, 251, 51, 41, 189, 187, 84, 203, 189, 251, 9, 98, 189, 104, 248, 65, 190, 212, 209, 200, 189, 106, 248, 39, 190, 96, 74, 171, 61, 213, 143, 236, 188, 31, 68, 123, 190, 255, 66, 11, 188, 206, 131, 253, 189, 240, 252, 169, 62, 64, 175, 203, 188, 198, 180, 219, 61, 228, 6, 23, 190, 60, 77, 78, 190, 7, 176, 6, 190, 49, 105, 38, 190, 115, 109, 138, 61, 14, 16, 206, 189, 161, 82, 231, 61, 46, 219, 12, 190, 110, 172, 154, 61, 214, 84, 71, 190, 82, 3, 40, 188, 117, 217, 0, 60, 161, 101, 184, 189, 118, 176, 189, 62, 196, 76, 1, 62, 187, 75, 1, 190, 6, 218, 118, 61, 255, 214, 58, 190, 29, 148, 186, 187, 2, 243, 253, 187, 187, 141, 111, 61, 16, 211, 7, 190, 35, 244, 21, 62, 199, 254, 53, 60, 187, 203, 216, 188, 190, 195, 44, 190, 30, 13, 50, 60, 34, 160, 0, 190, 36, 172, 36, 190, 215, 24, 91, 62, 50, 162, 185, 61, 106, 124, 228, 61, 109, 93, 168, 60, 66, 205, 141, 190, 142, 246, 34, 189, 147, 122, 63, 59, 97, 233, 119, 61, 239, 177, 90, 190, 240, 232, 145, 189, 182, 15, 245, 61, 245, 229, 129, 61, 238, 209, 191, 188, 106, 165, 53, 190, 5, 213, 241, 61, 117, 206, 92, 189, 175, 23, 80, 62, 125, 208, 223, 188, 244, 28, 172, 188, 14, 183, 247, 61, 56, 57, 49, 190, 101, 58, 39, 189, 192, 194, 155, 189, 12, 181, 180, 61, 168, 190, 64, 190, 180, 132, 225, 189, 103, 162, 98, 189, 134, 207, 105, 61, 77, 127, 129, 60, 213, 110, 76, 190, 170, 90, 223, 189, 74, 24, 107, 190, 152, 67, 53, 62, 245, 188, 182, 189, 52, 41, 223, 189, 141, 53, 227, 61, 42, 226, 81, 62, 57, 71, 223, 61, 67, 117, 115, 57, 14, 171, 208, 58, 238, 195, 0, 61, 174, 147, 97, 188, 86, 85, 246, 189, 24, 218, 173, 187, 24, 108, 97, 62, 177, 88, 242, 188, 188, 102, 225, 189, 171, 29, 165, 188, 102, 75, 124, 61, 41, 57, 208, 189, 123, 141, 206, 188, 9, 209, 65, 189, 115, 101, 98, 62, 46, 249, 62, 60, 156, 209, 165, 61, 252, 210, 214, 61, 181, 224, 190, 60, 209, 87, 32, 190, 41, 239, 38, 190, 6, 77, 31, 190, 14, 158, 133, 61, 62, 188, 88, 59, 39, 179, 54, 190, 140, 63, 177, 189, 27, 167, 192, 189, 18, 87, 51, 185, 19, 169, 12, 62, 178, 164, 247, 188, 242, 201, 206, 189, 79, 142, 206, 189, 175, 107, 57, 61, 176, 112, 136, 188, 249, 224, 20, 189, 218, 163, 39, 190, 228, 79, 27, 189, 241, 167, 165, 189, 204, 15, 11, 61, 64, 15, 33, 190, 185, 120, 180, 189, 135, 19, 24, 190, 85, 50, 231, 189, 208, 51, 6, 62, 115, 166, 5, 61, 170, 10, 211, 189, 248, 211, 137, 62, 35, 210, 237, 60, 212, 178, 151, 189, 248, 60, 65, 60, 8, 201, 192, 61, 158, 253, 13, 190, 201, 67, 241, 61, 209, 78, 225, 189, 200, 48, 250, 61, 154, 140, 120, 60, 38, 63, 219, 189, 186, 108, 170, 189, 154, 196, 119, 189, 51, 251, 9, 190, 210, 129, 217, 61, 67, 248, 10, 60, 207, 96, 155, 61, 29, 88, 216, 61, 182, 74, 7, 189, 227, 226, 163, 188, 36, 90, 127, 62, 58, 230, 88, 190, 162, 165, 133, 59, 167, 63, 85, 189, 151, 223, 7, 62, 157, 161, 2, 190, 163, 78, 44, 190, 218, 73, 177, 189, 93, 241, 191, 189, 164, 152, 147, 189, 114, 42, 57, 62, 193, 128, 154, 61, 88, 117, 11, 190, 207, 111, 165, 189, 77, 161, 222, 60, 105, 53, 244, 188, 104, 231, 30, 61, 120, 241, 177, 188, 171, 162, 218, 188, 185, 171, 197, 61, 73, 14, 55, 188, 98, 160, 45, 189, 10, 6, 37, 61, 188, 227, 86, 61, 203, 10, 182, 61, 20, 123, 248, 189, 255, 133, 128, 60, 244, 249, 34, 189, 179, 214, 174, 61, 131, 31, 128, 189, 210, 148, 51, 61, 65, 27, 226, 60, 244, 25, 52, 62, 150, 176, 171, 189, 243, 153, 28, 62, 197, 95, 73, 61, 154, 165, 82, 62, 250, 215, 57, 62, 154, 206, 242, 189, 9, 252, 35, 62, 87, 17, 109, 189, 222, 19, 24, 189, 211, 165, 85, 62, 14, 82, 166, 189, 110, 43, 12, 61, 249, 148, 219, 188, 150, 33, 20, 61, 121, 88, 182, 188, 41, 180, 85, 61, 37, 239, 66, 190, 253, 58, 140, 61, 111, 90, 66, 58, 77, 197, 8, 62, 203, 16, 240, 188, 46, 63, 124, 190, 122, 206, 123, 62, 30, 91, 215, 61, 111, 247, 190, 189, 104, 23, 18, 60, 202, 232, 237, 61, 188, 163, 226, 189, 56, 40, 130, 61, 252, 26, 77, 60, 151, 119, 1, 190, 37, 27, 27, 61, 102, 19, 150, 190, 202, 29, 193, 189, 209, 208, 143, 61, 159, 7, 248, 187, 172, 232, 241, 60, 216, 141, 247, 189, 166, 39, 60, 189, 120, 82, 204, 60, 254, 156, 218, 61, 207, 253, 49, 61, 92, 107, 69, 61, 125, 143, 27, 62, 231, 124, 223, 188, 246, 254, 73, 61, 52, 243, 89, 189, 149, 237, 239, 61, 18, 210, 95, 189, 107, 209, 172, 185, 60, 1, 160, 185, 227, 242, 223, 189, 117, 79, 84, 62, 16, 159, 51, 190, 151, 238, 150, 188, 11, 136, 52, 61, 5, 7, 29, 61, 54, 213, 203, 61, 227, 85, 196, 189, 245, 187, 243, 60, 75, 58, 170, 186, 138, 112, 166, 189, 30, 56, 67, 187, 35, 60, 76, 62, 158, 166, 148, 60, 87, 146, 110, 60, 108, 69, 160, 189, 210, 232, 235, 189, 97, 200, 247, 189, 36, 96, 56, 190, 177, 5, 215, 60, 67, 238, 201, 60, 124, 195, 3, 62, 44, 249, 159, 189, 142, 29, 76, 189, 143, 25, 108, 60, 7, 130, 93, 61, 38, 53, 237, 189, 223, 5, 148, 189, 147, 16, 92, 189, 201, 80, 118, 189, 50, 212, 50, 60, 76, 225, 48, 62, 29, 186, 23, 61, 164, 151, 178, 61, 203, 108, 70, 188, 0, 31, 56, 188, 89, 175, 14, 190, 204, 92, 247, 61, 132, 100, 250, 61, 202, 185, 121, 189, 187, 128, 1, 190, 234, 38, 158, 61, 240, 250, 11, 61, 78, 189, 23, 189, 203, 227, 163, 61, 71, 177, 108, 189, 75, 139, 220, 61, 211, 205, 10, 62, 15, 24, 171, 60, 66, 39, 66, 62, 39, 39, 92, 190, 99, 37, 15, 62, 151, 151, 228, 188, 168, 193, 138, 61, 124, 134, 145, 62, 25, 2, 186, 59, 156, 101, 42, 62, 39, 64, 180, 188, 178, 8, 131, 61, 55, 72, 86, 188, 61, 31, 208, 61, 164, 2, 169, 61, 97, 92, 4, 189, 31, 159, 24, 188, 88, 190, 31, 62, 253, 150, 95, 62, 189, 79, 33, 190, 27, 231, 29, 61, 248, 99, 190, 61, 84, 91, 78, 189, 11, 93, 126, 62, 100, 145, 243, 189, 204, 218, 139, 60, 81, 15, 210, 189, 223, 3, 10, 190, 0, 164, 152, 60, 8, 204, 14, 62, 192, 229, 206, 189, 41, 115, 5, 190, 225, 169, 50, 61, 109, 103, 184, 189, 0, 7, 215, 61, 195, 158, 47, 190, 144, 62, 4, 189, 71, 71, 49, 61, 138, 0, 177, 61, 47, 252, 212, 189, 230, 33, 223, 189, 0, 150, 226, 61, 74, 72, 43, 189, 84, 190, 125, 61, 3, 119, 194, 189, 197, 234, 63, 62, 182, 245, 42, 190, 143, 111, 220, 188, 141, 141, 246, 187, 56, 200, 232, 188, 56, 178, 121, 61, 117, 180, 11, 190, 183, 112, 129, 61, 184, 121, 190, 61, 143, 207, 31, 62, 32, 99, 29, 190, 90, 33, 18, 189, 22, 247, 194, 60, 151, 120, 134, 189, 77, 244, 26, 62, 46, 176, 7, 190, 140, 66, 219, 188, 237, 141, 191, 187, 113, 56, 231, 189, 207, 142, 238, 61, 128, 164, 112, 61, 254, 21, 193, 59, 2, 28, 137, 190, 27, 218, 133, 189, 246, 227, 99, 189, 201, 2, 157, 61, 198, 234, 71, 62, 144, 237, 163, 189, 70, 209, 144, 189, 93, 84, 142, 189, 42, 112, 207, 61, 115, 227, 1, 190, 24, 128, 112, 60, 162, 35, 91, 61, 138, 96, 143, 189, 244, 234, 33, 61, 220, 85, 154, 189, 39, 61, 128, 189, 131, 96, 32, 190, 215, 140, 190, 61, 133, 139, 218, 189, 75, 78, 129, 189, 151, 231, 218, 61, 89, 31, 82, 61, 67, 30, 84, 61, 13, 170, 186, 60, 138, 115, 238, 60, 239, 248, 172, 61, 64, 75, 153, 61, 151, 221, 146, 189, 59, 230, 213, 188, 18, 53, 6, 190, 122, 73, 1, 61, 65, 243, 30, 61, 76, 122, 180, 189, 25, 74, 111, 61, 151, 202, 8, 61, 242, 95, 15, 62, 64, 237, 69, 189, 22, 224, 118, 190, 230, 223, 204, 61, 71, 169, 202, 189, 62, 244, 51, 61, 11, 4, 170, 189, 5, 35, 20, 62, 144, 206, 168, 61, 146, 44, 61, 189, 119, 199, 147, 189, 30, 87, 146, 61, 233, 208, 86, 59, 116, 221, 198, 189, 220, 29, 186, 188, 25, 197, 200, 60, 67, 95, 210, 188, 213, 130, 6, 62, 86, 13, 113, 189, 75, 95, 41, 189, 111, 204, 80, 60, 182, 184, 63, 189, 214, 188, 15, 61, 126, 19, 42, 189, 138, 133, 57, 190, 151, 246, 128, 190, 249, 207, 20, 62, 107, 118, 182, 189, 174, 159, 125, 189, 1, 76, 45, 190, 243, 70, 94, 61, 206, 220, 63, 60, 208, 165, 70, 188, 149, 202, 149, 60, 248, 56, 143, 189, 122, 65, 236, 59, 224, 197, 14, 190, 227, 190, 219, 61, 117, 138, 235, 61, 94, 138, 25, 62, 73, 135, 45, 190, 197, 161, 253, 189, 240, 11, 161, 61, 42, 219, 49, 61, 20, 170, 225, 61, 113, 111, 82, 190, 167, 251, 92, 61, 201, 49, 157, 189, 184, 215, 164, 61, 55, 121, 140, 60, 99, 120, 38, 190, 199, 161, 44, 62, 27, 6, 131, 189, 120, 0, 136, 189, 142, 52, 204, 189, 127, 88, 56, 188, 208, 193, 252, 61, 127, 181, 253, 189, 173, 219, 3, 190, 84, 221, 132, 189, 236, 197, 140, 61, 207, 30, 118, 189, 183, 41, 123, 61, 126, 30, 17, 189, 236, 103, 198, 189, 106, 209, 135, 62, 53, 225, 146, 187, 242, 179, 142, 61, 154, 201, 166, 189, 199, 117, 135, 189, 243, 146, 180, 61, 49, 4, 40, 189, 18, 241, 102, 190, 162, 228, 218, 188, 248, 149, 189, 61, 118, 99, 206, 61, 224, 147, 83, 190, 161, 169, 54, 189, 211, 4, 67, 61, 109, 167, 130, 61, 112, 83, 56, 61, 160, 152, 153, 189, 112, 54, 152, 188, 55, 20, 79, 62, 78, 189, 1, 190, 12, 178, 57, 61, 171, 174, 12, 189, 47, 164, 72, 62, 128, 176, 91, 61, 189, 14, 237, 189, 73, 100, 26, 189, 198, 205, 53, 190, 254, 143, 239, 61, 251, 155, 60, 190, 225, 170, 104, 60, 15, 2, 5, 190, 209, 17, 6, 61, 160, 116, 221, 189, 86, 85, 7, 189, 32, 209, 206, 61, 9, 185, 117, 189, 253, 3, 151, 61, 216, 224, 167, 189, 250, 20, 51, 189, 9, 202, 54, 62, 55, 70, 111, 61, 200, 97, 180, 189, 157, 9, 3, 189, 164, 222, 71, 62, 35, 113, 123, 190, 148, 90, 217, 61, 201, 26, 92, 190, 86, 188, 91, 189, 238, 68, 95, 62, 211, 65, 78, 190, 255, 170, 58, 188, 5, 120, 7, 189, 69, 144, 18, 189, 227, 173, 136, 60, 226, 245, 196, 189, 39, 28, 201, 189, 21, 28, 67, 190, 128, 146, 179, 188, 208, 24, 145, 187, 228, 108, 17, 189, 210, 23, 25, 190, 238, 35, 220, 189, 174, 90, 62, 61, 141, 72, 202, 188, 101, 72, 22, 62, 167, 223, 47, 189, 231, 178, 126, 189, 154, 231, 248, 61, 181, 245, 229, 189, 219, 196, 214, 60, 212, 8, 195, 189, 58, 131, 8, 190, 201, 142, 190, 61, 183, 218, 251, 61, 134, 42, 221, 61, 12, 191, 0, 190, 130, 208, 40, 190, 243, 158, 0, 189, 54, 138, 161, 59, 162, 252, 87, 189, 15, 67, 43, 188, 242, 243, 189, 189, 63, 142, 88, 61, 222, 15, 5, 62, 75, 197, 86, 60, 105, 28, 4, 190, 138, 238, 192, 189, 236, 127, 61, 190, 74, 175, 15, 62, 117, 110, 146, 188, 128, 196, 130, 60, 252, 47, 4, 190, 71, 11, 187, 60, 167, 101, 165, 189, 248, 55, 199, 188, 124, 217, 21, 190, 78, 158, 12, 62, 137, 124, 103, 61, 232, 215, 122, 189, 251, 70, 177, 61, 230, 206, 160, 189, 41, 108, 17, 190, 148, 75, 152, 60, 23, 206, 116, 187, 250, 208, 21, 61, 110, 57, 110, 61, 168, 7, 8, 61, 177, 87, 37, 59, 47, 20, 34, 62, 151, 117, 216, 189, 40, 208, 153, 61, 44, 126, 218, 189, 142, 182, 17, 61, 148, 26, 36, 60, 218, 163, 78, 190, 243, 178, 198, 189, 179, 108, 188, 188, 198, 35, 184, 61, 195, 193, 1, 61, 36, 202, 90, 190, 227, 159, 2, 61, 228, 195, 11, 62, 150, 150, 125, 189, 144, 4, 31, 61, 172, 91, 70, 189, 0, 98, 18, 190, 15, 194, 194, 61, 163, 118, 247, 60, 232, 119, 175, 61, 54, 193, 98, 61, 162, 95, 76, 61, 43, 28, 39, 188, 159, 87, 180, 188, 165, 82, 171, 61, 59, 79, 245, 189, 100, 152, 192, 189, 9, 135, 115, 189, 248, 46, 30, 188, 101, 99, 105, 61, 63, 253, 237, 61, 83, 179, 218, 189, 56, 84, 15, 60, 118, 37, 74, 188, 33, 104, 245, 61, 56, 35, 188, 61, 94, 127, 188, 187, 151, 156, 247, 60, 206, 215, 242, 61, 231, 33, 174, 61, 135, 104, 102, 60, 18, 96, 214, 189, 248, 57, 174, 60, 102, 111, 28, 62, 205, 247, 5, 62, 233, 104, 18, 62, 221, 42, 20, 62, 96, 31, 8, 190, 135, 105, 73, 190, 196, 38, 6, 61, 77, 30, 167, 188, 64, 101, 197, 60, 22, 107, 203, 189, 44, 238, 30, 189, 221, 42, 3, 62, 252, 170, 80, 188, 222, 172, 86, 61, 114, 97, 188, 188, 221, 214, 48, 190, 231, 152, 150, 61, 12, 167, 180, 189, 197, 97, 25, 189, 250, 171, 155, 59, 222, 234, 21, 190, 100, 124, 113, 188, 86, 13, 148, 189, 42, 100, 148, 60, 189, 186, 242, 188, 85, 43, 18, 61, 47, 96, 28, 190, 75, 90, 79, 190, 32, 182, 26, 189, 191, 225, 190, 61, 122, 61, 120, 190, 190, 87, 138, 190, 229, 12, 253, 189, 253, 178, 225, 61, 76, 245, 52, 190, 250, 228, 174, 189, 125, 100, 112, 62, 204, 10, 40, 190, 132, 63, 145, 188, 59, 31, 236, 60, 51, 6, 186, 189, 35, 107, 137, 189, 119, 130, 242, 60, 140, 81, 26, 189, 189, 196, 86, 61, 204, 38, 245, 61, 186, 9, 121, 190, 216, 132, 130, 190, 116, 134, 243, 61, 65, 48, 40, 62, 108, 215, 138, 187, 218, 111, 144, 189, 196, 162, 35, 189, 148, 136, 2, 190, 94, 15, 141, 188, 125, 206, 128, 60, 22, 94, 82, 62, 243, 245, 123, 188, 33, 202, 145, 189, 113, 43, 238, 187, 147, 198, 166, 189, 138, 3, 87, 61, 134, 87, 19, 61, 116, 251, 144, 188, 232, 103, 88, 189, 45, 21, 149, 61, 225, 131, 238, 61, 252, 172, 92, 190, 12, 252, 182, 189, 94, 33, 33, 188, 49, 239, 210, 61, 155, 103, 142, 61, 12, 84, 198, 60, 18, 156, 99, 62, 187, 151, 77, 61, 236, 226, 230, 189, 134, 192, 189, 189, 27, 24, 161, 189, 7, 236, 162, 189, 33, 114, 138, 189, 7, 139, 46, 61, 251, 105, 187, 189, 6, 88, 17, 62, 50, 81, 132, 189, 66, 90, 187, 188, 54, 92, 55, 189, 174, 54, 184, 61, 59, 188, 75, 62, 104, 203, 73, 189, 33, 117, 100, 62, 212, 144, 223, 189, 35, 36, 208, 187, 23, 114, 62, 190, 23, 135, 137, 189, 243, 240, 101, 189, 93, 34, 145, 189, 99, 30, 9, 62, 171, 184, 181, 188, 208, 60, 23, 62, 157, 78, 205, 189, 251, 232, 112, 189, 105, 0, 79, 187, 227, 73, 83, 189, 241, 239, 251, 61, 81, 159, 48, 190, 88, 47, 18, 62, 59, 68, 244, 61, 237, 84, 169, 61, 249, 123, 56, 189, 168, 197, 212, 60, 248, 39, 29, 189, 167, 178, 26, 61, 67, 106, 188, 61, 195, 236, 156, 189, 82, 171, 18, 62, 83, 82, 168, 189, 167, 62, 143, 188, 55, 216, 197, 60, 72, 125, 140, 189, 44, 164, 133, 61, 248, 251, 185, 60, 255, 25, 3, 61, 99, 14, 32, 60, 192, 251, 60, 62, 98, 134, 17, 190, 46, 141, 33, 61, 196, 37, 21, 62, 194, 107, 205, 188, 195, 254, 226, 61, 216, 180, 20, 190, 217, 61, 217, 61, 231, 166, 26, 190, 244, 45, 215, 189, 254, 49, 132, 189, 188, 19, 165, 188, 240, 74, 106, 61, 253, 124, 138, 61, 111, 180, 188, 189, 76, 209, 152, 189, 12, 241, 195, 61, 116, 53, 179, 188, 21, 142, 250, 189, 79, 51, 220, 61, 72, 52, 227, 61, 63, 80, 27, 189, 131, 77, 36, 190, 218, 244, 145, 61, 0, 85, 33, 190, 9, 13, 17, 190, 221, 102, 210, 61, 72, 123, 148, 60, 245, 165, 6, 62, 7, 150, 189, 61, 244, 41, 233, 61, 60, 85, 167, 61, 56, 48, 255, 61, 61, 86, 72, 190, 213, 146, 187, 189, 204, 224, 255, 61, 107, 14, 119, 60, 33, 49, 62, 60, 144, 133, 40, 190, 4, 75, 138, 61, 215, 187, 134, 189, 144, 141, 105, 60, 174, 71, 129, 189, 115, 59, 131, 189, 222, 109, 139, 188, 67, 109, 129, 188, 79, 200, 11, 62, 200, 185, 147, 60, 150, 58, 61, 189, 205, 22, 84, 189, 63, 34, 233, 189, 118, 86, 64, 189, 51, 226, 17, 62, 192, 123, 70, 62, 144, 14, 58, 190, 56, 241, 191, 61, 157, 127, 134, 189, 246, 71, 51, 190, 7, 16, 21, 190, 173, 217, 234, 189, 133, 196, 66, 60, 211, 202, 152, 61, 2, 223, 48, 62, 216, 178, 149, 188, 14, 63, 62, 189, 158, 60, 157, 189, 135, 130, 254, 189, 150, 13, 16, 189, 211, 68, 77, 62, 215, 184, 17, 62, 220, 31, 212, 187, 52, 85, 18, 62, 20, 8, 174, 189, 91, 185, 95, 189, 99, 15, 9, 190, 104, 81, 148, 189, 35, 220, 76, 61, 209, 195, 237, 59, 119, 12, 15, 62, 208, 172, 71, 190, 108, 4, 40, 189, 175, 38, 111, 188, 107, 120, 134, 61, 23, 61, 122, 190, 185, 172, 146, 189, 229, 172, 238, 60, 115, 179, 53, 61, 145, 39, 130, 189, 155, 148, 65, 190, 86, 156, 68, 189, 129, 162, 9, 59, 204, 23, 19, 189, 32, 177, 16, 61, 33, 151, 239, 189, 127, 59, 66, 190, 42, 18, 103, 190, 223, 48, 102, 189, 39, 213, 69, 61, 228, 117, 4, 62, 150, 12, 190, 189, 222, 182, 49, 190, 204, 212, 241, 61, 104, 39, 37, 62, 151, 229, 235, 186, 43, 25, 132, 190, 154, 50, 133, 189, 12, 0, 228, 189, 143, 37, 98, 61, 94, 200, 73, 61, 74, 193, 15, 190, 114, 83, 13, 190, 59, 212, 89, 189, 91, 74, 224, 189, 183, 96, 17, 188, 35, 32, 132, 61, 207, 241, 54, 189, 217, 27, 148, 190, 168, 25, 131, 61, 5, 116, 158, 61, 42, 175, 235, 189, 135, 40, 11, 190, 240, 215, 161, 61, 112, 111, 85, 61, 20, 24, 140, 188, 103, 236, 203, 61, 147, 114, 54, 61, 135, 148, 113, 190, 3, 213, 27, 189, 245, 230, 152, 189, 26, 176, 187, 61, 8, 227, 178, 61, 59, 119, 63, 190, 211, 129, 16, 190, 236, 1, 15, 190, 12, 105, 249, 189, 186, 182, 69, 62, 233, 69, 37, 190, 204, 4, 249, 189, 232, 57, 37, 188, 119, 158, 203, 189, 48, 206, 172, 188, 126, 165, 176, 61, 120, 247, 181, 59, 236, 198, 252, 188, 193, 98, 225, 188, 254, 253, 63, 61, 250, 207, 145, 61, 19, 176, 234, 189, 57, 153, 96, 190, 18, 92, 96, 189, 162, 153, 202, 189, 18, 121, 36, 61, 20, 180, 114, 190, 188, 184, 153, 61, 217, 245, 143, 189, 200, 130, 186, 58, 161, 117, 34, 61, 164, 188, 57, 60, 119, 202, 172, 189, 153, 3, 18, 190, 188, 153, 233, 187, 89, 166, 102, 189, 117, 23, 173, 189, 212, 174, 49, 189, 96, 94, 162, 189, 26, 2, 42, 190, 119, 250, 2, 61, 106, 249, 183, 188, 124, 200, 217, 189, 223, 98, 139, 188, 36, 149, 164, 189, 217, 243, 131, 61, 225, 7, 159, 61, 203, 64, 105, 61, 200, 172, 74, 190, 213, 221, 182, 189, 172, 89, 108, 189, 100, 42, 41, 62, 178, 124, 130, 61, 118, 164, 246, 60, 130, 156, 141, 190, 90, 220, 1, 190, 137, 53, 163, 61, 134, 227, 41, 62, 170, 193, 50, 190, 20, 0, 234, 189, 104, 8, 183, 61, 114, 137, 129, 188, 179, 207, 136, 189, 238, 72, 27, 62, 178, 204, 20, 61, 248, 63, 213, 189, 137, 181, 59, 62, 226, 78, 19, 62, 244, 114, 183, 60, 226, 50, 17, 190, 216, 111, 95, 190, 82, 234, 207, 189, 214, 236, 254, 61, 25, 208, 134, 61, 34, 104, 189, 189, 249, 17, 232, 189, 225, 126, 253, 60, 105, 58, 172, 189, 178, 112, 8, 61, 77, 47, 102, 62, 51, 96, 249, 60, 143, 2, 138, 189, 156, 234, 25, 61, 226, 51, 11, 62, 19, 98, 124, 189, 50, 118, 64, 59, 22, 114, 94, 190, 131, 5, 82, 61, 114, 65, 2, 61, 238, 134, 51, 62, 140, 236, 142, 189, 129, 81, 94, 190, 161, 151, 172, 189, 199, 69, 133, 60, 129, 117, 163, 61, 223, 94, 19, 61, 86, 233, 39, 60, 48, 73, 56, 189, 240, 113, 128, 189, 43, 208, 38, 60, 91, 239, 72, 61, 145, 151, 2, 189, 13, 54, 80, 190, 162, 21, 153, 188, 222, 33, 13, 188, 59, 144, 48, 62, 195, 217, 151, 189, 168, 202, 169, 61, 119, 32, 188, 58, 80, 55, 38, 189, 46, 22, 65, 188, 243, 238, 89, 62, 123, 99, 73, 190, 148, 41, 40, 62, 176, 54, 133, 188, 8, 165, 255, 61, 161, 80, 216, 60, 253, 122, 162, 60, 58, 130, 229, 189, 153, 40, 75, 189, 13, 17, 235, 188, 178, 242, 36, 189, 107, 30, 1, 189, 63, 51, 96, 190, 27, 246, 23, 190, 228, 68, 235, 61, 225, 202, 236, 60, 209, 159, 201, 189, 194, 255, 111, 61, 201, 3, 120, 61, 19, 152, 100, 189, 223, 12, 190, 188, 151, 13, 149, 61, 12, 254, 158, 60, 183, 119, 22, 190, 109, 71, 14, 62, 221, 9, 28, 61, 43, 127, 200, 61, 200, 200, 169, 188, 13, 96, 255, 189, 106, 4, 66, 188, 19, 140, 192, 60, 101, 118, 64, 61, 218, 117, 170, 61, 74, 103, 50, 189, 20, 225, 194, 188, 57, 185, 11, 190, 246, 126, 65, 62, 250, 109, 238, 188, 172, 210, 231, 61, 194, 115, 129, 189, 79, 83, 139, 189, 102, 18, 189, 189, 209, 196, 6, 190, 184, 136, 47, 61, 24, 238, 227, 189, 164, 161, 192, 61, 74, 47, 106, 60, 211, 16, 128, 61, 194, 19, 77, 62, 186, 95, 21, 189, 209, 235, 21, 62, 94, 182, 130, 61, 29, 100, 180, 61, 127, 72, 151, 189, 170, 73, 91, 61, 114, 82, 53, 190, 166, 26, 174, 61, 174, 114, 140, 61, 59, 169, 44, 189, 144, 204, 193, 61, 114, 64, 38, 189, 82, 94, 119, 61, 11, 51, 252, 188, 71, 61, 34, 59, 112, 94, 157, 62, 116, 122, 44, 189, 166, 94, 6, 62, 238, 134, 69, 61, 55, 158, 80, 189, 253, 253, 165, 189, 117, 192, 129, 61, 196, 126, 56, 189, 193, 202, 0, 62, 134, 231, 218, 188, 246, 115, 4, 188, 18, 192, 93, 188, 34, 223, 114, 61, 150, 138, 172, 188, 23, 116, 222, 61, 187, 83, 141, 61, 211, 52, 190, 189, 167, 213, 184, 61, 109, 43, 46, 61, 160, 12, 237, 189, 116, 93, 200, 188, 2, 175, 155, 60, 159, 125, 208, 61, 151, 161, 30, 190, 61, 207, 145, 62, 48, 33, 152, 61, 193, 178, 89, 61, 202, 110, 75, 62, 153, 68, 228, 189, 56, 230, 110, 60, 59, 108, 238, 189, 45, 24, 215, 188, 249, 128, 226, 61, 16, 180, 203, 188, 46, 168, 94, 60, 227, 8, 161, 188, 219, 158, 148, 189, 97, 9, 161, 188, 110, 194, 208, 61, 64, 251, 83, 190, 192, 6, 166, 61, 6, 139, 100, 61, 53, 155, 117, 61, 35, 254, 110, 61, 177, 53, 109, 189, 79, 105, 26, 187, 239, 18, 145, 188, 211, 138, 103, 61, 111, 113, 92, 62, 111, 214, 207, 189, 177, 160, 243, 61, 64, 78, 243, 61, 148, 146, 127, 189, 165, 23, 137, 60, 182, 149, 21, 62, 81, 170, 15, 190, 89, 80, 231, 61, 58, 162, 135, 61, 212, 215, 143, 59, 131, 245, 169, 61, 26, 195, 140, 189, 55, 41, 134, 189, 71, 125, 153, 187, 57, 115, 0, 189, 191, 234, 146, 62, 96, 138, 183, 61, 201, 93, 127, 61, 70, 250, 135, 61, 225, 225, 27, 190, 70, 4, 198, 61, 92, 84, 247, 60, 75, 18, 0, 189, 6, 158, 220, 188, 107, 231, 113, 188, 26, 7, 131, 61, 105, 101, 23, 62, 78, 36, 3, 187, 112, 112, 182, 60, 149, 161, 43, 62, 26, 173, 142, 188, 108, 186, 62, 61, 124, 7, 138, 190, 143, 155, 196, 60, 249, 253, 5, 188, 100, 236, 134, 61, 169, 92, 141, 61, 251, 59, 159, 61, 204, 177, 201, 61, 221, 103, 231, 188, 88, 141, 163, 59, 156, 187, 173, 188, 140, 188, 83, 61, 38, 117, 199, 61, 115, 96, 143, 189, 88, 80, 200, 61, 117, 106, 72, 61, 90, 246, 217, 189, 233, 238, 240, 189, 64, 163, 252, 187, 220, 153, 48, 60, 197, 154, 140, 61, 21, 130, 148, 189, 248, 25, 108, 61, 132, 68, 33, 190, 33, 82, 121, 58, 32, 165, 36, 186, 77, 16, 13, 190, 229, 160, 135, 61, 213, 144, 244, 186, 226, 47, 157, 61, 240, 215, 10, 62, 125, 122, 43, 188, 62, 8, 254, 189, 207, 177, 10, 190, 173, 147, 32, 190, 117, 207, 252, 61, 110, 121, 82, 189, 175, 90, 223, 60, 189, 202, 173, 60, 53, 11, 80, 189, 218, 86, 40, 190, 8, 224, 125, 188, 79, 43, 29, 61, 28, 214, 69, 189, 149, 235, 176, 189, 179, 33, 80, 61, 153, 168, 157, 61, 1, 227, 132, 61, 36, 47, 11, 62, 226, 116, 115, 190, 169, 15, 196, 61, 160, 210, 173, 61, 71, 19, 75, 189, 120, 48, 160, 189, 212, 254, 140, 187, 177, 118, 161, 187, 216, 236, 170, 186, 109, 67, 7, 60, 133, 126, 170, 61, 67, 138, 127, 188, 126, 62, 57, 61, 250, 1, 107, 61, 177, 107, 28, 62, 178, 17, 58, 60, 246, 178, 89, 62, 85, 195, 63, 190, 97, 247, 5, 189, 118, 88, 245, 189, 173, 121, 188, 188, 132, 194, 106, 61, 174, 232, 165, 61, 76, 198, 179, 61, 116, 125, 97, 189, 67, 226, 0, 190, 170, 80, 25, 190, 106, 115, 225, 61, 119, 92, 5, 62, 151, 199, 22, 61, 192, 107, 0, 62, 224, 206, 223, 189, 5, 147, 238, 189, 3, 210, 168, 189, 159, 128, 183, 186, 154, 134, 244, 60, 42, 71, 16, 190, 230, 161, 85, 189, 130, 41, 2, 61, 43, 15, 136, 61, 40, 170, 231, 189, 98, 55, 39, 188, 217, 41, 103, 188, 6, 96, 241, 188, 22, 147, 0, 60, 43, 109, 211, 61, 60, 64, 48, 62, 226, 64, 133, 60, 62, 94, 162, 189, 131, 179, 174, 60, 39, 202, 168, 189, 155, 130, 143, 189, 246, 48, 56, 61, 15, 72, 129, 189, 245, 255, 164, 61, 97, 18, 20, 61, 255, 213, 244, 189, 107, 100, 27, 61, 44, 7, 80, 190, 162, 247, 207, 61, 126, 108, 163, 60, 211, 180, 191, 189, 220, 64, 158, 61, 8, 56, 187, 61, 6, 38, 66, 62, 239, 232, 153, 60, 23, 74, 245, 61, 19, 41, 1, 62, 80, 128, 60, 189, 227, 135, 253, 189, 226, 236, 78, 189, 109, 47, 118, 61, 99, 97, 63, 60, 210, 213, 72, 60, 20, 192, 231, 189, 141, 142, 227, 61, 139, 29, 165, 61, 129, 13, 1, 62, 113, 37, 158, 61, 202, 3, 93, 61, 70, 84, 251, 61, 28, 111, 28, 190, 35, 245, 214, 61, 247, 162, 244, 61, 175, 201, 103, 189, 129, 253, 61, 61, 29, 201, 68, 189, 110, 220, 32, 190, 228, 253, 117, 61, 114, 105, 7, 62, 133, 47, 101, 189, 70, 21, 24, 189, 196, 22, 30, 62, 140, 25, 173, 189, 242, 54, 91, 61, 50, 229, 141, 61, 85, 220, 223, 60, 165, 107, 26, 61, 34, 214, 102, 186, 193, 67, 156, 189, 50, 8, 81, 61, 157, 138, 134, 61, 70, 3, 125, 60, 171, 48, 231, 189, 32, 85, 138, 188, 133, 104, 52, 62, 73, 22, 63, 188, 74, 14, 11, 190, 65, 211, 164, 61, 8, 112, 216, 189, 188, 220, 35, 61, 13, 200, 244, 60, 14, 225, 94, 59, 128, 205, 194, 61, 251, 61, 64, 61, 129, 145, 150, 61, 81, 168, 206, 189, 154, 79, 17, 189, 101, 17, 124, 190, 143, 69, 34, 190, 252, 147, 41, 60, 60, 15, 29, 61, 1, 8, 199, 188, 97, 202, 154, 61, 205, 168, 16, 189, 185, 230, 117, 190, 101, 53, 227, 189, 177, 31, 218, 188, 146, 195, 227, 61, 123, 244, 36, 189, 241, 25, 232, 188, 137, 138, 35, 62, 223, 243, 207, 61, 145, 194, 123, 186, 190, 117, 181, 61, 114, 117, 103, 188, 231, 116, 104, 61, 25, 244, 123, 61, 253, 61, 150, 62, 35, 87, 93, 190, 61, 48, 166, 189, 18, 192, 164, 59, 29, 126, 108, 62, 5, 120, 50, 189, 182, 66, 180, 61, 203, 82, 172, 189, 102, 142, 222, 61, 66, 219, 109, 189, 200, 213, 119, 61, 205, 229, 170, 61, 238, 37, 247, 188, 202, 161, 60, 190, 134, 135, 232, 188, 235, 67, 4, 189, 151, 111, 142, 61, 114, 255, 170, 61, 106, 19, 53, 61, 55, 13, 92, 61, 172, 46, 7, 188, 71, 205, 45, 189, 62, 199, 70, 61, 38, 204, 249, 61, 18, 166, 55, 62, 114, 199, 70, 187, 34, 156, 137, 189, 166, 254, 203, 189, 40, 31, 90, 190, 145, 15, 202, 189, 160, 24, 204, 59, 70, 102, 118, 189, 1, 191, 106, 189, 86, 198, 102, 189, 172, 172, 202, 189, 147, 159, 243, 189, 0, 69, 162, 188, 82, 138, 176, 189, 222, 242, 251, 60, 181, 43, 106, 61, 40, 25, 121, 62, 17, 220, 116, 61, 87, 88, 25, 189, 36, 246, 189, 61, 111, 237, 145, 189, 157, 131, 43, 190, 51, 65, 46, 62, 4, 57, 93, 61, 239, 107, 30, 189, 145, 46, 147, 61, 43, 25, 102, 61, 209, 82, 44, 188, 209, 196, 251, 189, 4, 8, 133, 188, 123, 111, 0, 190, 22, 27, 205, 189, 12, 56, 49, 62, 156, 11, 130, 61, 221, 126, 28, 190, 126, 228, 117, 60, 73, 149, 161, 189, 236, 171, 224, 189, 141, 26, 203, 61, 26, 71, 35, 61, 205, 252, 42, 190, 141, 11, 91, 60, 136, 211, 213, 61, 101, 212, 251, 60, 25, 157, 72, 60, 41, 0, 244, 60, 42, 85, 128, 190, 6, 13, 36, 189, 196, 224, 142, 187, 136, 15, 221, 188, 19, 192, 4, 190, 27, 220, 117, 189, 126, 136, 97, 61, 144, 179, 232, 189, 24, 169, 173, 187, 136, 134, 210, 60, 68, 158, 152, 61, 6, 196, 13, 62, 25, 206, 48, 187, 57, 20, 9, 190, 131, 141, 99, 61, 125, 156, 223, 61, 33, 182, 158, 189, 121, 206, 130, 189, 83, 246, 121, 62, 177, 157, 108, 190, 53, 235, 227, 61, 82, 21, 68, 61, 120, 93, 30, 62, 171, 128, 79, 61, 123, 188, 49, 61, 103, 155, 219, 60, 57, 147, 177, 60, 152, 219, 231, 60, 145, 21, 36, 189, 47, 74, 42, 189, 230, 108, 137, 61, 75, 76, 239, 189, 18, 0, 70, 189, 148, 174, 13, 62, 123, 146, 19, 62, 44, 87, 112, 61, 27, 38, 141, 61, 10, 38, 95, 61, 91, 127, 1, 62, 172, 214, 253, 189, 238, 127, 7, 190, 163, 115, 220, 61, 239, 254, 79, 189, 149, 120, 9, 61, 10, 124, 128, 190, 232, 89, 136, 60, 27, 68, 217, 189, 188, 30, 222, 61, 57, 188, 61, 61, 249, 17, 209, 61, 206, 61, 195, 189, 233, 180, 36, 186, 146, 92, 97, 60, 142, 200, 18, 61, 90, 71, 152, 60, 183, 152, 163, 189, 183, 134, 122, 188, 124, 149, 142, 61, 186, 193, 231, 187, 53, 79, 42, 189, 90, 203, 105, 189, 68, 186, 249, 189, 116, 74, 207, 60, 194, 105, 251, 189, 179, 44, 58, 62, 165, 124, 140, 190, 189, 189, 133, 59, 145, 105, 128, 188, 35, 58, 158, 61, 190, 149, 26, 61, 2, 172, 152, 189, 161, 145, 120, 61, 211, 84, 56, 60, 188, 206, 225, 189, 139, 217, 30, 62, 244, 175, 243, 61, 130, 233, 43, 190, 4, 164, 183, 61, 32, 16, 117, 61, 114, 234, 141, 189, 40, 31, 148, 62, 132, 71, 46, 189, 187, 133, 233, 61, 239, 199, 208, 61, 135, 145, 4, 190, 103, 109, 233, 189, 245, 104, 144, 61, 138, 209, 58, 190, 171, 150, 23, 189, 79, 154, 140, 60, 181, 26, 252, 61, 150, 191, 167, 59, 71, 214, 80, 189, 137, 111, 218, 61, 79, 128, 197, 188, 42, 238, 147, 189, 48, 59, 38, 62, 60, 83, 26, 62, 137, 158, 189, 187, 110, 172, 51, 190, 222, 47, 188, 61, 94, 13, 53, 189, 63, 233, 168, 59, 224, 194, 28, 190, 47, 38, 182, 187, 246, 117, 196, 60, 195, 14, 3, 190, 87, 64, 176, 188, 159, 118, 97, 190, 216, 120, 210, 60, 90, 97, 110, 189, 12, 28, 145, 60, 101, 192, 1, 190, 114, 38, 23, 190, 196, 95, 168, 189, 164, 65, 47, 189, 245, 4, 183, 189, 64, 63, 112, 61, 177, 57, 98, 62, 18, 121, 247, 189, 92, 199, 254, 61, 124, 150, 64, 189, 50, 36, 23, 190, 20, 251, 52, 59, 61, 176, 207, 189, 146, 165, 228, 189, 73, 186, 152, 188, 247, 1, 174, 188, 240, 238, 149, 61, 170, 182, 9, 60, 127, 112, 97, 189, 40, 40, 192, 61, 220, 146, 194, 61, 101, 217, 44, 189, 213, 164, 4, 61, 211, 78, 92, 189, 39, 235, 129, 189, 241, 15, 133, 61, 219, 226, 8, 190, 178, 63, 56, 189, 110, 109, 139, 190, 204, 32, 137, 189, 60, 224, 9, 190, 169, 38, 89, 188, 17, 31, 240, 61, 75, 129, 187, 188, 145, 233, 159, 61, 15, 220, 171, 58, 2, 126, 153, 61, 34, 45, 7, 190, 227, 128, 169, 188, 172, 42, 13, 189, 54, 19, 87, 190, 171, 224, 139, 189, 101, 12, 86, 60, 21, 85, 197, 188, 31, 1, 124, 189, 79, 46, 93, 61, 189, 119, 223, 189, 155, 91, 163, 188, 219, 207, 24, 62, 39, 243, 73, 188, 171, 30, 71, 189, 140, 132, 88, 61, 199, 107, 57, 189, 140, 0, 135, 61, 202, 219, 215, 189, 72, 63, 151, 61, 158, 206, 113, 61, 16, 83, 220, 61, 61, 142, 130, 189, 134, 213, 58, 189, 114, 99, 5, 62, 77, 222, 177, 189, 209, 216, 12, 190, 150, 65, 129, 60, 6, 132, 24, 190, 57, 238, 11, 61, 231, 91, 28, 62, 123, 108, 215, 60, 236, 96, 139, 61, 200, 117, 46, 61, 244, 77, 131, 189, 130, 108, 2, 62, 146, 127, 13, 62, 113, 138, 86, 61, 0, 108, 182, 189, 81, 218, 1, 190, 234, 187, 111, 61, 42, 75, 137, 189, 135, 90, 252, 189, 61, 150, 98, 189, 242, 99, 226, 189, 32, 39, 44, 62, 36, 204, 61, 62, 222, 133, 70, 60, 224, 183, 179, 189, 125, 163, 159, 189, 244, 209, 133, 189, 15, 69, 140, 60, 130, 10, 185, 61, 60, 14, 210, 189, 219, 163, 242, 59, 71, 4, 19, 61, 130, 69, 112, 62, 146, 90, 167, 189, 175, 45, 214, 59, 207, 167, 140, 187, 239, 13, 27, 190, 161, 142, 193, 186, 237, 70, 62, 61, 167, 79, 245, 189, 125, 188, 2, 189, 147, 112, 129, 61, 49, 168, 232, 189, 251, 5, 153, 189, 26, 174, 197, 62, 40, 90, 223, 61, 117, 29, 52, 190, 30, 111, 6, 190, 48, 231, 244, 61, 97, 90, 255, 60, 208, 63, 164, 61, 45, 97, 138, 61, 242, 38, 134, 61, 235, 131, 181, 189, 152, 90, 238, 60, 116, 190, 223, 189, 11, 207, 86, 189, 243, 129, 35, 61, 245, 47, 175, 60, 189, 63, 39, 188, 114, 2, 129, 61, 172, 190, 226, 61, 117, 228, 210, 59, 175, 194, 12, 190, 12, 127, 34, 190, 60, 127, 205, 185, 120, 57, 191, 61, 81, 248, 32, 189, 231, 152, 208, 189, 247, 122, 121, 61, 27, 80, 10, 61, 198, 39, 142, 189, 217, 162, 194, 60, 225, 118, 175, 189, 152, 77, 4, 60, 48, 90, 7, 186, 38, 98, 148, 189, 219, 87, 149, 61, 45, 197, 219, 61, 116, 80, 123, 189, 233, 148, 37, 61, 214, 16, 159, 60, 198, 86, 191, 189, 177, 82, 101, 189, 46, 181, 4, 190, 143, 20, 138, 61, 255, 110, 165, 189, 41, 67, 1, 190, 158, 29, 24, 189, 50, 33, 219, 61, 177, 99, 131, 188, 44, 74, 57, 189, 215, 20, 6, 62, 80, 175, 89, 186, 52, 228, 243, 189, 73, 124, 18, 189, 84, 164, 95, 62, 116, 195, 179, 188, 133, 118, 99, 61, 181, 34, 151, 189, 156, 209, 206, 189, 250, 171, 41, 62, 70, 98, 38, 190, 187, 98, 45, 190, 235, 169, 165, 189, 66, 120, 169, 61, 41, 230, 216, 189, 14, 185, 83, 190, 123, 120, 163, 62, 219, 211, 165, 188, 31, 114, 85, 60, 247, 88, 140, 189, 195, 142, 154, 61, 179, 198, 56, 189, 76, 110, 220, 189, 192, 68, 22, 188, 246, 219, 63, 189, 179, 151, 251, 188, 187, 91, 197, 189, 216, 196, 145, 187, 215, 117, 98, 61, 177, 70, 219, 61, 251, 165, 18, 61, 34, 14, 98, 190, 202, 44, 212, 61, 162, 140, 118, 61, 104, 127, 6, 62, 253, 84, 64, 190, 91, 110, 24, 62, 177, 130, 65, 190, 49, 117, 118, 61, 34, 195, 196, 189, 140, 172, 109, 189, 247, 93, 164, 61, 220, 48, 225, 188, 60, 169, 161, 61, 51, 39, 233, 61, 186, 194, 104, 61, 190, 105, 135, 61, 92, 199, 108, 189, 54, 75, 103, 61, 11, 218, 197, 60, 236, 248, 218, 189, 204, 154, 103, 62, 76, 132, 55, 186, 72, 48, 158, 61, 170, 132, 213, 61, 235, 41, 41, 60, 42, 243, 36, 62, 45, 102, 121, 61, 174, 69, 217, 60, 130, 73, 27, 190, 254, 156, 31, 61, 211, 58, 30, 189, 202, 131, 21, 62, 33, 18, 66, 190, 29, 73, 134, 61, 207, 136, 171, 189, 182, 128, 143, 61, 31, 15, 129, 189, 105, 27, 3, 190, 197, 252, 223, 188, 195, 122, 60, 189, 20, 253, 225, 61, 103, 142, 219, 187, 88, 88, 123, 62, 149, 12, 173, 60, 162, 33, 250, 189, 68, 94, 10, 62, 7, 231, 121, 59, 9, 69, 130, 61, 189, 32, 91, 190, 103, 120, 97, 190, 175, 18, 16, 61, 24, 238, 15, 190, 146, 146, 101, 61, 144, 180, 136, 190, 245, 70, 209, 61, 49, 126, 231, 189, 170, 81, 70, 61, 14, 81, 36, 60, 121, 147, 88, 189, 224, 205, 186, 61, 213, 174, 194, 189, 157, 41, 161, 61, 221, 76, 9, 61, 254, 61, 2, 62, 234, 3, 39, 190, 201, 104, 14, 61, 44, 67, 203, 189, 32, 168, 99, 189, 8, 36, 88, 62, 99, 215, 9, 188, 82, 160, 107, 188, 65, 194, 246, 186, 135, 217, 203, 61, 91, 51, 50, 62, 167, 51, 24, 61, 37, 11, 181, 61, 20, 142, 119, 61, 63, 143, 237, 61, 40, 44, 28, 188, 15, 242, 187, 60, 121, 172, 198, 189, 219, 197, 22, 189, 109, 250, 166, 61, 200, 196, 192, 188, 203, 191, 25, 62, 101, 38, 82, 190, 198, 216, 215, 59, 59, 203, 176, 189, 248, 229, 131, 189, 218, 11, 42, 62, 54, 151, 148, 189, 58, 200, 51, 61, 208, 91, 235, 60, 239, 119, 95, 189, 134, 59, 38, 189, 40, 32, 181, 61, 158, 67, 176, 189, 33, 52, 117, 189, 155, 143, 59, 189, 148, 226, 128, 187, 34, 221, 144, 61, 85, 80, 242, 61, 72, 13, 133, 189, 179, 161, 235, 188, 22, 190, 234, 61, 19, 25, 62, 190, 45, 66, 175, 188, 87, 155, 175, 188, 246, 134, 18, 61, 147, 238, 116, 189, 184, 119, 243, 188, 254, 205, 170, 61, 207, 180, 145, 60, 197, 110, 12, 190, 179, 157, 109, 188, 63, 148, 37, 189, 45, 198, 250, 187, 134, 15, 122, 189, 189, 225, 22, 189, 58, 82, 149, 61, 53, 194, 15, 61, 158, 14, 45, 62, 152, 151, 44, 189, 150, 155, 43, 61, 196, 119, 211, 61, 175, 219, 0, 190, 130, 93, 209, 59, 225, 140, 41, 62, 142, 56, 207, 61, 187, 81, 49, 188, 229, 138, 102, 189, 96, 198, 187, 187, 192, 59, 46, 62, 53, 192, 23, 62, 182, 100, 21, 190, 116, 72, 159, 189, 117, 109, 46, 188, 205, 66, 48, 62, 182, 30, 237, 189, 242, 88, 144, 187, 43, 107, 146, 189, 175, 95, 129, 189, 143, 106, 0, 190, 132, 14, 154, 60, 146, 18, 183, 61, 139, 40, 86, 61, 18, 237, 136, 58, 252, 213, 184, 61, 0, 212, 1, 61, 142, 49, 144, 189, 218, 168, 7, 62, 126, 196, 202, 189, 229, 13, 0, 60, 197, 179, 87, 59, 185, 206, 109, 61, 50, 82, 54, 190, 207, 225, 70, 61, 140, 123, 67, 189, 131, 218, 182, 189, 189, 151, 62, 189, 76, 23, 27, 189, 84, 69, 17, 190, 174, 49, 236, 59, 157, 66, 208, 187, 216, 165, 251, 60, 4, 127, 233, 189, 224, 114, 24, 62, 201, 164, 245, 61, 32, 9, 11, 62, 25, 199, 5, 62, 84, 139, 151, 60, 15, 185, 16, 190, 11, 233, 111, 188, 143, 207, 153, 189, 107, 229, 173, 61, 122, 66, 23, 62, 207, 153, 251, 61, 108, 186, 213, 188, 8, 27, 231, 189, 155, 194, 145, 189, 57, 140, 127, 61, 71, 250, 9, 190, 146, 211, 62, 61, 81, 139, 189, 61, 113, 171, 175, 60, 25, 46, 249, 61, 62, 28, 60, 190, 21, 140, 128, 189, 8, 83, 180, 189, 101, 106, 118, 187, 76, 95, 9, 190, 178, 123, 166, 60, 113, 137, 234, 60, 134, 38, 3, 61, 229, 32, 247, 189, 198, 228, 105, 61, 153, 163, 141, 189, 215, 35, 10, 190, 22, 32, 225, 189, 166, 59, 199, 58, 223, 129, 3, 59, 214, 4, 255, 60, 46, 93, 148, 188, 246, 137, 102, 189, 124, 162, 116, 189, 205, 151, 3, 61, 26, 197, 120, 61, 125, 148, 157, 61, 37, 239, 139, 189, 106, 220, 188, 61, 67, 189, 89, 61, 248, 234, 217, 189, 92, 254, 125, 60, 149, 1, 47, 190, 221, 130, 148, 188, 48, 144, 171, 189, 94, 223, 196, 61, 248, 81, 233, 188, 231, 92, 110, 189, 254, 74, 242, 60, 185, 215, 23, 61, 60, 29, 156, 189, 153, 166, 185, 61, 16, 211, 220, 189, 72, 188, 7, 62, 38, 110, 103, 187, 95, 29, 156, 189, 173, 103, 188, 189, 31, 31, 4, 61, 58, 117, 80, 190, 238, 222, 168, 189, 191, 53, 71, 61, 208, 65, 181, 189, 236, 233, 169, 189, 220, 141, 40, 190, 68, 7, 151, 61, 60, 209, 225, 189, 211, 186, 71, 189, 197, 6, 163, 188, 8, 238, 62, 62, 147, 199, 38, 62, 96, 182, 152, 189, 197, 59, 2, 189, 105, 97, 179, 61, 86, 252, 154, 60, 117, 5, 146, 190, 7, 27, 246, 188, 70, 229, 32, 61, 32, 25, 134, 188, 14, 70, 100, 60, 223, 177, 146, 61, 178, 161, 32, 189, 131, 181, 228, 184, 90, 190, 245, 61, 84, 25, 169, 189, 161, 166, 247, 61, 231, 137, 128, 61, 171, 149, 66, 189, 165, 221, 189, 189, 106, 249, 235, 60, 233, 93, 74, 189, 78, 116, 136, 190, 22, 168, 187, 61, 174, 29, 43, 190, 23, 186, 124, 61, 13, 67, 53, 61, 101, 247, 154, 60, 38, 240, 221, 61, 102, 221, 105, 61, 53, 39, 38, 189, 149, 152, 196, 60, 145, 169, 219, 188, 98, 124, 59, 62, 241, 181, 64, 61, 245, 38, 197, 189, 255, 62, 2, 190, 186, 41, 150, 189, 249, 37, 95, 190, 196, 23, 114, 62, 228, 76, 19, 190, 28, 182, 225, 189, 98, 79, 199, 61, 179, 52, 23, 190, 135, 27, 62, 188, 227, 246, 214, 189, 104, 122, 180, 60, 110, 23, 196, 61, 81, 103, 43, 62, 35, 28, 76, 189, 231, 32, 120, 189, 136, 121, 10, 62, 94, 71, 9, 189, 116, 111, 15, 62, 13, 80, 165, 189, 159, 5, 205, 61, 168, 221, 8, 189, 245, 132, 8, 62, 66, 74, 229, 59, 138, 147, 73, 190, 79, 59, 157, 61, 47, 52, 67, 62, 89, 192, 227, 61, 4, 148, 178, 189, 96, 243, 164, 189, 80, 195, 1, 190, 235, 1, 157, 189, 47, 187, 105, 187, 158, 111, 23, 60, 87, 156, 71, 60, 133, 93, 215, 189, 218, 180, 155, 61, 160, 99, 154, 61, 19, 209, 75, 190, 28, 3, 22, 61, 92, 1, 16, 190, 228, 199, 67, 189, 253, 201, 21, 61, 23, 252, 43, 189, 53, 86, 119, 189, 51, 126, 146, 61, 164, 167, 108, 190, 57, 167, 59, 189, 131, 186, 146, 189, 191, 139, 212, 189, 215, 239, 11, 189, 128, 45, 184, 189, 23, 229, 143, 188, 82, 142, 154, 61, 243, 145, 43, 62, 98, 49, 51, 188, 146, 50, 41, 189, 94, 162, 59, 190, 247, 135, 145, 61, 30, 252, 75, 60, 73, 143, 203, 61, 139, 42, 29, 189, 102, 54, 196, 189, 153, 158, 31, 62, 49, 132, 168, 61, 90, 101, 246, 189, 54, 199, 18, 62, 106, 36, 59, 61, 174, 156, 32, 190, 209, 202, 161, 61, 198, 186, 4, 62, 246, 189, 56, 62, 238, 211, 10, 189, 162, 240, 35, 190, 219, 27, 152, 61, 186, 226, 123, 60, 148, 215, 145, 61, 11, 16, 93, 189, 153, 166, 67, 190, 221, 135, 249, 60, 70, 219, 50, 62, 39, 66, 117, 189, 242, 4, 151, 189, 187, 217, 33, 190, 59, 137, 73, 61, 199, 252, 136, 61, 97, 192, 39, 190, 44, 48, 174, 61, 163, 53, 101, 190, 206, 131, 5, 189, 204, 107, 132, 188, 220, 118, 6, 61, 94, 226, 28, 190, 104, 138, 227, 60, 73, 120, 27, 190, 188, 2, 222, 59, 22, 135, 148, 189, 58, 244, 170, 61, 228, 250, 7, 190, 174, 21, 30, 190, 22, 60, 21, 61, 175, 237, 204, 61, 49, 185, 157, 189, 0, 230, 102, 62, 220, 33, 51, 190, 147, 216, 151, 61, 219, 132, 201, 189, 131, 142, 103, 60, 159, 105, 75, 61, 141, 37, 32, 62, 27, 57, 253, 189, 146, 75, 226, 188, 137, 179, 199, 187, 72, 193, 40, 190, 87, 96, 165, 61, 61, 63, 234, 189, 113, 59, 237, 188, 252, 92, 246, 61, 24, 195, 9, 62, 171, 199, 233, 188, 60, 29, 84, 188, 67, 121, 26, 190, 74, 200, 36, 188, 89, 168, 197, 61, 244, 192, 152, 61, 20, 142, 110, 188, 111, 79, 207, 189, 145, 149, 90, 62, 230, 45, 47, 62, 248, 161, 159, 60, 85, 87, 47, 188, 88, 72, 70, 190, 99, 95, 209, 61, 136, 194, 217, 188, 174, 193, 249, 61, 80, 99, 159, 61, 104, 62, 42, 189, 161, 0, 70, 190, 153, 19, 190, 61, 159, 115, 20, 62, 246, 55, 206, 189, 176, 169, 3, 61, 165, 255, 46, 190, 206, 8, 19, 62, 18, 59, 128, 61, 228, 181, 53, 186, 57, 44, 33, 61, 63, 48, 121, 190, 87, 162, 34, 62, 119, 203, 111, 61, 195, 22, 61, 61, 103, 98, 157, 62, 112, 35, 141, 189, 141, 111, 236, 188, 87, 157, 220, 61, 253, 180, 245, 60, 229, 103, 169, 189, 98, 234, 153, 61, 169, 189, 17, 190, 164, 65, 16, 62, 66, 33, 136, 187, 10, 202, 204, 61, 118, 20, 227, 186, 140, 107, 251, 189, 223, 100, 157, 188, 122, 198, 177, 60, 7, 87, 6, 190, 17, 102, 114, 62, 152, 68, 29, 188, 89, 184, 35, 190, 197, 228, 224, 61, 76, 250, 203, 187, 212, 61, 201, 189, 3, 197, 26, 189, 24, 253, 15, 190, 188, 19, 68, 62, 131, 254, 160, 189, 124, 239, 69, 60, 176, 88, 190, 189, 247, 210, 163, 190, 18, 195, 123, 60, 83, 106, 45, 61, 84, 148, 10, 189, 41, 99, 219, 61, 29, 121, 161, 60, 22, 1, 126, 190, 129, 114, 156, 188, 176, 8, 49, 190, 209, 28, 88, 189, 234, 186, 213, 188, 105, 117, 111, 188, 169, 131, 25, 62, 141, 156, 9, 62, 172, 239, 16, 190, 205, 233, 148, 190, 36, 32, 138, 189, 182, 37, 26, 187, 105, 186, 50, 62, 242, 254, 62, 62, 147, 117, 130, 61, 4, 176, 178, 189, 132, 98, 23, 190, 111, 186, 197, 60, 219, 94, 121, 190, 105, 73, 241, 60, 117, 38, 38, 188, 44, 80, 83, 187, 168, 117, 113, 62, 50, 181, 208, 61, 73, 220, 8, 61, 149, 34, 50, 61, 224, 149, 49, 189, 203, 234, 6, 190, 110, 47, 151, 62, 3, 192, 37, 62, 174, 218, 161, 188, 190, 62, 155, 62, 16, 208, 28, 190, 199, 98, 64, 188, 9, 183, 152, 189, 48, 6, 57, 60, 40, 17, 171, 59, 73, 2, 47, 189, 214, 220, 101, 61, 159, 104, 162, 60, 221, 26, 44, 189, 195, 247, 149, 57, 201, 163, 102, 188, 66, 243, 82, 189, 46, 170, 88, 188, 76, 60, 180, 188, 10, 51, 87, 61, 91, 48, 237, 189, 148, 140, 45, 190, 90, 129, 10, 190, 177, 167, 152, 189, 133, 191, 27, 190, 136, 247, 40, 189, 50, 61, 1, 190, 138, 87, 204, 61, 6, 222, 3, 190, 19, 25, 247, 189, 22, 82, 29, 190, 238, 70, 211, 188, 236, 170, 136, 61, 26, 148, 14, 62, 18, 132, 186, 189, 114, 27, 2, 190, 209, 66, 96, 190, 91, 199, 198, 189, 175, 145, 0, 190, 30, 101, 241, 189, 102, 231, 12, 190, 145, 101, 164, 61, 151, 146, 174, 189, 58, 83, 136, 61, 76, 182, 19, 190, 247, 53, 98, 60, 114, 191, 10, 190, 77, 221, 5, 190, 240, 174, 19, 190, 243, 226, 106, 61, 242, 105, 141, 189, 164, 217, 236, 189, 110, 88, 98, 60, 157, 163, 222, 189, 193, 38, 229, 188, 33, 169, 182, 61, 140, 76, 62, 62, 215, 189, 241, 60, 200, 50, 109, 187, 131, 148, 158, 61, 237, 247, 71, 62, 0, 38, 142, 189, 177, 211, 7, 62, 44, 143, 200, 188, 75, 254, 37, 189, 211, 85, 41, 61, 37, 170, 94, 62, 201, 56, 244, 61, 207, 206, 163, 189, 119, 18, 136, 61, 99, 161, 35, 62, 214, 0, 250, 60, 30, 127, 89, 189, 167, 42, 103, 61, 28, 109, 122, 61, 131, 159, 138, 61, 136, 5, 245, 61, 135, 30, 10, 188, 59, 173, 107, 188, 146, 136, 207, 189, 40, 144, 0, 188, 238, 41, 253, 61, 166, 221, 18, 60, 162, 23, 17, 61, 213, 123, 144, 61, 209, 255, 136, 188, 2, 69, 235, 61, 5, 40, 19, 190, 170, 31, 84, 61, 113, 109, 142, 189, 189, 130, 100, 61, 201, 216, 14, 62, 11, 219, 188, 61, 167, 66, 45, 60, 207, 156, 218, 59, 113, 205, 17, 62, 146, 196, 89, 61, 52, 52, 16, 62, 226, 189, 194, 186, 50, 122, 187, 187, 119, 44, 172, 187, 225, 199, 10, 62, 137, 211, 186, 189, 65, 80, 42, 61, 66, 47, 232, 187, 220, 192, 34, 62, 248, 65, 126, 189, 4, 87, 141, 189, 229, 165, 160, 189, 177, 0, 118, 188, 71, 243, 175, 61, 220, 21, 66, 190, 140, 48, 117, 189, 179, 169, 11, 61, 41, 74, 136, 188, 36, 116, 67, 190, 16, 101, 195, 188, 214, 99, 99, 62, 159, 143, 233, 189, 169, 146, 238, 61, 17, 63, 57, 61, 218, 181, 236, 187, 14, 131, 218, 60, 34, 3, 9, 61, 204, 116, 123, 188, 161, 10, 231, 61, 117, 105, 76, 62, 12, 170, 193, 60, 100, 64, 192, 189, 127, 202, 163, 189, 172, 111, 166, 189, 60, 250, 60, 187, 162, 169, 23, 61, 253, 74, 145, 61, 226, 32, 70, 60, 148, 136, 7, 61, 87, 145, 185, 61, 80, 53, 102, 62, 178, 87, 254, 189, 177, 32, 84, 60, 217, 26, 216, 188, 53, 116, 235, 61, 151, 158, 57, 189, 227, 229, 173, 58, 161, 227, 16, 188, 196, 228, 18, 190, 158, 149, 87, 59, 163, 17, 168, 188, 131, 216, 116, 60, 26, 95, 178, 61, 231, 220, 31, 189, 41, 74, 104, 189, 11, 35, 148, 61, 100, 63, 55, 62, 8, 17, 18, 189, 48, 35, 22, 61, 188, 250, 221, 187, 198, 150, 216, 59, 20, 89, 48, 61, 234, 49, 104, 61, 153, 20, 116, 61, 226, 181, 109, 190, 86, 96, 58, 59, 166, 243, 2, 190, 46, 106, 214, 189, 254, 188, 25, 62, 155, 35, 192, 61, 108, 115, 206, 189, 13, 86, 36, 190, 117, 117, 129, 189, 225, 101, 73, 62, 161, 186, 55, 189, 188, 190, 248, 189, 42, 174, 212, 186, 19, 236, 231, 61, 181, 135, 186, 189, 108, 179, 31, 62, 237, 140, 66, 190, 183, 181, 193, 189, 227, 97, 210, 61, 46, 251, 127, 188, 181, 229, 142, 188, 172, 91, 176, 188, 62, 208, 93, 61, 34, 31, 62, 60, 125, 171, 102, 58, 27, 201, 228, 189, 125, 202, 47, 189, 60, 210, 69, 187, 152, 174, 78, 190, 205, 157, 252, 61, 88, 156, 22, 190, 249, 203, 163, 61, 191, 182, 141, 189, 177, 136, 248, 61, 80, 71, 27, 190, 96, 252, 232, 188, 232, 101, 180, 60, 168, 110, 177, 61, 225, 235, 228, 188, 87, 202, 143, 61, 74, 17, 43, 190, 138, 249, 225, 61, 238, 246, 154, 190, 112, 20, 134, 188, 247, 0, 175, 189, 23, 195, 102, 60, 157, 208, 43, 189, 127, 163, 171, 188, 231, 90, 64, 190, 213, 191, 225, 189, 191, 18, 172, 189, 55, 239, 144, 190, 188, 178, 156, 61, 106, 209, 170, 188, 227, 229, 207, 189, 29, 13, 26, 190, 102, 252, 210, 59, 9, 50, 209, 62, 42, 221, 224, 188, 15, 236, 48, 190, 194, 50, 97, 187, 216, 250, 56, 189, 234, 124, 194, 189, 184, 33, 61, 62, 105, 243, 129, 190, 132, 197, 10, 190, 231, 190, 30, 190, 137, 151, 195, 190, 194, 123, 89, 190, 216, 133, 91, 189, 116, 193, 250, 189, 174, 44, 50, 62, 97, 171, 235, 60, 38, 43, 237, 61, 80, 223, 93, 190, 228, 134, 18, 189, 147, 217, 158, 189, 114, 176, 2, 62, 127, 114, 202, 61, 229, 208, 240, 61, 190, 1, 212, 189, 189, 74, 95, 62, 113, 163, 69, 61, 14, 231, 149, 190, 161, 105, 150, 61, 193, 135, 191, 189, 107, 128, 142, 61, 37, 74, 149, 188, 135, 142, 39, 62, 223, 248, 182, 60, 211, 68, 125, 61, 79, 102, 28, 189, 113, 44, 204, 189, 194, 211, 75, 62, 51, 118, 102, 190, 83, 29, 47, 190, 38, 236, 250, 189, 16, 240, 139, 59, 80, 81, 179, 61, 204, 152, 52, 189, 21, 229, 27, 62, 41, 66, 172, 61, 132, 161, 130, 188, 42, 7, 202, 60, 226, 186, 9, 62, 53, 187, 5, 190, 219, 35, 35, 61, 147, 221, 129, 60, 70, 72, 88, 61, 182, 45, 171, 60, 146, 196, 131, 189, 11, 128, 248, 189, 181, 45, 136, 190, 144, 198, 97, 58, 34, 221, 124, 189, 227, 114, 187, 60, 205, 150, 72, 61, 90, 28, 35, 189, 149, 73, 173, 59, 92, 210, 169, 61, 54, 21, 32, 62, 129, 8, 151, 190, 181, 244, 190, 188, 100, 162, 206, 189, 212, 122, 142, 59, 85, 143, 172, 61, 214, 143, 136, 189, 66, 98, 25, 190, 152, 5, 124, 190, 99, 54, 217, 187, 109, 176, 218, 188, 48, 202, 132, 188, 126, 203, 35, 61, 138, 230, 157, 189, 33, 224, 145, 61, 28, 198, 170, 189, 157, 115, 145, 189, 156, 172, 175, 189, 234, 125, 138, 61, 181, 6, 169, 60, 12, 126, 35, 60, 187, 229, 17, 62, 198, 51, 189, 187, 36, 232, 142, 189, 133, 194, 218, 189, 154, 213, 170, 189, 234, 6, 54, 62, 40, 53, 134, 189, 38, 100, 38, 188, 52, 178, 28, 189, 128, 105, 27, 189, 123, 167, 10, 188, 39, 3, 194, 61, 47, 242, 224, 61, 191, 158, 246, 61, 98, 4, 0, 189, 254, 202, 30, 189, 247, 237, 35, 62, 234, 152, 9, 190, 105, 232, 16, 189, 245, 168, 63, 190, 16, 100, 36, 189, 84, 237, 178, 60, 64, 162, 17, 190, 205, 194, 1, 190, 148, 56, 175, 189, 169, 64, 18, 190, 141, 242, 36, 62, 221, 3, 210, 61, 253, 83, 43, 190, 235, 4, 31, 189, 157, 37, 123, 58, 8, 54, 173, 58, 126, 189, 48, 62, 13, 130, 225, 189, 18, 62, 185, 188, 252, 16, 60, 190, 100, 113, 21, 62, 72, 147, 218, 189, 55, 110, 214, 61, 175, 209, 53, 189, 202, 253, 166, 189, 12, 106, 119, 61, 170, 59, 208, 188, 94, 182, 63, 190, 53, 66, 61, 62, 225, 132, 135, 189, 238, 21, 37, 58, 31, 30, 83, 189, 89, 177, 9, 61, 170, 105, 64, 189, 138, 118, 237, 61, 117, 40, 174, 189, 187, 79, 224, 189, 140, 72, 9, 62, 54, 185, 64, 189, 126, 62, 109, 59, 75, 18, 112, 61, 203, 136, 154, 189, 117, 221, 149, 189, 86, 162, 26, 60, 50, 37, 93, 60, 148, 12, 115, 189, 250, 94, 226, 189, 21, 103, 11, 190, 179, 42, 27, 62, 227, 206, 199, 189, 43, 229, 218, 61, 79, 29, 100, 190, 2, 103, 201, 189, 16, 51, 34, 62, 61, 220, 202, 189, 209, 38, 90, 190, 168, 39, 160, 61, 131, 177, 229, 189, 229, 122, 95, 61, 166, 140, 159, 188, 17, 178, 216, 61, 196, 39, 177, 189, 96, 77, 177, 188, 92, 146, 14, 190, 9, 68, 193, 188, 68, 246, 15, 190, 151, 163, 15, 62, 103, 15, 132, 189, 153, 131, 116, 62, 186, 195, 52, 62, 221, 53, 71, 61, 156, 106, 193, 60, 73, 152, 224, 189, 102, 138, 1, 189, 123, 20, 171, 61, 20, 110, 230, 60, 90, 99, 36, 190, 141, 111, 181, 61, 62, 102, 97, 61, 132, 138, 47, 190, 50, 28, 142, 190, 102, 83, 152, 189, 181, 52, 168, 61, 87, 205, 116, 58, 147, 62, 19, 61, 8, 56, 103, 188, 217, 255, 219, 60, 113, 45, 255, 189, 129, 240, 55, 189, 69, 23, 242, 61, 27, 13, 181, 61, 102, 64, 8, 60, 44, 146, 128, 190, 210, 144, 19, 62, 10, 41, 245, 188, 174, 223, 67, 190, 43, 172, 27, 190, 11, 242, 45, 190, 230, 16, 231, 61, 122, 248, 184, 59, 58, 117, 6, 62, 125, 118, 72, 190, 29, 126, 151, 189, 131, 238, 13, 188, 5, 66, 199, 189, 244, 0, 170, 60, 1, 25, 164, 61, 161, 125, 175, 60, 104, 52, 67, 190, 138, 253, 47, 189, 201, 195, 65, 61, 235, 25, 249, 189, 94, 24, 115, 60, 23, 57, 209, 189, 175, 52, 141, 60, 26, 86, 199, 188, 75, 66, 213, 61, 241, 46, 7, 189, 12, 202, 145, 61, 111, 125, 238, 189, 107, 116, 39, 61, 69, 194, 237, 59, 201, 218, 97, 60, 71, 63, 20, 62, 38, 162, 145, 189, 161, 207, 65, 61, 163, 167, 18, 189, 72, 25, 132, 61, 64, 96, 189, 189, 90, 215, 237, 188, 105, 88, 226, 61, 188, 172, 39, 60, 205, 16, 235, 188, 149, 165, 87, 189, 18, 100, 127, 189, 100, 70, 143, 59, 114, 196, 216, 189, 139, 185, 234, 61, 172, 114, 173, 61, 134, 224, 42, 62, 104, 66, 15, 190, 241, 173, 30, 62, 150, 251, 227, 188, 9, 35, 110, 189, 119, 14, 130, 189, 23, 2, 109, 188, 172, 3, 33, 62, 49, 172, 147, 189, 111, 48, 13, 61, 100, 131, 193, 189, 40, 196, 211, 59, 143, 131, 113, 189, 191, 165, 135, 190, 62, 124, 80, 189, 18, 141, 81, 61, 208, 240, 223, 61, 202, 97, 88, 190, 210, 20, 36, 62, 151, 110, 242, 189, 77, 169, 128, 190, 228, 29, 36, 190, 28, 61, 52, 190, 175, 106, 21, 62, 138, 134, 106, 61, 45, 73, 174, 189, 29, 27, 21, 190, 206, 1, 26, 190, 182, 218, 112, 188, 49, 200, 56, 190, 163, 139, 175, 61, 10, 147, 96, 60, 174, 71, 248, 186, 41, 103, 152, 190, 172, 206, 10, 61, 211, 166, 203, 60, 46, 153, 82, 190, 102, 88, 28, 189, 192, 70, 190, 61, 87, 110, 187, 61, 138, 68, 177, 188, 236, 120, 147, 189, 0, 110, 83, 189, 141, 85, 132, 61, 95, 145, 156, 58, 196, 6, 84, 61, 66, 159, 68, 61, 121, 12, 66, 189, 175, 51, 150, 61, 130, 254, 125, 190, 243, 77, 31, 62, 225, 132, 154, 61, 112, 76, 158, 189, 33, 146, 53, 190, 64, 28, 15, 189, 65, 93, 7, 62, 7, 189, 228, 60, 172, 122, 198, 189, 53, 167, 110, 61, 18, 28, 136, 187, 191, 17, 247, 188, 5, 0, 2, 190, 124, 249, 64, 189, 70, 55, 69, 61, 194, 158, 30, 62, 64, 56, 39, 190, 87, 228, 197, 188, 28, 89, 42, 188, 121, 143, 179, 189, 123, 177, 109, 189, 4, 128, 92, 189, 4, 142, 219, 60, 162, 216, 162, 60, 241, 44, 139, 60, 250, 198, 8, 188, 190, 129, 114, 189, 0, 0, 6, 0, 8, 0, 4, 0, 6, 0, 0, 0, 4, 0, 0, 0, 128, 0, 0, 0, 119, 254, 210, 60, 65, 5, 219, 188, 83, 3, 135, 187, 163, 216, 176, 188, 223, 166, 45, 60, 205, 229, 188, 60, 235, 12, 254, 188, 97, 131, 37, 189, 239, 11, 240, 188, 186, 249, 97, 61, 71, 128, 18, 189, 15, 184, 146, 188, 228, 154, 126, 61, 30, 129, 234, 61, 206, 215, 125, 187, 115, 109, 48, 188, 169, 191, 11, 189, 58, 37, 253, 189, 15, 239, 43, 59, 61, 249, 249, 188, 130, 130, 64, 189, 233, 187, 222, 188, 45, 1, 219, 189, 193, 31, 138, 188, 233, 157, 18, 61, 41, 139, 3, 189, 45, 233, 248, 188, 88, 21, 153, 60, 105, 58, 136, 61, 108, 247, 122, 61, 72, 90, 157, 61, 18, 134, 174, 186, 192, 253, 255, 255, 196, 253, 255, 255, 15, 0, 0, 0, 77, 76, 73, 82, 32, 67, 111, 110, 118, 101, 114, 116, 101, 100, 46, 0, 1, 0, 0, 0, 20, 0, 0, 0, 0, 0, 14, 0, 24, 0, 20, 0, 16, 0, 12, 0, 8, 0, 4, 0, 14, 0, 0, 0, 20, 0, 0, 0, 28, 0, 0, 0, 120, 0, 0, 0, 124, 0, 0, 0, 128, 0, 0, 0, 4, 0, 0, 0, 109, 97, 105, 110, 0, 0, 0, 0, 1, 0, 0, 0, 20, 0, 0, 0, 0, 0, 14, 0, 20, 0, 0, 0, 16, 0, 12, 0, 11, 0, 4, 0, 14, 0, 0, 0, 28, 0, 0, 0, 0, 0, 0, 1, 36, 0, 0, 0, 40, 0, 0, 0, 12, 0, 16, 0, 0, 0, 12, 0, 8, 0, 7, 0, 12, 0, 0, 0, 0, 0, 0, 1, 1, 0, 0, 0, 1, 0, 0, 0, 1, 0, 0, 0, 3, 0, 0, 0, 3, 0, 0, 0, 0, 0, 0, 0, 2, 0, 0, 0, 1, 0, 0, 0, 1, 0, 0, 0, 3, 0, 0, 0, 1, 0, 0, 0, 0, 0, 0, 0, 4, 0, 0, 0, 68, 1, 0, 0, 216, 0, 0, 0, 112, 0, 0, 0, 4, 0, 0, 0, 226, 254, 255, 255, 0, 0, 0, 1, 20, 0, 0, 0, 36, 0, 0, 0, 36, 0, 0, 0, 4, 0, 0, 0, 60, 0, 0, 0, 4, 0, 0, 0, 255, 255, 255, 255, 16, 0, 0, 0, 16, 0, 0, 0, 32, 0, 0, 0, 204, 254, 255, 255, 25, 0, 0, 0, 83, 116, 97, 116, 101, 102, 117, 108, 80, 97, 114, 116, 105, 116, 105, 111, 110, 101, 100, 67, 97, 108, 108, 58, 48, 0, 0, 0, 4, 0, 0, 0, 1, 0, 0, 0, 16, 0, 0, 0, 16, 0, 0, 0, 32, 0, 0, 0, 178, 255, 255, 255, 0, 0, 0, 1, 16, 0, 0, 0, 16, 0, 0, 0, 3, 0, 0, 0, 36, 0, 0, 0, 28, 255, 255, 255, 23, 0, 0, 0, 109, 111, 100, 101, 108, 95, 50, 47, 99, 111, 110, 118, 50, 100, 95, 49, 47, 67, 111, 110, 118, 50, 68, 0, 4, 0, 0, 0, 32, 0, 0, 0, 3, 0, 0, 0, 3, 0, 0, 0, 16, 0, 0, 0, 0, 0, 22, 0, 24, 0, 20, 0, 0, 0, 16, 0, 12, 0, 8, 0, 0, 0, 0, 0, 0, 0, 7, 0, 22, 0, 0, 0, 0, 0, 0, 1, 16, 0, 0, 0, 16, 0, 0, 0, 2, 0, 0, 0, 52, 0, 0, 0, 128, 255, 255, 255, 39, 0, 0, 0, 109, 111, 100, 101, 108, 95, 50, 47, 99, 111, 110, 118, 50, 100, 95, 49, 47, 66, 105, 97, 115, 65, 100, 100, 47, 82, 101, 97, 100, 86, 97, 114, 105, 97, 98, 108, 101, 79, 112, 0, 1, 0, 0, 0, 32, 0, 0, 0, 0, 0, 22, 0, 28, 0, 24, 0, 0, 0, 20, 0, 16, 0, 12, 0, 0, 0, 0, 0, 8, 0, 7, 0, 22, 0, 0, 0, 0, 0, 0, 1, 20, 0, 0, 0, 40, 0, 0, 0, 40, 0, 0, 0, 1, 0, 0, 0, 64, 0, 0, 0, 4, 0, 0, 0, 255, 255, 255, 255, 16, 0, 0, 0, 16, 0, 0, 0, 16, 0, 0, 0, 4, 0, 4, 0, 4, 0, 0, 0, 25, 0, 0, 0, 115, 101, 114, 118, 105, 110, 103, 95, 100, 101, 102, 97, 117, 108, 116, 95, 105, 110, 112, 117, 116, 95, 51, 58, 48, 0, 0, 0, 4, 0, 0, 0, 1, 0, 0, 0, 16, 0, 0, 0, 16, 0, 0, 0, 16, 0, 0, 0, 1, 0, 0, 0, 16, 0, 0, 0, 12, 0, 12, 0, 11, 0, 0, 0, 0, 0, 4, 0, 12, 0, 0, 0, 3, 0, 0, 0, 0, 0, 0, 3
};
