#pragma once

#include <cstdint>

const uint8_t layer_48[] = {
28, 0, 0, 0, 84, 70, 76, 51, 20, 0, 32, 0, 28, 0, 24, 0, 20, 0, 16, 0, 12, 0, 0, 0, 8, 0, 4, 0, 20, 0, 0, 0, 28, 0, 0, 0, 160, 0, 0, 0, 248, 0, 0, 0, 196, 4, 0, 0, 212, 4, 0, 0, 232, 7, 0, 0, 3, 0, 0, 0, 1, 0, 0, 0, 16, 0, 0, 0, 0, 0, 10, 0, 16, 0, 12, 0, 8, 0, 4, 0, 10, 0, 0, 0, 12, 0, 0, 0, 28, 0, 0, 0, 72, 0, 0, 0, 15, 0, 0, 0, 115, 101, 114, 118, 105, 110, 103, 95, 100, 101, 102, 97, 117, 108, 116, 0, 1, 0, 0, 0, 4, 0, 0, 0, 136, 255, 255, 255, 4, 0, 0, 0, 4, 0, 0, 0, 20, 0, 0, 0, 98, 108, 111, 99, 107, 95, 53, 95, 100, 101, 112, 116, 104, 119, 105, 115, 101, 95, 66, 78, 0, 0, 0, 0, 1, 0, 0, 0, 4, 0, 0, 0, 86, 253, 255, 255, 4, 0, 0, 0, 8, 0, 0, 0, 105, 110, 112, 117, 116, 95, 53, 49, 0, 0, 0, 0, 2, 0, 0, 0, 52, 0, 0, 0, 4, 0, 0, 0, 220, 255, 255, 255, 7, 0, 0, 0, 4, 0, 0, 0, 19, 0, 0, 0, 67, 79, 78, 86, 69, 82, 83, 73, 79, 78, 95, 77, 69, 84, 65, 68, 65, 84, 65, 0, 8, 0, 12, 0, 8, 0, 4, 0, 8, 0, 0, 0, 6, 0, 0, 0, 4, 0, 0, 0, 19, 0, 0, 0, 109, 105, 110, 95, 114, 117, 110, 116, 105, 109, 101, 95, 118, 101, 114, 115, 105, 111, 110, 0, 8, 0, 0, 0, 200, 3, 0, 0, 192, 3, 0, 0, 48, 2, 0, 0, 152, 0, 0, 0, 144, 0, 0, 0, 136, 0, 0, 0, 104, 0, 0, 0, 4, 0, 0, 0, 238, 253, 255, 255, 4, 0, 0, 0, 84, 0, 0, 0, 12, 0, 0, 0, 8, 0, 14, 0, 8, 0, 4, 0, 8, 0, 0, 0, 16, 0, 0, 0, 36, 0, 0, 0, 0, 0, 6, 0, 8, 0, 4, 0, 6, 0, 0, 0, 4, 0, 0, 0, 0, 0, 0, 0, 0, 0, 10, 0, 16, 0, 12, 0, 8, 0, 4, 0, 10, 0, 0, 0, 2, 0, 0, 0, 2, 0, 0, 0, 4, 0, 0, 0, 6, 0, 0, 0, 50, 46, 49, 53, 46, 48, 0, 0, 78, 254, 255, 255, 4, 0, 0, 0, 16, 0, 0, 0, 49, 46, 53, 46, 48, 0, 0, 0, 0, 0, 0, 0, 0, 0, 0, 0, 152, 249, 255, 255, 156, 249, 255, 255, 114, 254, 255, 255, 4, 0, 0, 0, 128, 1, 0, 0, 232, 43, 15, 64, 140, 198, 181, 64, 75, 52, 31, 190, 192, 74, 15, 61, 84, 234, 87, 64, 25, 131, 79, 191, 224, 9, 195, 59, 80, 22, 11, 189, 80, 37, 179, 63, 128, 157, 27, 64, 86, 84, 131, 191, 224, 174, 37, 189, 160, 179, 216, 61, 12, 119, 65, 63, 131, 44, 10, 64, 16, 63, 187, 191, 236, 231, 95, 191, 209, 55, 147, 189, 148, 125, 177, 60, 82, 21, 142, 63, 68, 74, 92, 191, 226, 104, 47, 63, 53, 204, 198, 190, 150, 67, 61, 63, 109, 131, 1, 64, 76, 235, 140, 60, 206, 103, 128, 191, 210, 185, 69, 64, 128, 92, 134, 63, 252, 200, 7, 193, 234, 50, 197, 62, 179, 172, 163, 64, 251, 108, 63, 64, 158, 245, 207, 191, 182, 72, 185, 62, 112, 34, 136, 61, 112, 89, 136, 190, 32, 175, 207, 188, 82, 246, 129, 63, 85, 83, 61, 191, 125, 229, 145, 191, 131, 121, 111, 190, 228, 156, 64, 192, 160, 194, 135, 188, 199, 28, 40, 65, 44, 4, 105, 189, 108, 247, 186, 63, 194, 143, 158, 190, 251, 84, 39, 193, 2, 153, 32, 62, 166, 152, 196, 189, 140, 178, 180, 61, 115, 135, 5, 191, 75, 71, 50, 64, 102, 236, 97, 191, 102, 105, 219, 63, 89, 12, 49, 64, 220, 186, 119, 61, 218, 53, 210, 63, 244, 157, 128, 61, 7, 41, 52, 192, 56, 221, 119, 190, 145, 18, 101, 62, 62, 219, 174, 60, 120, 60, 77, 190, 96, 47, 240, 63, 65, 246, 172, 190, 105, 55, 11, 192, 170, 77, 69, 191, 38, 173, 203, 62, 140, 175, 217, 188, 254, 104, 153, 190, 130, 237, 216, 62, 156, 65, 66, 61, 105, 102, 61, 191, 237, 219, 237, 191, 216, 201, 19, 61, 214, 228, 30, 190, 148, 143, 37, 64, 24, 188, 160, 191, 20, 102, 235, 191, 214, 205, 49, 192, 225, 21, 221, 189, 216, 52, 5, 61, 226, 38, 98, 64, 40, 123, 194, 191, 42, 107, 82, 191, 157, 141, 86, 193, 68, 209, 229, 191, 146, 173, 147, 63, 212, 176, 106, 191, 244, 44, 136, 63, 64, 147, 98, 188, 220, 63, 12, 190, 195, 236, 134, 191, 0, 97, 152, 62, 0, 0, 6, 0, 8, 0, 4, 0, 6, 0, 0, 0, 4, 0, 0, 0, 128, 1, 0, 0, 140, 214, 66, 62, 134, 73, 20, 62, 252, 58, 121, 62, 8, 19, 209, 62, 91, 125, 77, 62, 104, 244, 4, 63, 162, 81, 73, 62, 245, 20, 74, 62, 63, 98, 225, 62, 31, 233, 104, 62, 135, 50, 214, 62, 123, 82, 146, 62, 48, 120, 209, 62, 214, 145, 14, 63, 207, 188, 239, 62, 207, 146, 201, 62, 139, 125, 170, 62, 254, 171, 187, 62, 58, 190, 132, 62, 11, 42, 23, 62, 189, 195, 137, 62, 154, 219, 119, 62, 253, 176, 159, 62, 179, 239, 70, 62, 158, 5, 216, 62, 16, 87, 176, 62, 59, 225, 196, 62, 178, 87, 63, 62, 92, 190, 124, 62, 7, 190, 46, 63, 84, 71, 46, 63, 67, 17, 236, 62, 249, 181, 183, 62, 96, 45, 3, 63, 147, 223, 220, 62, 28, 180, 82, 63, 122, 154, 50, 63, 225, 147, 204, 62, 181, 252, 209, 62, 247, 150, 191, 62, 246, 133, 196, 62, 54, 226, 162, 62, 171, 32, 99, 63, 75, 195, 136, 62, 183, 189, 27, 63, 19, 184, 116, 62, 16, 137, 83, 62, 100, 190, 177, 62, 253, 105, 56, 63, 169, 161, 66, 62, 126, 130, 76, 63, 22, 117, 102, 62, 99, 114, 238, 62, 26, 101, 74, 62, 54, 2, 244, 62, 238, 208, 108, 62, 235, 125, 141, 62, 20, 76, 46, 63, 204, 255, 35, 62, 142, 201, 169, 62, 252, 153, 5, 63, 226, 169, 34, 63, 77, 217, 91, 62, 163, 123, 158, 62, 34, 246, 100, 62, 113, 240, 50, 62, 18, 86, 17, 63, 63, 163, 7, 63, 160, 52, 233, 62, 22, 155, 128, 62, 209, 98, 155, 62, 222, 165, 135, 62, 247, 47, 0, 63, 63, 64, 108, 62, 7, 126, 80, 63, 8, 123, 65, 63, 65, 211, 61, 62, 175, 168, 22, 62, 217, 13, 226, 61, 146, 3, 208, 62, 185, 38, 16, 63, 84, 103, 36, 63, 92, 176, 176, 62, 140, 55, 199, 62, 149, 238, 234, 61, 93, 144, 165, 62, 233, 124, 84, 62, 68, 67, 38, 63, 175, 120, 43, 63, 11, 146, 139, 62, 41, 169, 20, 63, 146, 45, 248, 61, 246, 228, 135, 62, 4, 246, 102, 62, 8, 44, 232, 62, 113, 181, 195, 62, 192, 252, 255, 255, 196, 252, 255, 255, 15, 0, 0, 0, 77, 76, 73, 82, 32, 67, 111, 110, 118, 101, 114, 116, 101, 100, 46, 0, 1, 0, 0, 0, 20, 0, 0, 0, 0, 0, 14, 0, 24, 0, 20, 0, 16, 0, 12, 0, 8, 0, 4, 0, 14, 0, 0, 0, 20, 0, 0, 0, 28, 0, 0, 0, 160, 0, 0, 0, 164, 0, 0, 0, 168, 0, 0, 0, 4, 0, 0, 0, 109, 97, 105, 110, 0, 0, 0, 0, 2, 0, 0, 0, 88, 0, 0, 0, 20, 0, 0, 0, 0, 0, 14, 0, 24, 0, 20, 0, 16, 0, 12, 0, 11, 0, 4, 0, 14, 0, 0, 0, 20, 0, 0, 0, 0, 0, 0, 11, 16, 0, 0, 0, 20, 0, 0, 0, 1, 0, 0, 0, 76, 253, 255, 255, 1, 0, 0, 0, 4, 0, 0, 0, 2, 0, 0, 0, 3, 0, 0, 0, 2, 0, 0, 0, 0, 0, 14, 0, 20, 0, 0, 0, 16, 0, 12, 0, 11, 0, 4, 0, 14, 0, 0, 0, 16, 0, 0, 0, 0, 0, 0, 21, 12, 0, 0, 0, 16, 0, 0, 0, 136, 253, 255, 255, 1, 0, 0, 0, 3, 0, 0, 0, 2, 0, 0, 0, 0, 0, 0, 0, 1, 0, 0, 0, 1, 0, 0, 0, 4, 0, 0, 0, 1, 0, 0, 0, 0, 0, 0, 0, 5, 0, 0, 0, 216, 1, 0, 0, 100, 1, 0, 0, 240, 0, 0, 0, 112, 0, 0, 0, 4, 0, 0, 0, 82, 254, 255, 255, 0, 0, 0, 1, 20, 0, 0, 0, 36, 0, 0, 0, 36, 0, 0, 0, 5, 0, 0, 0, 60, 0, 0, 0, 4, 0, 0, 0, 255, 255, 255, 255, 12, 0, 0, 0, 12, 0, 0, 0, 96, 0, 0, 0, 248, 253, 255, 255, 25, 0, 0, 0, 83, 116, 97, 116, 101, 102, 117, 108, 80, 97, 114, 116, 105, 116, 105, 111, 110, 101, 100, 67, 97, 108, 108, 58, 48, 0, 0, 0, 4, 0, 0, 0, 1, 0, 0, 0, 12, 0, 0, 0, 12, 0, 0, 0, 96, 0, 0, 0, 186, 254, 255, 255, 0, 0, 0, 1, 20, 0, 0, 0, 36, 0, 0, 0, 36, 0, 0, 0, 4, 0, 0, 0, 80, 0, 0, 0, 4, 0, 0, 0, 255, 255, 255, 255, 12, 0, 0, 0, 12, 0, 0, 0, 96, 0, 0, 0, 96, 254, 255, 255, 47, 0, 0, 0, 109, 111, 100, 101, 108, 95, 52, 56, 47, 98, 108, 111, 99, 107, 95, 53, 95, 100, 101, 112, 116, 104, 119, 105, 115, 101, 95, 66, 78, 47, 70, 117, 115, 101, 100, 66, 97, 116, 99, 104, 78, 111, 114, 109, 86, 51, 50, 0, 4, 0, 0, 0, 1, 0, 0, 0, 12, 0, 0, 0, 12, 0, 0, 0, 96, 0, 0, 0, 166, 255, 255, 255, 0, 0, 0, 1, 16, 0, 0, 0, 16, 0, 0, 0, 3, 0, 0, 0, 60, 0, 0, 0, 196, 254, 255, 255, 47, 0, 0, 0, 109, 111, 100, 101, 108, 95, 52, 56, 47, 98, 108, 111, 99, 107, 95, 53, 95, 100, 101, 112, 116, 104, 119, 105, 115, 101, 95, 66, 78, 47, 70, 117, 115, 101, 100, 66, 97, 116, 99, 104, 78, 111, 114, 109, 86, 51, 49, 0, 1, 0, 0, 0, 96, 0, 0, 0, 0, 0, 22, 0, 24, 0, 20, 0, 0, 0, 16, 0, 12, 0, 8, 0, 0, 0, 0, 0, 0, 0, 7, 0, 22, 0, 0, 0, 0, 0, 0, 1, 16, 0, 0, 0, 16, 0, 0, 0, 2, 0, 0, 0, 60, 0, 0, 0, 52, 255, 255, 255, 46, 0, 0, 0, 109, 111, 100, 101, 108, 95, 52, 56, 47, 98, 108, 111, 99, 107, 95, 53, 95, 100, 101, 112, 116, 104, 119, 105, 115, 101, 95, 66, 78, 47, 70, 117, 115, 101, 100, 66, 97, 116, 99, 104, 78, 111, 114, 109, 86, 51, 0, 0, 1, 0, 0, 0, 96, 0, 0, 0, 0, 0, 22, 0, 28, 0, 24, 0, 0, 0, 20, 0, 16, 0, 12, 0, 0, 0, 0, 0, 8, 0, 7, 0, 22, 0, 0, 0, 0, 0, 0, 1, 20, 0, 0, 0, 36, 0, 0, 0, 36, 0, 0, 0, 1, 0, 0, 0, 60, 0, 0, 0, 4, 0, 0, 0, 255, 255, 255, 255, 12, 0, 0, 0, 12, 0, 0, 0, 96, 0, 0, 0, 188, 255, 255, 255, 26, 0, 0, 0, 115, 101, 114, 118, 105, 110, 103, 95, 100, 101, 102, 97, 117, 108, 116, 95, 105, 110, 112, 117, 116, 95, 53, 49, 58, 48, 0, 0, 4, 0, 0, 0, 1, 0, 0, 0, 12, 0, 0, 0, 12, 0, 0, 0, 96, 0, 0, 0, 2, 0, 0, 0, 28, 0, 0, 0, 8, 0, 0, 0, 4, 0, 4, 0, 4, 0, 0, 0, 12, 0, 12, 0, 11, 0, 0, 0, 0, 0, 4, 0, 12, 0, 0, 0, 18, 0, 0, 0, 0, 0, 0, 18
};
