#pragma once

#include <cstdint>

const uint8_t layer_33[] = {
28, 0, 0, 0, 84, 70, 76, 51, 20, 0, 32, 0, 28, 0, 24, 0, 20, 0, 16, 0, 12, 0, 0, 0, 8, 0, 4, 0, 20, 0, 0, 0, 28, 0, 0, 0, 152, 0, 0, 0, 240, 0, 0, 0, 244, 13, 0, 0, 4, 14, 0, 0, 96, 16, 0, 0, 3, 0, 0, 0, 1, 0, 0, 0, 16, 0, 0, 0, 0, 0, 10, 0, 16, 0, 12, 0, 8, 0, 4, 0, 10, 0, 0, 0, 12, 0, 0, 0, 28, 0, 0, 0, 64, 0, 0, 0, 15, 0, 0, 0, 115, 101, 114, 118, 105, 110, 103, 95, 100, 101, 102, 97, 117, 108, 116, 0, 1, 0, 0, 0, 4, 0, 0, 0, 144, 255, 255, 255, 3, 0, 0, 0, 4, 0, 0, 0, 15, 0, 0, 0, 98, 108, 111, 99, 107, 95, 51, 95, 112, 114, 111, 106, 101, 99, 116, 0, 1, 0, 0, 0, 4, 0, 0, 0, 222, 242, 255, 255, 4, 0, 0, 0, 8, 0, 0, 0, 105, 110, 112, 117, 116, 95, 51, 53, 0, 0, 0, 0, 2, 0, 0, 0, 52, 0, 0, 0, 4, 0, 0, 0, 220, 255, 255, 255, 6, 0, 0, 0, 4, 0, 0, 0, 19, 0, 0, 0, 67, 79, 78, 86, 69, 82, 83, 73, 79, 78, 95, 77, 69, 84, 65, 68, 65, 84, 65, 0, 8, 0, 12, 0, 8, 0, 4, 0, 8, 0, 0, 0, 5, 0, 0, 0, 4, 0, 0, 0, 19, 0, 0, 0, 109, 105, 110, 95, 114, 117, 110, 116, 105, 109, 101, 95, 118, 101, 114, 115, 105, 111, 110, 0, 7, 0, 0, 0, 0, 13, 0, 0, 248, 12, 0, 0, 168, 12, 0, 0, 144, 0, 0, 0, 136, 0, 0, 0, 104, 0, 0, 0, 4, 0, 0, 0, 114, 243, 255, 255, 4, 0, 0, 0, 84, 0, 0, 0, 12, 0, 0, 0, 8, 0, 14, 0, 8, 0, 4, 0, 8, 0, 0, 0, 16, 0, 0, 0, 36, 0, 0, 0, 0, 0, 6, 0, 8, 0, 4, 0, 6, 0, 0, 0, 4, 0, 0, 0, 0, 0, 0, 0, 0, 0, 10, 0, 16, 0, 12, 0, 8, 0, 4, 0, 10, 0, 0, 0, 2, 0, 0, 0, 2, 0, 0, 0, 4, 0, 0, 0, 6, 0, 0, 0, 50, 46, 49, 53, 46, 48, 0, 0, 210, 243, 255, 255, 4, 0, 0, 0, 16, 0, 0, 0, 49, 46, 53, 46, 48, 0, 0, 0, 0, 0, 0, 0, 0, 0, 0, 0, 92, 241, 255, 255, 242, 243, 255, 255, 4, 0, 0, 0, 0, 12, 0, 0, 94, 187, 119, 189, 66, 137, 169, 188, 85, 55, 205, 189, 154, 255, 60, 61, 91, 31, 231, 61, 77, 17, 174, 188, 25, 128, 182, 186, 175, 100, 234, 62, 170, 4, 95, 190, 202, 74, 114, 61, 246, 78, 51, 62, 110, 161, 229, 188, 70, 59, 162, 61, 142, 133, 160, 189, 87, 146, 74, 189, 177, 133, 143, 61, 70, 106, 102, 61, 222, 232, 103, 189, 163, 200, 122, 188, 148, 82, 7, 188, 190, 163, 155, 62, 31, 17, 8, 189, 191, 97, 215, 61, 65, 40, 21, 63, 47, 155, 178, 189, 217, 45, 194, 62, 230, 47, 232, 188, 134, 77, 160, 189, 150, 198, 8, 62, 163, 52, 160, 189, 38, 199, 224, 61, 152, 167, 180, 189, 198, 64, 172, 189, 180, 245, 113, 62, 74, 43, 207, 61, 46, 96, 78, 190, 244, 166, 162, 61, 234, 33, 84, 62, 64, 72, 138, 61, 6, 117, 156, 189, 81, 66, 241, 190, 33, 24, 246, 189, 26, 119, 185, 61, 219, 36, 74, 62, 134, 100, 17, 62, 175, 73, 237, 61, 196, 37, 7, 191, 246, 104, 114, 190, 56, 166, 68, 190, 194, 247, 84, 189, 249, 249, 225, 61, 164, 231, 170, 61, 244, 246, 38, 190, 90, 143, 65, 61, 12, 216, 84, 59, 203, 1, 149, 62, 81, 165, 142, 190, 20, 105, 82, 190, 141, 65, 209, 60, 27, 188, 92, 190, 38, 109, 231, 189, 251, 89, 169, 189, 183, 151, 40, 60, 174, 108, 64, 188, 0, 8, 237, 189, 231, 36, 35, 63, 254, 219, 95, 189, 23, 198, 180, 61, 103, 180, 22, 61, 174, 122, 36, 61, 205, 13, 17, 190, 71, 136, 154, 189, 252, 136, 11, 62, 72, 165, 117, 190, 120, 180, 173, 61, 174, 153, 218, 61, 201, 208, 0, 190, 21, 184, 227, 190, 62, 99, 63, 190, 80, 244, 212, 61, 209, 159, 0, 190, 79, 58, 82, 188, 97, 24, 64, 62, 228, 94, 205, 187, 128, 2, 213, 188, 65, 165, 102, 190, 152, 255, 249, 187, 177, 89, 213, 61, 43, 29, 180, 189, 78, 112, 51, 190, 36, 61, 51, 63, 131, 255, 155, 61, 42, 157, 29, 61, 237, 139, 6, 60, 185, 22, 234, 61, 172, 50, 151, 189, 149, 100, 21, 190, 11, 68, 81, 189, 249, 233, 185, 189, 193, 209, 114, 190, 23, 194, 213, 188, 107, 10, 243, 190, 103, 186, 161, 60, 179, 183, 22, 190, 87, 91, 102, 60, 205, 193, 159, 61, 186, 224, 7, 62, 237, 164, 49, 62, 121, 157, 204, 61, 15, 31, 230, 61, 25, 197, 173, 189, 170, 150, 100, 61, 12, 222, 238, 188, 1, 138, 30, 190, 56, 229, 26, 190, 210, 105, 173, 189, 102, 165, 192, 188, 152, 49, 185, 59, 177, 125, 161, 188, 120, 200, 90, 191, 58, 165, 150, 189, 114, 37, 6, 63, 110, 107, 237, 189, 216, 75, 5, 60, 182, 6, 114, 188, 32, 37, 28, 190, 94, 94, 184, 187, 150, 102, 32, 189, 134, 35, 61, 189, 253, 127, 185, 62, 114, 64, 194, 61, 57, 99, 229, 59, 154, 120, 53, 62, 123, 153, 171, 61, 195, 15, 62, 62, 215, 241, 210, 187, 63, 136, 143, 190, 70, 130, 228, 60, 157, 17, 10, 190, 99, 72, 19, 189, 181, 85, 169, 188, 116, 60, 155, 189, 38, 143, 233, 61, 241, 77, 84, 61, 130, 243, 153, 189, 12, 229, 150, 62, 65, 92, 80, 60, 186, 88, 127, 190, 91, 232, 134, 188, 158, 85, 178, 60, 253, 175, 7, 61, 24, 253, 35, 189, 174, 62, 27, 190, 140, 230, 226, 188, 138, 119, 134, 57, 220, 76, 165, 62, 163, 191, 135, 191, 139, 45, 112, 61, 162, 222, 75, 189, 27, 147, 60, 188, 207, 56, 146, 60, 113, 83, 77, 61, 244, 134, 22, 190, 192, 178, 133, 188, 133, 102, 133, 190, 243, 63, 136, 61, 33, 191, 96, 61, 140, 176, 233, 61, 205, 215, 46, 189, 196, 152, 178, 189, 102, 62, 206, 60, 31, 142, 79, 62, 97, 119, 166, 189, 61, 181, 32, 62, 129, 231, 47, 61, 229, 215, 6, 62, 105, 125, 57, 61, 44, 52, 204, 56, 47, 218, 7, 62, 2, 41, 42, 62, 105, 236, 179, 189, 93, 91, 84, 62, 42, 153, 176, 62, 128, 194, 100, 61, 77, 15, 160, 61, 122, 2, 67, 61, 224, 172, 71, 62, 82, 38, 131, 190, 167, 201, 85, 61, 75, 205, 212, 188, 213, 115, 68, 61, 78, 171, 17, 62, 136, 121, 100, 62, 174, 40, 81, 190, 96, 96, 79, 61, 220, 49, 136, 61, 210, 10, 244, 61, 34, 203, 55, 62, 248, 159, 31, 62, 92, 187, 16, 190, 171, 68, 58, 190, 138, 47, 234, 60, 194, 142, 155, 189, 68, 197, 1, 190, 14, 46, 71, 60, 155, 56, 154, 61, 182, 154, 220, 59, 202, 182, 212, 61, 149, 81, 21, 62, 154, 212, 6, 189, 140, 239, 1, 191, 62, 98, 131, 59, 244, 119, 38, 189, 202, 227, 138, 61, 240, 15, 186, 61, 2, 162, 229, 62, 24, 100, 66, 58, 91, 22, 47, 190, 237, 64, 35, 61, 136, 217, 163, 62, 4, 151, 68, 61, 125, 26, 237, 190, 92, 254, 253, 61, 15, 222, 46, 61, 190, 194, 196, 61, 160, 7, 94, 190, 9, 154, 55, 62, 132, 156, 81, 191, 160, 207, 100, 61, 1, 183, 107, 62, 57, 167, 215, 187, 188, 108, 242, 61, 94, 117, 227, 189, 143, 5, 215, 61, 115, 66, 84, 61, 164, 25, 18, 190, 155, 118, 135, 189, 144, 32, 226, 189, 171, 197, 105, 61, 139, 2, 63, 61, 240, 143, 60, 62, 82, 109, 168, 60, 141, 90, 205, 189, 193, 170, 169, 62, 173, 159, 253, 187, 203, 157, 194, 188, 114, 175, 10, 61, 31, 150, 30, 62, 53, 50, 202, 58, 75, 208, 56, 188, 195, 253, 91, 62, 54, 176, 116, 61, 131, 6, 77, 60, 136, 84, 145, 62, 86, 171, 142, 187, 54, 241, 31, 60, 150, 136, 0, 190, 220, 111, 13, 62, 65, 254, 32, 62, 237, 112, 16, 61, 220, 24, 131, 61, 86, 154, 9, 61, 148, 85, 7, 60, 17, 56, 23, 190, 183, 172, 213, 59, 186, 127, 159, 190, 13, 163, 216, 60, 212, 246, 207, 189, 51, 224, 48, 188, 230, 236, 17, 189, 104, 56, 141, 60, 117, 188, 241, 60, 81, 220, 206, 62, 201, 119, 61, 191, 145, 75, 99, 187, 8, 87, 42, 62, 146, 74, 207, 189, 155, 173, 140, 189, 41, 231, 176, 61, 96, 127, 217, 60, 211, 134, 4, 191, 49, 26, 171, 62, 135, 219, 3, 62, 206, 93, 166, 188, 150, 5, 160, 188, 88, 181, 139, 188, 133, 184, 24, 191, 166, 220, 99, 189, 147, 104, 62, 62, 32, 52, 24, 189, 226, 205, 230, 60, 92, 73, 22, 61, 96, 169, 228, 189, 91, 146, 74, 189, 187, 25, 181, 60, 39, 155, 223, 189, 23, 124, 248, 188, 18, 94, 101, 61, 139, 52, 10, 60, 12, 49, 173, 60, 31, 222, 6, 190, 7, 140, 144, 61, 240, 76, 43, 61, 13, 174, 19, 61, 210, 97, 221, 187, 159, 127, 234, 189, 79, 45, 130, 63, 78, 42, 74, 61, 109, 85, 5, 61, 30, 187, 146, 61, 108, 86, 250, 61, 229, 43, 145, 190, 131, 63, 226, 60, 110, 103, 3, 61, 232, 197, 68, 62, 197, 97, 216, 189, 168, 111, 224, 189, 102, 76, 90, 189, 177, 54, 26, 189, 165, 50, 66, 61, 226, 3, 196, 187, 35, 153, 219, 189, 218, 75, 119, 62, 11, 192, 143, 190, 60, 27, 234, 60, 188, 128, 175, 190, 82, 218, 21, 63, 196, 126, 204, 61, 254, 102, 181, 187, 128, 208, 64, 189, 85, 16, 140, 189, 253, 36, 117, 61, 161, 124, 182, 189, 179, 232, 186, 60, 4, 134, 141, 61, 1, 35, 143, 189, 108, 89, 92, 190, 25, 83, 96, 189, 17, 203, 76, 189, 133, 162, 52, 62, 24, 194, 60, 189, 153, 229, 192, 62, 191, 34, 167, 188, 89, 178, 111, 62, 184, 33, 9, 59, 133, 31, 32, 62, 4, 84, 81, 189, 46, 74, 37, 63, 137, 29, 194, 62, 109, 248, 217, 188, 16, 227, 101, 189, 17, 103, 138, 188, 129, 227, 208, 188, 157, 42, 208, 189, 100, 109, 39, 189, 3, 112, 133, 189, 46, 164, 249, 189, 216, 183, 32, 189, 180, 120, 188, 189, 230, 200, 177, 62, 121, 97, 106, 188, 54, 45, 70, 190, 92, 48, 128, 190, 227, 85, 255, 189, 179, 51, 90, 189, 55, 47, 52, 189, 129, 220, 106, 189, 138, 236, 110, 189, 6, 119, 19, 60, 171, 214, 126, 60, 10, 111, 246, 189, 57, 229, 134, 60, 254, 95, 234, 60, 250, 193, 154, 190, 152, 241, 234, 62, 243, 104, 176, 188, 221, 81, 4, 62, 40, 194, 246, 61, 57, 197, 161, 190, 108, 130, 144, 190, 3, 35, 141, 61, 10, 50, 51, 189, 138, 10, 39, 60, 244, 64, 39, 188, 2, 176, 91, 190, 146, 145, 110, 190, 105, 82, 194, 58, 29, 61, 163, 59, 29, 72, 111, 188, 42, 143, 31, 60, 150, 230, 155, 185, 122, 244, 25, 62, 61, 59, 17, 189, 181, 134, 174, 190, 45, 193, 61, 188, 134, 125, 82, 62, 172, 110, 128, 62, 111, 13, 215, 57, 204, 129, 128, 61, 29, 32, 7, 61, 111, 96, 29, 189, 229, 55, 164, 62, 5, 255, 27, 190, 117, 93, 19, 61, 28, 120, 101, 190, 97, 46, 193, 61, 236, 25, 114, 188, 236, 182, 43, 189, 60, 40, 232, 187, 55, 152, 75, 188, 40, 37, 134, 60, 30, 101, 90, 62, 160, 137, 60, 189, 156, 158, 17, 63, 47, 136, 48, 189, 177, 81, 201, 61, 124, 192, 195, 188, 180, 187, 44, 61, 14, 176, 209, 189, 6, 56, 29, 191, 209, 42, 17, 191, 21, 121, 169, 62, 56, 147, 17, 62, 23, 193, 24, 62, 249, 252, 232, 61, 244, 98, 10, 189, 101, 191, 10, 63, 86, 215, 204, 189, 72, 216, 71, 61, 28, 90, 20, 62, 79, 199, 168, 61, 114, 116, 16, 62, 27, 146, 240, 189, 89, 89, 157, 60, 50, 66, 85, 187, 220, 156, 44, 62, 10, 176, 201, 61, 151, 230, 22, 190, 232, 96, 139, 188, 193, 136, 135, 59, 252, 225, 138, 62, 228, 155, 69, 190, 113, 169, 193, 60, 99, 107, 149, 62, 161, 160, 129, 190, 49, 103, 154, 59, 117, 241, 145, 61, 97, 12, 143, 60, 71, 121, 140, 188, 228, 253, 230, 61, 250, 158, 40, 190, 127, 45, 199, 189, 33, 154, 130, 62, 158, 164, 38, 61, 208, 155, 67, 189, 61, 33, 135, 189, 100, 99, 59, 57, 234, 98, 20, 61, 22, 100, 98, 62, 182, 99, 214, 189, 22, 211, 90, 61, 71, 111, 130, 61, 47, 86, 83, 61, 72, 205, 191, 187, 120, 58, 81, 188, 125, 91, 221, 61, 65, 247, 168, 62, 10, 239, 248, 190, 178, 89, 142, 189, 16, 218, 27, 191, 250, 250, 229, 190, 127, 28, 63, 61, 180, 192, 241, 189, 202, 110, 232, 61, 136, 204, 134, 62, 123, 168, 45, 61, 90, 171, 8, 60, 61, 203, 104, 61, 135, 27, 167, 189, 217, 87, 102, 190, 5, 218, 192, 189, 113, 119, 90, 189, 127, 91, 56, 190, 128, 63, 35, 191, 7, 40, 109, 62, 228, 70, 211, 62, 196, 59, 7, 61, 170, 133, 145, 189, 193, 54, 153, 188, 136, 116, 57, 62, 228, 133, 5, 62, 182, 253, 228, 60, 127, 43, 124, 62, 140, 225, 101, 190, 5, 58, 30, 190, 135, 32, 202, 61, 2, 159, 41, 62, 92, 126, 103, 190, 176, 72, 129, 62, 246, 65, 52, 190, 143, 231, 6, 62, 241, 201, 2, 190, 125, 9, 64, 62, 16, 215, 130, 62, 118, 137, 125, 190, 164, 119, 5, 191, 147, 1, 171, 60, 119, 209, 48, 190, 232, 230, 96, 62, 211, 95, 18, 62, 2, 109, 105, 62, 52, 35, 111, 190, 215, 214, 33, 190, 117, 233, 208, 190, 109, 22, 8, 62, 126, 184, 137, 188, 111, 165, 210, 61, 65, 51, 67, 190, 174, 62, 244, 60, 136, 33, 49, 190, 53, 230, 59, 190, 3, 236, 167, 190, 10, 55, 162, 189, 41, 17, 144, 61, 57, 31, 157, 61, 92, 4, 146, 61, 34, 115, 165, 61, 42, 31, 28, 190, 147, 168, 228, 185, 240, 137, 68, 62, 82, 1, 137, 188, 175, 23, 126, 62, 141, 245, 13, 62, 35, 191, 128, 190, 0, 99, 155, 190, 104, 166, 122, 189, 38, 59, 216, 59, 128, 99, 118, 62, 150, 70, 162, 189, 243, 115, 182, 59, 243, 80, 207, 188, 177, 25, 58, 62, 127, 170, 175, 188, 152, 66, 150, 190, 178, 55, 180, 61, 48, 106, 59, 62, 18, 240, 20, 61, 98, 103, 162, 188, 234, 179, 62, 190, 59, 88, 208, 190, 92, 73, 72, 61, 105, 53, 195, 60, 121, 154, 5, 61, 108, 33, 31, 190, 11, 213, 96, 61, 197, 62, 115, 189, 79, 37, 84, 62, 179, 21, 27, 190, 24, 21, 175, 61, 184, 247, 162, 190, 2, 207, 57, 62, 221, 236, 128, 189, 181, 232, 30, 190, 165, 12, 172, 190, 155, 226, 181, 62, 205, 70, 135, 61, 118, 87, 2, 61, 242, 112, 244, 190, 200, 30, 102, 58, 206, 117, 123, 62, 186, 202, 184, 62, 60, 228, 144, 190, 169, 240, 46, 189, 30, 17, 94, 190, 123, 224, 244, 61, 247, 73, 213, 61, 99, 180, 40, 63, 152, 15, 53, 188, 123, 50, 177, 189, 163, 35, 177, 61, 107, 58, 96, 60, 115, 21, 250, 61, 201, 227, 229, 60, 135, 245, 3, 63, 133, 195, 7, 62, 244, 44, 172, 189, 212, 146, 148, 190, 102, 70, 224, 189, 79, 54, 96, 188, 237, 212, 157, 61, 23, 77, 28, 189, 134, 255, 156, 188, 105, 25, 100, 189, 180, 254, 14, 61, 168, 236, 97, 59, 74, 188, 200, 188, 32, 98, 252, 60, 222, 15, 254, 59, 204, 128, 146, 60, 1, 141, 192, 61, 229, 36, 105, 60, 211, 81, 149, 61, 187, 71, 65, 188, 212, 71, 154, 60, 187, 110, 218, 187, 91, 27, 189, 61, 9, 113, 237, 188, 193, 102, 0, 61, 226, 193, 254, 60, 204, 114, 178, 190, 194, 55, 38, 189, 33, 229, 145, 61, 188, 192, 208, 189, 103, 215, 147, 189, 230, 200, 23, 190, 254, 113, 135, 187, 115, 58, 167, 189, 69, 4, 198, 190, 183, 118, 43, 61, 14, 235, 37, 191, 79, 236, 145, 190, 194, 47, 80, 189, 42, 82, 219, 62, 16, 81, 236, 188, 34, 130, 181, 61, 187, 76, 21, 60, 197, 172, 165, 188, 130, 118, 125, 61, 119, 178, 149, 61, 97, 101, 244, 189, 151, 33, 203, 60, 74, 119, 39, 60, 156, 244, 219, 59, 221, 173, 161, 61, 62, 108, 132, 61, 51, 23, 98, 62, 15, 223, 84, 189, 148, 148, 85, 61, 190, 26, 163, 61, 125, 101, 43, 188, 161, 146, 81, 61, 161, 231, 96, 188, 198, 200, 222, 61, 132, 176, 169, 60, 216, 161, 8, 62, 245, 116, 253, 189, 174, 230, 183, 61, 172, 159, 43, 189, 89, 197, 104, 60, 23, 80, 206, 60, 126, 55, 49, 62, 230, 28, 178, 63, 154, 251, 201, 61, 95, 100, 140, 189, 196, 214, 133, 61, 124, 95, 4, 189, 6, 114, 94, 61, 7, 208, 196, 188, 180, 22, 203, 190, 77, 98, 102, 62, 83, 13, 241, 61, 150, 76, 100, 189, 101, 37, 180, 61, 39, 144, 55, 190, 186, 186, 26, 190, 250, 75, 153, 188, 173, 196, 29, 188, 159, 101, 106, 61, 87, 115, 189, 188, 175, 129, 128, 188, 6, 168, 157, 189, 249, 15, 0, 190, 159, 72, 117, 62, 179, 189, 207, 189, 153, 64, 54, 62, 102, 7, 142, 190, 123, 150, 88, 62, 235, 223, 207, 61, 192, 234, 22, 62, 241, 134, 199, 190, 144, 103, 92, 190, 241, 8, 92, 190, 160, 170, 244, 187, 119, 41, 240, 62, 238, 76, 145, 190, 177, 228, 173, 187, 94, 115, 119, 62, 102, 117, 32, 61, 129, 14, 72, 62, 193, 6, 170, 61, 190, 176, 86, 190, 219, 32, 134, 62, 64, 117, 153, 61, 160, 12, 136, 61, 126, 28, 139, 62, 142, 81, 143, 189, 69, 181, 182, 61, 25, 219, 115, 62, 111, 4, 3, 190, 41, 41, 230, 190, 0, 9, 233, 61, 110, 7, 9, 190, 99, 160, 109, 62, 11, 53, 61, 62, 124, 57, 31, 189, 111, 5, 137, 62, 230, 124, 247, 190, 250, 183, 77, 190, 192, 36, 35, 190, 61, 181, 51, 62, 218, 10, 182, 62, 103, 23, 170, 60, 204, 133, 26, 190, 163, 28, 26, 61, 222, 199, 93, 62, 131, 84, 227, 187, 125, 246, 132, 58, 245, 67, 242, 187, 121, 96, 97, 61, 20, 219, 194, 189, 159, 47, 206, 187, 244, 223, 75, 190, 250, 210, 133, 190, 11, 255, 16, 190, 195, 150, 65, 62, 43, 47, 140, 61, 160, 144, 128, 62, 19, 186, 72, 190, 188, 205, 63, 189, 61, 159, 177, 61, 160, 31, 69, 189, 194, 18, 17, 190, 39, 55, 154, 62, 226, 8, 185, 61, 74, 106, 177, 190, 82, 72, 100, 62, 175, 206, 72, 62, 231, 132, 41, 62, 244, 108, 143, 62, 57, 27, 153, 190, 74, 135, 186, 190, 129, 69, 193, 189, 189, 12, 86, 62, 201, 246, 73, 189, 140, 24, 179, 190, 190, 82, 44, 62, 210, 101, 161, 61, 104, 205, 60, 62, 250, 227, 65, 62, 166, 139, 32, 62, 135, 146, 43, 62, 67, 31, 36, 190, 180, 5, 109, 61, 46, 37, 73, 62, 135, 101, 176, 62, 238, 31, 232, 62, 124, 255, 36, 189, 240, 237, 189, 190, 216, 51, 7, 189, 19, 198, 10, 190, 31, 66, 162, 62, 192, 250, 81, 62, 111, 122, 199, 62, 82, 207, 50, 190, 0, 160, 241, 187, 198, 59, 3, 190, 179, 240, 78, 189, 18, 60, 121, 62, 0, 0, 6, 0, 8, 0, 4, 0, 6, 0, 0, 0, 4, 0, 0, 0, 64, 0, 0, 0, 0, 0, 0, 0, 0, 0, 0, 0, 0, 0, 0, 0, 0, 0, 0, 0, 0, 0, 0, 0, 0, 0, 0, 0, 0, 0, 0, 0, 0, 0, 0, 0, 0, 0, 0, 0, 0, 0, 0, 0, 0, 0, 0, 0, 0, 0, 0, 0, 0, 0, 0, 0, 0, 0, 0, 0, 0, 0, 0, 0, 0, 0, 0, 0, 192, 253, 255, 255, 196, 253, 255, 255, 15, 0, 0, 0, 77, 76, 73, 82, 32, 67, 111, 110, 118, 101, 114, 116, 101, 100, 46, 0, 1, 0, 0, 0, 20, 0, 0, 0, 0, 0, 14, 0, 24, 0, 20, 0, 16, 0, 12, 0, 8, 0, 4, 0, 14, 0, 0, 0, 20, 0, 0, 0, 28, 0, 0, 0, 116, 0, 0, 0, 120, 0, 0, 0, 124, 0, 0, 0, 4, 0, 0, 0, 109, 97, 105, 110, 0, 0, 0, 0, 1, 0, 0, 0, 20, 0, 0, 0, 0, 0, 14, 0, 22, 0, 0, 0, 16, 0, 12, 0, 11, 0, 4, 0, 14, 0, 0, 0, 28, 0, 0, 0, 0, 0, 0, 1, 32, 0, 0, 0, 36, 0, 0, 0, 0, 0, 10, 0, 12, 0, 0, 0, 8, 0, 4, 0, 10, 0, 0, 0, 1, 0, 0, 0, 1, 0, 0, 0, 1, 0, 0, 0, 3, 0, 0, 0, 3, 0, 0, 0, 0, 0, 0, 0, 2, 0, 0, 0, 1, 0, 0, 0, 1, 0, 0, 0, 3, 0, 0, 0, 1, 0, 0, 0, 0, 0, 0, 0, 4, 0, 0, 0, 72, 1, 0, 0, 228, 0, 0, 0, 112, 0, 0, 0, 4, 0, 0, 0, 222, 254, 255, 255, 0, 0, 0, 1, 20, 0, 0, 0, 36, 0, 0, 0, 36, 0, 0, 0, 4, 0, 0, 0, 60, 0, 0, 0, 4, 0, 0, 0, 255, 255, 255, 255, 12, 0, 0, 0, 12, 0, 0, 0, 16, 0, 0, 0, 200, 254, 255, 255, 25, 0, 0, 0, 83, 116, 97, 116, 101, 102, 117, 108, 80, 97, 114, 116, 105, 116, 105, 111, 110, 101, 100, 67, 97, 108, 108, 58, 48, 0, 0, 0, 4, 0, 0, 0, 1, 0, 0, 0, 12, 0, 0, 0, 12, 0, 0, 0, 16, 0, 0, 0, 166, 255, 255, 255, 0, 0, 0, 1, 16, 0, 0, 0, 16, 0, 0, 0, 3, 0, 0, 0, 48, 0, 0, 0, 24, 255, 255, 255, 32, 0, 0, 0, 109, 111, 100, 101, 108, 95, 51, 51, 47, 98, 108, 111, 99, 107, 95, 51, 95, 112, 114, 111, 106, 101, 99, 116, 47, 67, 111, 110, 118, 50, 68, 49, 0, 0, 0, 0, 4, 0, 0, 0, 16, 0, 0, 0, 1, 0, 0, 0, 1, 0, 0, 0, 48, 0, 0, 0, 0, 0, 22, 0, 24, 0, 20, 0, 0, 0, 16, 0, 12, 0, 8, 0, 0, 0, 0, 0, 0, 0, 7, 0, 22, 0, 0, 0, 0, 0, 0, 1, 16, 0, 0, 0, 16, 0, 0, 0, 2, 0, 0, 0, 44, 0, 0, 0, 136, 255, 255, 255, 31, 0, 0, 0, 109, 111, 100, 101, 108, 95, 51, 51, 47, 98, 108, 111, 99, 107, 95, 51, 95, 112, 114, 111, 106, 101, 99, 116, 47, 67, 111, 110, 118, 50, 68, 0, 1, 0, 0, 0, 16, 0, 0, 0, 0, 0, 22, 0, 28, 0, 24, 0, 0, 0, 20, 0, 16, 0, 12, 0, 0, 0, 0, 0, 8, 0, 7, 0, 22, 0, 0, 0, 0, 0, 0, 1, 20, 0, 0, 0, 40, 0, 0, 0, 40, 0, 0, 0, 1, 0, 0, 0, 64, 0, 0, 0, 4, 0, 0, 0, 255, 255, 255, 255, 12, 0, 0, 0, 12, 0, 0, 0, 48, 0, 0, 0, 4, 0, 4, 0, 4, 0, 0, 0, 26, 0, 0, 0, 115, 101, 114, 118, 105, 110, 103, 95, 100, 101, 102, 97, 117, 108, 116, 95, 105, 110, 112, 117, 116, 95, 51, 53, 58, 48, 0, 0, 4, 0, 0, 0, 1, 0, 0, 0, 12, 0, 0, 0, 12, 0, 0, 0, 48, 0, 0, 0, 1, 0, 0, 0, 16, 0, 0, 0, 12, 0, 12, 0, 11, 0, 0, 0, 0, 0, 4, 0, 12, 0, 0, 0, 3, 0, 0, 0, 0, 0, 0, 3
};
