#pragma once

#include <cstdint>

const uint8_t layer_35[] = {
28, 0, 0, 0, 84, 70, 76, 51, 20, 0, 32, 0, 28, 0, 24, 0, 20, 0, 16, 0, 12, 0, 0, 0, 8, 0, 4, 0, 20, 0, 0, 0, 28, 0, 0, 0, 152, 0, 0, 0, 240, 0, 0, 0, 52, 27, 0, 0, 68, 27, 0, 0, 156, 29, 0, 0, 3, 0, 0, 0, 1, 0, 0, 0, 16, 0, 0, 0, 0, 0, 10, 0, 16, 0, 12, 0, 8, 0, 4, 0, 10, 0, 0, 0, 12, 0, 0, 0, 28, 0, 0, 0, 64, 0, 0, 0, 15, 0, 0, 0, 115, 101, 114, 118, 105, 110, 103, 95, 100, 101, 102, 97, 117, 108, 116, 0, 1, 0, 0, 0, 4, 0, 0, 0, 144, 255, 255, 255, 3, 0, 0, 0, 4, 0, 0, 0, 14, 0, 0, 0, 98, 108, 111, 99, 107, 95, 52, 95, 101, 120, 112, 97, 110, 100, 0, 0, 1, 0, 0, 0, 4, 0, 0, 0, 222, 230, 255, 255, 4, 0, 0, 0, 8, 0, 0, 0, 105, 110, 112, 117, 116, 95, 51, 55, 0, 0, 0, 0, 2, 0, 0, 0, 52, 0, 0, 0, 4, 0, 0, 0, 220, 255, 255, 255, 6, 0, 0, 0, 4, 0, 0, 0, 19, 0, 0, 0, 67, 79, 78, 86, 69, 82, 83, 73, 79, 78, 95, 77, 69, 84, 65, 68, 65, 84, 65, 0, 8, 0, 12, 0, 8, 0, 4, 0, 8, 0, 0, 0, 5, 0, 0, 0, 4, 0, 0, 0, 19, 0, 0, 0, 109, 105, 110, 95, 114, 117, 110, 116, 105, 109, 101, 95, 118, 101, 114, 115, 105, 111, 110, 0, 7, 0, 0, 0, 64, 26, 0, 0, 56, 26, 0, 0, 168, 24, 0, 0, 144, 0, 0, 0, 136, 0, 0, 0, 104, 0, 0, 0, 4, 0, 0, 0, 114, 231, 255, 255, 4, 0, 0, 0, 84, 0, 0, 0, 12, 0, 0, 0, 8, 0, 14, 0, 8, 0, 4, 0, 8, 0, 0, 0, 16, 0, 0, 0, 36, 0, 0, 0, 0, 0, 6, 0, 8, 0, 4, 0, 6, 0, 0, 0, 4, 0, 0, 0, 0, 0, 0, 0, 0, 0, 10, 0, 16, 0, 12, 0, 8, 0, 4, 0, 10, 0, 0, 0, 2, 0, 0, 0, 2, 0, 0, 0, 4, 0, 0, 0, 6, 0, 0, 0, 50, 46, 49, 53, 46, 48, 0, 0, 210, 231, 255, 255, 4, 0, 0, 0, 16, 0, 0, 0, 49, 46, 53, 46, 48, 0, 0, 0, 0, 0, 0, 0, 0, 0, 0, 0, 32, 228, 255, 255, 242, 231, 255, 255, 4, 0, 0, 0, 0, 24, 0, 0, 115, 208, 130, 61, 81, 148, 113, 188, 164, 145, 50, 62, 108, 143, 36, 62, 59, 103, 216, 61, 72, 100, 17, 189, 216, 194, 56, 61, 41, 151, 22, 189, 136, 116, 68, 62, 1, 59, 232, 188, 166, 187, 164, 189, 251, 102, 210, 189, 232, 237, 102, 61, 162, 65, 230, 61, 75, 147, 66, 189, 151, 74, 11, 190, 168, 242, 126, 61, 132, 187, 3, 62, 98, 129, 53, 188, 66, 29, 136, 58, 9, 148, 30, 62, 140, 14, 156, 188, 109, 101, 140, 60, 88, 5, 60, 61, 235, 156, 144, 61, 203, 41, 244, 61, 234, 117, 94, 189, 165, 217, 86, 62, 163, 79, 219, 59, 173, 46, 69, 189, 61, 61, 26, 62, 32, 18, 24, 190, 229, 115, 63, 61, 131, 58, 230, 189, 108, 158, 60, 188, 35, 52, 54, 60, 241, 49, 180, 189, 46, 234, 138, 61, 149, 123, 121, 189, 82, 145, 18, 62, 82, 82, 243, 189, 153, 141, 2, 190, 239, 152, 183, 60, 208, 246, 12, 62, 154, 129, 34, 187, 93, 131, 63, 190, 74, 3, 210, 61, 63, 184, 6, 190, 3, 67, 133, 62, 200, 12, 137, 62, 80, 186, 104, 187, 47, 72, 133, 61, 44, 83, 133, 190, 155, 131, 22, 189, 5, 238, 242, 189, 18, 189, 104, 189, 109, 53, 125, 188, 108, 105, 117, 60, 217, 156, 105, 62, 52, 146, 16, 190, 27, 169, 222, 189, 5, 149, 42, 62, 196, 106, 178, 189, 32, 167, 135, 189, 189, 71, 52, 60, 152, 204, 116, 188, 23, 70, 42, 61, 121, 177, 226, 60, 109, 70, 132, 189, 207, 255, 139, 61, 25, 129, 38, 189, 72, 89, 182, 61, 114, 219, 11, 190, 138, 19, 157, 189, 116, 239, 73, 188, 152, 83, 5, 59, 154, 152, 84, 188, 93, 114, 155, 190, 216, 186, 86, 61, 249, 6, 74, 59, 205, 196, 118, 62, 216, 177, 165, 189, 122, 97, 117, 189, 146, 172, 50, 187, 100, 90, 169, 188, 220, 177, 114, 190, 34, 97, 48, 189, 72, 8, 213, 60, 133, 214, 132, 188, 186, 138, 28, 61, 252, 147, 103, 190, 107, 179, 146, 188, 141, 118, 249, 60, 173, 6, 220, 188, 168, 84, 159, 188, 201, 234, 105, 61, 28, 175, 54, 190, 178, 233, 160, 189, 59, 62, 107, 59, 115, 198, 0, 62, 149, 189, 135, 189, 206, 230, 153, 187, 138, 205, 106, 189, 113, 34, 32, 61, 245, 209, 34, 190, 152, 118, 221, 189, 111, 85, 152, 189, 172, 174, 44, 189, 237, 119, 199, 60, 28, 119, 158, 61, 155, 134, 17, 187, 111, 125, 244, 61, 100, 48, 80, 189, 173, 97, 31, 61, 7, 178, 58, 190, 47, 214, 7, 62, 148, 210, 197, 61, 119, 175, 169, 190, 218, 161, 66, 189, 76, 49, 219, 61, 102, 203, 210, 60, 90, 112, 119, 189, 8, 109, 62, 61, 149, 82, 177, 188, 183, 31, 19, 60, 159, 212, 64, 61, 123, 56, 183, 189, 142, 231, 17, 61, 80, 230, 215, 61, 233, 135, 14, 190, 118, 246, 59, 189, 116, 208, 0, 189, 61, 237, 192, 60, 156, 230, 177, 61, 75, 154, 47, 190, 158, 117, 64, 190, 112, 24, 145, 188, 111, 168, 46, 61, 106, 225, 89, 190, 75, 110, 163, 60, 2, 249, 174, 190, 200, 4, 3, 60, 100, 212, 142, 60, 157, 64, 138, 61, 33, 239, 180, 60, 110, 173, 132, 189, 90, 13, 212, 61, 140, 42, 54, 62, 35, 70, 10, 60, 18, 250, 32, 61, 49, 48, 166, 188, 177, 143, 234, 189, 137, 91, 52, 62, 36, 57, 26, 190, 110, 105, 1, 60, 89, 196, 234, 188, 108, 248, 155, 187, 210, 124, 172, 61, 80, 142, 239, 189, 54, 200, 248, 60, 32, 103, 237, 189, 139, 31, 152, 189, 96, 63, 125, 188, 174, 192, 118, 189, 235, 188, 211, 61, 214, 243, 35, 61, 119, 183, 93, 61, 54, 160, 103, 61, 171, 35, 207, 61, 164, 213, 145, 189, 175, 188, 175, 189, 161, 119, 196, 60, 48, 94, 181, 61, 204, 237, 206, 189, 246, 109, 239, 189, 19, 116, 179, 61, 174, 208, 218, 61, 196, 184, 253, 188, 210, 120, 153, 190, 206, 19, 35, 61, 38, 32, 239, 61, 101, 36, 20, 61, 145, 160, 131, 189, 16, 228, 207, 61, 6, 53, 41, 189, 28, 93, 161, 189, 227, 189, 250, 188, 204, 150, 132, 188, 53, 192, 22, 188, 141, 68, 112, 61, 44, 158, 225, 189, 105, 180, 217, 59, 133, 204, 59, 62, 209, 167, 174, 189, 176, 46, 166, 187, 200, 177, 91, 186, 111, 114, 188, 188, 207, 219, 229, 189, 112, 100, 165, 189, 95, 23, 175, 188, 223, 239, 90, 61, 79, 31, 74, 188, 199, 120, 95, 190, 174, 245, 19, 189, 159, 202, 144, 189, 142, 6, 164, 188, 225, 60, 153, 187, 81, 214, 235, 61, 32, 150, 64, 61, 198, 73, 170, 189, 15, 8, 160, 60, 186, 197, 192, 189, 250, 90, 245, 61, 31, 19, 200, 187, 34, 135, 199, 189, 89, 12, 15, 190, 184, 137, 15, 61, 19, 61, 149, 189, 24, 236, 26, 61, 70, 123, 109, 60, 127, 221, 2, 61, 170, 48, 199, 188, 228, 213, 79, 61, 8, 223, 179, 60, 164, 173, 239, 189, 169, 4, 154, 61, 4, 98, 52, 190, 180, 168, 254, 189, 148, 212, 37, 62, 221, 207, 140, 190, 11, 198, 244, 61, 199, 147, 3, 190, 34, 233, 198, 61, 243, 60, 135, 61, 175, 232, 151, 187, 149, 139, 99, 190, 173, 108, 12, 61, 61, 90, 115, 62, 135, 154, 17, 189, 73, 44, 139, 61, 239, 202, 179, 61, 167, 79, 73, 188, 223, 57, 11, 62, 107, 171, 230, 61, 36, 125, 4, 62, 179, 164, 238, 189, 96, 210, 145, 189, 242, 208, 199, 188, 39, 152, 129, 61, 120, 37, 0, 190, 84, 238, 68, 190, 167, 233, 187, 188, 251, 155, 152, 190, 23, 186, 5, 190, 40, 86, 245, 188, 147, 96, 10, 62, 165, 83, 70, 190, 209, 160, 230, 61, 53, 131, 11, 60, 161, 164, 200, 60, 195, 107, 37, 188, 167, 66, 2, 62, 96, 189, 148, 61, 231, 250, 251, 61, 166, 179, 81, 189, 182, 152, 80, 61, 50, 219, 50, 62, 7, 185, 156, 60, 174, 35, 198, 59, 139, 105, 150, 58, 248, 38, 201, 59, 61, 247, 98, 189, 89, 81, 30, 189, 149, 5, 251, 188, 102, 35, 229, 189, 124, 215, 182, 189, 164, 207, 223, 189, 194, 138, 72, 61, 191, 233, 13, 62, 185, 180, 131, 62, 102, 42, 165, 189, 48, 4, 186, 62, 73, 254, 90, 189, 46, 167, 75, 61, 109, 114, 15, 189, 122, 162, 128, 62, 115, 47, 47, 62, 61, 185, 147, 188, 223, 206, 143, 60, 206, 89, 131, 62, 91, 174, 227, 189, 168, 181, 85, 188, 97, 111, 159, 60, 40, 152, 45, 188, 187, 63, 241, 61, 124, 84, 233, 189, 249, 157, 39, 61, 22, 244, 99, 62, 215, 189, 186, 189, 232, 185, 73, 62, 74, 224, 202, 60, 202, 46, 192, 189, 30, 130, 137, 61, 217, 233, 54, 190, 253, 213, 31, 61, 85, 186, 89, 189, 66, 191, 254, 61, 33, 237, 91, 61, 132, 228, 3, 61, 13, 86, 245, 61, 63, 240, 13, 189, 35, 49, 93, 61, 209, 138, 89, 61, 252, 210, 184, 60, 83, 107, 3, 190, 248, 103, 69, 188, 185, 85, 207, 190, 242, 157, 182, 60, 245, 0, 234, 188, 79, 12, 149, 61, 179, 153, 78, 62, 109, 253, 7, 190, 241, 163, 7, 189, 85, 163, 61, 190, 176, 237, 142, 189, 191, 135, 89, 61, 29, 249, 159, 61, 107, 78, 71, 190, 228, 85, 7, 190, 135, 196, 158, 61, 92, 220, 149, 190, 83, 137, 149, 189, 97, 96, 151, 61, 135, 67, 195, 187, 3, 174, 15, 62, 185, 12, 170, 60, 53, 100, 226, 61, 163, 152, 25, 188, 225, 195, 132, 62, 84, 145, 244, 61, 12, 80, 59, 189, 174, 16, 213, 61, 200, 90, 83, 61, 53, 138, 254, 59, 160, 157, 152, 60, 63, 232, 129, 61, 248, 70, 98, 189, 145, 33, 188, 188, 21, 27, 138, 188, 118, 19, 51, 62, 223, 75, 191, 59, 158, 180, 24, 189, 200, 83, 158, 61, 117, 229, 87, 59, 182, 8, 3, 61, 244, 149, 230, 60, 70, 80, 164, 188, 198, 108, 150, 187, 141, 77, 68, 61, 202, 217, 160, 62, 171, 98, 18, 61, 70, 73, 99, 186, 89, 170, 202, 60, 4, 194, 122, 61, 23, 221, 141, 59, 1, 188, 192, 61, 176, 67, 136, 61, 112, 166, 215, 60, 200, 113, 70, 189, 39, 31, 33, 61, 103, 84, 70, 190, 212, 189, 57, 61, 251, 187, 89, 61, 239, 118, 137, 190, 218, 65, 199, 60, 32, 104, 189, 61, 137, 153, 150, 59, 179, 35, 41, 189, 219, 85, 189, 188, 238, 133, 158, 187, 195, 197, 14, 190, 57, 108, 83, 60, 186, 97, 135, 187, 126, 87, 145, 61, 241, 240, 157, 61, 177, 116, 9, 190, 117, 135, 7, 60, 201, 107, 1, 190, 237, 181, 4, 62, 120, 235, 175, 59, 6, 216, 136, 189, 25, 12, 195, 188, 152, 69, 146, 61, 253, 78, 96, 61, 25, 10, 10, 62, 103, 71, 87, 62, 221, 151, 217, 189, 232, 153, 50, 62, 144, 90, 135, 62, 48, 32, 151, 61, 54, 215, 69, 190, 186, 22, 36, 190, 59, 225, 111, 189, 130, 72, 112, 59, 129, 191, 133, 60, 178, 112, 45, 58, 246, 5, 218, 60, 129, 58, 53, 189, 194, 30, 201, 189, 66, 220, 60, 59, 177, 119, 235, 189, 228, 99, 75, 60, 208, 180, 53, 61, 240, 172, 142, 61, 62, 78, 91, 61, 125, 17, 175, 61, 100, 44, 145, 60, 237, 152, 145, 60, 174, 229, 191, 61, 76, 177, 0, 188, 20, 63, 189, 188, 230, 53, 224, 60, 130, 208, 133, 189, 7, 239, 4, 62, 145, 13, 44, 190, 17, 134, 228, 189, 81, 1, 31, 188, 37, 178, 24, 61, 108, 251, 184, 59, 61, 172, 146, 190, 129, 26, 157, 61, 14, 64, 154, 188, 41, 228, 115, 190, 107, 35, 217, 61, 76, 45, 2, 190, 254, 159, 176, 61, 132, 148, 144, 61, 238, 68, 41, 189, 76, 73, 141, 59, 85, 115, 114, 61, 17, 125, 182, 61, 76, 50, 121, 189, 140, 54, 139, 62, 212, 201, 94, 61, 37, 213, 42, 189, 142, 208, 102, 188, 128, 100, 199, 188, 177, 72, 105, 189, 215, 83, 135, 189, 239, 8, 10, 189, 95, 58, 153, 61, 168, 76, 9, 62, 135, 222, 98, 60, 182, 13, 41, 188, 109, 145, 12, 61, 209, 217, 166, 62, 191, 168, 227, 61, 23, 1, 63, 61, 86, 91, 192, 189, 238, 223, 174, 188, 30, 71, 6, 191, 102, 23, 232, 188, 194, 127, 113, 189, 118, 98, 18, 62, 139, 112, 56, 189, 17, 148, 75, 62, 134, 158, 231, 61, 216, 48, 6, 190, 215, 7, 215, 61, 66, 10, 113, 189, 204, 235, 118, 61, 224, 209, 193, 189, 175, 165, 215, 190, 40, 44, 235, 61, 246, 223, 193, 189, 231, 16, 247, 59, 228, 29, 171, 187, 146, 228, 181, 61, 63, 235, 143, 190, 209, 209, 44, 61, 219, 110, 188, 188, 111, 44, 2, 189, 74, 19, 193, 190, 100, 50, 180, 189, 30, 110, 183, 61, 129, 186, 54, 190, 142, 163, 72, 186, 118, 167, 81, 61, 97, 50, 22, 189, 18, 54, 9, 189, 51, 236, 56, 188, 178, 42, 91, 189, 248, 180, 241, 189, 25, 141, 138, 189, 224, 212, 38, 61, 130, 117, 75, 61, 119, 107, 115, 62, 70, 192, 72, 189, 8, 73, 90, 190, 244, 171, 171, 60, 95, 12, 103, 61, 20, 9, 112, 188, 160, 56, 150, 189, 0, 130, 240, 61, 96, 0, 50, 189, 205, 90, 108, 188, 102, 236, 17, 190, 152, 45, 209, 189, 150, 34, 210, 60, 160, 109, 212, 188, 158, 49, 11, 190, 89, 102, 93, 61, 222, 38, 82, 190, 190, 109, 177, 61, 110, 159, 132, 61, 172, 98, 170, 61, 238, 14, 75, 61, 190, 144, 43, 62, 150, 150, 45, 61, 193, 105, 82, 61, 162, 85, 95, 61, 135, 177, 155, 59, 227, 141, 126, 62, 136, 93, 46, 59, 230, 150, 137, 189, 108, 116, 57, 61, 105, 0, 21, 189, 158, 163, 119, 189, 76, 71, 3, 60, 238, 70, 185, 188, 180, 26, 166, 62, 42, 202, 237, 188, 228, 166, 45, 190, 171, 34, 155, 61, 233, 176, 18, 61, 249, 38, 163, 189, 190, 162, 207, 188, 1, 193, 223, 60, 152, 42, 128, 188, 50, 201, 110, 61, 225, 235, 241, 187, 129, 105, 51, 61, 118, 253, 212, 61, 51, 42, 33, 61, 232, 43, 160, 188, 188, 139, 5, 189, 169, 94, 155, 189, 167, 170, 42, 190, 171, 204, 32, 61, 183, 17, 47, 60, 70, 150, 130, 59, 88, 192, 63, 189, 46, 177, 205, 188, 199, 76, 160, 189, 116, 16, 79, 189, 106, 247, 67, 190, 73, 24, 9, 189, 223, 90, 103, 60, 224, 161, 81, 61, 111, 80, 71, 60, 81, 184, 138, 187, 115, 38, 153, 189, 53, 143, 213, 61, 182, 181, 229, 61, 70, 231, 245, 61, 170, 241, 19, 189, 33, 101, 126, 61, 64, 182, 42, 189, 183, 34, 157, 190, 152, 153, 184, 61, 29, 147, 33, 189, 62, 141, 135, 61, 239, 168, 62, 189, 192, 27, 155, 62, 65, 134, 1, 190, 107, 7, 206, 189, 223, 165, 65, 190, 185, 188, 199, 61, 91, 126, 135, 189, 127, 1, 168, 187, 230, 98, 22, 189, 215, 9, 130, 61, 167, 169, 168, 61, 36, 62, 38, 62, 81, 187, 46, 188, 120, 65, 117, 61, 230, 242, 89, 62, 153, 40, 200, 188, 70, 171, 185, 59, 133, 162, 43, 61, 59, 3, 240, 60, 68, 26, 62, 189, 87, 114, 213, 189, 179, 54, 117, 60, 4, 7, 169, 62, 52, 66, 157, 189, 229, 22, 56, 190, 23, 176, 27, 190, 101, 162, 138, 61, 159, 74, 168, 189, 142, 206, 105, 61, 113, 148, 87, 61, 224, 155, 79, 188, 130, 150, 52, 60, 215, 59, 149, 187, 176, 13, 23, 190, 81, 207, 33, 62, 86, 182, 89, 60, 192, 216, 69, 61, 179, 48, 44, 189, 57, 109, 19, 189, 56, 191, 117, 61, 152, 167, 177, 61, 48, 99, 3, 190, 216, 6, 14, 190, 145, 251, 91, 60, 161, 89, 23, 189, 241, 196, 76, 189, 197, 106, 35, 62, 83, 187, 130, 188, 36, 78, 140, 62, 90, 189, 112, 61, 97, 13, 30, 189, 48, 140, 130, 60, 220, 207, 10, 189, 8, 129, 173, 188, 19, 241, 252, 188, 48, 142, 143, 189, 234, 135, 171, 189, 104, 143, 30, 190, 103, 185, 206, 61, 249, 137, 54, 62, 181, 164, 78, 189, 220, 118, 23, 188, 152, 67, 64, 60, 188, 102, 189, 189, 197, 112, 28, 59, 247, 169, 162, 61, 119, 79, 211, 61, 48, 47, 212, 61, 47, 87, 22, 62, 188, 1, 13, 188, 95, 255, 9, 189, 245, 14, 251, 188, 250, 240, 9, 189, 104, 41, 69, 62, 19, 96, 5, 189, 43, 169, 23, 60, 58, 186, 145, 60, 109, 124, 131, 188, 125, 234, 24, 61, 107, 166, 14, 59, 183, 53, 156, 62, 16, 59, 130, 60, 227, 168, 115, 189, 93, 114, 21, 189, 117, 190, 182, 188, 209, 196, 57, 188, 181, 113, 142, 189, 33, 141, 129, 190, 195, 170, 104, 61, 250, 169, 159, 187, 188, 134, 119, 189, 11, 18, 36, 190, 230, 50, 146, 187, 150, 187, 214, 189, 65, 108, 189, 60, 224, 73, 161, 189, 15, 166, 109, 188, 233, 107, 30, 189, 127, 255, 25, 189, 87, 147, 152, 61, 57, 77, 95, 61, 98, 58, 123, 61, 136, 245, 38, 60, 246, 87, 31, 62, 219, 75, 27, 190, 2, 67, 132, 186, 136, 24, 18, 190, 238, 247, 12, 60, 194, 71, 235, 189, 200, 134, 190, 189, 130, 217, 244, 61, 88, 82, 227, 189, 94, 36, 139, 189, 210, 145, 51, 62, 5, 148, 136, 189, 115, 90, 240, 59, 236, 44, 232, 60, 36, 1, 144, 62, 179, 47, 102, 189, 135, 240, 156, 62, 183, 227, 24, 61, 65, 166, 154, 61, 12, 172, 234, 61, 71, 163, 60, 190, 141, 28, 240, 189, 8, 137, 73, 62, 165, 213, 143, 186, 61, 64, 150, 61, 160, 183, 127, 59, 192, 150, 4, 190, 214, 234, 248, 61, 43, 3, 190, 61, 214, 47, 24, 189, 244, 85, 43, 189, 125, 214, 132, 190, 222, 133, 48, 61, 165, 248, 242, 61, 142, 35, 53, 62, 147, 162, 183, 189, 60, 42, 230, 61, 65, 137, 146, 188, 185, 133, 110, 189, 85, 138, 156, 61, 243, 110, 46, 189, 41, 128, 77, 60, 108, 88, 72, 189, 135, 216, 238, 189, 179, 43, 11, 60, 128, 39, 59, 54, 120, 157, 109, 61, 13, 153, 255, 187, 82, 204, 175, 190, 133, 153, 75, 189, 34, 53, 57, 57, 237, 7, 15, 62, 20, 34, 157, 188, 216, 135, 85, 189, 60, 156, 86, 61, 203, 182, 123, 189, 124, 148, 95, 61, 5, 232, 205, 59, 227, 176, 116, 190, 40, 87, 145, 61, 72, 222, 204, 189, 52, 3, 32, 61, 183, 247, 73, 61, 75, 74, 9, 62, 30, 113, 106, 189, 152, 68, 8, 61, 92, 242, 1, 61, 50, 225, 2, 190, 186, 243, 240, 61, 83, 83, 2, 61, 14, 27, 3, 190, 172, 187, 87, 189, 206, 222, 38, 61, 101, 198, 197, 186, 123, 189, 158, 62, 246, 167, 204, 61, 80, 146, 54, 189, 243, 177, 123, 61, 187, 164, 178, 189, 152, 106, 187, 61, 126, 130, 35, 190, 52, 135, 16, 190, 178, 124, 24, 61, 160, 88, 94, 190, 137, 61, 59, 62, 58, 109, 150, 189, 109, 194, 11, 190, 194, 44, 139, 61, 39, 192, 231, 61, 67, 242, 251, 60, 213, 71, 205, 190, 14, 217, 2, 62, 204, 114, 77, 61, 173, 204, 130, 60, 141, 156, 246, 188, 136, 116, 101, 61, 85, 21, 216, 190, 44, 235, 12, 189, 78, 221, 133, 189, 69, 148, 83, 188, 87, 149, 151, 60, 156, 183, 210, 60, 87, 120, 222, 189, 32, 241, 49, 61, 205, 129, 85, 189, 71, 54, 210, 60, 41, 76, 46, 62, 216, 224, 174, 188, 27, 84, 63, 62, 57, 149, 163, 61, 251, 96, 175, 189, 35, 242, 119, 188, 88, 205, 163, 62, 103, 160, 131, 62, 60, 62, 246, 60, 7, 165, 68, 60, 147, 139, 14, 62, 186, 45, 23, 190, 152, 76, 126, 61, 241, 80, 200, 61, 147, 31, 251, 61, 32, 108, 170, 188, 74, 217, 239, 61, 192, 214, 167, 62, 76, 34, 150, 188, 0, 104, 32, 189, 2, 23, 206, 188, 92, 251, 216, 61, 41, 201, 18, 189, 225, 126, 46, 60, 183, 165, 67, 62, 200, 171, 62, 189, 93, 24, 186, 189, 81, 93, 148, 61, 208, 56, 29, 189, 156, 54, 75, 62, 1, 72, 109, 61, 69, 199, 37, 62, 230, 93, 96, 59, 100, 163, 36, 187, 101, 242, 206, 189, 246, 23, 181, 61, 149, 238, 12, 62, 12, 41, 25, 61, 158, 160, 198, 60, 37, 62, 30, 61, 97, 99, 249, 59, 53, 204, 203, 189, 134, 193, 134, 61, 20, 96, 205, 61, 134, 6, 239, 59, 246, 66, 29, 60, 101, 168, 180, 62, 27, 89, 74, 61, 137, 136, 189, 61, 9, 90, 156, 61, 175, 211, 5, 190, 13, 74, 102, 189, 212, 104, 236, 61, 190, 179, 117, 62, 152, 28, 230, 59, 6, 143, 180, 60, 198, 52, 180, 189, 89, 66, 29, 61, 75, 110, 193, 189, 209, 146, 73, 189, 150, 241, 27, 60, 30, 186, 35, 60, 203, 196, 86, 61, 128, 126, 79, 60, 28, 125, 77, 62, 181, 144, 88, 190, 20, 37, 205, 188, 254, 116, 63, 188, 88, 123, 60, 189, 167, 136, 238, 189, 230, 53, 159, 190, 234, 137, 14, 190, 115, 31, 108, 60, 91, 249, 68, 61, 191, 168, 159, 189, 119, 25, 70, 189, 48, 211, 188, 61, 58, 37, 172, 60, 151, 110, 5, 188, 161, 69, 40, 61, 68, 213, 87, 189, 243, 158, 0, 62, 20, 255, 10, 61, 214, 195, 123, 60, 181, 140, 160, 60, 222, 204, 173, 189, 130, 237, 221, 189, 182, 178, 103, 61, 181, 115, 51, 61, 44, 34, 238, 188, 72, 94, 158, 60, 90, 96, 38, 62, 207, 60, 58, 189, 186, 197, 18, 60, 239, 31, 138, 189, 46, 167, 169, 188, 115, 250, 144, 62, 17, 223, 73, 61, 12, 195, 145, 61, 33, 58, 194, 188, 176, 243, 14, 189, 200, 58, 148, 189, 24, 57, 177, 188, 219, 178, 61, 60, 0, 81, 151, 189, 62, 88, 3, 188, 43, 2, 106, 190, 85, 173, 245, 186, 30, 155, 26, 190, 85, 57, 241, 187, 248, 4, 229, 188, 113, 17, 41, 189, 182, 220, 24, 190, 12, 73, 109, 189, 108, 44, 138, 188, 11, 98, 255, 61, 147, 48, 246, 61, 244, 67, 171, 61, 210, 55, 83, 62, 12, 151, 150, 60, 17, 150, 144, 189, 56, 88, 24, 61, 221, 77, 206, 62, 42, 122, 169, 61, 57, 210, 139, 189, 39, 234, 201, 60, 106, 4, 251, 189, 249, 118, 137, 62, 12, 199, 53, 189, 122, 69, 32, 190, 38, 230, 253, 61, 141, 154, 239, 61, 72, 236, 22, 189, 166, 247, 57, 62, 27, 137, 0, 189, 180, 85, 203, 189, 168, 64, 174, 189, 244, 29, 79, 187, 126, 97, 46, 189, 70, 175, 49, 61, 218, 146, 205, 184, 227, 2, 42, 190, 158, 247, 51, 61, 83, 153, 200, 61, 89, 217, 115, 189, 242, 89, 179, 61, 246, 254, 1, 61, 198, 234, 8, 62, 29, 66, 9, 62, 33, 64, 197, 60, 166, 212, 14, 62, 139, 113, 33, 190, 137, 74, 39, 189, 88, 56, 201, 187, 17, 204, 54, 61, 251, 223, 36, 188, 144, 110, 34, 61, 87, 236, 222, 61, 215, 163, 15, 189, 185, 56, 184, 189, 131, 70, 173, 189, 206, 2, 13, 189, 3, 232, 236, 189, 77, 118, 141, 62, 25, 4, 203, 189, 48, 59, 144, 187, 145, 128, 4, 188, 243, 142, 88, 189, 223, 5, 185, 188, 86, 68, 40, 188, 216, 207, 225, 60, 44, 207, 115, 189, 99, 202, 254, 60, 22, 173, 131, 190, 194, 161, 52, 189, 237, 120, 37, 61, 12, 251, 21, 60, 29, 97, 37, 59, 15, 98, 121, 61, 165, 38, 142, 190, 229, 113, 171, 61, 171, 232, 118, 187, 2, 38, 141, 187, 49, 252, 57, 61, 12, 193, 10, 61, 79, 158, 4, 61, 198, 143, 100, 61, 37, 233, 104, 60, 190, 0, 154, 59, 64, 217, 59, 62, 129, 223, 96, 60, 253, 64, 185, 189, 52, 137, 192, 186, 37, 199, 86, 61, 232, 83, 23, 189, 28, 75, 233, 189, 21, 252, 125, 61, 133, 253, 14, 61, 162, 135, 48, 61, 191, 202, 49, 61, 3, 221, 48, 59, 113, 208, 194, 189, 93, 80, 161, 189, 58, 18, 32, 62, 132, 86, 236, 189, 52, 189, 183, 61, 79, 142, 61, 60, 132, 141, 92, 61, 216, 154, 65, 189, 196, 154, 224, 189, 0, 44, 173, 189, 167, 143, 106, 188, 114, 208, 144, 189, 27, 113, 56, 190, 57, 52, 179, 61, 84, 30, 227, 61, 148, 138, 26, 62, 54, 226, 196, 187, 133, 141, 25, 62, 21, 68, 14, 61, 164, 250, 163, 189, 177, 152, 55, 61, 206, 93, 130, 188, 58, 92, 237, 189, 17, 188, 8, 60, 86, 158, 23, 190, 204, 72, 232, 188, 46, 179, 213, 189, 181, 18, 64, 60, 69, 211, 151, 62, 201, 1, 180, 189, 199, 40, 10, 190, 163, 89, 255, 189, 158, 254, 163, 61, 227, 18, 100, 189, 172, 80, 100, 187, 62, 8, 21, 61, 180, 61, 61, 60, 73, 230, 33, 61, 205, 126, 52, 187, 118, 5, 218, 189, 134, 29, 38, 62, 179, 117, 52, 61, 118, 139, 105, 61, 98, 96, 175, 61, 142, 172, 231, 188, 42, 201, 95, 61, 12, 242, 213, 61, 152, 108, 19, 60, 123, 36, 21, 62, 107, 153, 67, 190, 79, 239, 144, 188, 145, 175, 51, 62, 149, 38, 190, 186, 6, 65, 135, 188, 109, 207, 229, 188, 195, 202, 77, 190, 63, 228, 153, 187, 115, 243, 146, 61, 71, 99, 52, 60, 64, 198, 63, 61, 213, 216, 5, 61, 57, 12, 148, 189, 99, 108, 39, 62, 204, 192, 197, 60, 87, 16, 255, 187, 209, 67, 161, 190, 171, 114, 136, 189, 152, 75, 40, 190, 226, 62, 116, 189, 100, 48, 251, 189, 44, 98, 1, 189, 7, 223, 158, 189, 121, 99, 228, 61, 207, 166, 97, 61, 25, 130, 175, 190, 137, 186, 206, 59, 132, 91, 88, 189, 83, 233, 219, 60, 66, 128, 241, 189, 99, 123, 144, 61, 75, 2, 25, 61, 75, 99, 218, 189, 79, 27, 84, 190, 191, 57, 202, 189, 232, 196, 108, 190, 187, 114, 9, 62, 156, 109, 25, 62, 97, 142, 103, 61, 239, 21, 251, 61, 191, 6, 85, 62, 25, 187, 16, 187, 190, 123, 212, 189, 179, 167, 125, 187, 190, 122, 136, 62, 81, 119, 109, 59, 66, 172, 224, 188, 134, 191, 92, 189, 245, 217, 177, 61, 32, 129, 5, 62, 72, 187, 143, 61, 106, 145, 145, 60, 138, 79, 170, 188, 223, 12, 218, 58, 20, 60, 145, 189, 212, 101, 48, 190, 105, 44, 207, 188, 149, 53, 57, 60, 86, 2, 179, 59, 111, 32, 185, 188, 117, 217, 116, 62, 192, 56, 223, 189, 146, 114, 14, 189, 100, 159, 189, 59, 28, 20, 138, 189, 217, 153, 230, 189, 152, 123, 84, 61, 160, 236, 163, 60, 234, 56, 83, 189, 54, 34, 79, 189, 250, 213, 12, 190, 189, 64, 136, 189, 187, 13, 175, 189, 223, 106, 3, 62, 119, 255, 37, 62, 180, 254, 218, 60, 101, 121, 38, 62, 115, 43, 144, 61, 18, 170, 204, 188, 156, 212, 160, 61, 86, 151, 66, 190, 91, 163, 207, 59, 245, 69, 19, 62, 37, 150, 27, 61, 152, 105, 129, 61, 245, 122, 77, 60, 133, 138, 146, 189, 116, 26, 115, 61, 178, 128, 163, 188, 228, 228, 80, 59, 178, 64, 111, 189, 25, 82, 93, 188, 35, 193, 236, 189, 193, 174, 31, 62, 146, 103, 76, 189, 70, 136, 111, 61, 192, 8, 38, 60, 101, 10, 237, 61, 119, 109, 27, 189, 40, 15, 168, 61, 31, 248, 119, 189, 71, 63, 192, 59, 80, 243, 222, 61, 79, 49, 185, 61, 45, 145, 10, 62, 221, 40, 222, 60, 9, 71, 241, 61, 244, 160, 210, 60, 219, 192, 113, 62, 60, 22, 229, 61, 141, 252, 176, 190, 237, 241, 187, 189, 144, 138, 132, 62, 159, 120, 223, 61, 160, 77, 113, 190, 136, 20, 54, 61, 36, 53, 21, 61, 93, 150, 7, 61, 19, 121, 13, 190, 182, 106, 29, 190, 185, 70, 191, 61, 101, 160, 161, 190, 253, 72, 38, 190, 220, 145, 21, 189, 110, 3, 209, 61, 96, 115, 5, 61, 178, 189, 182, 61, 177, 198, 105, 189, 180, 194, 19, 61, 4, 22, 242, 189, 113, 13, 155, 189, 23, 98, 69, 190, 95, 128, 147, 61, 218, 195, 250, 61, 79, 57, 24, 61, 70, 176, 80, 60, 253, 58, 116, 62, 64, 209, 229, 188, 84, 224, 194, 188, 207, 250, 70, 189, 137, 178, 2, 62, 3, 172, 251, 60, 116, 138, 171, 188, 50, 249, 232, 186, 215, 162, 7, 189, 45, 184, 32, 62, 74, 207, 19, 61, 163, 96, 251, 59, 31, 186, 219, 59, 157, 123, 247, 60, 30, 246, 96, 62, 96, 185, 197, 189, 122, 102, 144, 189, 37, 27, 26, 62, 165, 122, 186, 189, 148, 72, 223, 60, 165, 23, 28, 189, 127, 37, 123, 189, 205, 124, 234, 188, 150, 57, 142, 61, 201, 133, 114, 188, 245, 133, 129, 189, 147, 13, 139, 188, 144, 234, 94, 190, 196, 151, 101, 61, 14, 205, 77, 190, 54, 122, 136, 185, 81, 185, 47, 61, 209, 135, 148, 61, 168, 151, 246, 188, 18, 55, 48, 189, 88, 93, 76, 189, 23, 245, 162, 62, 141, 154, 137, 189, 8, 247, 144, 59, 194, 96, 214, 58, 128, 239, 100, 189, 137, 36, 39, 190, 40, 230, 66, 61, 225, 61, 72, 189, 180, 160, 81, 189, 255, 53, 185, 57, 8, 4, 223, 189, 99, 128, 41, 189, 161, 56, 188, 189, 229, 70, 105, 58, 172, 75, 211, 188, 244, 163, 205, 186, 110, 212, 189, 61, 246, 17, 156, 61, 65, 94, 140, 60, 212, 145, 53, 189, 196, 105, 164, 190, 167, 10, 121, 60, 106, 121, 164, 190, 9, 80, 38, 60, 239, 141, 41, 61, 20, 89, 106, 189, 117, 225, 129, 189, 217, 78, 138, 61, 102, 228, 178, 189, 13, 231, 155, 62, 187, 5, 152, 189, 80, 158, 146, 61, 67, 141, 229, 61, 198, 134, 180, 189, 5, 182, 138, 188, 50, 110, 169, 189, 41, 34, 155, 59, 212, 248, 178, 61, 55, 19, 112, 188, 116, 147, 171, 189, 28, 19, 237, 61, 6, 247, 179, 61, 151, 13, 206, 60, 161, 33, 4, 190, 106, 78, 140, 61, 30, 98, 20, 189, 134, 184, 113, 59, 71, 14, 3, 62, 190, 135, 203, 188, 123, 101, 35, 61, 155, 110, 0, 189, 50, 11, 22, 190, 152, 253, 100, 61, 246, 38, 153, 61, 206, 212, 154, 189, 127, 4, 157, 189, 118, 52, 170, 189, 217, 111, 202, 60, 205, 25, 139, 62, 177, 161, 149, 61, 90, 136, 88, 189, 240, 126, 64, 188, 48, 223, 81, 61, 217, 65, 17, 62, 158, 135, 99, 61, 114, 130, 20, 62, 28, 87, 64, 62, 45, 3, 39, 190, 128, 123, 58, 190, 63, 105, 99, 61, 243, 0, 38, 190, 244, 155, 103, 62, 112, 52, 66, 189, 33, 235, 200, 62, 23, 42, 158, 189, 145, 17, 168, 189, 239, 30, 1, 190, 254, 124, 38, 190, 66, 24, 235, 189, 226, 206, 200, 189, 124, 46, 15, 62, 64, 94, 191, 58, 196, 0, 56, 61, 55, 253, 39, 61, 69, 58, 171, 187, 159, 15, 0, 190, 154, 125, 159, 60, 81, 82, 254, 189, 145, 5, 84, 60, 198, 90, 154, 61, 230, 143, 238, 189, 63, 211, 22, 188, 190, 251, 154, 61, 105, 217, 255, 61, 106, 250, 18, 60, 136, 58, 177, 189, 232, 181, 141, 61, 249, 131, 97, 62, 64, 64, 24, 62, 217, 57, 74, 189, 20, 98, 26, 189, 219, 122, 154, 188, 116, 239, 56, 190, 216, 244, 219, 188, 149, 47, 228, 189, 138, 46, 63, 189, 144, 221, 102, 59, 188, 253, 67, 190, 89, 242, 233, 60, 144, 49, 114, 62, 182, 168, 120, 62, 170, 14, 174, 188, 123, 26, 164, 61, 163, 156, 120, 190, 103, 24, 22, 189, 31, 136, 2, 190, 91, 25, 187, 188, 152, 1, 239, 189, 118, 219, 119, 58, 108, 248, 88, 62, 39, 150, 4, 190, 124, 218, 209, 189, 56, 56, 82, 62, 175, 119, 140, 188, 80, 164, 152, 189, 69, 199, 207, 62, 135, 129, 14, 62, 198, 47, 57, 61, 247, 238, 155, 189, 59, 132, 147, 60, 185, 41, 227, 188, 143, 234, 151, 188, 193, 219, 204, 61, 23, 136, 228, 61, 172, 238, 129, 61, 175, 77, 133, 62, 233, 246, 240, 189, 249, 207, 44, 190, 165, 234, 178, 189, 6, 25, 165, 189, 215, 180, 133, 190, 53, 62, 91, 60, 137, 241, 217, 189, 133, 240, 247, 189, 64, 206, 67, 189, 36, 62, 198, 61, 215, 176, 101, 61, 2, 104, 178, 188, 82, 124, 130, 190, 5, 140, 33, 189, 87, 166, 216, 189, 114, 209, 75, 61, 129, 214, 213, 60, 234, 21, 117, 189, 204, 248, 204, 188, 167, 139, 97, 60, 9, 108, 197, 188, 237, 195, 93, 189, 217, 39, 113, 188, 25, 37, 185, 189, 227, 37, 233, 189, 80, 38, 129, 188, 232, 65, 165, 188, 67, 118, 56, 62, 247, 36, 88, 62, 96, 139, 42, 189, 62, 157, 162, 62, 107, 203, 239, 188, 230, 187, 207, 189, 206, 59, 160, 61, 72, 89, 22, 62, 41, 235, 8, 62, 67, 82, 71, 189, 82, 26, 114, 62, 117, 195, 138, 189, 51, 107, 174, 59, 131, 223, 123, 186, 112, 133, 24, 58, 152, 76, 137, 189, 200, 92, 251, 59, 60, 159, 105, 189, 230, 78, 16, 60, 238, 212, 53, 60, 217, 56, 153, 190, 130, 51, 57, 60, 7, 25, 49, 61, 99, 62, 67, 61, 37, 16, 30, 188, 90, 187, 109, 61, 86, 133, 56, 189, 117, 26, 120, 61, 134, 6, 25, 61, 92, 255, 180, 189, 6, 3, 44, 189, 254, 181, 22, 62, 26, 24, 135, 189, 106, 213, 2, 62, 94, 21, 3, 189, 102, 232, 168, 189, 211, 230, 83, 61, 235, 84, 15, 61, 7, 138, 205, 60, 83, 123, 125, 190, 67, 8, 109, 60, 170, 14, 202, 60, 29, 18, 61, 60, 17, 28, 97, 189, 122, 101, 11, 190, 179, 99, 140, 189, 43, 109, 212, 61, 224, 8, 199, 188, 94, 23, 127, 189, 141, 155, 76, 190, 185, 15, 175, 60, 22, 71, 50, 189, 72, 137, 85, 59, 26, 93, 223, 188, 244, 141, 127, 189, 133, 46, 74, 187, 0, 150, 94, 61, 156, 71, 7, 189, 215, 190, 219, 60, 143, 99, 170, 188, 148, 47, 83, 61, 241, 199, 63, 190, 186, 39, 19, 61, 72, 51, 118, 60, 118, 219, 154, 189, 174, 147, 48, 62, 143, 22, 234, 61, 79, 229, 204, 189, 174, 32, 26, 61, 68, 111, 104, 60, 182, 70, 116, 187, 242, 22, 154, 61, 62, 15, 90, 61, 94, 178, 144, 61, 182, 93, 179, 187, 247, 109, 36, 61, 73, 119, 117, 189, 238, 65, 185, 61, 110, 179, 240, 61, 73, 243, 186, 188, 34, 53, 62, 62, 163, 45, 23, 190, 166, 9, 227, 61, 10, 60, 94, 62, 246, 7, 147, 189, 143, 201, 168, 61, 48, 203, 45, 61, 193, 59, 33, 188, 222, 136, 71, 188, 138, 14, 206, 188, 45, 49, 205, 61, 159, 224, 60, 189, 115, 177, 210, 189, 109, 67, 183, 188, 12, 141, 207, 187, 178, 254, 181, 190, 82, 243, 16, 189, 10, 107, 35, 185, 62, 101, 146, 188, 64, 153, 42, 188, 195, 170, 5, 190, 180, 35, 150, 187, 209, 17, 175, 61, 228, 195, 175, 188, 214, 251, 180, 60, 21, 254, 132, 61, 199, 155, 202, 60, 59, 201, 185, 59, 50, 136, 87, 62, 65, 163, 232, 61, 114, 193, 133, 61, 35, 61, 6, 61, 125, 37, 222, 58, 138, 103, 176, 61, 231, 142, 87, 189, 5, 0, 131, 61, 137, 114, 7, 190, 214, 78, 24, 61, 18, 46, 37, 61, 168, 79, 13, 62, 225, 230, 153, 59, 5, 235, 224, 187, 150, 158, 101, 62, 71, 232, 127, 189, 45, 119, 174, 189, 39, 134, 53, 189, 86, 193, 137, 189, 77, 100, 219, 189, 116, 224, 18, 61, 118, 100, 169, 61, 117, 76, 112, 189, 3, 136, 138, 61, 45, 131, 93, 190, 124, 80, 153, 188, 74, 221, 29, 60, 133, 71, 43, 61, 65, 32, 3, 187, 49, 177, 213, 61, 236, 113, 42, 61, 38, 238, 246, 188, 176, 16, 168, 61, 60, 244, 21, 62, 254, 69, 75, 62, 170, 223, 140, 189, 88, 255, 144, 188, 198, 66, 235, 61, 255, 200, 131, 60, 53, 90, 158, 188, 236, 219, 201, 188, 209, 78, 208, 61, 187, 198, 79, 187, 133, 128, 100, 62, 200, 12, 32, 189, 135, 120, 23, 190, 80, 34, 146, 190, 108, 232, 222, 61, 29, 3, 152, 61, 187, 142, 216, 61, 181, 219, 28, 61, 110, 19, 8, 62, 153, 109, 67, 61, 211, 38, 223, 58, 116, 85, 230, 60, 108, 217, 181, 59, 23, 134, 162, 62, 195, 104, 191, 188, 205, 22, 132, 189, 105, 60, 159, 61, 228, 92, 202, 188, 46, 174, 94, 189, 0, 0, 6, 0, 8, 0, 4, 0, 6, 0, 0, 0, 4, 0, 0, 0, 128, 1, 0, 0, 0, 0, 0, 0, 0, 0, 0, 0, 0, 0, 0, 0, 0, 0, 0, 0, 0, 0, 0, 0, 0, 0, 0, 0, 0, 0, 0, 0, 0, 0, 0, 0, 0, 0, 0, 0, 0, 0, 0, 0, 0, 0, 0, 0, 0, 0, 0, 0, 0, 0, 0, 0, 0, 0, 0, 0, 0, 0, 0, 0, 0, 0, 0, 0, 0, 0, 0, 0, 0, 0, 0, 0, 0, 0, 0, 0, 0, 0, 0, 0, 0, 0, 0, 0, 0, 0, 0, 0, 0, 0, 0, 0, 0, 0, 0, 0, 0, 0, 0, 0, 0, 0, 0, 0, 0, 0, 0, 0, 0, 0, 0, 0, 0, 0, 0, 0, 0, 0, 0, 0, 0, 0, 0, 0, 0, 0, 0, 0, 0, 0, 0, 0, 0, 0, 0, 0, 0, 0, 0, 0, 0, 0, 0, 0, 0, 0, 0, 0, 0, 0, 0, 0, 0, 0, 0, 0, 0, 0, 0, 0, 0, 0, 0, 0, 0, 0, 0, 0, 0, 0, 0, 0, 0, 0, 0, 0, 0, 0, 0, 0, 0, 0, 0, 0, 0, 0, 0, 0, 0, 0, 0, 0, 0, 0, 0, 0, 0, 0, 0, 0, 0, 0, 0, 0, 0, 0, 0, 0, 0, 0, 0, 0, 0, 0, 0, 0, 0, 0, 0, 0, 0, 0, 0, 0, 0, 0, 0, 0, 0, 0, 0, 0, 0, 0, 0, 0, 0, 0, 0, 0, 0, 0, 0, 0, 0, 0, 0, 0, 0, 0, 0, 0, 0, 0, 0, 0, 0, 0, 0, 0, 0, 0, 0, 0, 0, 0, 0, 0, 0, 0, 0, 0, 0, 0, 0, 0, 0, 0, 0, 0, 0, 0, 0, 0, 0, 0, 0, 0, 0, 0, 0, 0, 0, 0, 0, 0, 0, 0, 0, 0, 0, 0, 0, 0, 0, 0, 0, 0, 0, 0, 0, 0, 0, 0, 0, 0, 0, 0, 0, 0, 0, 0, 0, 0, 0, 0, 0, 0, 0, 0, 0, 0, 0, 0, 0, 0, 0, 0, 0, 0, 0, 0, 0, 0, 0, 0, 0, 0, 0, 0, 0, 0, 0, 0, 0, 0, 0, 0, 0, 0, 0, 0, 0, 0, 0, 0, 0, 0, 0, 0, 0, 0, 0, 0, 0, 0, 0, 0, 0, 0, 0, 0, 0, 0, 196, 253, 255, 255, 200, 253, 255, 255, 15, 0, 0, 0, 77, 76, 73, 82, 32, 67, 111, 110, 118, 101, 114, 116, 101, 100, 46, 0, 1, 0, 0, 0, 20, 0, 0, 0, 0, 0, 14, 0, 24, 0, 20, 0, 16, 0, 12, 0, 8, 0, 4, 0, 14, 0, 0, 0, 20, 0, 0, 0, 28, 0, 0, 0, 116, 0, 0, 0, 120, 0, 0, 0, 124, 0, 0, 0, 4, 0, 0, 0, 109, 97, 105, 110, 0, 0, 0, 0, 1, 0, 0, 0, 20, 0, 0, 0, 0, 0, 14, 0, 22, 0, 0, 0, 16, 0, 12, 0, 11, 0, 4, 0, 14, 0, 0, 0, 28, 0, 0, 0, 0, 0, 0, 1, 32, 0, 0, 0, 36, 0, 0, 0, 0, 0, 10, 0, 12, 0, 0, 0, 8, 0, 4, 0, 10, 0, 0, 0, 1, 0, 0, 0, 1, 0, 0, 0, 1, 0, 0, 0, 3, 0, 0, 0, 3, 0, 0, 0, 0, 0, 0, 0, 2, 0, 0, 0, 1, 0, 0, 0, 1, 0, 0, 0, 3, 0, 0, 0, 1, 0, 0, 0, 0, 0, 0, 0, 4, 0, 0, 0, 68, 1, 0, 0, 224, 0, 0, 0, 112, 0, 0, 0, 4, 0, 0, 0, 226, 254, 255, 255, 0, 0, 0, 1, 20, 0, 0, 0, 36, 0, 0, 0, 36, 0, 0, 0, 4, 0, 0, 0, 60, 0, 0, 0, 4, 0, 0, 0, 255, 255, 255, 255, 12, 0, 0, 0, 12, 0, 0, 0, 96, 0, 0, 0, 204, 254, 255, 255, 25, 0, 0, 0, 83, 116, 97, 116, 101, 102, 117, 108, 80, 97, 114, 116, 105, 116, 105, 111, 110, 101, 100, 67, 97, 108, 108, 58, 48, 0, 0, 0, 4, 0, 0, 0, 1, 0, 0, 0, 12, 0, 0, 0, 12, 0, 0, 0, 96, 0, 0, 0, 170, 255, 255, 255, 0, 0, 0, 1, 16, 0, 0, 0, 16, 0, 0, 0, 3, 0, 0, 0, 44, 0, 0, 0, 28, 255, 255, 255, 31, 0, 0, 0, 109, 111, 100, 101, 108, 95, 51, 53, 47, 98, 108, 111, 99, 107, 95, 52, 95, 101, 120, 112, 97, 110, 100, 47, 67, 111, 110, 118, 50, 68, 49, 0, 4, 0, 0, 0, 96, 0, 0, 0, 1, 0, 0, 0, 1, 0, 0, 0, 16, 0, 0, 0, 0, 0, 22, 0, 24, 0, 20, 0, 0, 0, 16, 0, 12, 0, 8, 0, 0, 0, 0, 0, 0, 0, 7, 0, 22, 0, 0, 0, 0, 0, 0, 1, 16, 0, 0, 0, 16, 0, 0, 0, 2, 0, 0, 0, 44, 0, 0, 0, 136, 255, 255, 255, 30, 0, 0, 0, 109, 111, 100, 101, 108, 95, 51, 53, 47, 98, 108, 111, 99, 107, 95, 52, 95, 101, 120, 112, 97, 110, 100, 47, 67, 111, 110, 118, 50, 68, 0, 0, 1, 0, 0, 0, 96, 0, 0, 0, 0, 0, 22, 0, 28, 0, 24, 0, 0, 0, 20, 0, 16, 0, 12, 0, 0, 0, 0, 0, 8, 0, 7, 0, 22, 0, 0, 0, 0, 0, 0, 1, 20, 0, 0, 0, 40, 0, 0, 0, 40, 0, 0, 0, 1, 0, 0, 0, 64, 0, 0, 0, 4, 0, 0, 0, 255, 255, 255, 255, 12, 0, 0, 0, 12, 0, 0, 0, 16, 0, 0, 0, 4, 0, 4, 0, 4, 0, 0, 0, 26, 0, 0, 0, 115, 101, 114, 118, 105, 110, 103, 95, 100, 101, 102, 97, 117, 108, 116, 95, 105, 110, 112, 117, 116, 95, 51, 55, 58, 48, 0, 0, 4, 0, 0, 0, 1, 0, 0, 0, 12, 0, 0, 0, 12, 0, 0, 0, 16, 0, 0, 0, 1, 0, 0, 0, 16, 0, 0, 0, 12, 0, 12, 0, 11, 0, 0, 0, 0, 0, 4, 0, 12, 0, 0, 0, 3, 0, 0, 0, 0, 0, 0, 3
};
