#pragma once

#include <cstdint>

const uint8_t layer_26[] = {
28, 0, 0, 0, 84, 70, 76, 51, 20, 0, 32, 0, 28, 0, 24, 0, 20, 0, 16, 0, 12, 0, 0, 0, 8, 0, 4, 0, 20, 0, 0, 0, 28, 0, 0, 0, 152, 0, 0, 0, 240, 0, 0, 0, 116, 8, 0, 0, 132, 8, 0, 0, 220, 10, 0, 0, 3, 0, 0, 0, 1, 0, 0, 0, 16, 0, 0, 0, 0, 0, 10, 0, 16, 0, 12, 0, 8, 0, 4, 0, 10, 0, 0, 0, 12, 0, 0, 0, 28, 0, 0, 0, 64, 0, 0, 0, 15, 0, 0, 0, 115, 101, 114, 118, 105, 110, 103, 95, 100, 101, 102, 97, 117, 108, 116, 0, 1, 0, 0, 0, 4, 0, 0, 0, 144, 255, 255, 255, 3, 0, 0, 0, 4, 0, 0, 0, 14, 0, 0, 0, 98, 108, 111, 99, 107, 95, 51, 95, 101, 120, 112, 97, 110, 100, 0, 0, 1, 0, 0, 0, 4, 0, 0, 0, 222, 248, 255, 255, 4, 0, 0, 0, 8, 0, 0, 0, 105, 110, 112, 117, 116, 95, 50, 56, 0, 0, 0, 0, 2, 0, 0, 0, 52, 0, 0, 0, 4, 0, 0, 0, 220, 255, 255, 255, 6, 0, 0, 0, 4, 0, 0, 0, 19, 0, 0, 0, 67, 79, 78, 86, 69, 82, 83, 73, 79, 78, 95, 77, 69, 84, 65, 68, 65, 84, 65, 0, 8, 0, 12, 0, 8, 0, 4, 0, 8, 0, 0, 0, 5, 0, 0, 0, 4, 0, 0, 0, 19, 0, 0, 0, 109, 105, 110, 95, 114, 117, 110, 116, 105, 109, 101, 95, 118, 101, 114, 115, 105, 111, 110, 0, 7, 0, 0, 0, 128, 7, 0, 0, 120, 7, 0, 0, 168, 6, 0, 0, 144, 0, 0, 0, 136, 0, 0, 0, 104, 0, 0, 0, 4, 0, 0, 0, 114, 249, 255, 255, 4, 0, 0, 0, 84, 0, 0, 0, 12, 0, 0, 0, 8, 0, 14, 0, 8, 0, 4, 0, 8, 0, 0, 0, 16, 0, 0, 0, 36, 0, 0, 0, 0, 0, 6, 0, 8, 0, 4, 0, 6, 0, 0, 0, 4, 0, 0, 0, 0, 0, 0, 0, 0, 0, 10, 0, 16, 0, 12, 0, 8, 0, 4, 0, 10, 0, 0, 0, 2, 0, 0, 0, 2, 0, 0, 0, 4, 0, 0, 0, 6, 0, 0, 0, 50, 46, 49, 53, 46, 48, 0, 0, 210, 249, 255, 255, 4, 0, 0, 0, 16, 0, 0, 0, 49, 46, 53, 46, 48, 0, 0, 0, 0, 0, 0, 0, 0, 0, 0, 0, 224, 246, 255, 255, 242, 249, 255, 255, 4, 0, 0, 0, 0, 6, 0, 0, 213, 220, 38, 191, 167, 216, 39, 60, 228, 166, 23, 59, 254, 63, 191, 62, 46, 31, 45, 190, 81, 1, 90, 62, 232, 131, 235, 61, 238, 70, 44, 190, 127, 168, 130, 61, 220, 134, 86, 62, 192, 197, 15, 62, 211, 98, 96, 61, 159, 56, 28, 61, 49, 69, 232, 189, 231, 75, 139, 62, 94, 165, 169, 62, 107, 138, 1, 190, 142, 101, 130, 60, 163, 5, 49, 60, 109, 198, 4, 188, 171, 211, 191, 190, 182, 102, 35, 189, 200, 103, 222, 60, 88, 134, 243, 187, 239, 97, 160, 62, 75, 125, 14, 60, 225, 65, 192, 188, 50, 235, 193, 190, 252, 165, 215, 190, 152, 169, 140, 61, 38, 75, 254, 61, 64, 65, 166, 189, 215, 124, 144, 190, 0, 161, 218, 61, 115, 164, 149, 188, 239, 52, 202, 188, 222, 12, 18, 62, 16, 34, 176, 188, 182, 152, 218, 61, 211, 46, 30, 61, 221, 229, 188, 190, 64, 248, 252, 189, 253, 122, 115, 61, 70, 40, 24, 189, 206, 186, 255, 190, 34, 196, 48, 61, 173, 109, 60, 61, 144, 83, 165, 62, 176, 217, 56, 189, 168, 128, 218, 190, 48, 198, 179, 61, 5, 30, 89, 189, 46, 171, 237, 60, 41, 131, 34, 188, 245, 82, 202, 187, 51, 85, 246, 61, 14, 198, 144, 190, 102, 54, 201, 187, 7, 168, 220, 60, 86, 172, 212, 62, 68, 110, 7, 63, 64, 179, 26, 190, 10, 65, 42, 190, 39, 39, 110, 60, 84, 172, 128, 62, 174, 102, 220, 60, 104, 153, 7, 60, 41, 213, 221, 190, 38, 9, 99, 188, 113, 193, 141, 189, 83, 130, 18, 190, 29, 100, 5, 190, 107, 190, 253, 188, 10, 109, 188, 190, 115, 248, 71, 188, 174, 238, 179, 187, 88, 47, 147, 59, 139, 124, 128, 62, 12, 100, 11, 190, 147, 172, 96, 62, 247, 54, 147, 190, 240, 148, 3, 189, 140, 53, 47, 57, 84, 143, 138, 61, 19, 151, 204, 190, 38, 50, 87, 62, 130, 231, 70, 62, 81, 102, 92, 189, 252, 217, 0, 63, 63, 54, 134, 61, 99, 125, 31, 62, 30, 59, 119, 61, 255, 105, 128, 190, 116, 80, 45, 190, 1, 38, 6, 190, 174, 203, 8, 191, 19, 117, 139, 188, 86, 178, 132, 61, 39, 194, 71, 62, 214, 228, 227, 188, 85, 83, 96, 61, 44, 149, 176, 190, 57, 226, 23, 63, 227, 45, 157, 62, 112, 147, 34, 62, 61, 52, 164, 189, 171, 95, 174, 188, 60, 81, 73, 189, 138, 199, 173, 62, 12, 130, 158, 62, 200, 149, 159, 62, 104, 225, 195, 189, 63, 16, 118, 62, 32, 32, 248, 61, 3, 57, 71, 188, 195, 159, 244, 60, 160, 139, 92, 190, 53, 40, 34, 189, 33, 16, 97, 189, 73, 82, 36, 189, 95, 218, 82, 189, 83, 68, 223, 190, 157, 181, 117, 61, 244, 212, 10, 189, 209, 213, 40, 60, 70, 84, 168, 60, 176, 144, 148, 185, 175, 166, 228, 61, 125, 33, 19, 190, 95, 24, 120, 189, 36, 214, 180, 59, 102, 71, 54, 188, 216, 124, 198, 190, 144, 10, 231, 59, 29, 232, 64, 61, 124, 105, 32, 60, 128, 2, 162, 189, 183, 3, 169, 62, 146, 167, 186, 190, 206, 88, 173, 60, 235, 217, 232, 60, 117, 122, 203, 190, 249, 116, 186, 62, 75, 122, 141, 190, 185, 180, 31, 63, 18, 79, 0, 190, 137, 254, 91, 190, 110, 186, 60, 61, 108, 229, 146, 190, 73, 106, 250, 61, 149, 252, 19, 61, 7, 32, 246, 62, 94, 228, 159, 62, 150, 214, 240, 189, 41, 249, 95, 189, 199, 39, 128, 188, 99, 241, 19, 62, 70, 37, 138, 60, 30, 182, 178, 61, 15, 198, 16, 60, 238, 44, 197, 62, 184, 119, 147, 61, 20, 195, 47, 189, 109, 126, 165, 62, 136, 113, 32, 188, 103, 198, 232, 61, 106, 95, 118, 187, 74, 19, 58, 190, 12, 221, 253, 60, 122, 173, 139, 61, 39, 206, 20, 190, 94, 102, 184, 60, 43, 6, 160, 189, 138, 10, 105, 62, 241, 223, 173, 190, 139, 222, 90, 190, 59, 43, 170, 190, 187, 75, 139, 61, 231, 44, 138, 61, 184, 124, 89, 188, 4, 190, 161, 189, 151, 248, 58, 188, 38, 128, 250, 189, 208, 244, 81, 189, 43, 146, 77, 190, 9, 8, 131, 190, 206, 151, 152, 60, 60, 60, 246, 61, 238, 216, 29, 191, 73, 177, 154, 62, 90, 59, 195, 62, 43, 66, 133, 189, 65, 127, 137, 62, 177, 181, 208, 188, 100, 57, 144, 188, 4, 237, 51, 188, 242, 238, 79, 190, 52, 32, 53, 188, 66, 224, 40, 188, 173, 91, 12, 60, 15, 77, 7, 62, 89, 22, 87, 189, 183, 20, 40, 60, 110, 111, 9, 190, 198, 52, 42, 63, 248, 253, 144, 62, 44, 136, 141, 62, 5, 192, 50, 190, 188, 110, 18, 60, 204, 231, 165, 190, 38, 186, 6, 61, 63, 186, 204, 189, 100, 15, 97, 187, 160, 33, 196, 190, 91, 99, 129, 62, 128, 102, 64, 190, 143, 122, 6, 190, 3, 64, 108, 191, 8, 130, 62, 62, 51, 60, 186, 189, 13, 254, 5, 189, 174, 74, 200, 190, 68, 200, 113, 62, 73, 95, 141, 189, 86, 7, 61, 190, 230, 202, 146, 61, 205, 47, 46, 189, 224, 112, 155, 60, 151, 230, 213, 188, 227, 4, 241, 188, 39, 11, 83, 62, 207, 173, 22, 62, 16, 237, 149, 189, 176, 217, 90, 62, 26, 26, 162, 61, 217, 205, 38, 61, 145, 64, 81, 60, 211, 52, 71, 62, 128, 140, 242, 190, 0, 81, 26, 191, 136, 39, 143, 62, 245, 61, 133, 189, 37, 73, 44, 57, 215, 222, 76, 60, 115, 24, 43, 190, 127, 187, 102, 59, 176, 246, 202, 189, 16, 248, 63, 189, 165, 144, 13, 188, 189, 133, 158, 189, 194, 193, 12, 62, 199, 178, 13, 189, 19, 57, 229, 60, 58, 155, 128, 190, 190, 86, 138, 62, 148, 128, 35, 62, 213, 66, 76, 190, 241, 11, 131, 61, 26, 189, 145, 60, 239, 121, 247, 187, 70, 207, 174, 190, 35, 114, 148, 190, 197, 22, 152, 190, 242, 136, 11, 62, 202, 238, 10, 190, 122, 239, 82, 61, 181, 108, 43, 188, 167, 105, 252, 61, 166, 210, 50, 191, 120, 174, 167, 190, 49, 192, 138, 190, 184, 186, 3, 62, 131, 84, 197, 60, 247, 130, 15, 191, 11, 222, 83, 62, 201, 106, 202, 188, 212, 215, 178, 188, 210, 41, 184, 62, 172, 32, 149, 190, 18, 104, 141, 62, 77, 77, 32, 190, 23, 119, 173, 190, 17, 40, 91, 191, 116, 201, 151, 189, 20, 79, 224, 186, 235, 253, 238, 190, 212, 219, 144, 62, 1, 108, 182, 190, 144, 157, 198, 60, 235, 231, 36, 63, 183, 22, 156, 62, 122, 135, 84, 61, 204, 118, 100, 189, 202, 163, 119, 61, 96, 24, 225, 189, 56, 162, 76, 190, 102, 41, 20, 191, 115, 189, 16, 62, 15, 187, 50, 62, 89, 50, 142, 189, 221, 15, 122, 62, 42, 178, 6, 190, 192, 29, 72, 189, 218, 249, 0, 191, 171, 85, 247, 190, 153, 53, 138, 189, 233, 109, 79, 190, 81, 40, 27, 189, 146, 66, 41, 62, 226, 10, 184, 61, 198, 193, 25, 62, 155, 147, 234, 62, 13, 247, 42, 187, 98, 180, 193, 189, 12, 105, 37, 62, 101, 120, 53, 188, 140, 171, 25, 61, 54, 231, 63, 190, 105, 165, 143, 62, 82, 212, 111, 62, 154, 56, 234, 189, 50, 0, 138, 189, 106, 9, 6, 189, 16, 249, 13, 190, 108, 94, 226, 190, 26, 36, 194, 62, 119, 225, 209, 62, 234, 240, 204, 189, 130, 157, 212, 190, 93, 235, 8, 62, 205, 123, 224, 60, 137, 11, 120, 190, 241, 252, 141, 190, 248, 142, 158, 190, 163, 118, 164, 190, 37, 215, 38, 62, 59, 253, 41, 190, 103, 19, 239, 190, 56, 76, 186, 190, 63, 249, 152, 59, 187, 85, 31, 189, 228, 11, 112, 62, 208, 183, 225, 190, 214, 181, 150, 190, 31, 220, 129, 190, 223, 21, 3, 61, 116, 180, 33, 189, 85, 232, 223, 190, 160, 212, 178, 62, 35, 254, 94, 62, 92, 210, 104, 62, 21, 60, 55, 60, 70, 124, 185, 62, 72, 220, 33, 189, 37, 124, 99, 61, 127, 156, 144, 190, 179, 178, 188, 61, 240, 122, 161, 189, 3, 88, 53, 189, 69, 217, 199, 61, 186, 164, 79, 189, 160, 209, 145, 190, 187, 114, 119, 188, 124, 56, 216, 188, 132, 200, 11, 188, 24, 203, 52, 190, 141, 232, 77, 62, 151, 41, 211, 60, 161, 101, 10, 63, 169, 160, 45, 189, 100, 209, 249, 188, 220, 57, 253, 189, 199, 157, 36, 63, 226, 175, 75, 190, 107, 248, 38, 190, 84, 248, 255, 60, 86, 253, 215, 62, 82, 77, 247, 186, 15, 203, 107, 188, 254, 43, 179, 62, 132, 212, 215, 188, 1, 83, 153, 61, 86, 214, 29, 61, 162, 175, 2, 190, 0, 0, 6, 0, 8, 0, 4, 0, 6, 0, 0, 0, 4, 0, 0, 0, 192, 0, 0, 0, 0, 0, 0, 0, 0, 0, 0, 0, 0, 0, 0, 0, 0, 0, 0, 0, 0, 0, 0, 0, 0, 0, 0, 0, 0, 0, 0, 0, 0, 0, 0, 0, 0, 0, 0, 0, 0, 0, 0, 0, 0, 0, 0, 0, 0, 0, 0, 0, 0, 0, 0, 0, 0, 0, 0, 0, 0, 0, 0, 0, 0, 0, 0, 0, 0, 0, 0, 0, 0, 0, 0, 0, 0, 0, 0, 0, 0, 0, 0, 0, 0, 0, 0, 0, 0, 0, 0, 0, 0, 0, 0, 0, 0, 0, 0, 0, 0, 0, 0, 0, 0, 0, 0, 0, 0, 0, 0, 0, 0, 0, 0, 0, 0, 0, 0, 0, 0, 0, 0, 0, 0, 0, 0, 0, 0, 0, 0, 0, 0, 0, 0, 0, 0, 0, 0, 0, 0, 0, 0, 0, 0, 0, 0, 0, 0, 0, 0, 0, 0, 0, 0, 0, 0, 0, 0, 0, 0, 0, 0, 0, 0, 0, 0, 0, 0, 0, 0, 0, 0, 0, 0, 0, 0, 0, 0, 0, 0, 0, 0, 0, 0, 0, 0, 0, 0, 0, 0, 0, 0, 0, 0, 0, 196, 253, 255, 255, 200, 253, 255, 255, 15, 0, 0, 0, 77, 76, 73, 82, 32, 67, 111, 110, 118, 101, 114, 116, 101, 100, 46, 0, 1, 0, 0, 0, 20, 0, 0, 0, 0, 0, 14, 0, 24, 0, 20, 0, 16, 0, 12, 0, 8, 0, 4, 0, 14, 0, 0, 0, 20, 0, 0, 0, 28, 0, 0, 0, 116, 0, 0, 0, 120, 0, 0, 0, 124, 0, 0, 0, 4, 0, 0, 0, 109, 97, 105, 110, 0, 0, 0, 0, 1, 0, 0, 0, 20, 0, 0, 0, 0, 0, 14, 0, 22, 0, 0, 0, 16, 0, 12, 0, 11, 0, 4, 0, 14, 0, 0, 0, 28, 0, 0, 0, 0, 0, 0, 1, 32, 0, 0, 0, 36, 0, 0, 0, 0, 0, 10, 0, 12, 0, 0, 0, 8, 0, 4, 0, 10, 0, 0, 0, 1, 0, 0, 0, 1, 0, 0, 0, 1, 0, 0, 0, 3, 0, 0, 0, 3, 0, 0, 0, 0, 0, 0, 0, 2, 0, 0, 0, 1, 0, 0, 0, 1, 0, 0, 0, 3, 0, 0, 0, 1, 0, 0, 0, 0, 0, 0, 0, 4, 0, 0, 0, 68, 1, 0, 0, 224, 0, 0, 0, 112, 0, 0, 0, 4, 0, 0, 0, 226, 254, 255, 255, 0, 0, 0, 1, 20, 0, 0, 0, 36, 0, 0, 0, 36, 0, 0, 0, 4, 0, 0, 0, 60, 0, 0, 0, 4, 0, 0, 0, 255, 255, 255, 255, 24, 0, 0, 0, 24, 0, 0, 0, 48, 0, 0, 0, 204, 254, 255, 255, 25, 0, 0, 0, 83, 116, 97, 116, 101, 102, 117, 108, 80, 97, 114, 116, 105, 116, 105, 111, 110, 101, 100, 67, 97, 108, 108, 58, 48, 0, 0, 0, 4, 0, 0, 0, 1, 0, 0, 0, 24, 0, 0, 0, 24, 0, 0, 0, 48, 0, 0, 0, 170, 255, 255, 255, 0, 0, 0, 1, 16, 0, 0, 0, 16, 0, 0, 0, 3, 0, 0, 0, 44, 0, 0, 0, 28, 255, 255, 255, 31, 0, 0, 0, 109, 111, 100, 101, 108, 95, 50, 54, 47, 98, 108, 111, 99, 107, 95, 51, 95, 101, 120, 112, 97, 110, 100, 47, 67, 111, 110, 118, 50, 68, 49, 0, 4, 0, 0, 0, 48, 0, 0, 0, 1, 0, 0, 0, 1, 0, 0, 0, 8, 0, 0, 0, 0, 0, 22, 0, 24, 0, 20, 0, 0, 0, 16, 0, 12, 0, 8, 0, 0, 0, 0, 0, 0, 0, 7, 0, 22, 0, 0, 0, 0, 0, 0, 1, 16, 0, 0, 0, 16, 0, 0, 0, 2, 0, 0, 0, 44, 0, 0, 0, 136, 255, 255, 255, 30, 0, 0, 0, 109, 111, 100, 101, 108, 95, 50, 54, 47, 98, 108, 111, 99, 107, 95, 51, 95, 101, 120, 112, 97, 110, 100, 47, 67, 111, 110, 118, 50, 68, 0, 0, 1, 0, 0, 0, 48, 0, 0, 0, 0, 0, 22, 0, 28, 0, 24, 0, 0, 0, 20, 0, 16, 0, 12, 0, 0, 0, 0, 0, 8, 0, 7, 0, 22, 0, 0, 0, 0, 0, 0, 1, 20, 0, 0, 0, 40, 0, 0, 0, 40, 0, 0, 0, 1, 0, 0, 0, 64, 0, 0, 0, 4, 0, 0, 0, 255, 255, 255, 255, 24, 0, 0, 0, 24, 0, 0, 0, 8, 0, 0, 0, 4, 0, 4, 0, 4, 0, 0, 0, 26, 0, 0, 0, 115, 101, 114, 118, 105, 110, 103, 95, 100, 101, 102, 97, 117, 108, 116, 95, 105, 110, 112, 117, 116, 95, 50, 56, 58, 48, 0, 0, 4, 0, 0, 0, 1, 0, 0, 0, 24, 0, 0, 0, 24, 0, 0, 0, 8, 0, 0, 0, 1, 0, 0, 0, 16, 0, 0, 0, 12, 0, 12, 0, 11, 0, 0, 0, 0, 0, 4, 0, 12, 0, 0, 0, 3, 0, 0, 0, 0, 0, 0, 3
};
