#pragma once

#include <cstdint>

const uint8_t layer_9[] = {
28, 0, 0, 0, 84, 70, 76, 51, 20, 0, 32, 0, 28, 0, 24, 0, 20, 0, 16, 0, 12, 0, 0, 0, 8, 0, 4, 0, 20, 0, 0, 0, 28, 0, 0, 0, 156, 0, 0, 0, 244, 0, 0, 0, 64, 3, 0, 0, 80, 3, 0, 0, 88, 6, 0, 0, 3, 0, 0, 0, 1, 0, 0, 0, 16, 0, 0, 0, 0, 0, 10, 0, 16, 0, 12, 0, 8, 0, 4, 0, 10, 0, 0, 0, 12, 0, 0, 0, 28, 0, 0, 0, 68, 0, 0, 0, 15, 0, 0, 0, 115, 101, 114, 118, 105, 110, 103, 95, 100, 101, 102, 97, 117, 108, 116, 0, 1, 0, 0, 0, 4, 0, 0, 0, 140, 255, 255, 255, 4, 0, 0, 0, 4, 0, 0, 0, 17, 0, 0, 0, 98, 108, 111, 99, 107, 95, 49, 95, 101, 120, 112, 97, 110, 100, 95, 66, 78, 0, 0, 0, 1, 0, 0, 0, 4, 0, 0, 0, 22, 254, 255, 255, 4, 0, 0, 0, 8, 0, 0, 0, 105, 110, 112, 117, 116, 95, 49, 48, 0, 0, 0, 0, 2, 0, 0, 0, 52, 0, 0, 0, 4, 0, 0, 0, 220, 255, 255, 255, 7, 0, 0, 0, 4, 0, 0, 0, 19, 0, 0, 0, 67, 79, 78, 86, 69, 82, 83, 73, 79, 78, 95, 77, 69, 84, 65, 68, 65, 84, 65, 0, 8, 0, 12, 0, 8, 0, 4, 0, 8, 0, 0, 0, 6, 0, 0, 0, 4, 0, 0, 0, 19, 0, 0, 0, 109, 105, 110, 95, 114, 117, 110, 116, 105, 109, 101, 95, 118, 101, 114, 115, 105, 111, 110, 0, 8, 0, 0, 0, 72, 2, 0, 0, 64, 2, 0, 0, 112, 1, 0, 0, 152, 0, 0, 0, 144, 0, 0, 0, 136, 0, 0, 0, 104, 0, 0, 0, 4, 0, 0, 0, 174, 254, 255, 255, 4, 0, 0, 0, 84, 0, 0, 0, 12, 0, 0, 0, 8, 0, 14, 0, 8, 0, 4, 0, 8, 0, 0, 0, 16, 0, 0, 0, 36, 0, 0, 0, 0, 0, 6, 0, 8, 0, 4, 0, 6, 0, 0, 0, 4, 0, 0, 0, 0, 0, 0, 0, 0, 0, 10, 0, 16, 0, 12, 0, 8, 0, 4, 0, 10, 0, 0, 0, 2, 0, 0, 0, 2, 0, 0, 0, 4, 0, 0, 0, 6, 0, 0, 0, 50, 46, 49, 53, 46, 48, 0, 0, 14, 255, 255, 255, 4, 0, 0, 0, 16, 0, 0, 0, 49, 46, 53, 46, 48, 0, 0, 0, 0, 0, 0, 0, 0, 0, 0, 0, 36, 251, 255, 255, 40, 251, 255, 255, 50, 255, 255, 255, 4, 0, 0, 0, 192, 0, 0, 0, 206, 144, 6, 64, 142, 219, 68, 61, 161, 228, 74, 64, 158, 10, 244, 63, 38, 172, 253, 63, 35, 212, 4, 64, 247, 62, 115, 64, 202, 29, 29, 189, 64, 186, 254, 60, 34, 190, 67, 191, 86, 139, 191, 63, 128, 172, 87, 63, 149, 87, 14, 64, 121, 19, 38, 190, 45, 30, 41, 64, 227, 182, 82, 64, 178, 16, 6, 190, 42, 226, 52, 191, 199, 44, 77, 190, 141, 58, 120, 64, 106, 176, 139, 63, 100, 157, 155, 189, 8, 49, 143, 188, 146, 169, 32, 63, 166, 6, 115, 64, 44, 206, 12, 191, 57, 178, 21, 62, 79, 241, 155, 63, 173, 47, 143, 63, 179, 55, 60, 64, 93, 251, 60, 64, 56, 200, 21, 64, 134, 219, 62, 63, 143, 120, 79, 64, 1, 140, 19, 62, 245, 236, 151, 191, 156, 175, 197, 63, 219, 78, 163, 63, 151, 23, 205, 190, 244, 180, 94, 64, 157, 10, 53, 64, 205, 166, 14, 64, 2, 104, 47, 190, 80, 2, 81, 191, 233, 235, 160, 64, 42, 34, 200, 61, 112, 195, 52, 64, 38, 11, 95, 63, 0, 0, 6, 0, 8, 0, 4, 0, 6, 0, 0, 0, 4, 0, 0, 0, 192, 0, 0, 0, 169, 222, 56, 62, 204, 88, 148, 62, 51, 33, 48, 62, 149, 156, 23, 62, 30, 101, 82, 62, 110, 217, 29, 62, 61, 250, 177, 62, 19, 189, 60, 63, 173, 113, 133, 62, 59, 113, 169, 63, 224, 71, 18, 63, 96, 86, 52, 63, 81, 219, 162, 61, 170, 105, 250, 65, 149, 132, 217, 62, 8, 127, 195, 61, 202, 115, 2, 66, 27, 20, 66, 64, 72, 164, 77, 62, 46, 245, 186, 62, 43, 39, 18, 62, 51, 255, 2, 64, 234, 66, 20, 62, 222, 64, 65, 63, 79, 198, 239, 62, 137, 240, 195, 62, 196, 112, 120, 63, 55, 134, 150, 63, 33, 143, 46, 62, 34, 191, 149, 63, 76, 160, 21, 63, 113, 241, 171, 61, 215, 208, 19, 62, 56, 198, 131, 64, 238, 199, 136, 62, 251, 214, 40, 63, 70, 42, 144, 64, 23, 132, 105, 62, 161, 197, 103, 63, 105, 179, 8, 62, 47, 161, 52, 63, 105, 185, 188, 61, 83, 107, 131, 62, 47, 22, 105, 64, 178, 109, 176, 62, 195, 15, 126, 62, 128, 183, 107, 62, 168, 69, 39, 62, 204, 252, 255, 255, 208, 252, 255, 255, 15, 0, 0, 0, 77, 76, 73, 82, 32, 67, 111, 110, 118, 101, 114, 116, 101, 100, 46, 0, 1, 0, 0, 0, 20, 0, 0, 0, 0, 0, 14, 0, 24, 0, 20, 0, 16, 0, 12, 0, 8, 0, 4, 0, 14, 0, 0, 0, 20, 0, 0, 0, 28, 0, 0, 0, 160, 0, 0, 0, 164, 0, 0, 0, 168, 0, 0, 0, 4, 0, 0, 0, 109, 97, 105, 110, 0, 0, 0, 0, 2, 0, 0, 0, 88, 0, 0, 0, 20, 0, 0, 0, 0, 0, 14, 0, 24, 0, 20, 0, 16, 0, 12, 0, 11, 0, 4, 0, 14, 0, 0, 0, 20, 0, 0, 0, 0, 0, 0, 11, 16, 0, 0, 0, 20, 0, 0, 0, 1, 0, 0, 0, 88, 253, 255, 255, 1, 0, 0, 0, 4, 0, 0, 0, 2, 0, 0, 0, 3, 0, 0, 0, 2, 0, 0, 0, 0, 0, 14, 0, 20, 0, 0, 0, 16, 0, 12, 0, 11, 0, 4, 0, 14, 0, 0, 0, 16, 0, 0, 0, 0, 0, 0, 21, 12, 0, 0, 0, 16, 0, 0, 0, 148, 253, 255, 255, 1, 0, 0, 0, 3, 0, 0, 0, 2, 0, 0, 0, 0, 0, 0, 0, 1, 0, 0, 0, 1, 0, 0, 0, 4, 0, 0, 0, 1, 0, 0, 0, 0, 0, 0, 0, 5, 0, 0, 0, 204, 1, 0, 0, 92, 1, 0, 0, 236, 0, 0, 0, 112, 0, 0, 0, 4, 0, 0, 0, 94, 254, 255, 255, 0, 0, 0, 1, 20, 0, 0, 0, 36, 0, 0, 0, 36, 0, 0, 0, 5, 0, 0, 0, 60, 0, 0, 0, 4, 0, 0, 0, 255, 255, 255, 255, 48, 0, 0, 0, 48, 0, 0, 0, 48, 0, 0, 0, 4, 254, 255, 255, 25, 0, 0, 0, 83, 116, 97, 116, 101, 102, 117, 108, 80, 97, 114, 116, 105, 116, 105, 111, 110, 101, 100, 67, 97, 108, 108, 58, 48, 0, 0, 0, 4, 0, 0, 0, 1, 0, 0, 0, 48, 0, 0, 0, 48, 0, 0, 0, 48, 0, 0, 0, 198, 254, 255, 255, 0, 0, 0, 1, 20, 0, 0, 0, 36, 0, 0, 0, 36, 0, 0, 0, 4, 0, 0, 0, 76, 0, 0, 0, 4, 0, 0, 0, 255, 255, 255, 255, 48, 0, 0, 0, 48, 0, 0, 0, 48, 0, 0, 0, 108, 254, 255, 255, 43, 0, 0, 0, 109, 111, 100, 101, 108, 95, 57, 47, 98, 108, 111, 99, 107, 95, 49, 95, 101, 120, 112, 97, 110, 100, 95, 66, 78, 47, 70, 117, 115, 101, 100, 66, 97, 116, 99, 104, 78, 111, 114, 109, 86, 51, 50, 0, 4, 0, 0, 0, 1, 0, 0, 0, 48, 0, 0, 0, 48, 0, 0, 0, 48, 0, 0, 0, 170, 255, 255, 255, 0, 0, 0, 1, 16, 0, 0, 0, 16, 0, 0, 0, 3, 0, 0, 0, 56, 0, 0, 0, 204, 254, 255, 255, 43, 0, 0, 0, 109, 111, 100, 101, 108, 95, 57, 47, 98, 108, 111, 99, 107, 95, 49, 95, 101, 120, 112, 97, 110, 100, 95, 66, 78, 47, 70, 117, 115, 101, 100, 66, 97, 116, 99, 104, 78, 111, 114, 109, 86, 51, 49, 0, 1, 0, 0, 0, 48, 0, 0, 0, 0, 0, 22, 0, 24, 0, 20, 0, 0, 0, 16, 0, 12, 0, 8, 0, 0, 0, 0, 0, 0, 0, 7, 0, 22, 0, 0, 0, 0, 0, 0, 1, 16, 0, 0, 0, 16, 0, 0, 0, 2, 0, 0, 0, 56, 0, 0, 0, 56, 255, 255, 255, 42, 0, 0, 0, 109, 111, 100, 101, 108, 95, 57, 47, 98, 108, 111, 99, 107, 95, 49, 95, 101, 120, 112, 97, 110, 100, 95, 66, 78, 47, 70, 117, 115, 101, 100, 66, 97, 116, 99, 104, 78, 111, 114, 109, 86, 51, 0, 0, 1, 0, 0, 0, 48, 0, 0, 0, 0, 0, 22, 0, 28, 0, 24, 0, 0, 0, 20, 0, 16, 0, 12, 0, 0, 0, 0, 0, 8, 0, 7, 0, 22, 0, 0, 0, 0, 0, 0, 1, 20, 0, 0, 0, 36, 0, 0, 0, 36, 0, 0, 0, 1, 0, 0, 0, 60, 0, 0, 0, 4, 0, 0, 0, 255, 255, 255, 255, 48, 0, 0, 0, 48, 0, 0, 0, 48, 0, 0, 0, 188, 255, 255, 255, 26, 0, 0, 0, 115, 101, 114, 118, 105, 110, 103, 95, 100, 101, 102, 97, 117, 108, 116, 95, 105, 110, 112, 117, 116, 95, 49, 48, 58, 48, 0, 0, 4, 0, 0, 0, 1, 0, 0, 0, 48, 0, 0, 0, 48, 0, 0, 0, 48, 0, 0, 0, 2, 0, 0, 0, 28, 0, 0, 0, 8, 0, 0, 0, 4, 0, 4, 0, 4, 0, 0, 0, 12, 0, 12, 0, 11, 0, 0, 0, 0, 0, 4, 0, 12, 0, 0, 0, 18, 0, 0, 0, 0, 0, 0, 18
};
