#pragma once

#include <cstdint>

const uint8_t layer_6[] = {
28, 0, 0, 0, 84, 70, 76, 51, 20, 0, 32, 0, 28, 0, 24, 0, 20, 0, 16, 0, 12, 0, 0, 0, 8, 0, 4, 0, 20, 0, 0, 0, 28, 0, 0, 0, 140, 0, 0, 0, 228, 0, 0, 0, 176, 65, 0, 0, 192, 65, 0, 0, 152, 68, 0, 0, 3, 0, 0, 0, 1, 0, 0, 0, 16, 0, 0, 0, 0, 0, 10, 0, 16, 0, 12, 0, 8, 0, 4, 0, 10, 0, 0, 0, 12, 0, 0, 0, 28, 0, 0, 0, 56, 0, 0, 0, 15, 0, 0, 0, 115, 101, 114, 118, 105, 110, 103, 95, 100, 101, 102, 97, 117, 108, 116, 0, 1, 0, 0, 0, 4, 0, 0, 0, 156, 255, 255, 255, 4, 0, 0, 0, 4, 0, 0, 0, 6, 0, 0, 0, 121, 95, 112, 114, 101, 100, 0, 0, 1, 0, 0, 0, 4, 0, 0, 0, 58, 190, 255, 255, 4, 0, 0, 0, 7, 0, 0, 0, 105, 110, 112, 117, 116, 95, 55, 0, 2, 0, 0, 0, 52, 0, 0, 0, 4, 0, 0, 0, 220, 255, 255, 255, 7, 0, 0, 0, 4, 0, 0, 0, 19, 0, 0, 0, 67, 79, 78, 86, 69, 82, 83, 73, 79, 78, 95, 77, 69, 84, 65, 68, 65, 84, 65, 0, 8, 0, 12, 0, 8, 0, 4, 0, 8, 0, 0, 0, 6, 0, 0, 0, 4, 0, 0, 0, 19, 0, 0, 0, 109, 105, 110, 95, 114, 117, 110, 116, 105, 109, 101, 95, 118, 101, 114, 115, 105, 111, 110, 0, 8, 0, 0, 0, 200, 64, 0, 0, 192, 64, 0, 0, 168, 64, 0, 0, 152, 0, 0, 0, 144, 0, 0, 0, 136, 0, 0, 0, 104, 0, 0, 0, 4, 0, 0, 0, 206, 190, 255, 255, 4, 0, 0, 0, 84, 0, 0, 0, 12, 0, 0, 0, 8, 0, 14, 0, 8, 0, 4, 0, 8, 0, 0, 0, 16, 0, 0, 0, 36, 0, 0, 0, 0, 0, 6, 0, 8, 0, 4, 0, 6, 0, 0, 0, 4, 0, 0, 0, 0, 0, 0, 0, 0, 0, 10, 0, 16, 0, 12, 0, 8, 0, 4, 0, 10, 0, 0, 0, 2, 0, 0, 0, 2, 0, 0, 0, 4, 0, 0, 0, 6, 0, 0, 0, 50, 46, 49, 53, 46, 48, 0, 0, 46, 191, 255, 255, 4, 0, 0, 0, 16, 0, 0, 0, 49, 46, 53, 46, 48, 0, 0, 0, 0, 0, 0, 0, 0, 0, 0, 0, 20, 189, 255, 255, 24, 189, 255, 255, 82, 191, 255, 255, 4, 0, 0, 0, 0, 64, 0, 0, 231, 74, 201, 59, 154, 6, 0, 189, 6, 167, 209, 61, 69, 78, 23, 61, 219, 17, 84, 62, 124, 213, 22, 189, 110, 42, 240, 188, 134, 12, 112, 190, 130, 30, 122, 189, 80, 255, 16, 61, 213, 189, 173, 189, 61, 47, 212, 189, 112, 62, 82, 189, 228, 3, 200, 189, 214, 157, 171, 188, 192, 148, 1, 61, 57, 27, 234, 60, 132, 165, 134, 60, 229, 202, 40, 61, 192, 164, 157, 189, 156, 169, 55, 60, 209, 15, 112, 188, 57, 138, 134, 188, 234, 117, 197, 61, 88, 138, 100, 189, 198, 97, 174, 188, 35, 178, 129, 61, 197, 97, 248, 60, 68, 56, 218, 61, 241, 196, 27, 62, 1, 186, 229, 61, 157, 33, 182, 61, 205, 77, 128, 189, 155, 243, 105, 61, 43, 242, 63, 62, 206, 91, 210, 188, 106, 208, 228, 61, 210, 240, 135, 189, 229, 80, 18, 60, 85, 133, 32, 190, 158, 96, 192, 189, 39, 161, 170, 187, 36, 31, 22, 190, 70, 96, 232, 60, 11, 222, 130, 189, 196, 160, 96, 189, 236, 44, 121, 189, 168, 236, 178, 188, 123, 160, 39, 60, 11, 29, 21, 189, 129, 21, 169, 188, 191, 32, 243, 189, 194, 246, 11, 61, 10, 157, 165, 188, 122, 95, 79, 60, 223, 40, 66, 61, 148, 154, 126, 189, 180, 198, 55, 189, 19, 244, 159, 60, 32, 244, 151, 60, 44, 80, 168, 61, 44, 10, 244, 61, 230, 157, 25, 62, 4, 62, 5, 61, 84, 49, 253, 188, 172, 138, 95, 189, 37, 247, 82, 62, 50, 21, 129, 60, 164, 38, 219, 61, 246, 162, 197, 60, 79, 79, 206, 188, 157, 64, 189, 189, 216, 22, 115, 189, 117, 47, 119, 188, 199, 69, 217, 189, 162, 52, 164, 189, 30, 152, 174, 189, 228, 20, 127, 189, 53, 82, 105, 189, 88, 152, 37, 60, 249, 60, 50, 60, 247, 61, 121, 188, 6, 61, 161, 189, 43, 128, 196, 189, 74, 182, 86, 186, 248, 67, 47, 60, 249, 210, 28, 60, 197, 121, 145, 61, 120, 161, 105, 61, 87, 67, 217, 59, 185, 162, 172, 60, 186, 44, 216, 188, 134, 110, 200, 61, 3, 52, 219, 61, 147, 186, 246, 61, 89, 7, 120, 61, 130, 254, 94, 60, 220, 14, 61, 187, 240, 246, 185, 61, 251, 8, 159, 60, 21, 38, 20, 62, 38, 169, 136, 188, 149, 58, 102, 189, 215, 125, 35, 189, 226, 220, 80, 60, 155, 180, 48, 188, 84, 138, 143, 189, 168, 182, 36, 189, 58, 186, 140, 189, 1, 231, 133, 189, 231, 229, 0, 189, 143, 132, 116, 189, 63, 106, 51, 189, 171, 74, 198, 59, 104, 134, 162, 189, 131, 188, 119, 189, 50, 71, 1, 61, 12, 151, 179, 60, 236, 238, 217, 189, 151, 207, 184, 188, 207, 15, 206, 58, 182, 122, 0, 61, 50, 163, 97, 61, 183, 249, 9, 60, 186, 135, 30, 62, 65, 136, 163, 61, 148, 212, 29, 62, 10, 147, 144, 188, 68, 120, 203, 61, 204, 178, 190, 60, 73, 114, 149, 189, 157, 157, 166, 61, 148, 189, 172, 61, 218, 244, 180, 186, 119, 20, 189, 188, 105, 228, 146, 188, 134, 70, 118, 188, 23, 131, 29, 189, 148, 201, 24, 61, 186, 221, 133, 189, 170, 40, 91, 61, 228, 245, 180, 60, 209, 226, 41, 189, 111, 97, 217, 188, 161, 94, 138, 189, 237, 100, 187, 189, 26, 61, 119, 59, 76, 0, 168, 189, 123, 222, 224, 188, 30, 186, 197, 60, 12, 119, 213, 189, 53, 233, 9, 189, 192, 102, 78, 189, 93, 170, 9, 61, 128, 163, 184, 60, 221, 119, 182, 189, 176, 137, 11, 60, 95, 205, 32, 62, 232, 140, 209, 61, 192, 105, 140, 61, 184, 16, 134, 60, 1, 193, 172, 60, 242, 243, 144, 189, 145, 89, 81, 61, 143, 147, 48, 62, 155, 248, 159, 188, 180, 161, 182, 60, 87, 13, 124, 61, 203, 141, 145, 61, 110, 26, 228, 189, 240, 170, 143, 61, 76, 42, 147, 189, 205, 109, 61, 61, 174, 183, 40, 189, 32, 248, 1, 188, 208, 216, 221, 189, 248, 55, 136, 188, 229, 39, 159, 189, 98, 111, 0, 62, 10, 187, 15, 190, 228, 1, 132, 188, 59, 218, 173, 188, 7, 122, 62, 189, 254, 125, 238, 189, 217, 113, 184, 188, 248, 93, 181, 189, 45, 30, 119, 188, 200, 139, 30, 190, 52, 91, 18, 190, 95, 32, 243, 61, 147, 109, 183, 189, 12, 36, 227, 188, 168, 78, 225, 59, 15, 2, 123, 61, 122, 23, 207, 59, 185, 96, 68, 59, 4, 22, 131, 61, 10, 224, 38, 60, 139, 220, 118, 59, 189, 24, 235, 59, 115, 241, 160, 60, 101, 184, 87, 189, 209, 222, 187, 61, 188, 208, 200, 189, 16, 5, 153, 61, 250, 90, 102, 190, 63, 162, 36, 189, 50, 87, 190, 189, 111, 19, 31, 189, 181, 152, 34, 189, 102, 167, 184, 61, 214, 52, 164, 189, 69, 188, 156, 189, 135, 169, 94, 189, 154, 242, 24, 58, 147, 77, 139, 189, 232, 159, 47, 189, 178, 53, 221, 188, 228, 87, 131, 60, 80, 167, 227, 189, 246, 247, 216, 189, 41, 167, 234, 61, 145, 63, 3, 189, 147, 240, 35, 60, 98, 46, 229, 188, 7, 35, 183, 61, 243, 180, 100, 61, 225, 154, 59, 189, 225, 189, 68, 189, 152, 142, 1, 189, 49, 77, 134, 60, 141, 167, 88, 189, 38, 183, 255, 61, 12, 89, 15, 59, 126, 157, 144, 61, 178, 136, 170, 189, 28, 58, 168, 60, 92, 181, 73, 190, 126, 141, 27, 188, 142, 240, 198, 60, 249, 49, 234, 61, 53, 210, 95, 59, 93, 171, 134, 61, 228, 19, 57, 189, 179, 118, 25, 189, 244, 36, 94, 188, 67, 120, 199, 188, 83, 184, 231, 188, 189, 47, 107, 189, 17, 205, 157, 187, 96, 23, 154, 60, 38, 186, 89, 189, 174, 243, 6, 190, 241, 140, 8, 62, 189, 255, 48, 61, 92, 141, 202, 187, 55, 208, 233, 59, 140, 246, 225, 61, 1, 21, 15, 62, 180, 192, 71, 61, 71, 166, 162, 189, 202, 61, 152, 61, 130, 34, 184, 189, 161, 164, 60, 190, 178, 233, 228, 189, 167, 228, 172, 61, 248, 137, 145, 189, 125, 181, 205, 60, 143, 46, 71, 188, 167, 158, 15, 60, 30, 180, 136, 61, 166, 122, 239, 188, 212, 251, 94, 61, 160, 192, 245, 187, 95, 69, 159, 61, 229, 61, 132, 188, 130, 67, 207, 187, 192, 178, 250, 189, 75, 154, 107, 189, 240, 173, 217, 188, 140, 231, 5, 187, 10, 168, 11, 189, 200, 38, 186, 188, 53, 105, 245, 61, 225, 216, 240, 60, 75, 78, 214, 61, 218, 173, 9, 62, 64, 100, 123, 61, 156, 39, 231, 61, 110, 194, 27, 61, 138, 123, 1, 62, 241, 75, 57, 59, 217, 247, 139, 61, 60, 136, 62, 189, 69, 37, 112, 188, 200, 130, 162, 189, 220, 119, 9, 190, 90, 118, 178, 60, 247, 13, 133, 189, 236, 39, 230, 61, 188, 104, 191, 189, 228, 46, 51, 61, 108, 200, 166, 189, 238, 161, 89, 61, 179, 47, 113, 61, 183, 253, 205, 60, 89, 201, 153, 61, 175, 130, 88, 189, 62, 168, 45, 59, 240, 116, 155, 56, 62, 191, 116, 189, 116, 159, 123, 189, 162, 135, 148, 60, 209, 57, 78, 60, 42, 107, 101, 189, 217, 110, 117, 61, 48, 121, 94, 62, 122, 27, 86, 61, 91, 76, 37, 62, 155, 72, 27, 188, 196, 150, 229, 60, 132, 241, 179, 189, 112, 73, 62, 62, 153, 0, 7, 189, 255, 134, 153, 61, 73, 166, 167, 189, 195, 243, 146, 188, 161, 59, 98, 188, 59, 186, 214, 189, 39, 146, 195, 186, 126, 139, 220, 189, 210, 124, 168, 61, 194, 13, 97, 187, 181, 171, 74, 61, 12, 230, 190, 189, 141, 150, 61, 187, 43, 89, 43, 189, 88, 8, 82, 189, 208, 47, 179, 61, 76, 197, 136, 189, 29, 246, 132, 188, 191, 209, 96, 60, 202, 63, 7, 188, 71, 200, 10, 190, 6, 25, 6, 61, 157, 58, 110, 61, 104, 157, 252, 187, 248, 104, 6, 189, 38, 148, 68, 62, 134, 141, 250, 61, 75, 110, 164, 61, 179, 44, 189, 60, 107, 44, 89, 62, 191, 178, 72, 61, 14, 31, 127, 60, 227, 28, 152, 59, 141, 165, 136, 61, 134, 30, 172, 189, 231, 149, 108, 189, 152, 168, 162, 188, 229, 30, 56, 189, 224, 111, 86, 61, 190, 75, 183, 188, 133, 202, 52, 189, 163, 70, 78, 189, 21, 53, 162, 61, 155, 128, 64, 60, 124, 144, 252, 188, 9, 42, 37, 188, 198, 4, 11, 190, 79, 201, 34, 62, 216, 209, 162, 189, 7, 172, 38, 188, 114, 70, 108, 61, 47, 12, 193, 189, 59, 2, 184, 189, 172, 233, 9, 61, 31, 21, 126, 61, 43, 226, 212, 61, 207, 236, 249, 188, 20, 140, 212, 61, 185, 60, 56, 59, 250, 203, 154, 61, 240, 119, 99, 189, 233, 113, 33, 62, 0, 83, 66, 188, 40, 43, 22, 188, 70, 198, 159, 61, 103, 187, 57, 62, 185, 103, 94, 189, 104, 160, 81, 189, 60, 237, 107, 60, 92, 15, 115, 189, 96, 27, 141, 61, 62, 50, 65, 189, 125, 245, 223, 188, 190, 83, 195, 59, 107, 154, 152, 188, 43, 252, 100, 188, 37, 150, 197, 188, 148, 53, 84, 189, 14, 136, 69, 189, 177, 97, 53, 62, 64, 31, 208, 189, 33, 124, 160, 189, 251, 84, 233, 188, 157, 177, 241, 189, 26, 101, 189, 189, 48, 161, 235, 188, 31, 173, 182, 60, 6, 193, 168, 61, 1, 124, 62, 189, 244, 215, 249, 61, 14, 238, 198, 61, 221, 12, 26, 60, 25, 143, 160, 189, 188, 228, 160, 61, 9, 36, 129, 61, 29, 12, 41, 190, 182, 201, 209, 188, 67, 98, 252, 188, 220, 169, 181, 188, 147, 155, 254, 188, 101, 116, 206, 188, 167, 160, 12, 59, 110, 208, 21, 189, 87, 132, 174, 61, 145, 137, 3, 190, 241, 218, 26, 61, 203, 231, 232, 188, 216, 98, 3, 189, 34, 117, 35, 190, 122, 214, 67, 189, 42, 84, 237, 189, 236, 163, 231, 61, 109, 152, 127, 188, 105, 97, 206, 189, 90, 86, 24, 190, 187, 43, 159, 189, 104, 35, 24, 190, 156, 80, 81, 188, 202, 78, 190, 189, 238, 197, 149, 189, 189, 118, 216, 189, 209, 239, 141, 189, 85, 93, 9, 62, 172, 49, 208, 60, 239, 130, 0, 189, 190, 8, 201, 61, 21, 122, 22, 60, 119, 12, 215, 189, 170, 142, 0, 189, 221, 151, 141, 189, 134, 212, 13, 61, 162, 86, 122, 189, 181, 20, 74, 61, 116, 36, 81, 60, 154, 153, 27, 189, 210, 19, 27, 62, 132, 139, 6, 190, 115, 161, 247, 186, 252, 189, 213, 189, 176, 202, 86, 189, 1, 145, 21, 190, 218, 70, 221, 59, 187, 12, 150, 189, 147, 132, 25, 62, 54, 151, 253, 188, 153, 183, 156, 189, 28, 41, 91, 188, 175, 194, 187, 188, 96, 61, 250, 189, 143, 39, 32, 59, 31, 154, 125, 187, 17, 33, 62, 59, 245, 133, 79, 190, 128, 51, 77, 190, 206, 136, 15, 62, 87, 103, 158, 61, 241, 55, 188, 60, 81, 252, 194, 61, 229, 140, 166, 60, 88, 237, 53, 61, 162, 74, 64, 61, 188, 103, 30, 188, 196, 121, 157, 61, 161, 226, 30, 61, 149, 157, 31, 189, 104, 131, 197, 61, 143, 52, 29, 61, 8, 74, 198, 60, 198, 18, 24, 190, 134, 115, 152, 61, 248, 87, 17, 190, 255, 48, 119, 61, 95, 153, 150, 189, 120, 79, 24, 61, 97, 243, 113, 58, 165, 83, 8, 62, 41, 56, 46, 60, 5, 75, 233, 189, 1, 115, 91, 189, 251, 131, 23, 189, 48, 75, 220, 185, 73, 230, 169, 188, 79, 87, 17, 60, 161, 95, 64, 189, 4, 99, 33, 190, 55, 235, 87, 190, 135, 194, 102, 61, 134, 62, 209, 189, 174, 244, 225, 188, 187, 64, 122, 61, 53, 166, 233, 61, 81, 169, 145, 187, 190, 84, 226, 61, 102, 66, 154, 61, 50, 109, 72, 61, 103, 56, 63, 189, 197, 134, 10, 190, 193, 153, 7, 189, 186, 234, 192, 61, 78, 213, 248, 60, 5, 251, 179, 60, 156, 100, 29, 189, 184, 10, 233, 60, 141, 162, 140, 59, 16, 247, 75, 187, 247, 135, 129, 189, 10, 68, 232, 60, 71, 22, 226, 61, 36, 99, 152, 189, 53, 187, 150, 186, 161, 58, 246, 189, 180, 130, 199, 61, 242, 22, 172, 59, 98, 239, 42, 60, 58, 175, 76, 187, 120, 239, 104, 61, 135, 134, 33, 61, 254, 90, 148, 189, 38, 243, 128, 61, 175, 66, 207, 61, 170, 178, 175, 60, 147, 113, 225, 61, 66, 187, 189, 189, 32, 92, 253, 60, 221, 249, 162, 59, 73, 149, 66, 188, 141, 137, 85, 189, 210, 196, 136, 189, 5, 141, 44, 189, 188, 236, 178, 189, 2, 235, 133, 61, 149, 180, 149, 189, 148, 105, 20, 188, 33, 60, 237, 60, 77, 26, 126, 61, 112, 239, 12, 189, 88, 224, 135, 189, 20, 86, 11, 189, 84, 212, 244, 187, 123, 181, 103, 61, 247, 105, 36, 189, 244, 29, 102, 188, 186, 222, 180, 189, 116, 205, 149, 60, 108, 78, 8, 190, 169, 129, 209, 60, 225, 133, 62, 189, 199, 163, 108, 189, 164, 128, 178, 60, 216, 67, 206, 61, 2, 247, 6, 61, 78, 103, 105, 60, 79, 98, 182, 59, 216, 194, 247, 61, 160, 162, 4, 190, 251, 244, 77, 188, 152, 104, 120, 189, 218, 226, 227, 61, 143, 199, 98, 189, 104, 46, 10, 190, 62, 1, 178, 189, 130, 105, 11, 190, 88, 197, 166, 60, 48, 44, 224, 189, 103, 116, 185, 189, 17, 97, 66, 61, 153, 18, 124, 61, 96, 0, 137, 189, 166, 81, 206, 189, 11, 44, 111, 189, 253, 85, 94, 189, 248, 138, 39, 61, 227, 45, 89, 188, 125, 246, 134, 189, 154, 159, 111, 189, 219, 97, 8, 188, 244, 211, 253, 189, 187, 82, 137, 61, 17, 131, 154, 189, 233, 251, 182, 189, 77, 19, 247, 188, 23, 136, 16, 62, 202, 255, 211, 188, 101, 157, 65, 60, 154, 52, 12, 189, 80, 52, 15, 62, 192, 103, 8, 190, 222, 49, 209, 189, 50, 239, 38, 189, 246, 129, 251, 61, 9, 239, 64, 189, 2, 245, 178, 188, 81, 49, 85, 189, 50, 176, 1, 190, 159, 165, 13, 187, 87, 222, 151, 189, 16, 149, 63, 189, 85, 187, 90, 61, 18, 45, 162, 61, 33, 127, 35, 61, 246, 185, 44, 189, 74, 209, 75, 189, 93, 123, 196, 189, 95, 35, 1, 62, 214, 150, 203, 189, 73, 203, 70, 189, 129, 132, 239, 60, 83, 26, 20, 190, 8, 230, 105, 189, 203, 6, 55, 60, 2, 84, 145, 188, 91, 222, 132, 189, 145, 98, 209, 60, 99, 28, 30, 62, 76, 26, 187, 189, 20, 242, 192, 59, 86, 86, 254, 60, 215, 229, 106, 62, 215, 126, 132, 189, 113, 125, 1, 190, 204, 105, 170, 189, 32, 138, 36, 62, 49, 158, 31, 189, 228, 115, 22, 187, 152, 154, 156, 189, 113, 152, 208, 189, 138, 251, 137, 60, 7, 234, 58, 187, 242, 223, 171, 189, 62, 5, 163, 188, 234, 175, 218, 60, 100, 231, 253, 187, 254, 213, 231, 188, 173, 49, 239, 188, 0, 73, 6, 189, 44, 2, 197, 61, 194, 39, 31, 189, 177, 114, 101, 189, 49, 124, 44, 189, 44, 63, 193, 189, 82, 125, 243, 189, 116, 214, 137, 188, 244, 35, 102, 189, 166, 107, 3, 60, 250, 80, 68, 60, 204, 216, 36, 62, 241, 114, 3, 60, 184, 178, 130, 188, 0, 201, 31, 189, 202, 164, 102, 62, 175, 107, 244, 189, 33, 236, 110, 188, 232, 49, 21, 189, 43, 154, 2, 62, 21, 59, 195, 188, 202, 174, 169, 60, 79, 161, 99, 60, 250, 252, 23, 189, 37, 91, 188, 188, 230, 236, 13, 186, 44, 7, 204, 189, 39, 57, 214, 189, 253, 29, 137, 61, 48, 140, 2, 189, 196, 199, 147, 189, 149, 66, 187, 189, 174, 254, 124, 189, 94, 171, 0, 62, 152, 8, 149, 189, 10, 54, 216, 188, 47, 229, 149, 189, 246, 63, 128, 189, 94, 39, 175, 189, 223, 60, 145, 61, 167, 227, 118, 187, 192, 136, 187, 187, 88, 94, 176, 188, 239, 38, 168, 61, 30, 240, 3, 60, 62, 236, 34, 61, 17, 69, 185, 60, 110, 251, 72, 62, 98, 30, 60, 189, 61, 228, 1, 61, 77, 99, 129, 189, 7, 107, 69, 61, 169, 211, 175, 60, 205, 195, 47, 188, 240, 164, 13, 61, 125, 155, 92, 61, 29, 180, 41, 61, 217, 167, 31, 61, 62, 117, 151, 189, 64, 151, 244, 60, 145, 13, 142, 61, 141, 121, 85, 187, 217, 245, 19, 189, 77, 222, 159, 188, 235, 79, 37, 60, 76, 93, 222, 61, 36, 28, 60, 188, 156, 43, 183, 59, 149, 195, 40, 189, 138, 232, 121, 189, 72, 15, 115, 60, 159, 170, 175, 60, 161, 105, 94, 189, 102, 215, 122, 188, 161, 159, 13, 189, 116, 208, 183, 189, 80, 82, 174, 60, 236, 45, 25, 61, 95, 153, 217, 60, 241, 244, 92, 61, 171, 202, 55, 59, 108, 191, 34, 189, 208, 196, 135, 60, 243, 190, 15, 188, 215, 209, 6, 189, 87, 221, 7, 61, 248, 89, 4, 188, 37, 5, 195, 188, 255, 47, 170, 61, 60, 180, 26, 61, 194, 157, 33, 190, 91, 177, 138, 188, 69, 41, 120, 189, 142, 238, 97, 61, 197, 140, 197, 189, 42, 60, 33, 60, 87, 195, 8, 61, 12, 101, 2, 187, 114, 192, 40, 59, 147, 33, 171, 189, 240, 46, 144, 189, 220, 16, 17, 189, 125, 215, 199, 60, 27, 109, 58, 60, 103, 63, 28, 188, 201, 129, 33, 60, 197, 189, 192, 189, 102, 215, 252, 189, 60, 157, 197, 61, 34, 145, 127, 61, 67, 236, 174, 188, 125, 128, 219, 61, 145, 39, 56, 61, 100, 158, 29, 61, 75, 213, 108, 60, 139, 250, 43, 62, 46, 65, 204, 60, 228, 99, 2, 189, 183, 123, 122, 189, 156, 42, 112, 61, 46, 36, 34, 61, 3, 192, 166, 189, 232, 105, 98, 60, 140, 47, 235, 60, 80, 9, 108, 189, 62, 156, 135, 61, 26, 232, 108, 59, 39, 41, 66, 60, 154, 189, 213, 188, 34, 111, 150, 61, 146, 189, 9, 189, 136, 218, 144, 188, 6, 96, 62, 189, 195, 41, 237, 61, 177, 111, 171, 188, 96, 148, 190, 60, 189, 55, 74, 61, 215, 148, 214, 60, 147, 177, 67, 188, 98, 114, 134, 189, 133, 250, 57, 61, 215, 233, 197, 61, 55, 138, 197, 59, 235, 239, 20, 62, 112, 44, 129, 189, 239, 203, 95, 61, 164, 219, 17, 189, 77, 170, 20, 58, 240, 240, 209, 188, 55, 69, 49, 189, 43, 126, 249, 189, 64, 115, 66, 189, 137, 239, 40, 189, 214, 85, 107, 189, 225, 69, 31, 59, 118, 43, 62, 189, 23, 200, 149, 61, 9, 128, 51, 188, 115, 247, 173, 188, 209, 182, 26, 189, 194, 70, 100, 61, 178, 24, 163, 61, 42, 217, 64, 61, 93, 146, 80, 189, 44, 45, 204, 189, 187, 20, 170, 188, 153, 158, 167, 189, 212, 207, 238, 57, 218, 245, 218, 189, 149, 232, 253, 188, 197, 220, 14, 61, 244, 240, 213, 188, 111, 90, 53, 189, 196, 157, 98, 61, 151, 11, 143, 189, 174, 163, 8, 62, 241, 164, 208, 189, 18, 176, 173, 189, 157, 104, 178, 189, 178, 44, 29, 62, 59, 100, 87, 60, 150, 133, 133, 189, 212, 101, 31, 61, 167, 172, 177, 189, 215, 122, 255, 59, 250, 134, 202, 188, 164, 247, 232, 188, 80, 7, 149, 60, 222, 98, 175, 61, 226, 94, 86, 189, 90, 238, 134, 58, 157, 159, 216, 188, 245, 246, 172, 61, 238, 109, 194, 61, 40, 165, 204, 59, 211, 71, 37, 188, 4, 122, 79, 188, 152, 12, 79, 61, 172, 80, 152, 189, 55, 160, 246, 187, 6, 68, 59, 189, 139, 155, 168, 61, 170, 49, 140, 59, 208, 71, 0, 62, 150, 171, 209, 189, 177, 11, 63, 189, 104, 60, 104, 189, 41, 46, 100, 62, 22, 252, 0, 61, 146, 108, 156, 189, 72, 204, 197, 189, 106, 31, 75, 62, 43, 84, 80, 60, 249, 193, 170, 188, 104, 53, 129, 188, 209, 158, 17, 190, 2, 1, 9, 60, 13, 160, 250, 189, 96, 224, 60, 61, 224, 80, 57, 189, 153, 101, 37, 62, 34, 76, 14, 190, 94, 74, 231, 189, 104, 142, 248, 189, 54, 146, 131, 61, 110, 49, 44, 62, 59, 241, 14, 61, 46, 126, 47, 189, 250, 154, 59, 61, 217, 13, 135, 188, 71, 231, 139, 189, 23, 210, 115, 60, 61, 206, 236, 189, 86, 84, 76, 61, 112, 167, 118, 187, 100, 67, 5, 62, 230, 220, 197, 189, 12, 207, 38, 190, 88, 131, 12, 61, 24, 105, 43, 62, 245, 98, 39, 189, 227, 173, 171, 189, 155, 235, 53, 190, 142, 159, 78, 62, 96, 155, 52, 188, 190, 87, 46, 61, 219, 96, 168, 188, 122, 98, 188, 189, 237, 54, 12, 61, 61, 120, 236, 189, 217, 219, 78, 189, 40, 109, 73, 189, 18, 139, 241, 61, 170, 205, 53, 189, 247, 102, 35, 189, 243, 76, 20, 61, 55, 205, 210, 60, 241, 139, 142, 61, 235, 143, 33, 189, 122, 61, 196, 57, 235, 19, 20, 189, 45, 150, 223, 59, 55, 75, 244, 189, 113, 238, 34, 61, 60, 5, 33, 188, 199, 188, 62, 189, 231, 187, 174, 187, 109, 45, 103, 62, 57, 155, 175, 189, 83, 160, 184, 189, 16, 196, 6, 61, 204, 39, 111, 62, 195, 102, 253, 188, 140, 155, 150, 188, 28, 169, 227, 189, 30, 247, 193, 187, 156, 57, 98, 188, 2, 107, 35, 189, 25, 85, 75, 188, 191, 159, 130, 189, 198, 34, 169, 189, 2, 139, 230, 187, 128, 120, 251, 188, 66, 96, 15, 190, 204, 97, 192, 61, 193, 170, 29, 59, 94, 144, 192, 189, 18, 63, 24, 189, 85, 224, 9, 61, 173, 132, 216, 61, 78, 149, 105, 187, 80, 251, 223, 189, 217, 88, 46, 189, 207, 41, 143, 60, 14, 135, 197, 189, 104, 74, 55, 61, 133, 152, 143, 189, 88, 227, 40, 59, 182, 242, 154, 188, 42, 161, 27, 62, 58, 116, 144, 188, 42, 3, 133, 189, 177, 249, 185, 60, 207, 114, 239, 61, 87, 155, 177, 189, 109, 30, 201, 188, 216, 58, 9, 190, 29, 61, 222, 61, 63, 24, 229, 60, 170, 123, 16, 61, 32, 81, 156, 189, 135, 115, 152, 188, 155, 41, 72, 189, 183, 57, 237, 59, 55, 15, 90, 189, 119, 35, 156, 189, 93, 183, 97, 189, 248, 63, 180, 188, 255, 88, 138, 189, 124, 51, 25, 61, 167, 41, 231, 188, 199, 168, 179, 61, 55, 252, 89, 60, 228, 111, 141, 189, 149, 149, 31, 189, 237, 144, 118, 189, 93, 240, 30, 189, 167, 166, 253, 60, 14, 120, 226, 59, 13, 134, 5, 189, 244, 21, 80, 189, 15, 59, 136, 189, 195, 190, 112, 61, 139, 100, 89, 188, 203, 102, 202, 60, 33, 206, 27, 62, 143, 179, 224, 188, 161, 228, 248, 59, 118, 128, 199, 60, 183, 158, 188, 61, 215, 45, 14, 189, 189, 149, 90, 61, 201, 193, 11, 189, 14, 237, 65, 61, 146, 2, 255, 60, 228, 71, 246, 188, 136, 22, 28, 189, 229, 224, 0, 188, 0, 252, 238, 189, 249, 151, 134, 189, 135, 73, 172, 60, 229, 202, 179, 61, 52, 178, 12, 189, 89, 106, 186, 61, 177, 255, 78, 187, 115, 222, 19, 61, 11, 179, 99, 189, 206, 15, 97, 188, 246, 77, 45, 60, 77, 178, 75, 188, 164, 116, 35, 189, 34, 179, 141, 60, 236, 50, 140, 61, 117, 244, 125, 189, 215, 56, 207, 59, 137, 233, 149, 61, 143, 46, 41, 60, 239, 180, 128, 61, 103, 173, 112, 61, 114, 67, 135, 61, 92, 141, 173, 188, 89, 252, 204, 60, 81, 10, 195, 61, 218, 190, 134, 61, 10, 67, 181, 189, 96, 0, 145, 186, 237, 189, 190, 59, 111, 138, 159, 60, 192, 171, 180, 60, 144, 92, 48, 61, 191, 62, 191, 189, 203, 50, 102, 61, 87, 114, 80, 61, 58, 43, 146, 188, 25, 228, 63, 187, 33, 139, 209, 61, 233, 126, 186, 60, 18, 99, 240, 187, 61, 167, 133, 189, 93, 219, 2, 189, 190, 14, 23, 61, 85, 176, 209, 186, 67, 228, 199, 60, 122, 49, 31, 60, 44, 59, 23, 61, 11, 196, 138, 60, 168, 9, 90, 60, 66, 116, 180, 61, 196, 124, 141, 59, 93, 124, 168, 61, 237, 235, 250, 189, 231, 132, 232, 61, 63, 231, 37, 59, 44, 225, 123, 61, 245, 70, 1, 187, 214, 62, 18, 188, 139, 143, 105, 188, 66, 14, 59, 189, 63, 62, 180, 188, 192, 88, 64, 189, 86, 8, 155, 61, 16, 223, 185, 60, 198, 182, 144, 61, 149, 129, 132, 60, 171, 184, 122, 188, 187, 207, 34, 188, 87, 110, 220, 60, 105, 161, 46, 61, 86, 79, 175, 185, 36, 206, 238, 188, 31, 84, 88, 189, 153, 19, 139, 188, 200, 4, 153, 59, 56, 12, 115, 185, 115, 130, 63, 59, 4, 175, 52, 188, 89, 228, 92, 187, 145, 165, 239, 186, 48, 122, 12, 189, 187, 165, 221, 60, 184, 37, 225, 60, 150, 37, 114, 62, 186, 28, 217, 189, 244, 170, 104, 61, 149, 26, 82, 189, 228, 140, 1, 62, 175, 148, 89, 60, 43, 237, 246, 188, 38, 32, 214, 188, 114, 49, 181, 189, 16, 32, 95, 60, 227, 251, 69, 60, 57, 183, 175, 61, 224, 35, 136, 188, 110, 205, 239, 61, 235, 201, 167, 189, 198, 203, 72, 188, 0, 50, 12, 188, 239, 85, 136, 60, 84, 150, 197, 61, 115, 45, 142, 61, 45, 43, 36, 61, 100, 59, 139, 189, 198, 180, 23, 60, 93, 113, 149, 188, 80, 165, 107, 60, 2, 130, 124, 189, 144, 155, 131, 189, 0, 242, 44, 61, 86, 74, 94, 61, 243, 255, 20, 189, 213, 165, 117, 188, 90, 145, 59, 61, 236, 154, 209, 61, 243, 109, 143, 189, 251, 38, 255, 189, 68, 141, 12, 190, 77, 211, 0, 62, 207, 159, 92, 189, 107, 156, 101, 189, 5, 44, 52, 189, 40, 214, 232, 189, 235, 248, 6, 190, 118, 119, 51, 59, 224, 129, 29, 61, 65, 64, 187, 189, 209, 113, 148, 61, 144, 68, 213, 189, 43, 150, 21, 60, 5, 218, 254, 189, 127, 20, 150, 61, 139, 143, 2, 62, 47, 127, 40, 189, 185, 49, 126, 188, 249, 36, 158, 187, 64, 203, 25, 61, 105, 40, 157, 188, 43, 30, 176, 61, 131, 153, 101, 189, 190, 73, 163, 188, 200, 41, 216, 189, 233, 79, 7, 188, 214, 254, 149, 189, 88, 43, 87, 189, 58, 52, 205, 61, 131, 53, 180, 61, 32, 72, 56, 60, 223, 1, 219, 189, 93, 50, 39, 190, 80, 180, 4, 62, 125, 143, 0, 190, 35, 191, 116, 189, 155, 252, 119, 59, 215, 40, 198, 188, 96, 174, 43, 189, 65, 94, 58, 61, 36, 58, 8, 59, 246, 70, 185, 189, 99, 18, 1, 62, 174, 103, 221, 189, 85, 164, 188, 189, 222, 24, 234, 60, 42, 201, 160, 61, 233, 124, 81, 61, 138, 153, 26, 61, 94, 209, 24, 189, 85, 136, 189, 188, 235, 41, 48, 61, 242, 108, 234, 187, 36, 63, 249, 61, 114, 116, 232, 189, 246, 30, 150, 61, 100, 76, 159, 188, 127, 117, 152, 61, 252, 26, 179, 189, 201, 171, 135, 189, 178, 54, 23, 61, 202, 150, 3, 62, 9, 18, 30, 189, 49, 184, 164, 58, 204, 142, 233, 189, 40, 214, 221, 189, 148, 104, 133, 61, 254, 16, 2, 189, 238, 83, 157, 61, 141, 157, 107, 189, 157, 87, 209, 187, 135, 104, 1, 60, 77, 126, 20, 189, 226, 32, 58, 189, 3, 171, 22, 188, 105, 105, 55, 60, 96, 164, 203, 189, 238, 133, 166, 189, 245, 51, 42, 60, 110, 60, 250, 60, 113, 53, 112, 61, 255, 211, 168, 187, 111, 169, 55, 188, 41, 187, 222, 61, 16, 96, 203, 187, 160, 29, 131, 60, 223, 189, 142, 189, 54, 186, 227, 187, 236, 182, 205, 188, 81, 61, 234, 61, 35, 186, 169, 189, 250, 29, 59, 190, 166, 230, 107, 61, 129, 112, 174, 61, 123, 211, 120, 188, 129, 22, 147, 189, 236, 108, 167, 189, 10, 111, 128, 189, 114, 237, 117, 185, 62, 144, 175, 188, 203, 20, 175, 60, 225, 117, 169, 61, 23, 232, 180, 60, 2, 40, 144, 61, 136, 146, 193, 189, 75, 157, 151, 188, 178, 136, 168, 189, 30, 116, 81, 188, 11, 149, 238, 189, 238, 107, 40, 189, 93, 137, 140, 188, 105, 203, 83, 61, 30, 185, 25, 189, 78, 70, 218, 60, 233, 62, 156, 188, 6, 86, 245, 61, 216, 75, 46, 188, 115, 51, 248, 60, 136, 166, 55, 189, 164, 255, 106, 189, 166, 13, 191, 189, 255, 195, 215, 189, 103, 162, 0, 61, 239, 198, 166, 188, 185, 144, 127, 61, 141, 106, 141, 60, 212, 104, 203, 188, 65, 147, 42, 60, 5, 184, 161, 59, 110, 162, 254, 188, 71, 13, 199, 60, 16, 242, 139, 187, 203, 152, 182, 189, 44, 47, 115, 61, 247, 199, 145, 61, 32, 199, 158, 188, 121, 130, 155, 189, 236, 211, 59, 188, 213, 132, 186, 189, 223, 178, 226, 60, 69, 209, 205, 60, 37, 90, 227, 61, 41, 236, 38, 61, 222, 2, 154, 60, 180, 194, 2, 61, 186, 185, 62, 60, 41, 32, 18, 61, 84, 194, 106, 61, 96, 80, 145, 188, 182, 66, 87, 187, 134, 170, 5, 189, 199, 118, 36, 61, 213, 117, 45, 189, 226, 168, 215, 189, 154, 230, 199, 185, 247, 28, 249, 188, 253, 199, 142, 189, 25, 121, 158, 188, 173, 216, 48, 61, 6, 242, 11, 61, 181, 217, 205, 186, 55, 81, 180, 60, 182, 201, 201, 61, 15, 185, 125, 60, 136, 173, 33, 190, 18, 195, 133, 61, 240, 253, 6, 62, 228, 179, 130, 188, 26, 130, 102, 61, 186, 91, 8, 61, 184, 42, 178, 189, 145, 191, 159, 60, 86, 179, 198, 61, 112, 74, 148, 61, 60, 144, 1, 60, 46, 1, 12, 62, 32, 224, 23, 58, 58, 117, 77, 60, 177, 61, 72, 188, 118, 116, 254, 188, 164, 42, 188, 60, 86, 172, 148, 189, 162, 135, 131, 61, 176, 180, 137, 61, 49, 212, 69, 62, 15, 188, 183, 189, 245, 195, 87, 59, 31, 109, 114, 61, 175, 159, 137, 188, 200, 160, 200, 61, 34, 175, 248, 188, 173, 81, 65, 61, 214, 183, 211, 188, 161, 6, 146, 61, 226, 133, 40, 61, 244, 160, 193, 188, 191, 129, 222, 189, 159, 38, 147, 189, 248, 203, 247, 186, 13, 139, 10, 61, 10, 36, 57, 61, 53, 134, 39, 61, 240, 200, 41, 59, 225, 21, 136, 188, 222, 236, 184, 188, 187, 41, 167, 189, 135, 30, 187, 61, 100, 118, 161, 61, 58, 173, 139, 61, 240, 173, 2, 189, 171, 222, 132, 189, 141, 94, 209, 59, 176, 173, 169, 61, 101, 34, 37, 61, 135, 118, 183, 60, 50, 140, 81, 60, 179, 172, 24, 59, 249, 118, 236, 188, 104, 72, 16, 190, 40, 59, 198, 188, 33, 198, 11, 61, 175, 237, 168, 61, 251, 66, 179, 188, 12, 100, 62, 189, 190, 175, 202, 189, 248, 45, 98, 57, 110, 1, 51, 61, 61, 194, 220, 189, 142, 85, 19, 189, 153, 186, 155, 189, 166, 108, 30, 60, 207, 191, 255, 60, 252, 48, 92, 189, 215, 106, 139, 61, 179, 6, 110, 61, 68, 112, 170, 60, 119, 35, 254, 189, 83, 52, 206, 189, 40, 0, 171, 61, 246, 130, 138, 189, 146, 7, 181, 61, 132, 242, 20, 61, 87, 209, 197, 189, 124, 9, 1, 189, 237, 19, 151, 60, 244, 63, 163, 187, 43, 51, 45, 189, 197, 106, 20, 189, 199, 141, 199, 59, 210, 236, 216, 61, 173, 137, 72, 190, 179, 97, 172, 189, 241, 61, 123, 61, 77, 201, 147, 61, 199, 114, 39, 188, 244, 210, 255, 189, 62, 118, 18, 189, 25, 29, 199, 61, 145, 75, 218, 60, 68, 150, 176, 189, 93, 41, 38, 61, 240, 33, 198, 189, 107, 220, 110, 61, 103, 221, 221, 188, 251, 64, 24, 61, 46, 60, 33, 61, 121, 183, 20, 59, 210, 249, 134, 60, 234, 107, 62, 189, 175, 85, 172, 189, 243, 239, 118, 60, 229, 95, 81, 189, 195, 65, 110, 61, 204, 70, 150, 60, 155, 127, 212, 189, 5, 130, 54, 61, 55, 89, 151, 189, 200, 233, 139, 61, 199, 31, 46, 188, 233, 59, 173, 188, 129, 171, 234, 58, 154, 162, 19, 61, 33, 130, 213, 189, 219, 213, 206, 189, 19, 143, 224, 61, 60, 235, 225, 61, 68, 119, 147, 60, 222, 101, 179, 189, 84, 189, 31, 190, 45, 85, 223, 61, 229, 250, 155, 61, 157, 165, 218, 60, 2, 173, 57, 189, 7, 164, 70, 189, 162, 3, 38, 60, 226, 117, 194, 60, 151, 62, 5, 190, 137, 83, 57, 60, 48, 137, 200, 61, 196, 255, 108, 60, 153, 72, 118, 189, 196, 224, 26, 190, 176, 198, 221, 188, 74, 182, 17, 61, 143, 93, 92, 61, 213, 109, 193, 187, 84, 221, 82, 189, 108, 169, 227, 61, 122, 64, 25, 61, 131, 164, 44, 61, 213, 208, 181, 189, 25, 128, 59, 190, 17, 12, 164, 60, 93, 248, 22, 61, 87, 0, 190, 189, 144, 74, 102, 189, 226, 196, 230, 61, 72, 183, 251, 61, 249, 184, 176, 189, 133, 250, 208, 189, 29, 68, 95, 189, 162, 76, 243, 61, 198, 136, 14, 62, 12, 19, 242, 189, 161, 44, 217, 60, 23, 184, 139, 187, 13, 80, 204, 59, 78, 113, 79, 61, 179, 88, 60, 189, 221, 147, 182, 61, 76, 234, 19, 189, 7, 18, 234, 60, 195, 79, 171, 189, 79, 118, 140, 189, 120, 152, 92, 61, 201, 132, 145, 61, 181, 61, 159, 61, 210, 178, 83, 61, 251, 239, 164, 188, 81, 69, 211, 61, 150, 158, 34, 189, 166, 179, 243, 61, 63, 121, 148, 61, 28, 132, 134, 189, 173, 173, 234, 60, 34, 120, 247, 60, 20, 68, 120, 189, 51, 62, 9, 190, 221, 234, 17, 188, 149, 63, 36, 61, 141, 20, 209, 189, 190, 0, 36, 190, 141, 227, 185, 188, 115, 249, 3, 189, 4, 95, 18, 62, 240, 192, 195, 189, 196, 39, 18, 62, 105, 84, 176, 60, 137, 167, 136, 61, 236, 94, 27, 60, 228, 223, 29, 189, 187, 232, 203, 61, 81, 141, 126, 189, 215, 251, 204, 61, 66, 229, 8, 190, 149, 106, 159, 189, 228, 107, 104, 60, 223, 57, 108, 189, 171, 34, 14, 61, 205, 184, 13, 60, 89, 99, 233, 189, 196, 244, 248, 60, 182, 73, 3, 189, 198, 231, 129, 60, 20, 12, 160, 189, 105, 62, 148, 189, 65, 16, 140, 189, 167, 134, 168, 189, 84, 19, 10, 189, 2, 209, 241, 188, 242, 237, 233, 60, 63, 35, 35, 62, 197, 164, 114, 60, 224, 176, 135, 61, 84, 2, 29, 61, 29, 217, 200, 61, 65, 69, 244, 61, 215, 249, 120, 61, 68, 253, 51, 188, 240, 157, 187, 61, 102, 211, 194, 61, 86, 223, 41, 189, 36, 203, 217, 188, 120, 95, 146, 60, 67, 94, 71, 190, 241, 173, 34, 61, 231, 105, 148, 61, 73, 141, 196, 61, 222, 117, 140, 188, 160, 78, 189, 61, 93, 116, 138, 189, 47, 51, 37, 61, 40, 235, 142, 188, 189, 146, 17, 61, 4, 130, 73, 60, 254, 35, 141, 188, 97, 250, 181, 188, 133, 242, 61, 61, 4, 101, 167, 61, 106, 66, 90, 189, 166, 107, 25, 189, 244, 241, 93, 188, 185, 141, 73, 189, 145, 70, 244, 61, 176, 76, 108, 61, 58, 162, 253, 60, 121, 82, 106, 60, 65, 188, 226, 188, 77, 88, 51, 62, 198, 249, 232, 60, 91, 95, 102, 189, 34, 185, 221, 60, 126, 113, 15, 61, 183, 183, 64, 61, 80, 104, 247, 187, 96, 73, 185, 60, 65, 112, 107, 189, 213, 20, 223, 61, 199, 237, 140, 61, 119, 94, 179, 60, 148, 234, 123, 60, 192, 93, 176, 61, 148, 140, 16, 60, 114, 65, 2, 61, 61, 223, 173, 187, 174, 17, 147, 60, 7, 250, 39, 61, 33, 205, 127, 189, 29, 32, 73, 61, 175, 226, 199, 59, 52, 225, 170, 61, 66, 255, 171, 60, 137, 31, 24, 188, 54, 224, 7, 62, 183, 170, 64, 61, 43, 162, 25, 61, 164, 102, 82, 189, 104, 55, 104, 61, 3, 206, 242, 188, 167, 7, 3, 189, 155, 1, 28, 61, 161, 90, 224, 60, 186, 221, 14, 190, 109, 125, 166, 59, 182, 27, 75, 61, 73, 240, 118, 189, 6, 244, 135, 61, 178, 99, 233, 188, 134, 82, 160, 59, 10, 57, 146, 59, 59, 151, 28, 60, 97, 28, 27, 189, 149, 141, 23, 61, 93, 199, 170, 188, 206, 122, 146, 61, 17, 2, 95, 189, 191, 71, 13, 189, 216, 206, 175, 186, 71, 211, 135, 189, 95, 34, 18, 187, 180, 71, 103, 188, 130, 242, 185, 59, 22, 203, 34, 61, 157, 61, 125, 189, 159, 188, 193, 189, 43, 30, 173, 61, 162, 44, 155, 61, 134, 207, 35, 61, 247, 242, 76, 61, 52, 251, 159, 60, 199, 107, 31, 60, 118, 29, 252, 189, 185, 59, 38, 62, 60, 85, 1, 60, 65, 45, 1, 189, 153, 210, 78, 189, 196, 211, 2, 62, 237, 211, 162, 60, 189, 44, 193, 60, 30, 157, 20, 60, 86, 172, 38, 61, 47, 58, 155, 61, 172, 72, 91, 60, 88, 154, 215, 189, 56, 86, 76, 62, 44, 249, 109, 60, 67, 32, 165, 61, 120, 158, 132, 61, 41, 70, 71, 189, 26, 113, 86, 189, 177, 87, 47, 61, 139, 3, 84, 61, 79, 182, 57, 61, 185, 208, 114, 189, 101, 215, 25, 61, 71, 103, 80, 189, 168, 33, 216, 189, 233, 248, 8, 61, 227, 141, 38, 61, 232, 101, 107, 61, 169, 87, 50, 189, 172, 179, 80, 189, 154, 232, 75, 189, 0, 180, 216, 61, 32, 140, 26, 61, 247, 79, 14, 61, 212, 27, 159, 188, 75, 20, 207, 187, 181, 12, 217, 61, 10, 171, 144, 188, 197, 79, 187, 59, 31, 181, 58, 60, 38, 162, 170, 61, 209, 196, 118, 59, 146, 233, 179, 60, 228, 251, 188, 189, 223, 183, 83, 61, 246, 102, 207, 188, 248, 134, 155, 61, 107, 189, 205, 60, 103, 224, 41, 189, 181, 78, 169, 61, 199, 11, 87, 61, 143, 238, 247, 187, 101, 160, 136, 189, 166, 237, 96, 189, 192, 25, 79, 61, 240, 182, 1, 61, 141, 137, 214, 189, 206, 80, 177, 189, 62, 225, 4, 62, 31, 210, 56, 61, 40, 198, 122, 189, 105, 193, 184, 189, 196, 222, 89, 189, 141, 109, 66, 59, 48, 164, 95, 61, 69, 208, 217, 189, 59, 41, 94, 59, 156, 190, 108, 189, 104, 28, 0, 62, 49, 60, 26, 61, 30, 41, 176, 189, 224, 67, 8, 62, 184, 9, 80, 189, 62, 111, 163, 59, 10, 23, 140, 189, 176, 204, 8, 190, 47, 243, 225, 60, 221, 234, 181, 59, 197, 158, 189, 61, 233, 74, 132, 188, 4, 127, 164, 189, 11, 242, 195, 61, 42, 162, 29, 189, 112, 215, 248, 60, 40, 65, 22, 188, 180, 37, 133, 189, 147, 180, 199, 61, 143, 255, 55, 61, 142, 11, 195, 189, 126, 151, 124, 189, 124, 211, 108, 61, 232, 164, 97, 61, 66, 220, 19, 61, 78, 38, 44, 190, 229, 166, 56, 60, 215, 142, 15, 189, 33, 44, 18, 62, 248, 179, 35, 189, 240, 192, 10, 62, 74, 42, 145, 60, 223, 223, 130, 61, 183, 209, 165, 61, 42, 167, 201, 189, 197, 150, 20, 62, 255, 12, 255, 189, 162, 46, 28, 60, 230, 232, 59, 188, 181, 162, 129, 189, 214, 202, 102, 61, 139, 30, 161, 187, 214, 76, 200, 60, 39, 14, 12, 188, 70, 76, 247, 189, 255, 169, 28, 62, 61, 147, 162, 60, 12, 96, 126, 187, 197, 87, 245, 188, 226, 222, 118, 189, 69, 93, 19, 61, 10, 179, 43, 189, 150, 22, 26, 189, 156, 115, 7, 188, 143, 224, 128, 189, 160, 187, 91, 61, 226, 62, 249, 60, 245, 23, 187, 189, 55, 108, 159, 189, 155, 145, 133, 61, 243, 160, 207, 61, 22, 37, 68, 61, 195, 77, 220, 60, 2, 38, 38, 189, 135, 47, 159, 189, 42, 55, 162, 60, 130, 252, 167, 189, 141, 199, 162, 61, 52, 76, 237, 189, 239, 89, 52, 188, 142, 157, 43, 189, 85, 88, 203, 59, 21, 136, 177, 61, 83, 165, 119, 61, 156, 220, 204, 60, 41, 231, 38, 61, 83, 48, 131, 60, 19, 160, 156, 61, 21, 12, 221, 60, 77, 235, 201, 60, 163, 127, 74, 60, 173, 131, 208, 189, 192, 193, 37, 188, 105, 45, 23, 190, 9, 166, 73, 188, 114, 194, 70, 189, 221, 30, 53, 61, 121, 51, 71, 62, 183, 221, 171, 60, 123, 124, 60, 187, 14, 165, 199, 187, 58, 79, 70, 62, 168, 233, 103, 61, 110, 109, 136, 61, 140, 101, 164, 60, 153, 199, 123, 61, 98, 10, 244, 61, 222, 26, 140, 61, 220, 76, 221, 188, 194, 164, 94, 61, 132, 88, 7, 190, 121, 196, 171, 61, 237, 108, 190, 60, 52, 44, 189, 61, 62, 244, 112, 61, 145, 211, 238, 61, 182, 164, 143, 189, 164, 149, 82, 61, 86, 100, 17, 189, 98, 240, 31, 189, 46, 230, 63, 61, 70, 95, 211, 187, 172, 243, 233, 60, 113, 173, 67, 61, 141, 127, 223, 59, 28, 119, 203, 59, 124, 147, 17, 61, 225, 216, 202, 60, 160, 77, 101, 60, 146, 61, 127, 189, 165, 127, 209, 61, 233, 144, 30, 60, 118, 102, 194, 61, 2, 120, 3, 62, 12, 76, 74, 61, 170, 177, 45, 62, 72, 197, 190, 58, 125, 199, 131, 61, 211, 254, 188, 61, 149, 8, 47, 61, 210, 0, 24, 60, 151, 160, 161, 60, 16, 32, 196, 189, 87, 109, 145, 61, 7, 5, 247, 61, 159, 117, 99, 60, 68, 36, 161, 61, 188, 24, 215, 60, 234, 32, 19, 61, 120, 88, 227, 61, 56, 48, 147, 61, 129, 252, 201, 60, 198, 192, 59, 61, 207, 220, 155, 189, 11, 242, 154, 61, 164, 72, 202, 188, 45, 105, 242, 61, 5, 175, 248, 189, 95, 46, 187, 61, 101, 195, 63, 61, 145, 33, 100, 61, 238, 169, 159, 60, 41, 48, 234, 59, 226, 128, 202, 60, 1, 148, 135, 61, 222, 115, 170, 61, 173, 48, 139, 61, 246, 59, 129, 61, 126, 204, 214, 61, 148, 19, 92, 61, 237, 84, 200, 61, 207, 191, 91, 187, 31, 225, 77, 61, 78, 246, 149, 59, 19, 115, 63, 189, 210, 27, 198, 61, 110, 155, 171, 61, 9, 215, 13, 189, 44, 23, 255, 60, 190, 155, 121, 60, 49, 187, 14, 61, 53, 136, 194, 60, 165, 79, 121, 61, 38, 213, 157, 189, 10, 17, 11, 60, 27, 128, 133, 189, 207, 216, 16, 62, 75, 207, 10, 60, 156, 39, 197, 60, 76, 210, 13, 61, 139, 150, 148, 61, 43, 77, 2, 61, 96, 48, 31, 61, 41, 234, 1, 61, 253, 151, 30, 188, 1, 78, 83, 189, 250, 156, 225, 60, 41, 63, 76, 61, 55, 192, 148, 61, 145, 32, 47, 61, 203, 255, 83, 60, 189, 240, 210, 60, 2, 236, 29, 61, 52, 114, 138, 60, 23, 0, 163, 186, 230, 94, 79, 61, 200, 19, 117, 189, 253, 172, 41, 189, 222, 101, 212, 60, 174, 58, 151, 189, 197, 31, 206, 61, 143, 112, 119, 60, 50, 163, 182, 61, 235, 35, 6, 188, 78, 211, 203, 189, 138, 181, 15, 57, 181, 46, 55, 61, 77, 236, 100, 189, 226, 27, 180, 61, 112, 38, 234, 188, 28, 88, 52, 61, 241, 190, 92, 61, 251, 126, 179, 189, 169, 6, 190, 188, 87, 89, 206, 61, 123, 118, 57, 189, 37, 226, 132, 189, 184, 229, 136, 189, 33, 218, 33, 61, 24, 148, 26, 188, 121, 220, 207, 61, 12, 229, 189, 189, 222, 250, 187, 61, 239, 210, 110, 186, 29, 152, 232, 61, 43, 225, 45, 189, 192, 178, 53, 61, 84, 117, 79, 62, 184, 107, 75, 189, 221, 144, 119, 61, 201, 156, 161, 61, 27, 112, 241, 188, 123, 84, 34, 60, 20, 182, 253, 60, 7, 16, 26, 62, 163, 133, 6, 61, 10, 219, 216, 187, 81, 255, 69, 188, 254, 234, 195, 61, 103, 10, 243, 186, 175, 80, 123, 60, 131, 235, 152, 188, 186, 1, 249, 60, 224, 29, 139, 188, 226, 59, 228, 189, 3, 49, 186, 188, 146, 10, 216, 60, 67, 191, 118, 60, 125, 150, 204, 60, 165, 60, 211, 189, 165, 184, 114, 61, 12, 185, 230, 188, 161, 185, 228, 61, 249, 236, 148, 60, 168, 235, 131, 187, 224, 48, 81, 60, 248, 230, 15, 62, 70, 177, 63, 188, 148, 163, 6, 189, 120, 207, 23, 62, 41, 65, 201, 189, 146, 23, 152, 60, 122, 145, 211, 188, 188, 43, 166, 189, 206, 73, 19, 60, 139, 175, 15, 189, 200, 195, 230, 60, 10, 8, 155, 61, 107, 96, 214, 188, 235, 141, 10, 188, 255, 223, 26, 188, 20, 124, 16, 60, 97, 153, 234, 185, 130, 249, 121, 189, 129, 151, 83, 60, 170, 121, 31, 189, 238, 56, 130, 189, 248, 83, 0, 189, 128, 92, 168, 59, 26, 138, 235, 60, 71, 235, 16, 60, 99, 219, 10, 190, 55, 85, 41, 61, 225, 108, 70, 61, 190, 217, 192, 61, 28, 30, 1, 188, 38, 135, 1, 62, 157, 47, 20, 61, 197, 205, 39, 61, 196, 124, 161, 61, 103, 86, 25, 61, 51, 180, 12, 62, 215, 176, 171, 189, 208, 222, 170, 60, 40, 53, 203, 60, 9, 59, 6, 189, 145, 235, 143, 59, 111, 69, 186, 60, 44, 201, 89, 188, 142, 133, 252, 59, 202, 189, 25, 59, 209, 7, 91, 61, 59, 128, 180, 187, 172, 60, 70, 189, 221, 181, 17, 189, 42, 254, 182, 188, 159, 119, 175, 61, 251, 229, 51, 189, 49, 123, 7, 61, 198, 129, 48, 189, 119, 15, 108, 61, 180, 130, 83, 189, 180, 156, 205, 61, 251, 80, 80, 189, 236, 160, 198, 61, 216, 224, 171, 61, 121, 71, 161, 61, 211, 225, 108, 61, 131, 245, 79, 61, 71, 80, 73, 61, 71, 148, 35, 61, 189, 93, 211, 58, 239, 200, 33, 189, 33, 251, 25, 62, 118, 59, 212, 189, 135, 119, 4, 61, 107, 98, 34, 61, 85, 172, 71, 189, 189, 142, 150, 188, 68, 197, 55, 189, 108, 72, 62, 189, 141, 39, 150, 60, 137, 115, 233, 60, 145, 252, 197, 61, 239, 251, 18, 189, 157, 12, 19, 188, 245, 6, 91, 61, 115, 157, 2, 186, 197, 120, 221, 60, 110, 112, 109, 190, 185, 227, 103, 60, 129, 165, 236, 60, 135, 237, 45, 189, 77, 170, 54, 189, 252, 122, 217, 59, 67, 125, 176, 188, 94, 220, 109, 61, 228, 224, 112, 60, 250, 172, 29, 62, 7, 227, 150, 61, 67, 132, 254, 61, 89, 161, 129, 61, 74, 132, 32, 62, 204, 46, 188, 188, 24, 71, 59, 189, 139, 75, 35, 62, 165, 253, 45, 190, 127, 135, 226, 61, 82, 240, 173, 61, 145, 69, 32, 62, 4, 169, 146, 60, 66, 28, 183, 60, 223, 51, 127, 189, 96, 14, 173, 61, 246, 79, 210, 188, 198, 62, 62, 188, 184, 220, 228, 59, 112, 42, 204, 189, 5, 80, 186, 61, 23, 219, 4, 61, 35, 115, 171, 61, 91, 7, 16, 61, 43, 150, 166, 61, 237, 142, 129, 61, 254, 121, 7, 187, 208, 104, 96, 61, 137, 124, 200, 187, 130, 103, 166, 189, 19, 215, 153, 186, 178, 30, 72, 190, 239, 84, 48, 59, 37, 88, 34, 189, 210, 115, 89, 62, 211, 105, 204, 60, 207, 0, 146, 60, 5, 205, 76, 186, 112, 251, 25, 61, 252, 41, 90, 59, 137, 152, 61, 62, 240, 88, 200, 60, 41, 41, 156, 188, 194, 8, 163, 59, 190, 117, 0, 189, 205, 59, 34, 188, 62, 76, 177, 187, 10, 24, 95, 61, 241, 239, 203, 60, 66, 30, 201, 60, 76, 99, 86, 189, 28, 137, 133, 61, 117, 175, 217, 188, 189, 142, 209, 188, 10, 167, 88, 189, 167, 198, 179, 189, 135, 137, 178, 189, 232, 120, 8, 190, 139, 206, 165, 59, 246, 148, 165, 61, 13, 123, 107, 58, 148, 146, 27, 190, 206, 217, 25, 189, 221, 170, 16, 190, 219, 62, 251, 188, 239, 255, 37, 61, 32, 52, 118, 62, 150, 250, 145, 61, 232, 53, 182, 61, 118, 244, 192, 61, 35, 41, 9, 189, 89, 154, 18, 61, 74, 77, 225, 61, 154, 253, 88, 60, 41, 222, 162, 59, 166, 63, 18, 61, 74, 142, 32, 59, 11, 190, 39, 61, 126, 105, 25, 61, 140, 189, 93, 188, 250, 71, 69, 60, 220, 44, 120, 61, 230, 41, 195, 189, 96, 242, 14, 61, 0, 196, 48, 189, 92, 2, 103, 61, 36, 91, 181, 60, 67, 127, 208, 189, 207, 93, 30, 190, 36, 125, 94, 190, 154, 95, 84, 189, 47, 103, 55, 61, 160, 236, 141, 61, 50, 191, 80, 190, 195, 22, 236, 187, 169, 50, 3, 190, 110, 130, 7, 188, 76, 88, 218, 188, 5, 201, 173, 61, 107, 30, 162, 61, 195, 136, 190, 60, 127, 239, 114, 61, 98, 116, 169, 60, 23, 141, 34, 61, 198, 149, 89, 61, 100, 219, 129, 61, 39, 136, 223, 188, 68, 180, 35, 189, 108, 222, 28, 187, 102, 78, 91, 61, 44, 165, 208, 61, 205, 240, 142, 187, 153, 47, 77, 189, 22, 236, 252, 60, 230, 192, 149, 189, 47, 29, 152, 189, 221, 170, 13, 59, 219, 124, 138, 59, 40, 107, 66, 61, 161, 128, 224, 189, 224, 91, 16, 190, 107, 240, 73, 190, 220, 243, 74, 189, 138, 217, 26, 61, 226, 56, 100, 61, 173, 16, 160, 188, 199, 24, 202, 188, 207, 105, 171, 189, 182, 25, 230, 60, 254, 22, 122, 61, 9, 33, 148, 61, 136, 111, 56, 189, 236, 109, 119, 61, 73, 108, 64, 60, 96, 235, 158, 61, 127, 250, 136, 60, 209, 238, 42, 61, 136, 80, 191, 60, 238, 232, 166, 60, 168, 221, 8, 61, 79, 18, 51, 61, 165, 187, 117, 61, 8, 55, 231, 61, 164, 86, 23, 61, 90, 50, 10, 189, 206, 75, 220, 61, 139, 97, 154, 189, 83, 107, 39, 189, 193, 189, 233, 189, 123, 92, 78, 189, 244, 212, 182, 60, 233, 57, 213, 189, 84, 9, 13, 190, 169, 201, 157, 189, 33, 31, 39, 189, 207, 73, 0, 190, 184, 146, 163, 57, 208, 114, 248, 60, 96, 30, 69, 189, 151, 198, 157, 189, 97, 46, 64, 61, 176, 67, 150, 61, 204, 47, 151, 188, 176, 189, 40, 189, 214, 224, 79, 61, 50, 90, 52, 189, 114, 108, 223, 61, 240, 166, 254, 59, 188, 213, 98, 188, 80, 252, 35, 188, 25, 182, 80, 61, 137, 123, 184, 60, 132, 194, 44, 61, 88, 42, 239, 188, 245, 249, 13, 62, 146, 91, 83, 61, 145, 9, 86, 61, 67, 195, 22, 61, 142, 146, 156, 61, 174, 171, 133, 61, 97, 241, 191, 189, 17, 237, 134, 60, 135, 35, 137, 61, 189, 214, 121, 185, 154, 249, 16, 190, 37, 100, 27, 190, 37, 123, 246, 189, 190, 171, 119, 189, 131, 222, 6, 189, 90, 238, 93, 61, 67, 207, 221, 188, 178, 54, 89, 190, 170, 190, 186, 188, 172, 33, 160, 60, 29, 250, 174, 60, 126, 115, 197, 189, 3, 136, 247, 61, 17, 92, 8, 190, 70, 250, 211, 61, 118, 189, 39, 189, 171, 229, 219, 60, 105, 112, 94, 61, 41, 177, 176, 61, 196, 232, 167, 61, 254, 205, 137, 61, 229, 154, 104, 189, 136, 167, 45, 62, 23, 14, 42, 61, 34, 113, 208, 60, 130, 115, 10, 61, 46, 239, 199, 61, 61, 25, 221, 187, 172, 229, 183, 186, 196, 91, 221, 187, 183, 67, 223, 61, 86, 243, 2, 62, 1, 116, 202, 189, 198, 89, 41, 60, 95, 176, 137, 189, 244, 188, 20, 188, 34, 252, 137, 189, 45, 147, 0, 61, 2, 255, 139, 189, 24, 76, 42, 188, 203, 76, 6, 189, 151, 39, 84, 60, 176, 180, 226, 188, 125, 13, 41, 189, 69, 227, 238, 60, 135, 177, 132, 189, 73, 89, 13, 61, 90, 175, 136, 189, 57, 16, 19, 62, 103, 254, 140, 59, 1, 200, 189, 61, 238, 199, 35, 187, 150, 128, 125, 61, 103, 191, 86, 189, 56, 230, 29, 62, 209, 208, 175, 60, 85, 54, 180, 61, 0, 83, 48, 189, 115, 78, 95, 61, 235, 67, 160, 187, 213, 5, 85, 61, 82, 11, 25, 189, 41, 6, 4, 62, 33, 151, 42, 62, 242, 250, 98, 189, 210, 158, 58, 61, 36, 116, 32, 188, 115, 193, 27, 61, 64, 2, 36, 189, 29, 89, 12, 189, 39, 45, 246, 188, 40, 90, 177, 60, 239, 115, 42, 189, 117, 161, 45, 61, 133, 202, 218, 60, 139, 239, 202, 189, 103, 118, 28, 188, 77, 23, 139, 189, 243, 110, 65, 188, 43, 157, 212, 188, 114, 243, 94, 62, 57, 249, 9, 189, 150, 108, 54, 186, 142, 175, 120, 189, 182, 193, 27, 188, 243, 198, 133, 188, 123, 131, 105, 188, 119, 31, 223, 61, 101, 73, 25, 61, 96, 212, 61, 61, 124, 54, 166, 60, 145, 159, 123, 61, 221, 187, 99, 61, 81, 23, 167, 188, 190, 235, 107, 60, 128, 208, 190, 61, 151, 139, 200, 189, 143, 207, 150, 189, 90, 5, 102, 189, 248, 61, 227, 57, 9, 241, 150, 189, 36, 60, 165, 189, 10, 234, 136, 189, 109, 11, 136, 59, 193, 5, 173, 186, 66, 7, 39, 61, 57, 163, 78, 62, 2, 142, 223, 61, 107, 56, 141, 189, 129, 173, 147, 186, 108, 86, 196, 60, 122, 12, 156, 61, 126, 158, 213, 60, 129, 19, 59, 189, 130, 184, 58, 189, 183, 151, 10, 189, 240, 4, 177, 60, 219, 159, 71, 189, 82, 16, 52, 61, 141, 113, 133, 60, 32, 1, 1, 62, 221, 229, 72, 61, 20, 69, 58, 61, 189, 47, 180, 187, 159, 34, 80, 60, 28, 131, 94, 189, 27, 45, 164, 189, 40, 41, 211, 186, 52, 139, 196, 189, 31, 74, 5, 190, 138, 80, 56, 60, 100, 105, 172, 189, 215, 101, 111, 61, 157, 120, 45, 190, 81, 180, 52, 189, 177, 198, 117, 188, 150, 129, 146, 60, 233, 151, 194, 61, 47, 179, 14, 62, 226, 109, 10, 62, 189, 14, 221, 188, 13, 222, 32, 62, 2, 12, 189, 188, 92, 180, 115, 61, 242, 73, 213, 60, 158, 12, 148, 61, 232, 24, 71, 188, 160, 102, 140, 189, 67, 26, 121, 57, 42, 150, 55, 189, 65, 10, 179, 59, 144, 114, 14, 60, 254, 122, 68, 61, 221, 93, 152, 61, 61, 6, 133, 60, 198, 90, 90, 60, 226, 87, 205, 189, 231, 8, 119, 58, 196, 74, 11, 190, 108, 239, 231, 189, 101, 9, 180, 189, 191, 177, 240, 189, 46, 159, 105, 189, 153, 166, 8, 188, 210, 39, 114, 188, 252, 146, 31, 190, 208, 118, 174, 188, 40, 186, 31, 189, 197, 146, 219, 61, 217, 220, 53, 61, 118, 233, 43, 59, 135, 58, 159, 61, 130, 194, 153, 60, 147, 24, 193, 61, 11, 101, 72, 189, 70, 230, 87, 61, 242, 228, 68, 189, 6, 209, 225, 61, 126, 61, 225, 60, 190, 42, 57, 189, 145, 225, 61, 61, 76, 221, 102, 189, 221, 230, 146, 61, 164, 201, 168, 61, 137, 228, 119, 186, 234, 162, 13, 61, 123, 223, 168, 61, 75, 150, 49, 189, 203, 160, 137, 186, 139, 53, 19, 189, 127, 115, 6, 189, 171, 105, 198, 189, 52, 38, 46, 189, 45, 226, 244, 189, 220, 222, 218, 188, 237, 179, 32, 190, 52, 71, 9, 61, 171, 219, 218, 60, 20, 123, 97, 56, 95, 192, 219, 189, 165, 245, 147, 61, 139, 5, 8, 61, 42, 207, 18, 186, 116, 199, 16, 61, 146, 235, 135, 188, 235, 69, 189, 61, 217, 63, 233, 60, 172, 124, 197, 187, 213, 60, 43, 189, 40, 100, 7, 61, 32, 210, 146, 59, 231, 233, 41, 60, 160, 200, 11, 62, 31, 103, 220, 189, 107, 181, 147, 61, 183, 60, 15, 189, 105, 102, 176, 188, 233, 201, 205, 61, 66, 214, 205, 61, 126, 67, 36, 61, 71, 50, 143, 60, 244, 113, 49, 188, 205, 115, 144, 61, 98, 235, 28, 190, 117, 136, 82, 189, 194, 45, 167, 189, 122, 70, 220, 60, 17, 82, 242, 189, 113, 121, 15, 189, 82, 105, 2, 59, 54, 78, 191, 189, 183, 107, 233, 189, 90, 173, 65, 61, 138, 208, 24, 189, 126, 161, 147, 188, 185, 76, 80, 61, 80, 76, 130, 189, 153, 165, 26, 60, 146, 120, 178, 61, 82, 43, 30, 189, 75, 238, 239, 60, 82, 104, 146, 61, 119, 144, 173, 60, 251, 231, 10, 61, 145, 28, 211, 61, 52, 90, 60, 190, 86, 8, 170, 61, 110, 26, 128, 188, 177, 182, 73, 61, 246, 190, 11, 62, 134, 43, 128, 61, 35, 91, 60, 188, 209, 40, 136, 189, 185, 120, 235, 188, 20, 163, 63, 61, 166, 3, 229, 189, 76, 17, 14, 190, 65, 136, 13, 60, 156, 225, 216, 58, 6, 82, 186, 189, 225, 65, 105, 189, 194, 22, 223, 61, 115, 34, 141, 189, 48, 114, 188, 60, 252, 102, 127, 189, 200, 236, 136, 61, 211, 3, 27, 188, 39, 143, 160, 188, 73, 18, 188, 60, 180, 191, 134, 189, 99, 181, 11, 62, 237, 89, 153, 189, 112, 141, 13, 189, 196, 192, 27, 61, 169, 21, 21, 62, 83, 140, 151, 60, 19, 78, 207, 61, 134, 253, 194, 189, 110, 141, 156, 61, 53, 249, 239, 60, 216, 133, 184, 61, 79, 26, 198, 187, 32, 189, 152, 61, 56, 80, 111, 189, 249, 146, 137, 61, 116, 59, 174, 61, 40, 185, 16, 62, 249, 89, 169, 61, 12, 63, 60, 190, 162, 209, 228, 189, 157, 104, 14, 61, 235, 171, 203, 189, 126, 104, 195, 189, 147, 112, 215, 61, 205, 141, 58, 61, 20, 172, 113, 61, 193, 39, 233, 188, 61, 165, 239, 60, 71, 37, 110, 60, 116, 70, 68, 189, 204, 3, 39, 61, 116, 117, 10, 190, 35, 245, 242, 61, 9, 99, 95, 188, 202, 183, 124, 61, 153, 205, 27, 61, 163, 231, 4, 62, 53, 59, 121, 188, 3, 71, 131, 61, 196, 240, 201, 189, 221, 78, 202, 60, 98, 0, 144, 61, 144, 164, 216, 61, 152, 80, 70, 60, 254, 150, 176, 61, 241, 77, 162, 189, 106, 83, 70, 60, 74, 90, 244, 188, 118, 16, 76, 62, 32, 184, 37, 62, 229, 0, 72, 190, 109, 119, 125, 189, 28, 229, 64, 61, 129, 20, 33, 189, 132, 238, 153, 189, 26, 0, 52, 61, 183, 141, 91, 189, 196, 220, 170, 60, 182, 162, 112, 189, 191, 38, 124, 60, 168, 180, 127, 61, 65, 23, 254, 189, 14, 67, 50, 189, 24, 110, 69, 60, 88, 169, 43, 62, 158, 98, 109, 189, 5, 114, 233, 61, 124, 3, 0, 61, 83, 153, 23, 61, 36, 135, 228, 189, 209, 251, 104, 189, 130, 157, 5, 190, 40, 137, 158, 60, 218, 83, 72, 61, 3, 153, 108, 61, 102, 21, 161, 60, 74, 47, 116, 61, 203, 221, 158, 188, 184, 6, 106, 61, 229, 12, 128, 187, 144, 98, 37, 62, 152, 150, 127, 62, 43, 229, 211, 189, 207, 162, 177, 60, 195, 114, 105, 61, 168, 243, 172, 189, 27, 5, 145, 189, 202, 159, 133, 59, 208, 204, 237, 188, 203, 68, 62, 189, 158, 96, 231, 189, 228, 161, 240, 56, 131, 181, 243, 61, 38, 218, 151, 61, 216, 87, 157, 189, 25, 80, 45, 189, 98, 191, 164, 187, 173, 156, 139, 59, 116, 197, 167, 60, 78, 255, 228, 188, 166, 13, 72, 61, 123, 122, 149, 60, 240, 243, 11, 189, 12, 158, 143, 189, 193, 52, 173, 61, 192, 32, 185, 59, 109, 107, 236, 61, 58, 209, 25, 188, 78, 5, 212, 187, 152, 42, 143, 61, 151, 30, 91, 188, 211, 193, 226, 60, 5, 145, 135, 189, 68, 199, 214, 60, 213, 13, 235, 189, 127, 106, 1, 190, 25, 106, 150, 189, 119, 68, 144, 189, 233, 21, 92, 61, 66, 108, 207, 186, 48, 112, 195, 188, 162, 135, 129, 61, 96, 130, 97, 61, 246, 191, 179, 61, 158, 221, 232, 60, 193, 32, 3, 61, 222, 66, 116, 188, 42, 156, 201, 61, 78, 112, 142, 61, 14, 24, 239, 60, 86, 39, 129, 189, 224, 94, 98, 61, 174, 6, 217, 61, 191, 182, 253, 60, 211, 175, 103, 189, 254, 47, 235, 188, 205, 11, 65, 61, 161, 99, 98, 61, 70, 174, 0, 62, 54, 77, 66, 188, 63, 219, 83, 61, 163, 175, 41, 60, 244, 18, 191, 61, 217, 127, 245, 188, 140, 74, 142, 188, 64, 86, 2, 189, 29, 119, 102, 188, 141, 63, 30, 189, 86, 44, 41, 61, 185, 115, 39, 190, 47, 156, 147, 61, 172, 11, 112, 61, 101, 30, 44, 61, 195, 55, 231, 189, 128, 51, 82, 61, 180, 209, 172, 61, 27, 105, 40, 61, 166, 191, 96, 61, 126, 40, 38, 189, 5, 134, 121, 61, 217, 132, 6, 60, 51, 180, 143, 189, 167, 4, 170, 189, 2, 240, 180, 61, 43, 92, 147, 61, 247, 50, 4, 61, 236, 209, 91, 60, 31, 199, 15, 188, 30, 47, 27, 61, 217, 118, 198, 59, 100, 138, 183, 61, 51, 240, 143, 61, 130, 185, 203, 61, 116, 207, 180, 189, 73, 6, 196, 60, 163, 11, 165, 61, 62, 126, 151, 60, 255, 173, 85, 190, 66, 81, 194, 60, 228, 180, 53, 61, 181, 44, 184, 186, 223, 140, 64, 190, 136, 228, 5, 62, 157, 147, 192, 61, 201, 151, 21, 61, 111, 206, 178, 189, 235, 61, 57, 61, 108, 137, 216, 61, 221, 150, 180, 188, 222, 215, 115, 61, 143, 60, 162, 188, 92, 204, 231, 61, 233, 100, 8, 61, 237, 59, 135, 60, 253, 133, 126, 189, 200, 10, 7, 61, 144, 39, 177, 61, 38, 132, 98, 61, 110, 47, 191, 61, 109, 172, 1, 190, 252, 82, 109, 61, 25, 254, 78, 61, 133, 105, 35, 188, 177, 3, 156, 61, 155, 144, 208, 61, 18, 176, 62, 187, 140, 158, 160, 61, 245, 67, 175, 61, 252, 132, 190, 188, 209, 255, 67, 190, 241, 53, 199, 61, 136, 113, 144, 188, 4, 155, 72, 61, 127, 93, 71, 190, 40, 199, 151, 60, 96, 180, 206, 61, 60, 235, 35, 61, 58, 113, 79, 190, 148, 119, 200, 61, 49, 1, 137, 60, 4, 99, 25, 188, 162, 239, 154, 61, 195, 246, 74, 60, 74, 216, 167, 61, 238, 215, 73, 61, 182, 240, 41, 61, 113, 74, 136, 189, 71, 72, 158, 61, 80, 91, 51, 61, 170, 94, 11, 60, 20, 152, 200, 187, 212, 161, 196, 189, 143, 65, 225, 61, 113, 196, 199, 61, 215, 18, 49, 61, 146, 1, 160, 61, 141, 206, 78, 61, 98, 115, 34, 189, 92, 224, 10, 61, 65, 163, 87, 60, 216, 1, 213, 187, 160, 180, 57, 190, 141, 65, 163, 189, 147, 60, 26, 189, 76, 53, 204, 59, 215, 30, 140, 190, 97, 54, 163, 61, 216, 197, 85, 61, 198, 6, 121, 60, 169, 236, 108, 189, 146, 236, 97, 61, 59, 165, 62, 188, 104, 166, 15, 189, 146, 191, 134, 60, 89, 143, 47, 188, 194, 54, 96, 189, 90, 204, 90, 61, 15, 219, 203, 60, 110, 208, 39, 188, 161, 229, 186, 60, 8, 34, 210, 61, 91, 252, 79, 61, 228, 51, 142, 188, 38, 225, 8, 190, 24, 225, 173, 61, 242, 247, 50, 61, 128, 224, 89, 61, 190, 202, 5, 62, 100, 191, 156, 61, 59, 32, 35, 188, 240, 249, 130, 60, 214, 43, 252, 188, 252, 147, 61, 61, 234, 199, 40, 189, 150, 89, 234, 187, 118, 100, 53, 188, 113, 226, 165, 60, 239, 96, 40, 190, 33, 171, 176, 59, 141, 161, 1, 187, 2, 120, 0, 61, 61, 1, 241, 188, 112, 135, 28, 189, 87, 11, 133, 61, 167, 164, 22, 189, 87, 181, 76, 189, 118, 233, 153, 189, 213, 52, 235, 188, 216, 75, 132, 61, 98, 69, 27, 60, 158, 127, 134, 188, 254, 7, 159, 61, 133, 213, 245, 61, 7, 99, 47, 61, 207, 16, 167, 61, 234, 197, 2, 190, 157, 177, 160, 59, 36, 213, 149, 60, 93, 212, 19, 61, 13, 217, 127, 188, 26, 223, 71, 188, 205, 12, 78, 189, 185, 172, 171, 60, 138, 193, 27, 61, 247, 185, 29, 61, 15, 210, 242, 60, 57, 198, 198, 189, 86, 118, 74, 189, 152, 16, 169, 188, 86, 23, 81, 188, 233, 185, 104, 188, 80, 152, 155, 60, 57, 92, 45, 61, 39, 2, 51, 60, 106, 26, 20, 186, 112, 138, 7, 188, 18, 154, 83, 61, 56, 66, 22, 189, 181, 59, 179, 189, 169, 123, 185, 189, 11, 56, 178, 61, 98, 67, 26, 187, 160, 159, 197, 59, 41, 240, 44, 61, 234, 217, 238, 60, 89, 244, 237, 59, 126, 71, 181, 60, 159, 240, 133, 188, 123, 197, 234, 187, 214, 217, 82, 61, 199, 213, 49, 60, 27, 27, 76, 61, 150, 101, 14, 61, 226, 12, 2, 189, 178, 152, 89, 61, 159, 58, 127, 60, 96, 214, 239, 61, 92, 80, 177, 61, 127, 12, 174, 188, 17, 44, 159, 189, 215, 107, 176, 60, 6, 8, 34, 190, 93, 158, 227, 188, 117, 227, 126, 61, 212, 165, 223, 188, 246, 64, 229, 189, 121, 229, 137, 189, 65, 93, 132, 60, 220, 29, 229, 61, 21, 249, 68, 60, 199, 80, 177, 189, 181, 188, 108, 61, 81, 49, 148, 187, 135, 72, 168, 189, 246, 55, 109, 188, 234, 170, 96, 188, 178, 230, 167, 60, 238, 175, 85, 61, 134, 185, 235, 188, 136, 41, 18, 189, 13, 9, 172, 187, 211, 238, 67, 61, 192, 33, 131, 60, 225, 12, 138, 189, 86, 126, 40, 60, 41, 128, 2, 188, 64, 96, 185, 60, 89, 69, 230, 189, 140, 234, 147, 187, 15, 235, 141, 186, 31, 162, 145, 60, 95, 68, 17, 189, 26, 36, 154, 189, 252, 129, 45, 190, 60, 97, 187, 61, 23, 213, 208, 187, 151, 107, 180, 61, 138, 189, 132, 189, 226, 25, 233, 60, 65, 160, 152, 187, 244, 44, 242, 61, 185, 30, 205, 58, 120, 159, 219, 60, 18, 147, 156, 61, 15, 225, 71, 61, 140, 126, 120, 60, 202, 242, 15, 60, 140, 27, 71, 61, 100, 150, 135, 60, 156, 38, 161, 188, 71, 85, 61, 189, 114, 95, 194, 189, 95, 63, 46, 189, 40, 174, 84, 61, 54, 19, 154, 61, 156, 13, 238, 60, 190, 160, 206, 61, 165, 192, 61, 188, 167, 73, 205, 61, 112, 126, 210, 59, 61, 190, 219, 188, 161, 215, 111, 58, 171, 217, 96, 61, 47, 234, 251, 60, 24, 111, 151, 60, 103, 85, 193, 189, 2, 219, 128, 61, 149, 116, 44, 61, 55, 137, 217, 61, 249, 102, 49, 190, 78, 44, 88, 189, 52, 178, 185, 60, 171, 3, 97, 61, 231, 19, 146, 61, 216, 224, 109, 60, 61, 210, 91, 61, 149, 212, 255, 60, 169, 233, 107, 60, 10, 50, 11, 190, 85, 138, 132, 61, 33, 172, 66, 60, 248, 65, 130, 61, 166, 213, 87, 188, 168, 173, 220, 189, 221, 70, 143, 60, 83, 116, 198, 60, 93, 67, 169, 188, 142, 177, 39, 61, 7, 150, 228, 60, 222, 215, 38, 189, 3, 193, 148, 61, 55, 26, 203, 188, 134, 55, 157, 60, 181, 107, 240, 189, 125, 221, 215, 60, 165, 111, 46, 61, 81, 0, 132, 61, 226, 202, 126, 190, 148, 168, 5, 189, 152, 48, 118, 61, 160, 82, 45, 61, 205, 100, 33, 190, 29, 208, 82, 189, 185, 160, 31, 61, 8, 32, 63, 61, 135, 141, 29, 62, 206, 115, 117, 60, 210, 132, 21, 62, 221, 33, 95, 189, 158, 238, 118, 61, 38, 180, 16, 190, 105, 112, 72, 61, 73, 39, 161, 61, 60, 147, 227, 61, 35, 58, 232, 189, 31, 70, 218, 189, 61, 143, 24, 189, 4, 203, 197, 61, 8, 48, 170, 59, 32, 155, 201, 188, 42, 148, 13, 62, 35, 161, 53, 189, 205, 32, 13, 62, 86, 164, 157, 189, 6, 244, 148, 59, 87, 135, 55, 190, 12, 100, 149, 61, 4, 38, 161, 61, 96, 89, 166, 188, 81, 24, 22, 190, 9, 218, 90, 60, 40, 0, 189, 57, 161, 14, 251, 61, 87, 102, 227, 189, 136, 246, 176, 59, 71, 233, 189, 58, 123, 207, 55, 61, 120, 239, 116, 61, 239, 80, 54, 189, 122, 77, 18, 61, 186, 247, 158, 60, 18, 124, 224, 61, 122, 19, 34, 190, 126, 89, 203, 61, 58, 182, 168, 61, 212, 5, 12, 61, 199, 44, 60, 189, 152, 192, 247, 189, 232, 58, 136, 61, 140, 155, 151, 61, 51, 232, 120, 60, 69, 71, 3, 61, 74, 231, 205, 61, 64, 191, 59, 189, 0, 20, 146, 61, 165, 26, 30, 189, 230, 101, 160, 59, 122, 113, 96, 190, 129, 235, 253, 60, 135, 218, 207, 61, 239, 38, 149, 189, 62, 29, 22, 190, 243, 2, 215, 61, 228, 63, 32, 189, 147, 157, 249, 61, 161, 83, 23, 189, 2, 95, 185, 189, 102, 129, 59, 59, 122, 100, 67, 61, 86, 158, 142, 61, 114, 75, 143, 61, 51, 9, 30, 188, 208, 71, 189, 188, 145, 76, 240, 61, 210, 82, 130, 189, 37, 232, 137, 61, 188, 11, 149, 61, 141, 118, 57, 61, 93, 206, 146, 188, 233, 22, 88, 189, 239, 222, 61, 61, 216, 45, 214, 60, 214, 182, 124, 61, 82, 110, 182, 188, 234, 225, 160, 61, 179, 171, 10, 188, 172, 251, 3, 61, 2, 70, 191, 188, 0, 254, 32, 189, 6, 192, 244, 189, 177, 201, 52, 61, 98, 195, 151, 61, 97, 190, 1, 188, 36, 137, 181, 189, 25, 132, 222, 60, 160, 212, 53, 189, 180, 248, 254, 61, 139, 65, 99, 189, 226, 123, 80, 189, 22, 168, 85, 188, 214, 145, 241, 61, 210, 121, 39, 186, 225, 229, 161, 60, 156, 148, 211, 188, 41, 208, 28, 61, 25, 159, 18, 62, 48, 60, 61, 189, 253, 20, 225, 61, 119, 99, 97, 60, 240, 5, 238, 58, 211, 8, 211, 188, 99, 42, 165, 189, 20, 91, 144, 188, 27, 46, 12, 61, 34, 214, 158, 59, 226, 8, 111, 60, 34, 103, 45, 61, 224, 155, 35, 189, 53, 47, 93, 61, 209, 58, 79, 61, 192, 190, 138, 61, 25, 90, 85, 61, 78, 51, 169, 188, 11, 109, 95, 61, 216, 204, 135, 189, 254, 91, 212, 189, 168, 220, 213, 60, 136, 117, 63, 189, 212, 216, 85, 188, 24, 228, 253, 189, 219, 121, 151, 188, 154, 246, 33, 61, 72, 84, 26, 61, 248, 185, 17, 189, 25, 183, 137, 189, 103, 146, 91, 61, 169, 245, 33, 189, 179, 122, 141, 188, 211, 142, 38, 62, 18, 104, 153, 60, 146, 169, 246, 60, 195, 209, 187, 189, 151, 135, 25, 61, 153, 209, 130, 189, 186, 201, 116, 187, 115, 10, 134, 60, 38, 197, 197, 60, 210, 252, 131, 61, 250, 161, 226, 57, 1, 195, 66, 189, 155, 203, 54, 188, 31, 37, 184, 188, 167, 3, 79, 189, 182, 10, 191, 60, 38, 197, 80, 189, 47, 231, 147, 189, 153, 162, 47, 59, 96, 176, 226, 189, 245, 125, 36, 189, 173, 39, 60, 188, 30, 55, 141, 188, 108, 215, 192, 189, 142, 37, 235, 189, 215, 159, 84, 189, 251, 83, 15, 62, 4, 37, 32, 187, 30, 36, 200, 189, 238, 64, 36, 189, 185, 120, 214, 60, 121, 232, 91, 61, 230, 227, 230, 59, 137, 193, 238, 189, 107, 120, 199, 189, 201, 242, 191, 188, 88, 64, 15, 189, 203, 87, 216, 189, 121, 8, 120, 189, 245, 156, 46, 189, 190, 0, 134, 61, 37, 129, 254, 188, 20, 205, 7, 189, 183, 168, 29, 189, 109, 107, 40, 189, 58, 196, 51, 189, 198, 144, 187, 189, 98, 191, 114, 188, 84, 159, 242, 187, 250, 78, 6, 190, 67, 95, 81, 189, 109, 2, 192, 189, 30, 41, 210, 61, 219, 73, 221, 189, 125, 45, 138, 61, 43, 248, 136, 189, 59, 205, 73, 60, 177, 134, 71, 61, 145, 186, 93, 61, 104, 69, 176, 61, 225, 1, 86, 187, 160, 131, 138, 188, 148, 181, 220, 188, 51, 66, 93, 60, 148, 97, 133, 189, 101, 147, 19, 61, 255, 175, 10, 188, 153, 231, 10, 189, 109, 37, 50, 189, 179, 204, 137, 189, 116, 100, 165, 189, 57, 2, 162, 188, 149, 137, 170, 61, 4, 228, 172, 188, 230, 235, 246, 60, 183, 124, 166, 189, 168, 103, 145, 60, 59, 80, 194, 60, 52, 4, 150, 189, 140, 54, 6, 189, 222, 49, 222, 60, 135, 28, 229, 60, 228, 133, 60, 189, 102, 134, 82, 190, 158, 202, 221, 61, 158, 176, 242, 58, 92, 220, 99, 61, 63, 41, 104, 189, 45, 63, 111, 189, 61, 110, 188, 187, 35, 151, 23, 189, 229, 133, 23, 61, 238, 135, 1, 61, 146, 67, 176, 59, 24, 57, 189, 189, 125, 87, 55, 60, 41, 215, 128, 189, 71, 119, 14, 61, 217, 139, 139, 188, 9, 33, 102, 61, 255, 237, 186, 189, 5, 120, 149, 189, 64, 193, 103, 189, 201, 236, 33, 189, 134, 182, 17, 189, 211, 237, 190, 60, 109, 230, 126, 188, 0, 133, 69, 189, 30, 231, 140, 61, 39, 101, 241, 60, 187, 70, 56, 60, 254, 18, 78, 189, 2, 177, 147, 61, 176, 103, 34, 61, 103, 133, 101, 188, 177, 137, 53, 190, 198, 225, 216, 59, 140, 32, 197, 60, 71, 59, 244, 61, 200, 109, 247, 189, 86, 108, 181, 61, 211, 199, 199, 60, 228, 147, 118, 60, 105, 38, 216, 61, 144, 19, 5, 62, 52, 90, 160, 61, 135, 7, 16, 189, 186, 32, 218, 61, 219, 17, 212, 189, 182, 134, 6, 62, 146, 98, 89, 61, 29, 98, 136, 61, 182, 64, 18, 190, 67, 42, 168, 189, 213, 95, 138, 60, 170, 13, 100, 61, 227, 57, 15, 61, 202, 128, 63, 186, 178, 144, 44, 57, 62, 48, 37, 189, 187, 135, 193, 61, 204, 211, 166, 187, 120, 17, 55, 61, 62, 186, 145, 189, 108, 115, 2, 62, 241, 93, 173, 61, 242, 46, 187, 188, 5, 100, 238, 189, 120, 70, 26, 59, 111, 136, 195, 61, 212, 79, 29, 62, 229, 210, 138, 189, 171, 52, 40, 61, 82, 229, 196, 60, 204, 227, 54, 60, 192, 110, 240, 61, 35, 44, 39, 61, 107, 195, 149, 189, 141, 22, 124, 59, 249, 220, 54, 61, 180, 252, 186, 189, 48, 142, 198, 61, 59, 145, 142, 61, 216, 102, 248, 188, 229, 11, 225, 189, 29, 83, 36, 189, 242, 65, 2, 189, 40, 108, 169, 188, 111, 43, 119, 188, 171, 57, 85, 189, 177, 100, 175, 61, 34, 207, 128, 189, 237, 62, 91, 61, 60, 144, 162, 189, 159, 94, 76, 186, 111, 121, 225, 189, 42, 48, 205, 61, 219, 196, 242, 61, 104, 225, 32, 189, 2, 144, 156, 189, 25, 85, 248, 59, 109, 161, 110, 61, 164, 80, 217, 61, 167, 19, 32, 62, 66, 225, 86, 189, 2, 235, 227, 61, 238, 164, 224, 189, 246, 220, 151, 60, 153, 206, 70, 60, 108, 124, 70, 188, 196, 17, 201, 188, 87, 227, 235, 60, 209, 67, 148, 188, 224, 129, 188, 189, 33, 175, 218, 61, 31, 68, 142, 61, 20, 41, 121, 59, 215, 143, 108, 61, 193, 87, 202, 189, 77, 115, 127, 188, 11, 251, 21, 61, 126, 22, 26, 190, 166, 179, 166, 60, 120, 202, 132, 189, 185, 71, 157, 60, 188, 95, 194, 188, 59, 84, 90, 189, 28, 227, 78, 189, 58, 18, 192, 61, 0, 62, 249, 61, 57, 38, 95, 188, 173, 237, 198, 189, 26, 39, 20, 61, 151, 42, 89, 60, 35, 71, 214, 61, 70, 158, 171, 60, 65, 114, 92, 189, 60, 198, 38, 61, 145, 8, 85, 188, 113, 157, 108, 60, 10, 213, 177, 189, 127, 10, 220, 187, 232, 151, 143, 61, 54, 179, 233, 59, 153, 2, 24, 61, 198, 227, 247, 188, 2, 216, 41, 62, 184, 243, 32, 61, 236, 25, 1, 59, 114, 243, 99, 60, 93, 89, 121, 60, 216, 159, 117, 61, 151, 97, 224, 60, 238, 42, 192, 189, 6, 49, 154, 61, 167, 255, 211, 188, 157, 50, 22, 60, 93, 251, 105, 61, 174, 202, 36, 61, 211, 238, 190, 61, 199, 238, 213, 188, 161, 123, 12, 186, 85, 33, 209, 60, 230, 172, 225, 188, 234, 199, 60, 61, 107, 142, 255, 187, 167, 9, 38, 189, 116, 92, 84, 61, 198, 136, 205, 187, 201, 238, 56, 189, 105, 104, 69, 61, 183, 80, 128, 189, 131, 204, 180, 189, 134, 141, 208, 60, 178, 127, 159, 58, 211, 231, 81, 60, 176, 150, 219, 61, 163, 223, 6, 189, 174, 97, 73, 61, 88, 82, 215, 189, 140, 33, 104, 60, 215, 228, 232, 188, 110, 123, 239, 188, 59, 92, 36, 61, 214, 179, 25, 61, 163, 178, 160, 60, 247, 145, 190, 60, 238, 95, 81, 60, 155, 25, 6, 188, 41, 119, 141, 188, 199, 73, 192, 60, 118, 31, 83, 61, 10, 68, 20, 189, 129, 163, 59, 188, 118, 83, 164, 188, 167, 157, 20, 189, 211, 80, 180, 189, 123, 156, 171, 189, 171, 136, 140, 187, 121, 241, 55, 188, 95, 113, 130, 189, 196, 144, 233, 188, 218, 218, 105, 61, 66, 43, 237, 188, 205, 150, 246, 189, 231, 5, 249, 60, 204, 176, 166, 188, 190, 138, 3, 189, 126, 74, 54, 61, 248, 224, 165, 189, 208, 22, 180, 189, 232, 129, 46, 60, 34, 143, 87, 59, 43, 48, 3, 190, 164, 23, 25, 189, 188, 15, 37, 188, 134, 45, 166, 60, 120, 130, 6, 189, 44, 74, 22, 189, 115, 144, 215, 60, 100, 214, 194, 189, 82, 168, 236, 60, 229, 39, 199, 189, 219, 1, 191, 61, 116, 215, 16, 188, 130, 241, 131, 189, 189, 54, 107, 189, 131, 4, 199, 189, 233, 129, 150, 61, 133, 26, 155, 60, 71, 209, 137, 188, 118, 98, 98, 189, 62, 237, 114, 189, 148, 67, 223, 188, 172, 54, 162, 61, 219, 70, 221, 61, 42, 176, 87, 189, 21, 126, 137, 60, 142, 249, 156, 189, 234, 92, 128, 60, 0, 28, 128, 189, 208, 188, 104, 61, 57, 252, 138, 60, 36, 154, 34, 61, 243, 50, 218, 189, 79, 36, 115, 188, 21, 210, 20, 189, 117, 182, 9, 61, 204, 168, 179, 61, 244, 182, 66, 61, 120, 150, 198, 189, 247, 138, 42, 189, 149, 2, 185, 60, 101, 168, 36, 189, 162, 190, 188, 59, 209, 167, 189, 188, 254, 151, 142, 61, 11, 36, 154, 188, 54, 7, 94, 188, 215, 64, 40, 190, 49, 133, 166, 61, 96, 193, 172, 61, 128, 22, 200, 61, 108, 142, 122, 60, 209, 219, 203, 188, 253, 194, 238, 61, 205, 77, 156, 61, 149, 215, 139, 61, 107, 239, 249, 188, 93, 251, 28, 61, 133, 159, 165, 188, 112, 176, 24, 189, 78, 228, 98, 189, 8, 125, 101, 60, 195, 196, 207, 61, 210, 103, 14, 62, 211, 198, 74, 189, 88, 152, 134, 61, 48, 91, 180, 188, 53, 75, 250, 60, 243, 104, 209, 61, 208, 155, 254, 60, 196, 192, 232, 187, 154, 138, 160, 189, 50, 174, 97, 61, 79, 246, 175, 61, 221, 36, 254, 188, 30, 9, 173, 189, 76, 255, 51, 62, 70, 254, 108, 61, 99, 251, 102, 189, 91, 57, 167, 189, 179, 27, 129, 61, 166, 109, 125, 61, 167, 168, 50, 188, 133, 246, 144, 189, 198, 207, 146, 189, 28, 177, 196, 61, 223, 134, 75, 60, 125, 113, 140, 61, 163, 173, 101, 189, 147, 65, 67, 61, 142, 220, 48, 61, 133, 9, 188, 58, 242, 29, 234, 188, 20, 9, 92, 189, 188, 5, 1, 62, 26, 211, 225, 61, 49, 236, 135, 189, 193, 186, 51, 61, 245, 78, 14, 190, 214, 179, 142, 60, 125, 194, 15, 62, 21, 121, 204, 188, 162, 242, 160, 60, 131, 131, 192, 189, 166, 58, 13, 61, 241, 246, 224, 61, 10, 19, 8, 189, 204, 30, 180, 189, 8, 211, 45, 62, 214, 15, 144, 61, 136, 153, 185, 189, 207, 22, 251, 189, 15, 76, 31, 189, 20, 22, 168, 61, 239, 127, 41, 62, 215, 211, 137, 189, 10, 10, 91, 189, 204, 32, 79, 61, 50, 220, 234, 188, 89, 125, 154, 61, 107, 181, 144, 189, 45, 191, 42, 189, 129, 18, 98, 61, 179, 119, 140, 189, 18, 102, 140, 189, 23, 213, 32, 60, 200, 249, 131, 61, 132, 159, 175, 61, 45, 4, 188, 188, 213, 9, 3, 189, 181, 199, 101, 189, 46, 241, 22, 61, 125, 143, 85, 61, 234, 49, 236, 189, 242, 47, 180, 189, 61, 20, 22, 189, 60, 71, 147, 61, 12, 238, 201, 61, 53, 114, 198, 188, 239, 149, 229, 189, 247, 36, 19, 62, 223, 141, 15, 62, 40, 33, 179, 189, 177, 190, 181, 189, 133, 243, 132, 61, 54, 253, 20, 62, 49, 139, 112, 61, 49, 191, 189, 189, 174, 73, 1, 190, 22, 193, 135, 61, 190, 146, 8, 189, 124, 188, 27, 57, 176, 250, 174, 60, 32, 24, 177, 189, 137, 66, 182, 61, 119, 144, 194, 189, 187, 127, 110, 61, 219, 191, 165, 187, 175, 151, 34, 61, 195, 205, 225, 61, 99, 40, 96, 189, 12, 55, 128, 187, 7, 122, 39, 189, 103, 76, 178, 60, 131, 75, 95, 188, 14, 124, 19, 190, 184, 175, 149, 58, 135, 114, 78, 189, 178, 152, 139, 188, 153, 32, 135, 61, 3, 172, 53, 61, 102, 11, 183, 59, 213, 25, 128, 61, 250, 115, 232, 61, 38, 89, 162, 189, 206, 220, 240, 59, 186, 171, 147, 61, 101, 18, 34, 62, 142, 55, 86, 61, 164, 39, 31, 189, 54, 239, 5, 190, 129, 110, 16, 61, 125, 72, 19, 190, 76, 155, 35, 189, 44, 36, 158, 187, 215, 7, 48, 187, 190, 233, 225, 61, 168, 87, 208, 189, 93, 95, 223, 61, 185, 85, 200, 189, 150, 3, 190, 61, 254, 7, 3, 62, 15, 130, 232, 188, 54, 100, 7, 189, 1, 194, 8, 60, 54, 251, 243, 187, 211, 119, 1, 62, 89, 9, 245, 187, 25, 233, 192, 61, 201, 119, 29, 186, 108, 247, 156, 61, 140, 228, 147, 61, 67, 95, 118, 61, 243, 4, 28, 62, 243, 61, 5, 188, 122, 40, 170, 188, 231, 158, 40, 189, 102, 219, 150, 189, 70, 178, 50, 188, 106, 146, 104, 189, 189, 31, 90, 60, 23, 55, 219, 189, 170, 243, 9, 190, 38, 141, 35, 189, 12, 10, 180, 59, 132, 67, 9, 189, 10, 90, 1, 190, 244, 56, 228, 60, 91, 46, 152, 189, 144, 245, 90, 189, 173, 62, 239, 61, 197, 43, 153, 189, 203, 82, 205, 189, 183, 213, 35, 189, 21, 218, 174, 189, 199, 231, 181, 189, 255, 224, 4, 189, 135, 4, 180, 187, 34, 185, 177, 183, 165, 182, 201, 188, 210, 238, 115, 189, 27, 58, 189, 60, 11, 194, 24, 188, 144, 237, 162, 189, 175, 136, 79, 189, 116, 8, 203, 61, 158, 159, 2, 61, 85, 189, 14, 60, 67, 72, 30, 61, 7, 19, 212, 188, 167, 126, 228, 189, 229, 227, 128, 189, 102, 222, 160, 187, 39, 23, 69, 189, 173, 243, 237, 189, 55, 78, 23, 60, 189, 42, 215, 61, 15, 240, 232, 188, 104, 147, 233, 189, 89, 191, 42, 188, 120, 93, 28, 189, 217, 217, 18, 189, 76, 47, 221, 60, 180, 163, 34, 189, 91, 213, 141, 189, 247, 86, 184, 189, 239, 226, 158, 189, 228, 230, 170, 188, 71, 143, 151, 189, 56, 208, 18, 189, 247, 237, 117, 188, 41, 219, 24, 60, 65, 90, 193, 189, 88, 95, 132, 60, 237, 203, 191, 189, 229, 139, 195, 189, 143, 166, 93, 189, 250, 73, 148, 189, 63, 133, 175, 187, 14, 66, 157, 189, 25, 237, 35, 188, 85, 143, 244, 188, 94, 117, 41, 61, 60, 51, 129, 189, 182, 12, 167, 188, 128, 167, 167, 61, 236, 224, 230, 189, 48, 5, 78, 189, 76, 197, 123, 61, 14, 253, 95, 187, 217, 199, 173, 189, 242, 94, 22, 61, 140, 246, 215, 189, 57, 233, 82, 189, 50, 52, 135, 189, 191, 251, 160, 189, 48, 146, 27, 189, 76, 140, 62, 61, 68, 143, 48, 189, 64, 185, 20, 60, 245, 1, 187, 60, 43, 86, 33, 189, 166, 10, 10, 61, 195, 21, 16, 57, 106, 196, 148, 61, 232, 90, 153, 60, 162, 72, 156, 60, 47, 26, 122, 189, 52, 125, 77, 189, 65, 246, 132, 61, 207, 147, 217, 60, 85, 123, 126, 189, 77, 130, 140, 187, 155, 78, 144, 189, 242, 250, 48, 189, 99, 150, 117, 188, 162, 215, 39, 185, 13, 146, 240, 61, 239, 136, 52, 190, 4, 56, 75, 61, 152, 167, 161, 188, 2, 106, 119, 60, 97, 10, 237, 189, 154, 80, 134, 189, 121, 203, 130, 189, 50, 108, 130, 188, 250, 210, 204, 187, 53, 172, 170, 189, 46, 44, 37, 61, 27, 224, 38, 61, 255, 50, 235, 189, 2, 248, 207, 187, 101, 199, 167, 189, 220, 33, 237, 189, 236, 84, 165, 61, 228, 70, 197, 60, 235, 5, 222, 189, 211, 30, 129, 189, 64, 133, 70, 61, 7, 107, 55, 61, 136, 35, 14, 189, 5, 51, 36, 188, 80, 184, 168, 61, 240, 127, 68, 189, 251, 188, 120, 189, 235, 169, 193, 188, 0, 66, 21, 188, 101, 57, 116, 61, 183, 254, 158, 187, 230, 35, 2, 188, 176, 156, 184, 189, 88, 173, 194, 188, 131, 191, 77, 61, 119, 216, 216, 58, 137, 24, 133, 189, 60, 251, 244, 60, 227, 28, 238, 59, 236, 69, 102, 61, 139, 248, 155, 187, 164, 211, 9, 61, 248, 129, 148, 187, 166, 21, 17, 62, 134, 39, 190, 189, 78, 153, 156, 61, 105, 240, 160, 189, 121, 141, 1, 189, 96, 137, 69, 188, 73, 248, 191, 189, 162, 49, 161, 188, 58, 4, 155, 189, 172, 133, 168, 61, 9, 189, 30, 61, 225, 5, 68, 189, 255, 198, 195, 59, 194, 1, 240, 61, 241, 160, 205, 60, 68, 99, 205, 189, 228, 46, 145, 189, 72, 68, 32, 60, 91, 51, 171, 61, 36, 109, 91, 61, 65, 1, 225, 187, 240, 123, 209, 188, 111, 68, 153, 61, 249, 142, 45, 187, 188, 4, 242, 188, 78, 91, 148, 189, 172, 165, 73, 189, 206, 127, 219, 60, 5, 231, 21, 190, 105, 110, 83, 61, 159, 194, 195, 189, 37, 251, 172, 58, 113, 247, 194, 61, 73, 228, 138, 189, 168, 81, 125, 189, 119, 190, 152, 189, 141, 150, 66, 189, 81, 86, 10, 60, 216, 188, 149, 189, 39, 113, 254, 60, 60, 249, 89, 188, 114, 136, 195, 60, 200, 8, 146, 61, 6, 212, 56, 188, 173, 67, 187, 189, 165, 20, 56, 62, 74, 100, 119, 61, 98, 227, 232, 189, 77, 255, 163, 189, 247, 249, 164, 56, 226, 220, 42, 62, 88, 125, 97, 60, 233, 242, 201, 61, 189, 210, 75, 189, 139, 144, 158, 60, 233, 41, 71, 189, 80, 178, 69, 189, 102, 15, 102, 188, 66, 160, 4, 189, 206, 105, 135, 61, 231, 51, 211, 189, 21, 227, 156, 61, 180, 245, 49, 189, 73, 75, 149, 61, 110, 245, 11, 61, 198, 31, 45, 60, 31, 212, 137, 188, 102, 188, 26, 59, 89, 67, 101, 189, 91, 200, 198, 61, 248, 142, 63, 190, 165, 10, 251, 188, 176, 122, 6, 61, 200, 170, 161, 60, 105, 248, 10, 61, 55, 246, 105, 188, 203, 87, 175, 61, 78, 28, 121, 58, 188, 119, 5, 61, 131, 22, 174, 187, 8, 207, 119, 189, 92, 82, 253, 188, 21, 143, 160, 61, 129, 145, 87, 188, 84, 86, 149, 188, 27, 230, 101, 189, 209, 222, 223, 60, 82, 52, 166, 189, 243, 206, 47, 189, 75, 49, 30, 61, 231, 243, 160, 189, 132, 7, 212, 60, 164, 38, 227, 57, 63, 165, 112, 61, 109, 201, 242, 186, 21, 55, 98, 61, 181, 217, 235, 188, 199, 213, 72, 189, 142, 147, 139, 189, 220, 223, 79, 60, 140, 123, 87, 189, 129, 153, 144, 59, 65, 146, 141, 189, 147, 7, 135, 188, 48, 33, 86, 61, 211, 89, 92, 61, 186, 18, 3, 59, 116, 97, 81, 61, 41, 180, 192, 61, 255, 245, 18, 61, 152, 57, 210, 188, 179, 115, 199, 188, 44, 194, 67, 190, 148, 251, 39, 189, 230, 246, 111, 189, 111, 22, 53, 61, 146, 43, 109, 190, 150, 89, 224, 189, 226, 111, 205, 188, 48, 164, 187, 59, 120, 75, 195, 189, 79, 159, 1, 189, 58, 26, 144, 60, 251, 167, 137, 61, 3, 255, 142, 60, 121, 161, 36, 62, 198, 120, 106, 189, 251, 250, 213, 188, 222, 3, 64, 58, 229, 226, 79, 189, 231, 190, 6, 190, 233, 195, 56, 61, 165, 62, 251, 186, 19, 254, 234, 59, 216, 99, 158, 60, 101, 11, 98, 189, 92, 225, 6, 60, 70, 35, 136, 189, 184, 45, 138, 189, 38, 180, 117, 188, 112, 19, 128, 61, 9, 71, 153, 59, 38, 80, 125, 189, 254, 4, 147, 60, 127, 123, 27, 61, 101, 21, 186, 188, 211, 249, 0, 189, 32, 231, 27, 190, 18, 10, 12, 190, 208, 131, 15, 189, 206, 195, 224, 189, 117, 27, 121, 60, 158, 224, 146, 189, 128, 177, 23, 190, 22, 80, 28, 189, 155, 62, 136, 60, 31, 17, 19, 189, 135, 240, 142, 61, 255, 84, 77, 189, 221, 254, 242, 189, 0, 210, 171, 188, 158, 80, 30, 189, 108, 62, 63, 189, 166, 236, 134, 188, 254, 218, 172, 189, 35, 78, 249, 188, 71, 219, 55, 61, 119, 85, 165, 189, 216, 43, 171, 61, 26, 103, 2, 190, 200, 85, 165, 189, 91, 152, 177, 189, 151, 153, 251, 61, 217, 246, 222, 189, 4, 170, 49, 60, 200, 150, 86, 189, 241, 158, 63, 61, 132, 70, 56, 188, 125, 48, 168, 189, 119, 121, 179, 189, 10, 0, 197, 189, 172, 157, 169, 189, 69, 27, 190, 189, 199, 193, 76, 189, 194, 54, 119, 188, 129, 255, 67, 188, 66, 121, 49, 187, 122, 106, 142, 188, 244, 185, 177, 189, 126, 35, 37, 61, 90, 200, 177, 189, 173, 192, 178, 189, 2, 144, 255, 60, 64, 83, 169, 189, 236, 6, 59, 60, 101, 164, 158, 189, 1, 58, 183, 189, 17, 51, 181, 189, 132, 179, 108, 60, 67, 106, 161, 189, 83, 245, 74, 61, 74, 42, 135, 189, 192, 99, 59, 188, 16, 79, 128, 189, 199, 119, 240, 189, 42, 120, 28, 189, 204, 67, 67, 189, 235, 215, 109, 189, 44, 16, 156, 189, 96, 105, 74, 61, 116, 220, 240, 186, 129, 114, 207, 188, 118, 38, 144, 189, 63, 90, 100, 189, 99, 45, 59, 189, 24, 134, 188, 189, 84, 51, 254, 188, 188, 45, 233, 188, 219, 127, 140, 188, 193, 6, 16, 61, 7, 148, 167, 189, 104, 202, 177, 60, 54, 82, 70, 60, 178, 172, 105, 188, 201, 73, 13, 62, 117, 50, 111, 189, 5, 139, 197, 60, 229, 156, 168, 189, 107, 179, 82, 189, 11, 245, 19, 187, 17, 198, 119, 59, 108, 150, 95, 60, 177, 234, 54, 61, 108, 202, 146, 189, 153, 252, 160, 60, 129, 8, 169, 189, 202, 42, 225, 187, 8, 23, 253, 60, 12, 155, 187, 188, 84, 49, 244, 189, 43, 122, 239, 187, 3, 114, 201, 60, 152, 161, 151, 61, 133, 147, 100, 189, 16, 23, 24, 188, 118, 230, 165, 189, 252, 138, 96, 188, 176, 142, 151, 189, 214, 200, 40, 189, 168, 87, 138, 189, 145, 56, 18, 60, 198, 151, 174, 189, 219, 157, 230, 189, 65, 113, 174, 58, 220, 237, 20, 189, 109, 41, 62, 59, 39, 122, 161, 61, 213, 246, 174, 189, 243, 242, 133, 61, 97, 101, 23, 190, 233, 149, 86, 189, 228, 37, 246, 60, 21, 120, 26, 189, 56, 246, 112, 189, 22, 230, 103, 61, 198, 120, 217, 188, 48, 81, 129, 188, 114, 227, 63, 189, 229, 25, 123, 61, 11, 175, 235, 61, 133, 191, 23, 187, 123, 89, 238, 188, 147, 154, 106, 61, 187, 182, 195, 59, 67, 157, 215, 61, 109, 133, 190, 189, 104, 207, 30, 59, 65, 191, 5, 190, 146, 160, 220, 59, 65, 172, 144, 60, 121, 158, 105, 189, 228, 167, 2, 190, 35, 64, 140, 189, 13, 10, 149, 58, 28, 227, 232, 189, 248, 113, 108, 61, 70, 171, 101, 188, 15, 12, 107, 189, 42, 154, 27, 61, 185, 184, 4, 189, 143, 8, 4, 189, 5, 96, 237, 189, 4, 91, 29, 189, 223, 26, 73, 61, 193, 228, 114, 189, 109, 179, 15, 60, 251, 90, 171, 188, 61, 43, 46, 60, 166, 159, 152, 60, 239, 112, 196, 188, 60, 179, 169, 188, 178, 64, 0, 61, 164, 22, 30, 60, 70, 160, 159, 59, 240, 217, 149, 189, 235, 170, 238, 188, 150, 108, 89, 62, 155, 215, 201, 188, 128, 246, 193, 186, 111, 59, 149, 189, 188, 111, 222, 60, 128, 121, 209, 189, 189, 145, 164, 189, 53, 69, 131, 189, 236, 96, 162, 189, 133, 239, 20, 189, 106, 176, 56, 190, 113, 251, 8, 62, 224, 220, 216, 188, 46, 222, 174, 189, 202, 23, 57, 188, 35, 20, 134, 189, 148, 91, 98, 189, 188, 33, 181, 59, 32, 17, 228, 189, 211, 197, 201, 187, 97, 104, 128, 189, 95, 97, 214, 60, 105, 189, 206, 188, 114, 227, 151, 60, 119, 166, 123, 61, 165, 142, 157, 189, 107, 57, 155, 61, 7, 78, 170, 189, 2, 30, 40, 61, 33, 200, 203, 188, 56, 65, 15, 189, 218, 170, 237, 189, 139, 27, 25, 61, 103, 25, 170, 189, 162, 162, 155, 189, 248, 35, 160, 189, 80, 110, 128, 189, 154, 227, 239, 189, 45, 167, 206, 189, 244, 220, 184, 189, 82, 216, 200, 189, 200, 138, 164, 60, 51, 221, 34, 190, 236, 87, 188, 61, 166, 132, 238, 188, 166, 244, 5, 61, 244, 103, 249, 61, 128, 33, 46, 189, 155, 231, 135, 188, 123, 64, 161, 60, 196, 157, 34, 189, 223, 143, 48, 60, 143, 250, 157, 189, 57, 200, 224, 60, 68, 224, 79, 61, 206, 159, 96, 60, 163, 158, 9, 189, 124, 74, 22, 189, 54, 230, 102, 62, 9, 158, 28, 189, 212, 34, 67, 189, 176, 93, 51, 189, 246, 182, 216, 60, 209, 136, 37, 189, 202, 205, 11, 61, 92, 125, 146, 189, 138, 128, 142, 188, 237, 195, 132, 189, 142, 151, 53, 189, 57, 254, 14, 190, 26, 219, 250, 187, 47, 74, 173, 189, 41, 210, 165, 189, 56, 83, 172, 60, 183, 78, 92, 190, 182, 13, 58, 62, 62, 101, 247, 189, 23, 103, 157, 188, 231, 206, 129, 189, 15, 66, 115, 188, 151, 208, 221, 188, 237, 70, 47, 61, 38, 72, 149, 189, 144, 44, 144, 60, 12, 102, 66, 188, 26, 136, 190, 189, 169, 37, 81, 61, 219, 0, 165, 189, 240, 102, 247, 188, 248, 110, 212, 189, 71, 12, 24, 189, 132, 73, 151, 188, 71, 139, 229, 185, 7, 112, 137, 61, 94, 255, 255, 255, 4, 0, 0, 0, 8, 0, 0, 0, 159, 162, 68, 60, 153, 162, 68, 188, 60, 253, 255, 255, 64, 253, 255, 255, 15, 0, 0, 0, 77, 76, 73, 82, 32, 67, 111, 110, 118, 101, 114, 116, 101, 100, 46, 0, 1, 0, 0, 0, 20, 0, 0, 0, 0, 0, 14, 0, 24, 0, 20, 0, 16, 0, 12, 0, 8, 0, 4, 0, 14, 0, 0, 0, 20, 0, 0, 0, 28, 0, 0, 0, 172, 0, 0, 0, 176, 0, 0, 0, 180, 0, 0, 0, 4, 0, 0, 0, 109, 97, 105, 110, 0, 0, 0, 0, 2, 0, 0, 0, 96, 0, 0, 0, 20, 0, 0, 0, 0, 0, 14, 0, 26, 0, 20, 0, 16, 0, 12, 0, 11, 0, 4, 0, 14, 0, 0, 0, 28, 0, 0, 0, 0, 0, 0, 9, 28, 0, 0, 0, 32, 0, 0, 0, 1, 0, 0, 0, 0, 0, 6, 0, 8, 0, 4, 0, 6, 0, 0, 0, 0, 0, 128, 63, 1, 0, 0, 0, 4, 0, 0, 0, 1, 0, 0, 0, 3, 0, 0, 0, 0, 0, 14, 0, 20, 0, 0, 0, 16, 0, 12, 0, 11, 0, 4, 0, 14, 0, 0, 0, 16, 0, 0, 0, 0, 0, 0, 8, 12, 0, 0, 0, 16, 0, 0, 0, 12, 254, 255, 255, 1, 0, 0, 0, 3, 0, 0, 0, 3, 0, 0, 0, 0, 0, 0, 0, 2, 0, 0, 0, 1, 0, 0, 0, 1, 0, 0, 0, 4, 0, 0, 0, 1, 0, 0, 0, 0, 0, 0, 0, 5, 0, 0, 0, 156, 1, 0, 0, 48, 1, 0, 0, 208, 0, 0, 0, 96, 0, 0, 0, 4, 0, 0, 0, 142, 254, 255, 255, 0, 0, 0, 1, 20, 0, 0, 0, 28, 0, 0, 0, 28, 0, 0, 0, 5, 0, 0, 0, 52, 0, 0, 0, 2, 0, 0, 0, 255, 255, 255, 255, 2, 0, 0, 0, 120, 254, 255, 255, 25, 0, 0, 0, 83, 116, 97, 116, 101, 102, 117, 108, 80, 97, 114, 116, 105, 116, 105, 111, 110, 101, 100, 67, 97, 108, 108, 58, 48, 0, 0, 0, 2, 0, 0, 0, 1, 0, 0, 0, 2, 0, 0, 0, 230, 254, 255, 255, 0, 0, 0, 1, 20, 0, 0, 0, 28, 0, 0, 0, 28, 0, 0, 0, 4, 0, 0, 0, 72, 0, 0, 0, 2, 0, 0, 0, 255, 255, 255, 255, 2, 0, 0, 0, 208, 254, 255, 255, 44, 0, 0, 0, 109, 111, 100, 101, 108, 95, 54, 47, 121, 95, 112, 114, 101, 100, 47, 77, 97, 116, 77, 117, 108, 59, 109, 111, 100, 101, 108, 95, 54, 47, 121, 95, 112, 114, 101, 100, 47, 66, 105, 97, 115, 65, 100, 100, 0, 0, 0, 0, 2, 0, 0, 0, 1, 0, 0, 0, 2, 0, 0, 0, 186, 255, 255, 255, 0, 0, 0, 1, 16, 0, 0, 0, 16, 0, 0, 0, 3, 0, 0, 0, 36, 0, 0, 0, 44, 255, 255, 255, 21, 0, 0, 0, 109, 111, 100, 101, 108, 95, 54, 47, 121, 95, 112, 114, 101, 100, 47, 77, 97, 116, 77, 117, 108, 0, 0, 0, 2, 0, 0, 0, 2, 0, 0, 0, 0, 8, 0, 0, 0, 0, 22, 0, 24, 0, 20, 0, 0, 0, 16, 0, 12, 0, 8, 0, 0, 0, 0, 0, 0, 0, 7, 0, 22, 0, 0, 0, 0, 0, 0, 1, 16, 0, 0, 0, 16, 0, 0, 0, 2, 0, 0, 0, 52, 0, 0, 0, 136, 255, 255, 255, 37, 0, 0, 0, 109, 111, 100, 101, 108, 95, 54, 47, 121, 95, 112, 114, 101, 100, 47, 66, 105, 97, 115, 65, 100, 100, 47, 82, 101, 97, 100, 86, 97, 114, 105, 97, 98, 108, 101, 79, 112, 0, 0, 0, 1, 0, 0, 0, 2, 0, 0, 0, 0, 0, 22, 0, 28, 0, 24, 0, 0, 0, 20, 0, 16, 0, 12, 0, 0, 0, 0, 0, 8, 0, 7, 0, 22, 0, 0, 0, 0, 0, 0, 1, 20, 0, 0, 0, 32, 0, 0, 0, 32, 0, 0, 0, 1, 0, 0, 0, 56, 0, 0, 0, 2, 0, 0, 0, 255, 255, 255, 255, 0, 8, 0, 0, 4, 0, 4, 0, 4, 0, 0, 0, 25, 0, 0, 0, 115, 101, 114, 118, 105, 110, 103, 95, 100, 101, 102, 97, 117, 108, 116, 95, 105, 110, 112, 117, 116, 95, 55, 58, 48, 0, 0, 0, 2, 0, 0, 0, 1, 0, 0, 0, 0, 8, 0, 0, 2, 0, 0, 0, 32, 0, 0, 0, 4, 0, 0, 0, 244, 255, 255, 255, 25, 0, 0, 0, 0, 0, 0, 25, 12, 0, 12, 0, 11, 0, 0, 0, 0, 0, 4, 0, 12, 0, 0, 0, 9, 0, 0, 0, 0, 0, 0, 9
};
