#pragma once

#include <cstdint>

const uint8_t layer_39[] = {
28, 0, 0, 0, 84, 70, 76, 51, 20, 0, 32, 0, 28, 0, 24, 0, 20, 0, 16, 0, 12, 0, 0, 0, 8, 0, 4, 0, 20, 0, 0, 0, 28, 0, 0, 0, 160, 0, 0, 0, 248, 0, 0, 0, 196, 4, 0, 0, 212, 4, 0, 0, 232, 7, 0, 0, 3, 0, 0, 0, 1, 0, 0, 0, 16, 0, 0, 0, 0, 0, 10, 0, 16, 0, 12, 0, 8, 0, 4, 0, 10, 0, 0, 0, 12, 0, 0, 0, 28, 0, 0, 0, 72, 0, 0, 0, 15, 0, 0, 0, 115, 101, 114, 118, 105, 110, 103, 95, 100, 101, 102, 97, 117, 108, 116, 0, 1, 0, 0, 0, 4, 0, 0, 0, 136, 255, 255, 255, 4, 0, 0, 0, 4, 0, 0, 0, 20, 0, 0, 0, 98, 108, 111, 99, 107, 95, 52, 95, 100, 101, 112, 116, 104, 119, 105, 115, 101, 95, 66, 78, 0, 0, 0, 0, 1, 0, 0, 0, 4, 0, 0, 0, 86, 253, 255, 255, 4, 0, 0, 0, 8, 0, 0, 0, 105, 110, 112, 117, 116, 95, 52, 49, 0, 0, 0, 0, 2, 0, 0, 0, 52, 0, 0, 0, 4, 0, 0, 0, 220, 255, 255, 255, 7, 0, 0, 0, 4, 0, 0, 0, 19, 0, 0, 0, 67, 79, 78, 86, 69, 82, 83, 73, 79, 78, 95, 77, 69, 84, 65, 68, 65, 84, 65, 0, 8, 0, 12, 0, 8, 0, 4, 0, 8, 0, 0, 0, 6, 0, 0, 0, 4, 0, 0, 0, 19, 0, 0, 0, 109, 105, 110, 95, 114, 117, 110, 116, 105, 109, 101, 95, 118, 101, 114, 115, 105, 111, 110, 0, 8, 0, 0, 0, 200, 3, 0, 0, 192, 3, 0, 0, 48, 2, 0, 0, 152, 0, 0, 0, 144, 0, 0, 0, 136, 0, 0, 0, 104, 0, 0, 0, 4, 0, 0, 0, 238, 253, 255, 255, 4, 0, 0, 0, 84, 0, 0, 0, 12, 0, 0, 0, 8, 0, 14, 0, 8, 0, 4, 0, 8, 0, 0, 0, 16, 0, 0, 0, 36, 0, 0, 0, 0, 0, 6, 0, 8, 0, 4, 0, 6, 0, 0, 0, 4, 0, 0, 0, 0, 0, 0, 0, 0, 0, 10, 0, 16, 0, 12, 0, 8, 0, 4, 0, 10, 0, 0, 0, 2, 0, 0, 0, 2, 0, 0, 0, 4, 0, 0, 0, 6, 0, 0, 0, 50, 46, 49, 53, 46, 48, 0, 0, 78, 254, 255, 255, 4, 0, 0, 0, 16, 0, 0, 0, 49, 46, 53, 46, 48, 0, 0, 0, 0, 0, 0, 0, 0, 0, 0, 0, 152, 249, 255, 255, 156, 249, 255, 255, 114, 254, 255, 255, 4, 0, 0, 0, 128, 1, 0, 0, 150, 2, 235, 63, 72, 98, 136, 191, 52, 132, 47, 63, 22, 76, 10, 64, 185, 180, 162, 190, 81, 118, 46, 191, 100, 132, 75, 192, 34, 165, 76, 62, 34, 44, 196, 190, 134, 65, 167, 62, 189, 55, 207, 62, 142, 56, 227, 190, 239, 226, 31, 62, 110, 187, 40, 192, 187, 35, 130, 63, 168, 8, 88, 191, 148, 39, 228, 189, 21, 187, 165, 64, 54, 13, 202, 63, 166, 204, 28, 63, 108, 18, 187, 61, 168, 166, 193, 190, 80, 12, 255, 188, 0, 92, 197, 186, 123, 155, 98, 64, 216, 54, 138, 190, 232, 180, 80, 189, 169, 102, 24, 191, 231, 107, 63, 191, 166, 153, 86, 191, 246, 116, 100, 63, 232, 79, 196, 191, 21, 145, 136, 189, 124, 108, 156, 189, 40, 242, 100, 190, 33, 50, 23, 64, 104, 86, 1, 63, 31, 76, 246, 190, 202, 210, 115, 63, 48, 95, 252, 61, 240, 176, 15, 60, 146, 130, 235, 62, 100, 14, 86, 192, 159, 255, 152, 191, 94, 121, 181, 191, 58, 143, 83, 64, 216, 1, 6, 61, 2, 171, 93, 64, 212, 25, 36, 64, 219, 154, 21, 192, 128, 45, 150, 59, 182, 238, 162, 63, 60, 246, 204, 63, 80, 138, 196, 188, 32, 108, 206, 191, 44, 150, 143, 63, 60, 141, 119, 192, 180, 202, 160, 62, 243, 15, 62, 62, 89, 168, 0, 191, 245, 248, 202, 190, 132, 100, 37, 190, 207, 220, 87, 192, 16, 208, 74, 190, 106, 192, 132, 62, 139, 46, 56, 64, 117, 123, 31, 64, 208, 107, 224, 63, 185, 8, 121, 192, 80, 167, 247, 60, 147, 203, 222, 191, 148, 90, 88, 189, 154, 116, 185, 64, 136, 39, 159, 63, 16, 175, 153, 60, 118, 6, 61, 62, 166, 240, 37, 65, 174, 162, 218, 63, 209, 249, 33, 190, 4, 41, 246, 191, 91, 99, 138, 190, 139, 113, 6, 192, 188, 200, 176, 61, 154, 166, 229, 190, 80, 131, 109, 61, 224, 33, 60, 189, 199, 67, 20, 62, 129, 107, 170, 189, 118, 10, 131, 62, 30, 13, 140, 190, 4, 192, 223, 60, 8, 37, 42, 189, 44, 89, 190, 60, 101, 14, 166, 190, 6, 234, 160, 63, 32, 101, 116, 64, 0, 0, 6, 0, 8, 0, 4, 0, 6, 0, 0, 0, 4, 0, 0, 0, 128, 1, 0, 0, 141, 177, 81, 62, 193, 123, 125, 62, 80, 57, 93, 62, 20, 229, 124, 61, 217, 84, 135, 62, 212, 217, 132, 62, 143, 47, 218, 62, 30, 230, 31, 62, 32, 151, 104, 62, 237, 218, 34, 63, 146, 33, 152, 62, 209, 68, 251, 62, 194, 249, 38, 62, 247, 233, 3, 63, 61, 58, 131, 62, 7, 139, 210, 62, 19, 130, 55, 62, 117, 60, 240, 62, 162, 49, 115, 62, 59, 128, 242, 62, 235, 91, 1, 62, 42, 151, 172, 62, 209, 81, 77, 62, 35, 207, 40, 63, 17, 92, 63, 62, 235, 249, 192, 62, 250, 200, 174, 62, 164, 134, 154, 62, 253, 164, 102, 62, 227, 138, 113, 62, 77, 109, 56, 62, 210, 194, 139, 62, 241, 116, 171, 62, 94, 240, 143, 62, 27, 126, 233, 62, 83, 247, 42, 62, 184, 248, 1, 63, 225, 200, 67, 62, 233, 41, 117, 62, 240, 214, 131, 62, 185, 46, 151, 62, 184, 113, 206, 62, 34, 74, 236, 62, 4, 27, 155, 62, 47, 208, 151, 62, 229, 207, 16, 62, 118, 119, 140, 62, 254, 208, 75, 62, 102, 59, 221, 61, 214, 190, 210, 62, 40, 69, 133, 62, 167, 117, 37, 62, 9, 64, 164, 62, 164, 156, 172, 62, 193, 32, 233, 62, 199, 222, 13, 63, 29, 101, 15, 63, 197, 160, 165, 62, 236, 208, 132, 62, 84, 17, 22, 62, 51, 18, 19, 63, 57, 173, 121, 62, 61, 125, 255, 62, 189, 47, 87, 62, 86, 158, 128, 62, 84, 87, 67, 62, 231, 113, 155, 62, 245, 76, 32, 62, 204, 127, 19, 63, 39, 248, 136, 62, 45, 102, 21, 63, 127, 101, 88, 62, 238, 176, 136, 62, 197, 223, 151, 62, 166, 126, 159, 62, 66, 163, 168, 62, 18, 88, 77, 63, 4, 38, 198, 61, 29, 51, 5, 63, 151, 37, 41, 63, 248, 46, 151, 62, 143, 250, 28, 63, 185, 177, 142, 62, 120, 170, 79, 62, 226, 27, 84, 62, 237, 78, 21, 62, 241, 209, 141, 62, 70, 225, 176, 62, 129, 247, 179, 62, 163, 85, 67, 62, 201, 204, 143, 62, 216, 161, 59, 62, 220, 45, 173, 62, 158, 13, 22, 63, 22, 110, 53, 64, 255, 50, 17, 62, 192, 252, 255, 255, 196, 252, 255, 255, 15, 0, 0, 0, 77, 76, 73, 82, 32, 67, 111, 110, 118, 101, 114, 116, 101, 100, 46, 0, 1, 0, 0, 0, 20, 0, 0, 0, 0, 0, 14, 0, 24, 0, 20, 0, 16, 0, 12, 0, 8, 0, 4, 0, 14, 0, 0, 0, 20, 0, 0, 0, 28, 0, 0, 0, 160, 0, 0, 0, 164, 0, 0, 0, 168, 0, 0, 0, 4, 0, 0, 0, 109, 97, 105, 110, 0, 0, 0, 0, 2, 0, 0, 0, 88, 0, 0, 0, 20, 0, 0, 0, 0, 0, 14, 0, 24, 0, 20, 0, 16, 0, 12, 0, 11, 0, 4, 0, 14, 0, 0, 0, 20, 0, 0, 0, 0, 0, 0, 11, 16, 0, 0, 0, 20, 0, 0, 0, 1, 0, 0, 0, 76, 253, 255, 255, 1, 0, 0, 0, 4, 0, 0, 0, 2, 0, 0, 0, 3, 0, 0, 0, 2, 0, 0, 0, 0, 0, 14, 0, 20, 0, 0, 0, 16, 0, 12, 0, 11, 0, 4, 0, 14, 0, 0, 0, 16, 0, 0, 0, 0, 0, 0, 21, 12, 0, 0, 0, 16, 0, 0, 0, 136, 253, 255, 255, 1, 0, 0, 0, 3, 0, 0, 0, 2, 0, 0, 0, 0, 0, 0, 0, 1, 0, 0, 0, 1, 0, 0, 0, 4, 0, 0, 0, 1, 0, 0, 0, 0, 0, 0, 0, 5, 0, 0, 0, 216, 1, 0, 0, 100, 1, 0, 0, 240, 0, 0, 0, 112, 0, 0, 0, 4, 0, 0, 0, 82, 254, 255, 255, 0, 0, 0, 1, 20, 0, 0, 0, 36, 0, 0, 0, 36, 0, 0, 0, 5, 0, 0, 0, 60, 0, 0, 0, 4, 0, 0, 0, 255, 255, 255, 255, 12, 0, 0, 0, 12, 0, 0, 0, 96, 0, 0, 0, 248, 253, 255, 255, 25, 0, 0, 0, 83, 116, 97, 116, 101, 102, 117, 108, 80, 97, 114, 116, 105, 116, 105, 111, 110, 101, 100, 67, 97, 108, 108, 58, 48, 0, 0, 0, 4, 0, 0, 0, 1, 0, 0, 0, 12, 0, 0, 0, 12, 0, 0, 0, 96, 0, 0, 0, 186, 254, 255, 255, 0, 0, 0, 1, 20, 0, 0, 0, 36, 0, 0, 0, 36, 0, 0, 0, 4, 0, 0, 0, 80, 0, 0, 0, 4, 0, 0, 0, 255, 255, 255, 255, 12, 0, 0, 0, 12, 0, 0, 0, 96, 0, 0, 0, 96, 254, 255, 255, 47, 0, 0, 0, 109, 111, 100, 101, 108, 95, 51, 57, 47, 98, 108, 111, 99, 107, 95, 52, 95, 100, 101, 112, 116, 104, 119, 105, 115, 101, 95, 66, 78, 47, 70, 117, 115, 101, 100, 66, 97, 116, 99, 104, 78, 111, 114, 109, 86, 51, 50, 0, 4, 0, 0, 0, 1, 0, 0, 0, 12, 0, 0, 0, 12, 0, 0, 0, 96, 0, 0, 0, 166, 255, 255, 255, 0, 0, 0, 1, 16, 0, 0, 0, 16, 0, 0, 0, 3, 0, 0, 0, 60, 0, 0, 0, 196, 254, 255, 255, 47, 0, 0, 0, 109, 111, 100, 101, 108, 95, 51, 57, 47, 98, 108, 111, 99, 107, 95, 52, 95, 100, 101, 112, 116, 104, 119, 105, 115, 101, 95, 66, 78, 47, 70, 117, 115, 101, 100, 66, 97, 116, 99, 104, 78, 111, 114, 109, 86, 51, 49, 0, 1, 0, 0, 0, 96, 0, 0, 0, 0, 0, 22, 0, 24, 0, 20, 0, 0, 0, 16, 0, 12, 0, 8, 0, 0, 0, 0, 0, 0, 0, 7, 0, 22, 0, 0, 0, 0, 0, 0, 1, 16, 0, 0, 0, 16, 0, 0, 0, 2, 0, 0, 0, 60, 0, 0, 0, 52, 255, 255, 255, 46, 0, 0, 0, 109, 111, 100, 101, 108, 95, 51, 57, 47, 98, 108, 111, 99, 107, 95, 52, 95, 100, 101, 112, 116, 104, 119, 105, 115, 101, 95, 66, 78, 47, 70, 117, 115, 101, 100, 66, 97, 116, 99, 104, 78, 111, 114, 109, 86, 51, 0, 0, 1, 0, 0, 0, 96, 0, 0, 0, 0, 0, 22, 0, 28, 0, 24, 0, 0, 0, 20, 0, 16, 0, 12, 0, 0, 0, 0, 0, 8, 0, 7, 0, 22, 0, 0, 0, 0, 0, 0, 1, 20, 0, 0, 0, 36, 0, 0, 0, 36, 0, 0, 0, 1, 0, 0, 0, 60, 0, 0, 0, 4, 0, 0, 0, 255, 255, 255, 255, 12, 0, 0, 0, 12, 0, 0, 0, 96, 0, 0, 0, 188, 255, 255, 255, 26, 0, 0, 0, 115, 101, 114, 118, 105, 110, 103, 95, 100, 101, 102, 97, 117, 108, 116, 95, 105, 110, 112, 117, 116, 95, 52, 49, 58, 48, 0, 0, 4, 0, 0, 0, 1, 0, 0, 0, 12, 0, 0, 0, 12, 0, 0, 0, 96, 0, 0, 0, 2, 0, 0, 0, 28, 0, 0, 0, 8, 0, 0, 0, 4, 0, 4, 0, 4, 0, 0, 0, 12, 0, 12, 0, 11, 0, 0, 0, 0, 0, 4, 0, 12, 0, 0, 0, 18, 0, 0, 0, 0, 0, 0, 18
};
