#pragma once

#include <cstdint>

const uint8_t layer_15[] = {
28, 0, 0, 0, 84, 70, 76, 51, 20, 0, 32, 0, 28, 0, 24, 0, 20, 0, 16, 0, 12, 0, 0, 0, 8, 0, 4, 0, 20, 0, 0, 0, 28, 0, 0, 0, 152, 0, 0, 0, 240, 0, 0, 0, 212, 7, 0, 0, 228, 7, 0, 0, 64, 10, 0, 0, 3, 0, 0, 0, 1, 0, 0, 0, 16, 0, 0, 0, 0, 0, 10, 0, 16, 0, 12, 0, 8, 0, 4, 0, 10, 0, 0, 0, 12, 0, 0, 0, 28, 0, 0, 0, 64, 0, 0, 0, 15, 0, 0, 0, 115, 101, 114, 118, 105, 110, 103, 95, 100, 101, 102, 97, 117, 108, 116, 0, 1, 0, 0, 0, 4, 0, 0, 0, 144, 255, 255, 255, 3, 0, 0, 0, 4, 0, 0, 0, 15, 0, 0, 0, 98, 108, 111, 99, 107, 95, 49, 95, 112, 114, 111, 106, 101, 99, 116, 0, 1, 0, 0, 0, 4, 0, 0, 0, 222, 248, 255, 255, 4, 0, 0, 0, 8, 0, 0, 0, 105, 110, 112, 117, 116, 95, 49, 54, 0, 0, 0, 0, 2, 0, 0, 0, 52, 0, 0, 0, 4, 0, 0, 0, 220, 255, 255, 255, 6, 0, 0, 0, 4, 0, 0, 0, 19, 0, 0, 0, 67, 79, 78, 86, 69, 82, 83, 73, 79, 78, 95, 77, 69, 84, 65, 68, 65, 84, 65, 0, 8, 0, 12, 0, 8, 0, 4, 0, 8, 0, 0, 0, 5, 0, 0, 0, 4, 0, 0, 0, 19, 0, 0, 0, 109, 105, 110, 95, 114, 117, 110, 116, 105, 109, 101, 95, 118, 101, 114, 115, 105, 111, 110, 0, 7, 0, 0, 0, 224, 6, 0, 0, 216, 6, 0, 0, 168, 6, 0, 0, 144, 0, 0, 0, 136, 0, 0, 0, 104, 0, 0, 0, 4, 0, 0, 0, 114, 249, 255, 255, 4, 0, 0, 0, 84, 0, 0, 0, 12, 0, 0, 0, 8, 0, 14, 0, 8, 0, 4, 0, 8, 0, 0, 0, 16, 0, 0, 0, 36, 0, 0, 0, 0, 0, 6, 0, 8, 0, 4, 0, 6, 0, 0, 0, 4, 0, 0, 0, 0, 0, 0, 0, 0, 0, 10, 0, 16, 0, 12, 0, 8, 0, 4, 0, 10, 0, 0, 0, 2, 0, 0, 0, 2, 0, 0, 0, 4, 0, 0, 0, 6, 0, 0, 0, 50, 46, 49, 53, 46, 48, 0, 0, 210, 249, 255, 255, 4, 0, 0, 0, 16, 0, 0, 0, 49, 46, 53, 46, 48, 0, 0, 0, 0, 0, 0, 0, 0, 0, 0, 0, 124, 247, 255, 255, 242, 249, 255, 255, 4, 0, 0, 0, 0, 6, 0, 0, 8, 116, 210, 189, 40, 88, 250, 59, 191, 146, 124, 61, 42, 153, 66, 191, 165, 110, 154, 61, 79, 130, 63, 62, 35, 124, 18, 61, 88, 187, 153, 61, 190, 235, 168, 60, 29, 66, 89, 61, 49, 253, 123, 60, 173, 88, 90, 189, 104, 13, 72, 63, 48, 52, 254, 26, 99, 110, 107, 59, 83, 227, 39, 61, 242, 64, 216, 155, 139, 116, 145, 189, 64, 194, 109, 189, 157, 121, 92, 188, 141, 216, 28, 63, 255, 68, 5, 189, 53, 144, 121, 60, 165, 64, 224, 60, 142, 3, 117, 62, 162, 241, 154, 62, 164, 249, 237, 61, 26, 35, 167, 61, 236, 96, 10, 61, 230, 151, 234, 60, 216, 1, 169, 60, 37, 17, 134, 191, 145, 0, 174, 61, 39, 67, 107, 61, 144, 132, 154, 188, 246, 7, 83, 188, 181, 231, 109, 190, 68, 130, 12, 188, 93, 116, 253, 189, 6, 154, 134, 62, 164, 178, 144, 61, 76, 34, 88, 190, 7, 104, 169, 189, 16, 182, 191, 60, 10, 138, 170, 60, 255, 117, 156, 187, 98, 155, 162, 60, 230, 73, 181, 59, 142, 146, 132, 190, 145, 100, 20, 189, 45, 88, 78, 188, 128, 77, 235, 188, 82, 193, 162, 62, 138, 76, 40, 62, 4, 85, 84, 190, 9, 165, 8, 63, 53, 202, 23, 62, 130, 81, 13, 61, 135, 16, 103, 190, 176, 241, 50, 190, 33, 28, 128, 61, 98, 225, 228, 26, 143, 243, 10, 62, 176, 47, 128, 62, 222, 71, 74, 26, 219, 171, 146, 62, 97, 10, 4, 62, 171, 164, 162, 190, 118, 166, 143, 188, 253, 112, 30, 62, 214, 85, 96, 63, 58, 128, 22, 62, 199, 247, 68, 190, 150, 85, 74, 59, 216, 101, 183, 62, 24, 216, 42, 61, 92, 137, 253, 61, 86, 206, 201, 187, 237, 193, 222, 61, 40, 80, 193, 189, 190, 242, 230, 61, 72, 140, 78, 189, 72, 191, 129, 189, 224, 74, 34, 190, 234, 238, 89, 61, 70, 225, 199, 190, 103, 147, 157, 61, 93, 253, 148, 60, 143, 45, 224, 188, 111, 124, 153, 189, 164, 69, 19, 191, 134, 181, 137, 189, 38, 217, 117, 190, 208, 76, 108, 61, 118, 31, 181, 190, 194, 137, 51, 191, 201, 213, 182, 190, 127, 18, 194, 61, 9, 141, 63, 60, 171, 97, 162, 61, 243, 195, 141, 62, 20, 169, 71, 189, 96, 82, 46, 62, 37, 191, 29, 62, 82, 23, 108, 189, 242, 239, 164, 62, 157, 179, 81, 61, 210, 216, 147, 188, 100, 212, 153, 60, 212, 5, 211, 155, 97, 173, 44, 61, 35, 218, 166, 62, 3, 14, 219, 27, 209, 224, 152, 61, 89, 216, 69, 191, 32, 21, 29, 62, 233, 205, 150, 186, 41, 162, 166, 61, 221, 162, 32, 61, 63, 80, 207, 189, 247, 83, 69, 190, 82, 90, 7, 60, 44, 90, 102, 62, 79, 149, 61, 61, 196, 239, 150, 61, 122, 89, 64, 62, 103, 155, 23, 62, 25, 17, 232, 60, 44, 233, 226, 60, 129, 244, 103, 189, 240, 53, 111, 189, 97, 62, 162, 189, 44, 229, 131, 61, 121, 247, 4, 61, 28, 100, 219, 60, 142, 135, 224, 59, 148, 60, 110, 62, 249, 200, 63, 189, 216, 33, 61, 190, 33, 114, 211, 59, 113, 232, 19, 62, 51, 139, 183, 190, 208, 79, 24, 62, 107, 222, 179, 61, 253, 195, 33, 187, 253, 139, 139, 60, 238, 205, 156, 188, 39, 128, 89, 61, 228, 65, 255, 188, 157, 255, 49, 62, 205, 6, 240, 187, 61, 1, 224, 188, 204, 103, 226, 62, 208, 192, 10, 62, 107, 88, 216, 188, 60, 90, 18, 189, 12, 59, 42, 62, 1, 117, 229, 27, 75, 240, 85, 190, 109, 252, 119, 189, 106, 106, 101, 27, 75, 116, 16, 59, 26, 52, 131, 189, 197, 32, 138, 60, 241, 133, 232, 188, 204, 154, 36, 60, 227, 216, 2, 61, 180, 89, 5, 190, 194, 238, 180, 189, 148, 142, 111, 189, 152, 161, 142, 189, 21, 16, 183, 188, 98, 225, 131, 189, 154, 110, 188, 188, 124, 166, 95, 188, 37, 63, 160, 189, 136, 38, 172, 190, 175, 247, 163, 62, 53, 152, 196, 190, 166, 103, 135, 188, 108, 101, 33, 61, 195, 46, 251, 59, 184, 239, 48, 60, 83, 179, 96, 191, 134, 167, 68, 59, 48, 67, 207, 60, 209, 122, 252, 185, 110, 91, 188, 190, 176, 219, 27, 188, 248, 63, 41, 188, 162, 214, 156, 59, 127, 154, 55, 61, 102, 206, 22, 59, 169, 182, 98, 188, 187, 203, 15, 63, 187, 205, 135, 62, 143, 211, 202, 60, 171, 26, 20, 190, 77, 250, 69, 188, 206, 28, 214, 188, 129, 145, 1, 60, 75, 170, 180, 188, 59, 3, 159, 188, 16, 78, 136, 189, 168, 6, 20, 191, 119, 98, 215, 154, 109, 65, 182, 189, 223, 135, 20, 61, 80, 10, 123, 155, 42, 15, 157, 61, 0, 197, 67, 61, 108, 216, 97, 188, 229, 218, 235, 62, 221, 0, 30, 61, 172, 226, 55, 60, 194, 197, 252, 188, 11, 217, 224, 189, 15, 94, 110, 62, 249, 66, 63, 189, 171, 131, 177, 62, 133, 30, 95, 189, 101, 255, 125, 187, 102, 249, 74, 60, 54, 109, 56, 63, 186, 23, 207, 60, 82, 229, 207, 60, 215, 155, 161, 57, 169, 198, 148, 188, 135, 55, 0, 62, 48, 6, 190, 189, 162, 54, 146, 189, 72, 223, 237, 189, 56, 86, 163, 188, 20, 142, 102, 191, 92, 229, 181, 60, 79, 65, 209, 60, 175, 162, 24, 188, 228, 95, 140, 188, 37, 128, 136, 186, 149, 191, 10, 59, 97, 145, 111, 189, 86, 191, 193, 62, 206, 59, 197, 60, 141, 79, 158, 189, 189, 45, 239, 60, 1, 237, 220, 62, 17, 44, 90, 62, 118, 9, 253, 61, 104, 150, 47, 190, 83, 176, 138, 62, 94, 168, 37, 61, 39, 86, 253, 62, 223, 211, 117, 62, 210, 21, 17, 155, 76, 83, 141, 191, 224, 202, 18, 188, 52, 171, 231, 155, 223, 36, 1, 62, 75, 83, 169, 190, 49, 130, 52, 62, 45, 83, 150, 189, 100, 16, 175, 61, 15, 248, 226, 189, 47, 232, 183, 62, 91, 4, 42, 190, 237, 141, 3, 189, 109, 85, 130, 62, 17, 89, 87, 189, 214, 81, 183, 189, 19, 57, 65, 62, 224, 223, 98, 62, 188, 226, 10, 190, 0, 76, 217, 62, 12, 232, 132, 62, 57, 179, 171, 190, 198, 54, 235, 188, 231, 120, 69, 61, 210, 188, 51, 62, 197, 174, 218, 190, 66, 160, 15, 62, 109, 222, 87, 62, 113, 241, 198, 189, 30, 77, 216, 189, 163, 123, 126, 62, 6, 210, 50, 62, 46, 100, 3, 63, 219, 126, 59, 62, 175, 188, 65, 62, 89, 187, 27, 190, 88, 127, 190, 190, 29, 64, 209, 60, 173, 222, 78, 61, 30, 111, 136, 62, 157, 217, 153, 190, 208, 135, 24, 190, 182, 100, 175, 61, 245, 212, 54, 62, 98, 234, 33, 190, 187, 129, 167, 189, 77, 102, 35, 63, 13, 109, 72, 188, 62, 28, 91, 154, 81, 158, 95, 191, 18, 213, 139, 62, 93, 80, 55, 155, 47, 213, 51, 189, 126, 199, 171, 62, 106, 61, 17, 190, 169, 122, 174, 188, 46, 120, 188, 60, 102, 38, 74, 62, 253, 147, 99, 190, 212, 224, 113, 62, 12, 120, 170, 188, 46, 10, 84, 59, 209, 87, 184, 189, 77, 20, 179, 62, 136, 254, 217, 189, 101, 233, 193, 189, 48, 48, 95, 188, 204, 89, 37, 63, 138, 59, 80, 190, 243, 170, 72, 62, 188, 202, 20, 188, 75, 204, 129, 188, 43, 75, 83, 189, 78, 174, 1, 191, 208, 184, 31, 190, 66, 65, 232, 189, 46, 84, 180, 189, 131, 32, 4, 189, 226, 67, 43, 190, 209, 206, 29, 190, 219, 90, 21, 191, 131, 144, 15, 190, 193, 51, 73, 190, 192, 109, 54, 191, 207, 56, 13, 190, 229, 248, 184, 189, 7, 171, 37, 61, 158, 135, 70, 63, 44, 21, 183, 61, 94, 242, 210, 62, 155, 67, 37, 62, 4, 130, 176, 61, 216, 92, 14, 61, 71, 61, 47, 62, 148, 233, 102, 190, 0, 131, 60, 190, 186, 62, 34, 155, 147, 6, 5, 63, 76, 190, 34, 63, 50, 84, 53, 155, 41, 232, 110, 61, 42, 143, 104, 59, 30, 9, 197, 62, 184, 245, 172, 189, 136, 242, 137, 188, 17, 135, 63, 190, 171, 78, 138, 62, 116, 24, 195, 61, 198, 101, 3, 61, 159, 178, 138, 62, 160, 157, 170, 60, 203, 16, 149, 62, 204, 97, 194, 62, 45, 151, 169, 62, 20, 32, 148, 189, 175, 7, 69, 189, 155, 156, 189, 189, 156, 97, 10, 190, 41, 125, 30, 190, 21, 135, 176, 60, 193, 92, 33, 62, 5, 217, 37, 62, 127, 8, 81, 62, 203, 138, 236, 62, 9, 201, 104, 60, 5, 253, 32, 190, 16, 160, 173, 189, 113, 117, 196, 62, 85, 174, 106, 60, 104, 66, 198, 62, 220, 140, 244, 62, 0, 0, 6, 0, 8, 0, 4, 0, 6, 0, 0, 0, 4, 0, 0, 0, 32, 0, 0, 0, 0, 0, 0, 0, 0, 0, 0, 0, 0, 0, 0, 0, 0, 0, 0, 0, 0, 0, 0, 0, 0, 0, 0, 0, 0, 0, 0, 0, 0, 0, 0, 0, 192, 253, 255, 255, 196, 253, 255, 255, 15, 0, 0, 0, 77, 76, 73, 82, 32, 67, 111, 110, 118, 101, 114, 116, 101, 100, 46, 0, 1, 0, 0, 0, 20, 0, 0, 0, 0, 0, 14, 0, 24, 0, 20, 0, 16, 0, 12, 0, 8, 0, 4, 0, 14, 0, 0, 0, 20, 0, 0, 0, 28, 0, 0, 0, 116, 0, 0, 0, 120, 0, 0, 0, 124, 0, 0, 0, 4, 0, 0, 0, 109, 97, 105, 110, 0, 0, 0, 0, 1, 0, 0, 0, 20, 0, 0, 0, 0, 0, 14, 0, 22, 0, 0, 0, 16, 0, 12, 0, 11, 0, 4, 0, 14, 0, 0, 0, 28, 0, 0, 0, 0, 0, 0, 1, 32, 0, 0, 0, 36, 0, 0, 0, 0, 0, 10, 0, 12, 0, 0, 0, 8, 0, 4, 0, 10, 0, 0, 0, 1, 0, 0, 0, 1, 0, 0, 0, 1, 0, 0, 0, 3, 0, 0, 0, 3, 0, 0, 0, 0, 0, 0, 0, 2, 0, 0, 0, 1, 0, 0, 0, 1, 0, 0, 0, 3, 0, 0, 0, 1, 0, 0, 0, 0, 0, 0, 0, 4, 0, 0, 0, 72, 1, 0, 0, 228, 0, 0, 0, 112, 0, 0, 0, 4, 0, 0, 0, 222, 254, 255, 255, 0, 0, 0, 1, 20, 0, 0, 0, 36, 0, 0, 0, 36, 0, 0, 0, 4, 0, 0, 0, 60, 0, 0, 0, 4, 0, 0, 0, 255, 255, 255, 255, 24, 0, 0, 0, 24, 0, 0, 0, 8, 0, 0, 0, 200, 254, 255, 255, 25, 0, 0, 0, 83, 116, 97, 116, 101, 102, 117, 108, 80, 97, 114, 116, 105, 116, 105, 111, 110, 101, 100, 67, 97, 108, 108, 58, 48, 0, 0, 0, 4, 0, 0, 0, 1, 0, 0, 0, 24, 0, 0, 0, 24, 0, 0, 0, 8, 0, 0, 0, 166, 255, 255, 255, 0, 0, 0, 1, 16, 0, 0, 0, 16, 0, 0, 0, 3, 0, 0, 0, 48, 0, 0, 0, 24, 255, 255, 255, 32, 0, 0, 0, 109, 111, 100, 101, 108, 95, 49, 53, 47, 98, 108, 111, 99, 107, 95, 49, 95, 112, 114, 111, 106, 101, 99, 116, 47, 67, 111, 110, 118, 50, 68, 49, 0, 0, 0, 0, 4, 0, 0, 0, 8, 0, 0, 0, 1, 0, 0, 0, 1, 0, 0, 0, 48, 0, 0, 0, 0, 0, 22, 0, 24, 0, 20, 0, 0, 0, 16, 0, 12, 0, 8, 0, 0, 0, 0, 0, 0, 0, 7, 0, 22, 0, 0, 0, 0, 0, 0, 1, 16, 0, 0, 0, 16, 0, 0, 0, 2, 0, 0, 0, 44, 0, 0, 0, 136, 255, 255, 255, 31, 0, 0, 0, 109, 111, 100, 101, 108, 95, 49, 53, 47, 98, 108, 111, 99, 107, 95, 49, 95, 112, 114, 111, 106, 101, 99, 116, 47, 67, 111, 110, 118, 50, 68, 0, 1, 0, 0, 0, 8, 0, 0, 0, 0, 0, 22, 0, 28, 0, 24, 0, 0, 0, 20, 0, 16, 0, 12, 0, 0, 0, 0, 0, 8, 0, 7, 0, 22, 0, 0, 0, 0, 0, 0, 1, 20, 0, 0, 0, 40, 0, 0, 0, 40, 0, 0, 0, 1, 0, 0, 0, 64, 0, 0, 0, 4, 0, 0, 0, 255, 255, 255, 255, 24, 0, 0, 0, 24, 0, 0, 0, 48, 0, 0, 0, 4, 0, 4, 0, 4, 0, 0, 0, 26, 0, 0, 0, 115, 101, 114, 118, 105, 110, 103, 95, 100, 101, 102, 97, 117, 108, 116, 95, 105, 110, 112, 117, 116, 95, 49, 54, 58, 48, 0, 0, 4, 0, 0, 0, 1, 0, 0, 0, 24, 0, 0, 0, 24, 0, 0, 0, 48, 0, 0, 0, 1, 0, 0, 0, 16, 0, 0, 0, 12, 0, 12, 0, 11, 0, 0, 0, 0, 0, 4, 0, 12, 0, 0, 0, 3, 0, 0, 0, 0, 0, 0, 3
};
