#pragma once

#include <cstdint>

const uint8_t layer_18[] = {
28, 0, 0, 0, 84, 70, 76, 51, 20, 0, 32, 0, 28, 0, 24, 0, 20, 0, 16, 0, 12, 0, 0, 0, 8, 0, 4, 0, 20, 0, 0, 0, 28, 0, 0, 0, 156, 0, 0, 0, 244, 0, 0, 0, 64, 3, 0, 0, 80, 3, 0, 0, 96, 6, 0, 0, 3, 0, 0, 0, 1, 0, 0, 0, 16, 0, 0, 0, 0, 0, 10, 0, 16, 0, 12, 0, 8, 0, 4, 0, 10, 0, 0, 0, 12, 0, 0, 0, 28, 0, 0, 0, 68, 0, 0, 0, 15, 0, 0, 0, 115, 101, 114, 118, 105, 110, 103, 95, 100, 101, 102, 97, 117, 108, 116, 0, 1, 0, 0, 0, 4, 0, 0, 0, 140, 255, 255, 255, 4, 0, 0, 0, 4, 0, 0, 0, 17, 0, 0, 0, 98, 108, 111, 99, 107, 95, 50, 95, 101, 120, 112, 97, 110, 100, 95, 66, 78, 0, 0, 0, 1, 0, 0, 0, 4, 0, 0, 0, 22, 254, 255, 255, 4, 0, 0, 0, 8, 0, 0, 0, 105, 110, 112, 117, 116, 95, 49, 57, 0, 0, 0, 0, 2, 0, 0, 0, 52, 0, 0, 0, 4, 0, 0, 0, 220, 255, 255, 255, 7, 0, 0, 0, 4, 0, 0, 0, 19, 0, 0, 0, 67, 79, 78, 86, 69, 82, 83, 73, 79, 78, 95, 77, 69, 84, 65, 68, 65, 84, 65, 0, 8, 0, 12, 0, 8, 0, 4, 0, 8, 0, 0, 0, 6, 0, 0, 0, 4, 0, 0, 0, 19, 0, 0, 0, 109, 105, 110, 95, 114, 117, 110, 116, 105, 109, 101, 95, 118, 101, 114, 115, 105, 111, 110, 0, 8, 0, 0, 0, 72, 2, 0, 0, 64, 2, 0, 0, 112, 1, 0, 0, 152, 0, 0, 0, 144, 0, 0, 0, 136, 0, 0, 0, 104, 0, 0, 0, 4, 0, 0, 0, 174, 254, 255, 255, 4, 0, 0, 0, 84, 0, 0, 0, 12, 0, 0, 0, 8, 0, 14, 0, 8, 0, 4, 0, 8, 0, 0, 0, 16, 0, 0, 0, 36, 0, 0, 0, 0, 0, 6, 0, 8, 0, 4, 0, 6, 0, 0, 0, 4, 0, 0, 0, 0, 0, 0, 0, 0, 0, 10, 0, 16, 0, 12, 0, 8, 0, 4, 0, 10, 0, 0, 0, 2, 0, 0, 0, 2, 0, 0, 0, 4, 0, 0, 0, 6, 0, 0, 0, 50, 46, 49, 53, 46, 48, 0, 0, 14, 255, 255, 255, 4, 0, 0, 0, 16, 0, 0, 0, 49, 46, 53, 46, 48, 0, 0, 0, 0, 0, 0, 0, 0, 0, 0, 0, 28, 251, 255, 255, 32, 251, 255, 255, 50, 255, 255, 255, 4, 0, 0, 0, 192, 0, 0, 0, 156, 26, 138, 64, 19, 180, 16, 64, 187, 181, 198, 63, 143, 101, 77, 64, 20, 188, 15, 64, 76, 59, 160, 64, 234, 18, 245, 191, 141, 69, 145, 190, 95, 45, 12, 63, 215, 50, 177, 63, 83, 203, 14, 64, 153, 231, 18, 62, 30, 202, 122, 63, 74, 153, 242, 190, 110, 68, 225, 62, 117, 92, 104, 192, 58, 197, 206, 63, 46, 85, 136, 64, 193, 158, 5, 191, 45, 230, 45, 64, 228, 66, 152, 63, 72, 102, 120, 63, 252, 44, 126, 64, 184, 195, 2, 191, 38, 219, 153, 63, 177, 129, 149, 63, 231, 235, 128, 64, 162, 224, 104, 64, 42, 243, 147, 189, 10, 51, 39, 192, 14, 177, 134, 61, 195, 20, 82, 63, 236, 79, 252, 191, 135, 188, 11, 64, 77, 191, 135, 63, 17, 154, 239, 63, 200, 16, 108, 64, 23, 16, 169, 63, 123, 131, 23, 64, 185, 159, 144, 64, 215, 111, 23, 191, 164, 105, 48, 64, 210, 99, 250, 62, 0, 88, 188, 63, 193, 111, 155, 63, 59, 222, 138, 63, 195, 255, 144, 191, 105, 96, 41, 64, 0, 0, 6, 0, 8, 0, 4, 0, 6, 0, 0, 0, 4, 0, 0, 0, 192, 0, 0, 0, 177, 36, 167, 61, 72, 101, 61, 62, 2, 242, 45, 62, 206, 165, 158, 62, 23, 253, 152, 63, 23, 154, 12, 63, 126, 57, 153, 63, 115, 98, 10, 63, 241, 82, 248, 62, 160, 210, 208, 62, 236, 228, 37, 63, 14, 136, 207, 62, 70, 157, 190, 62, 19, 130, 253, 62, 30, 20, 3, 63, 200, 157, 33, 63, 73, 108, 199, 62, 227, 25, 107, 62, 184, 52, 180, 63, 232, 107, 5, 62, 39, 84, 142, 62, 226, 95, 167, 62, 215, 194, 203, 62, 155, 96, 13, 63, 184, 202, 23, 62, 70, 50, 122, 62, 16, 8, 148, 61, 137, 186, 173, 62, 77, 191, 99, 63, 144, 235, 48, 63, 238, 33, 59, 62, 140, 224, 198, 62, 185, 211, 133, 63, 196, 133, 71, 62, 223, 114, 158, 62, 201, 149, 153, 62, 194, 249, 198, 62, 224, 40, 155, 62, 46, 119, 246, 61, 199, 95, 148, 63, 109, 73, 78, 63, 50, 253, 47, 63, 57, 18, 228, 62, 68, 140, 195, 62, 128, 222, 97, 62, 88, 49, 10, 63, 202, 245, 63, 63, 188, 15, 70, 63, 196, 252, 255, 255, 200, 252, 255, 255, 15, 0, 0, 0, 77, 76, 73, 82, 32, 67, 111, 110, 118, 101, 114, 116, 101, 100, 46, 0, 1, 0, 0, 0, 20, 0, 0, 0, 0, 0, 14, 0, 24, 0, 20, 0, 16, 0, 12, 0, 8, 0, 4, 0, 14, 0, 0, 0, 20, 0, 0, 0, 28, 0, 0, 0, 160, 0, 0, 0, 164, 0, 0, 0, 168, 0, 0, 0, 4, 0, 0, 0, 109, 97, 105, 110, 0, 0, 0, 0, 2, 0, 0, 0, 88, 0, 0, 0, 20, 0, 0, 0, 0, 0, 14, 0, 24, 0, 20, 0, 16, 0, 12, 0, 11, 0, 4, 0, 14, 0, 0, 0, 20, 0, 0, 0, 0, 0, 0, 11, 16, 0, 0, 0, 20, 0, 0, 0, 1, 0, 0, 0, 80, 253, 255, 255, 1, 0, 0, 0, 4, 0, 0, 0, 2, 0, 0, 0, 3, 0, 0, 0, 2, 0, 0, 0, 0, 0, 14, 0, 20, 0, 0, 0, 16, 0, 12, 0, 11, 0, 4, 0, 14, 0, 0, 0, 16, 0, 0, 0, 0, 0, 0, 21, 12, 0, 0, 0, 16, 0, 0, 0, 140, 253, 255, 255, 1, 0, 0, 0, 3, 0, 0, 0, 2, 0, 0, 0, 0, 0, 0, 0, 1, 0, 0, 0, 1, 0, 0, 0, 4, 0, 0, 0, 1, 0, 0, 0, 0, 0, 0, 0, 5, 0, 0, 0, 212, 1, 0, 0, 100, 1, 0, 0, 240, 0, 0, 0, 112, 0, 0, 0, 4, 0, 0, 0, 86, 254, 255, 255, 0, 0, 0, 1, 20, 0, 0, 0, 36, 0, 0, 0, 36, 0, 0, 0, 5, 0, 0, 0, 60, 0, 0, 0, 4, 0, 0, 0, 255, 255, 255, 255, 24, 0, 0, 0, 24, 0, 0, 0, 48, 0, 0, 0, 252, 253, 255, 255, 25, 0, 0, 0, 83, 116, 97, 116, 101, 102, 117, 108, 80, 97, 114, 116, 105, 116, 105, 111, 110, 101, 100, 67, 97, 108, 108, 58, 48, 0, 0, 0, 4, 0, 0, 0, 1, 0, 0, 0, 24, 0, 0, 0, 24, 0, 0, 0, 48, 0, 0, 0, 190, 254, 255, 255, 0, 0, 0, 1, 20, 0, 0, 0, 36, 0, 0, 0, 36, 0, 0, 0, 4, 0, 0, 0, 80, 0, 0, 0, 4, 0, 0, 0, 255, 255, 255, 255, 24, 0, 0, 0, 24, 0, 0, 0, 48, 0, 0, 0, 100, 254, 255, 255, 44, 0, 0, 0, 109, 111, 100, 101, 108, 95, 49, 56, 47, 98, 108, 111, 99, 107, 95, 50, 95, 101, 120, 112, 97, 110, 100, 95, 66, 78, 47, 70, 117, 115, 101, 100, 66, 97, 116, 99, 104, 78, 111, 114, 109, 86, 51, 50, 0, 0, 0, 0, 4, 0, 0, 0, 1, 0, 0, 0, 24, 0, 0, 0, 24, 0, 0, 0, 48, 0, 0, 0, 166, 255, 255, 255, 0, 0, 0, 1, 16, 0, 0, 0, 16, 0, 0, 0, 3, 0, 0, 0, 60, 0, 0, 0, 200, 254, 255, 255, 44, 0, 0, 0, 109, 111, 100, 101, 108, 95, 49, 56, 47, 98, 108, 111, 99, 107, 95, 50, 95, 101, 120, 112, 97, 110, 100, 95, 66, 78, 47, 70, 117, 115, 101, 100, 66, 97, 116, 99, 104, 78, 111, 114, 109, 86, 51, 49, 0, 0, 0, 0, 1, 0, 0, 0, 48, 0, 0, 0, 0, 0, 22, 0, 24, 0, 20, 0, 0, 0, 16, 0, 12, 0, 8, 0, 0, 0, 0, 0, 0, 0, 7, 0, 22, 0, 0, 0, 0, 0, 0, 1, 16, 0, 0, 0, 16, 0, 0, 0, 2, 0, 0, 0, 56, 0, 0, 0, 56, 255, 255, 255, 43, 0, 0, 0, 109, 111, 100, 101, 108, 95, 49, 56, 47, 98, 108, 111, 99, 107, 95, 50, 95, 101, 120, 112, 97, 110, 100, 95, 66, 78, 47, 70, 117, 115, 101, 100, 66, 97, 116, 99, 104, 78, 111, 114, 109, 86, 51, 0, 1, 0, 0, 0, 48, 0, 0, 0, 0, 0, 22, 0, 28, 0, 24, 0, 0, 0, 20, 0, 16, 0, 12, 0, 0, 0, 0, 0, 8, 0, 7, 0, 22, 0, 0, 0, 0, 0, 0, 1, 20, 0, 0, 0, 36, 0, 0, 0, 36, 0, 0, 0, 1, 0, 0, 0, 60, 0, 0, 0, 4, 0, 0, 0, 255, 255, 255, 255, 24, 0, 0, 0, 24, 0, 0, 0, 48, 0, 0, 0, 188, 255, 255, 255, 26, 0, 0, 0, 115, 101, 114, 118, 105, 110, 103, 95, 100, 101, 102, 97, 117, 108, 116, 95, 105, 110, 112, 117, 116, 95, 49, 57, 58, 48, 0, 0, 4, 0, 0, 0, 1, 0, 0, 0, 24, 0, 0, 0, 24, 0, 0, 0, 48, 0, 0, 0, 2, 0, 0, 0, 28, 0, 0, 0, 8, 0, 0, 0, 4, 0, 4, 0, 4, 0, 0, 0, 12, 0, 12, 0, 11, 0, 0, 0, 0, 0, 4, 0, 12, 0, 0, 0, 18, 0, 0, 0, 0, 0, 0, 18
};
