#pragma once

#include <cstdint>

const uint8_t layer_30[] = {
28, 0, 0, 0, 84, 70, 76, 51, 20, 0, 32, 0, 28, 0, 24, 0, 20, 0, 16, 0, 12, 0, 0, 0, 8, 0, 4, 0, 20, 0, 0, 0, 28, 0, 0, 0, 156, 0, 0, 0, 244, 0, 0, 0, 56, 9, 0, 0, 72, 9, 0, 0, 184, 11, 0, 0, 3, 0, 0, 0, 1, 0, 0, 0, 16, 0, 0, 0, 0, 0, 10, 0, 16, 0, 12, 0, 8, 0, 4, 0, 10, 0, 0, 0, 12, 0, 0, 0, 28, 0, 0, 0, 68, 0, 0, 0, 15, 0, 0, 0, 115, 101, 114, 118, 105, 110, 103, 95, 100, 101, 102, 97, 117, 108, 116, 0, 1, 0, 0, 0, 4, 0, 0, 0, 140, 255, 255, 255, 3, 0, 0, 0, 4, 0, 0, 0, 17, 0, 0, 0, 98, 108, 111, 99, 107, 95, 51, 95, 100, 101, 112, 116, 104, 119, 105, 115, 101, 0, 0, 0, 1, 0, 0, 0, 4, 0, 0, 0, 30, 248, 255, 255, 4, 0, 0, 0, 8, 0, 0, 0, 105, 110, 112, 117, 116, 95, 51, 50, 0, 0, 0, 0, 2, 0, 0, 0, 52, 0, 0, 0, 4, 0, 0, 0, 220, 255, 255, 255, 6, 0, 0, 0, 4, 0, 0, 0, 19, 0, 0, 0, 67, 79, 78, 86, 69, 82, 83, 73, 79, 78, 95, 77, 69, 84, 65, 68, 65, 84, 65, 0, 8, 0, 12, 0, 8, 0, 4, 0, 8, 0, 0, 0, 5, 0, 0, 0, 4, 0, 0, 0, 19, 0, 0, 0, 109, 105, 110, 95, 114, 117, 110, 116, 105, 109, 101, 95, 118, 101, 114, 115, 105, 111, 110, 0, 7, 0, 0, 0, 64, 8, 0, 0, 56, 8, 0, 0, 104, 7, 0, 0, 144, 0, 0, 0, 136, 0, 0, 0, 104, 0, 0, 0, 4, 0, 0, 0, 178, 248, 255, 255, 4, 0, 0, 0, 84, 0, 0, 0, 12, 0, 0, 0, 8, 0, 14, 0, 8, 0, 4, 0, 8, 0, 0, 0, 16, 0, 0, 0, 36, 0, 0, 0, 0, 0, 6, 0, 8, 0, 4, 0, 6, 0, 0, 0, 4, 0, 0, 0, 0, 0, 0, 0, 0, 0, 10, 0, 16, 0, 12, 0, 8, 0, 4, 0, 10, 0, 0, 0, 2, 0, 0, 0, 2, 0, 0, 0, 4, 0, 0, 0, 6, 0, 0, 0, 50, 46, 49, 53, 46, 48, 0, 0, 18, 249, 255, 255, 4, 0, 0, 0, 16, 0, 0, 0, 49, 46, 53, 46, 48, 0, 0, 0, 0, 0, 0, 0, 0, 0, 0, 0, 8, 246, 255, 255, 50, 249, 255, 255, 4, 0, 0, 0, 192, 6, 0, 0, 134, 199, 195, 63, 105, 99, 199, 191, 227, 251, 5, 64, 247, 60, 196, 63, 242, 229, 194, 63, 226, 100, 130, 191, 122, 222, 23, 64, 139, 237, 229, 191, 164, 144, 172, 63, 151, 150, 194, 191, 177, 180, 189, 191, 196, 98, 174, 63, 1, 160, 192, 63, 171, 216, 52, 191, 193, 66, 212, 191, 47, 176, 12, 192, 149, 178, 9, 64, 185, 123, 212, 63, 48, 45, 186, 63, 214, 145, 228, 63, 156, 68, 195, 63, 211, 170, 218, 191, 151, 214, 9, 192, 123, 230, 204, 63, 99, 126, 54, 191, 7, 21, 130, 191, 169, 228, 146, 191, 105, 233, 237, 191, 218, 155, 231, 191, 171, 154, 223, 63, 196, 131, 210, 191, 188, 61, 28, 192, 22, 93, 75, 190, 247, 49, 126, 63, 196, 40, 246, 63, 139, 157, 242, 63, 174, 159, 214, 191, 8, 129, 181, 63, 50, 153, 185, 191, 142, 95, 253, 190, 33, 233, 183, 63, 224, 24, 217, 191, 21, 152, 181, 63, 229, 123, 208, 63, 116, 243, 178, 191, 50, 118, 153, 62, 49, 44, 248, 63, 34, 178, 20, 191, 202, 63, 232, 63, 65, 231, 206, 191, 220, 242, 46, 64, 45, 30, 240, 63, 19, 95, 12, 192, 249, 164, 3, 192, 237, 96, 162, 191, 129, 126, 22, 192, 163, 0, 12, 64, 114, 73, 225, 191, 232, 19, 150, 191, 248, 75, 9, 64, 245, 132, 19, 64, 203, 55, 231, 191, 59, 39, 13, 192, 64, 24, 14, 64, 238, 109, 83, 191, 6, 156, 2, 64, 16, 3, 27, 64, 90, 161, 59, 64, 237, 12, 251, 63, 126, 220, 43, 192, 205, 199, 176, 63, 13, 200, 15, 64, 98, 46, 146, 191, 241, 219, 245, 191, 214, 62, 158, 191, 234, 211, 21, 192, 120, 134, 193, 63, 136, 29, 16, 64, 232, 225, 75, 191, 182, 23, 45, 192, 190, 198, 169, 191, 76, 161, 246, 63, 158, 226, 17, 64, 169, 221, 29, 64, 185, 112, 6, 192, 186, 132, 13, 64, 178, 55, 25, 192, 250, 169, 174, 190, 255, 142, 10, 64, 76, 134, 12, 192, 122, 75, 2, 64, 14, 241, 21, 64, 1, 19, 141, 191, 121, 2, 86, 192, 88, 63, 26, 64, 85, 43, 230, 191, 209, 100, 65, 63, 104, 121, 73, 191, 232, 249, 191, 63, 188, 141, 78, 63, 181, 186, 7, 63, 153, 44, 159, 191, 25, 65, 135, 191, 78, 172, 138, 191, 167, 51, 115, 63, 240, 215, 9, 191, 171, 173, 230, 61, 167, 64, 125, 63, 105, 135, 88, 63, 245, 146, 167, 191, 90, 190, 164, 191, 167, 241, 13, 189, 128, 11, 149, 191, 20, 167, 74, 63, 103, 7, 129, 63, 141, 35, 205, 63, 32, 93, 68, 63, 65, 71, 163, 191, 19, 9, 86, 63, 55, 177, 76, 63, 140, 159, 30, 191, 99, 0, 147, 191, 48, 238, 77, 191, 182, 168, 41, 191, 7, 245, 90, 63, 194, 57, 93, 63, 59, 41, 18, 64, 63, 98, 246, 191, 134, 234, 167, 191, 215, 56, 137, 63, 30, 252, 123, 63, 88, 107, 129, 63, 172, 126, 64, 191, 33, 41, 131, 63, 205, 226, 138, 191, 23, 201, 107, 190, 200, 17, 148, 63, 45, 129, 111, 191, 150, 190, 93, 63, 17, 36, 143, 63, 204, 225, 187, 189, 135, 133, 101, 190, 183, 180, 115, 63, 16, 252, 163, 191, 191, 219, 1, 64, 0, 32, 244, 191, 159, 74, 100, 191, 201, 130, 3, 64, 14, 4, 203, 63, 191, 132, 29, 192, 157, 35, 53, 64, 199, 98, 31, 192, 55, 26, 255, 63, 120, 69, 248, 191, 100, 86, 168, 191, 117, 215, 23, 64, 183, 252, 27, 64, 164, 59, 235, 191, 237, 231, 158, 190, 13, 216, 70, 192, 249, 115, 44, 64, 24, 157, 16, 64, 144, 100, 11, 64, 63, 199, 95, 191, 142, 190, 247, 63, 240, 68, 33, 64, 61, 252, 82, 192, 90, 88, 18, 64, 82, 221, 210, 63, 91, 236, 242, 191, 75, 69, 214, 191, 234, 129, 56, 192, 117, 108, 92, 192, 98, 15, 29, 64, 231, 39, 234, 191, 243, 13, 73, 190, 234, 13, 178, 191, 120, 195, 220, 63, 133, 216, 62, 64, 154, 17, 55, 64, 216, 88, 13, 192, 46, 29, 7, 64, 251, 240, 19, 192, 143, 84, 242, 63, 228, 91, 25, 64, 179, 60, 21, 192, 96, 219, 8, 64, 204, 85, 26, 64, 100, 233, 169, 191, 22, 1, 54, 64, 133, 254, 25, 64, 163, 94, 205, 191, 54, 85, 51, 64, 84, 125, 9, 192, 80, 75, 177, 191, 111, 240, 49, 64, 102, 180, 102, 192, 103, 211, 116, 192, 141, 48, 2, 192, 19, 139, 99, 192, 31, 28, 58, 64, 117, 250, 10, 192, 13, 170, 23, 192, 17, 138, 109, 64, 152, 83, 108, 64, 143, 40, 7, 192, 112, 25, 3, 191, 153, 24, 22, 64, 188, 248, 180, 191, 182, 88, 43, 64, 193, 198, 110, 64, 220, 27, 148, 191, 81, 35, 61, 64, 141, 105, 61, 64, 9, 113, 230, 63, 217, 227, 127, 64, 177, 107, 54, 64, 190, 160, 75, 192, 111, 141, 17, 192, 230, 66, 110, 192, 201, 89, 187, 63, 218, 78, 105, 64, 98, 77, 65, 191, 237, 109, 174, 62, 9, 4, 252, 191, 95, 54, 70, 64, 95, 112, 101, 64, 100, 76, 113, 64, 253, 208, 83, 192, 43, 206, 89, 64, 72, 188, 106, 192, 210, 149, 45, 64, 206, 96, 104, 64, 224, 121, 60, 192, 92, 152, 71, 64, 162, 114, 87, 64, 120, 101, 241, 191, 225, 154, 143, 190, 27, 53, 81, 64, 126, 207, 14, 192, 38, 49, 179, 63, 60, 30, 169, 191, 86, 33, 57, 191, 189, 94, 183, 63, 181, 78, 137, 63, 218, 22, 238, 191, 8, 156, 139, 191, 225, 4, 221, 191, 57, 241, 162, 63, 21, 84, 57, 191, 216, 204, 144, 191, 139, 82, 217, 63, 57, 248, 179, 63, 54, 233, 99, 191, 237, 248, 202, 190, 204, 24, 117, 62, 49, 188, 172, 191, 173, 75, 134, 63, 145, 226, 217, 63, 75, 63, 48, 191, 94, 66, 169, 63, 22, 236, 189, 63, 254, 30, 169, 63, 116, 65, 0, 64, 130, 14, 187, 63, 149, 41, 207, 191, 41, 64, 144, 191, 13, 249, 167, 191, 53, 219, 126, 63, 95, 107, 200, 63, 205, 166, 84, 64, 245, 118, 153, 62, 169, 225, 122, 191, 96, 43, 217, 63, 107, 13, 174, 63, 35, 215, 187, 63, 176, 111, 163, 191, 247, 127, 203, 63, 5, 51, 220, 191, 157, 83, 152, 63, 154, 147, 221, 63, 231, 174, 172, 191, 113, 44, 168, 63, 24, 60, 208, 63, 212, 80, 109, 191, 13, 59, 226, 191, 38, 251, 191, 63, 202, 181, 125, 191, 162, 193, 118, 63, 210, 40, 93, 191, 21, 106, 130, 191, 239, 89, 138, 63, 12, 155, 68, 63, 109, 213, 205, 191, 75, 112, 181, 63, 42, 138, 153, 191, 133, 76, 107, 63, 184, 72, 160, 191, 188, 174, 164, 189, 118, 208, 145, 63, 7, 164, 207, 63, 234, 149, 153, 191, 123, 55, 244, 63, 75, 135, 246, 191, 228, 78, 198, 63, 158, 71, 135, 63, 106, 136, 129, 63, 176, 19, 52, 191, 175, 24, 25, 63, 138, 214, 138, 190, 58, 24, 254, 191, 111, 231, 107, 63, 2, 90, 13, 191, 188, 60, 141, 191, 235, 33, 91, 191, 120, 180, 179, 191, 236, 41, 0, 192, 135, 204, 104, 63, 109, 17, 137, 191, 10, 11, 245, 63, 75, 142, 145, 191, 149, 147, 97, 63, 24, 237, 172, 63, 61, 184, 160, 63, 109, 235, 51, 191, 129, 15, 123, 63, 227, 146, 157, 191, 95, 98, 240, 191, 127, 155, 171, 63, 23, 15, 148, 191, 244, 224, 126, 63, 193, 113, 151, 63, 107, 109, 178, 190, 21, 126, 217, 62, 60, 26, 132, 63, 123, 138, 166, 191, 161, 178, 206, 63, 231, 196, 158, 191, 245, 180, 134, 191, 115, 252, 222, 63, 137, 68, 204, 191, 70, 51, 246, 191, 59, 222, 205, 191, 146, 116, 240, 191, 57, 93, 147, 63, 249, 111, 167, 191, 137, 183, 159, 191, 222, 21, 226, 63, 37, 72, 9, 64, 152, 199, 73, 191, 210, 111, 60, 64, 143, 102, 75, 63, 138, 157, 129, 191, 65, 198, 159, 63, 138, 215, 231, 63, 58, 222, 127, 191, 77, 169, 161, 63, 53, 113, 226, 190, 57, 254, 140, 63, 46, 225, 5, 64, 131, 13, 140, 191, 169, 248, 210, 191, 116, 205, 176, 191, 241, 176, 225, 191, 5, 140, 96, 63, 56, 168, 226, 63, 161, 183, 26, 191, 57, 27, 33, 64, 199, 135, 92, 191, 15, 228, 201, 63, 126, 129, 207, 63, 217, 71, 220, 63, 64, 235, 166, 191, 7, 41, 208, 63, 177, 205, 245, 191, 153, 0, 17, 192, 177, 40, 250, 63, 253, 79, 199, 191, 102, 212, 190, 63, 123, 95, 211, 63, 37, 231, 162, 191, 25, 244, 169, 63, 250, 166, 206, 63, 216, 254, 112, 191, 202, 66, 102, 63, 37, 16, 50, 191, 57, 98, 24, 191, 178, 135, 129, 63, 211, 243, 82, 63, 202, 203, 21, 191, 74, 170, 188, 190, 203, 92, 112, 191, 24, 112, 169, 62, 33, 6, 231, 190, 55, 101, 117, 191, 162, 219, 85, 63, 192, 236, 108, 63, 241, 130, 170, 61, 148, 131, 197, 63, 8, 211, 22, 63, 248, 79, 68, 191, 63, 134, 239, 62, 68, 246, 87, 63, 135, 72, 65, 191, 252, 162, 33, 63, 20, 129, 1, 189, 99, 14, 133, 63, 65, 37, 166, 63, 254, 144, 14, 191, 137, 183, 50, 191, 146, 19, 95, 191, 232, 226, 47, 191, 21, 52, 110, 63, 131, 10, 119, 63, 82, 166, 206, 63, 199, 110, 180, 63, 63, 254, 170, 187, 232, 123, 76, 63, 147, 68, 228, 62, 108, 63, 40, 63, 238, 134, 21, 191, 3, 252, 71, 63, 10, 41, 87, 191, 249, 253, 152, 191, 19, 10, 75, 63, 182, 154, 64, 191, 228, 111, 35, 63, 80, 131, 69, 63, 118, 205, 111, 191, 43, 116, 125, 62, 14, 214, 78, 63, 64, 67, 132, 189, 0, 0, 6, 0, 8, 0, 4, 0, 6, 0, 0, 0, 4, 0, 0, 0, 192, 0, 0, 0, 0, 0, 0, 0, 0, 0, 0, 0, 0, 0, 0, 0, 0, 0, 0, 0, 0, 0, 0, 0, 0, 0, 0, 0, 0, 0, 0, 0, 0, 0, 0, 0, 0, 0, 0, 0, 0, 0, 0, 0, 0, 0, 0, 0, 0, 0, 0, 0, 0, 0, 0, 0, 0, 0, 0, 0, 0, 0, 0, 0, 0, 0, 0, 0, 0, 0, 0, 0, 0, 0, 0, 0, 0, 0, 0, 0, 0, 0, 0, 0, 0, 0, 0, 0, 0, 0, 0, 0, 0, 0, 0, 0, 0, 0, 0, 0, 0, 0, 0, 0, 0, 0, 0, 0, 0, 0, 0, 0, 0, 0, 0, 0, 0, 0, 0, 0, 0, 0, 0, 0, 0, 0, 0, 0, 0, 0, 0, 0, 0, 0, 0, 0, 0, 0, 0, 0, 0, 0, 0, 0, 0, 0, 0, 0, 0, 0, 0, 0, 0, 0, 0, 0, 0, 0, 0, 0, 0, 0, 0, 0, 0, 0, 0, 0, 0, 0, 0, 0, 0, 0, 0, 0, 0, 0, 0, 0, 0, 0, 0, 0, 0, 0, 0, 0, 0, 0, 0, 0, 0, 0, 0, 0, 172, 253, 255, 255, 176, 253, 255, 255, 15, 0, 0, 0, 77, 76, 73, 82, 32, 67, 111, 110, 118, 101, 114, 116, 101, 100, 46, 0, 1, 0, 0, 0, 20, 0, 0, 0, 0, 0, 14, 0, 24, 0, 20, 0, 16, 0, 12, 0, 8, 0, 4, 0, 14, 0, 0, 0, 20, 0, 0, 0, 28, 0, 0, 0, 124, 0, 0, 0, 128, 0, 0, 0, 132, 0, 0, 0, 4, 0, 0, 0, 109, 97, 105, 110, 0, 0, 0, 0, 1, 0, 0, 0, 20, 0, 0, 0, 0, 0, 14, 0, 20, 0, 0, 0, 16, 0, 12, 0, 11, 0, 4, 0, 14, 0, 0, 0, 28, 0, 0, 0, 0, 0, 0, 2, 40, 0, 0, 0, 44, 0, 0, 0, 12, 0, 20, 0, 19, 0, 12, 0, 8, 0, 4, 0, 12, 0, 0, 0, 1, 0, 0, 0, 2, 0, 0, 0, 2, 0, 0, 0, 0, 0, 0, 1, 1, 0, 0, 0, 3, 0, 0, 0, 3, 0, 0, 0, 0, 0, 0, 0, 2, 0, 0, 0, 1, 0, 0, 0, 1, 0, 0, 0, 3, 0, 0, 0, 1, 0, 0, 0, 0, 0, 0, 0, 4, 0, 0, 0, 84, 1, 0, 0, 232, 0, 0, 0, 112, 0, 0, 0, 4, 0, 0, 0, 210, 254, 255, 255, 0, 0, 0, 1, 20, 0, 0, 0, 36, 0, 0, 0, 36, 0, 0, 0, 4, 0, 0, 0, 60, 0, 0, 0, 4, 0, 0, 0, 255, 255, 255, 255, 12, 0, 0, 0, 12, 0, 0, 0, 48, 0, 0, 0, 188, 254, 255, 255, 25, 0, 0, 0, 83, 116, 97, 116, 101, 102, 117, 108, 80, 97, 114, 116, 105, 116, 105, 111, 110, 101, 100, 67, 97, 108, 108, 58, 48, 0, 0, 0, 4, 0, 0, 0, 1, 0, 0, 0, 12, 0, 0, 0, 12, 0, 0, 0, 48, 0, 0, 0, 162, 255, 255, 255, 0, 0, 0, 1, 16, 0, 0, 0, 16, 0, 0, 0, 3, 0, 0, 0, 52, 0, 0, 0, 12, 255, 255, 255, 37, 0, 0, 0, 109, 111, 100, 101, 108, 95, 51, 48, 47, 98, 108, 111, 99, 107, 95, 51, 95, 100, 101, 112, 116, 104, 119, 105, 115, 101, 47, 100, 101, 112, 116, 104, 119, 105, 115, 101, 49, 0, 0, 0, 4, 0, 0, 0, 1, 0, 0, 0, 3, 0, 0, 0, 3, 0, 0, 0, 48, 0, 0, 0, 0, 0, 22, 0, 24, 0, 20, 0, 0, 0, 16, 0, 12, 0, 8, 0, 0, 0, 0, 0, 0, 0, 7, 0, 22, 0, 0, 0, 0, 0, 0, 1, 16, 0, 0, 0, 16, 0, 0, 0, 2, 0, 0, 0, 52, 0, 0, 0, 128, 255, 255, 255, 36, 0, 0, 0, 109, 111, 100, 101, 108, 95, 51, 48, 47, 98, 108, 111, 99, 107, 95, 51, 95, 100, 101, 112, 116, 104, 119, 105, 115, 101, 47, 100, 101, 112, 116, 104, 119, 105, 115, 101, 0, 0, 0, 0, 1, 0, 0, 0, 48, 0, 0, 0, 0, 0, 22, 0, 28, 0, 24, 0, 0, 0, 20, 0, 16, 0, 12, 0, 0, 0, 0, 0, 8, 0, 7, 0, 22, 0, 0, 0, 0, 0, 0, 1, 20, 0, 0, 0, 40, 0, 0, 0, 40, 0, 0, 0, 1, 0, 0, 0, 64, 0, 0, 0, 4, 0, 0, 0, 255, 255, 255, 255, 25, 0, 0, 0, 25, 0, 0, 0, 48, 0, 0, 0, 4, 0, 4, 0, 4, 0, 0, 0, 26, 0, 0, 0, 115, 101, 114, 118, 105, 110, 103, 95, 100, 101, 102, 97, 117, 108, 116, 95, 105, 110, 112, 117, 116, 95, 51, 50, 58, 48, 0, 0, 4, 0, 0, 0, 1, 0, 0, 0, 25, 0, 0, 0, 25, 0, 0, 0, 48, 0, 0, 0, 1, 0, 0, 0, 16, 0, 0, 0, 12, 0, 12, 0, 11, 0, 0, 0, 0, 0, 4, 0, 12, 0, 0, 0, 4, 0, 0, 0, 0, 0, 0, 4
};
