#pragma once

#include <cstdint>

const uint8_t layer_17[] = {
28, 0, 0, 0, 84, 70, 76, 51, 20, 0, 32, 0, 28, 0, 24, 0, 20, 0, 16, 0, 12, 0, 0, 0, 8, 0, 4, 0, 20, 0, 0, 0, 28, 0, 0, 0, 152, 0, 0, 0, 240, 0, 0, 0, 116, 8, 0, 0, 132, 8, 0, 0, 220, 10, 0, 0, 3, 0, 0, 0, 1, 0, 0, 0, 16, 0, 0, 0, 0, 0, 10, 0, 16, 0, 12, 0, 8, 0, 4, 0, 10, 0, 0, 0, 12, 0, 0, 0, 28, 0, 0, 0, 64, 0, 0, 0, 15, 0, 0, 0, 115, 101, 114, 118, 105, 110, 103, 95, 100, 101, 102, 97, 117, 108, 116, 0, 1, 0, 0, 0, 4, 0, 0, 0, 144, 255, 255, 255, 3, 0, 0, 0, 4, 0, 0, 0, 14, 0, 0, 0, 98, 108, 111, 99, 107, 95, 50, 95, 101, 120, 112, 97, 110, 100, 0, 0, 1, 0, 0, 0, 4, 0, 0, 0, 222, 248, 255, 255, 4, 0, 0, 0, 8, 0, 0, 0, 105, 110, 112, 117, 116, 95, 49, 56, 0, 0, 0, 0, 2, 0, 0, 0, 52, 0, 0, 0, 4, 0, 0, 0, 220, 255, 255, 255, 6, 0, 0, 0, 4, 0, 0, 0, 19, 0, 0, 0, 67, 79, 78, 86, 69, 82, 83, 73, 79, 78, 95, 77, 69, 84, 65, 68, 65, 84, 65, 0, 8, 0, 12, 0, 8, 0, 4, 0, 8, 0, 0, 0, 5, 0, 0, 0, 4, 0, 0, 0, 19, 0, 0, 0, 109, 105, 110, 95, 114, 117, 110, 116, 105, 109, 101, 95, 118, 101, 114, 115, 105, 111, 110, 0, 7, 0, 0, 0, 128, 7, 0, 0, 120, 7, 0, 0, 168, 6, 0, 0, 144, 0, 0, 0, 136, 0, 0, 0, 104, 0, 0, 0, 4, 0, 0, 0, 114, 249, 255, 255, 4, 0, 0, 0, 84, 0, 0, 0, 12, 0, 0, 0, 8, 0, 14, 0, 8, 0, 4, 0, 8, 0, 0, 0, 16, 0, 0, 0, 36, 0, 0, 0, 0, 0, 6, 0, 8, 0, 4, 0, 6, 0, 0, 0, 4, 0, 0, 0, 0, 0, 0, 0, 0, 0, 10, 0, 16, 0, 12, 0, 8, 0, 4, 0, 10, 0, 0, 0, 2, 0, 0, 0, 2, 0, 0, 0, 4, 0, 0, 0, 6, 0, 0, 0, 50, 46, 49, 53, 46, 48, 0, 0, 210, 249, 255, 255, 4, 0, 0, 0, 16, 0, 0, 0, 49, 46, 53, 46, 48, 0, 0, 0, 0, 0, 0, 0, 0, 0, 0, 0, 224, 246, 255, 255, 242, 249, 255, 255, 4, 0, 0, 0, 0, 6, 0, 0, 72, 169, 85, 62, 235, 191, 150, 61, 234, 130, 131, 188, 238, 203, 251, 188, 172, 144, 179, 62, 2, 229, 97, 61, 210, 128, 227, 189, 27, 45, 96, 189, 81, 164, 18, 188, 137, 211, 35, 188, 193, 118, 201, 60, 158, 116, 4, 63, 129, 85, 222, 60, 59, 190, 29, 189, 101, 164, 4, 61, 161, 175, 144, 61, 247, 140, 245, 61, 14, 230, 234, 190, 100, 23, 126, 189, 90, 182, 33, 62, 42, 1, 215, 188, 57, 254, 98, 190, 4, 73, 145, 62, 46, 41, 202, 60, 61, 19, 204, 62, 16, 216, 210, 189, 226, 227, 168, 188, 70, 111, 99, 61, 199, 57, 83, 189, 248, 49, 250, 189, 71, 106, 195, 61, 158, 176, 2, 61, 12, 235, 20, 61, 228, 205, 35, 190, 228, 102, 205, 62, 150, 28, 33, 189, 63, 26, 179, 188, 173, 104, 33, 190, 56, 146, 41, 61, 140, 21, 148, 190, 28, 187, 64, 62, 42, 229, 150, 60, 158, 126, 180, 60, 143, 49, 7, 59, 3, 122, 171, 62, 152, 43, 120, 61, 205, 68, 106, 188, 225, 108, 88, 188, 67, 85, 252, 188, 195, 201, 60, 62, 41, 103, 157, 187, 227, 203, 142, 62, 15, 170, 105, 61, 59, 73, 175, 61, 167, 210, 17, 190, 172, 247, 198, 189, 83, 177, 4, 189, 40, 226, 36, 63, 62, 46, 172, 188, 76, 253, 31, 60, 11, 246, 198, 60, 131, 224, 109, 189, 189, 73, 148, 61, 211, 101, 136, 188, 174, 118, 186, 62, 167, 87, 40, 62, 45, 213, 45, 188, 170, 102, 178, 60, 253, 96, 22, 190, 95, 230, 103, 189, 162, 132, 239, 58, 173, 116, 247, 189, 87, 211, 211, 190, 161, 110, 21, 61, 224, 30, 246, 60, 196, 79, 103, 61, 102, 159, 56, 62, 226, 81, 225, 60, 188, 161, 247, 188, 47, 190, 95, 60, 214, 191, 67, 190, 255, 65, 12, 189, 41, 234, 51, 61, 119, 19, 168, 62, 79, 162, 221, 61, 119, 248, 95, 61, 78, 165, 119, 188, 251, 168, 71, 60, 244, 244, 177, 190, 129, 132, 27, 188, 31, 237, 158, 60, 197, 179, 75, 190, 50, 181, 176, 61, 86, 56, 103, 60, 218, 222, 154, 189, 253, 25, 15, 190, 141, 214, 217, 62, 40, 139, 127, 61, 163, 128, 129, 60, 169, 8, 99, 61, 194, 143, 21, 190, 19, 200, 34, 189, 6, 112, 62, 186, 111, 119, 12, 190, 113, 171, 184, 188, 37, 157, 98, 62, 23, 86, 178, 190, 130, 23, 160, 188, 99, 155, 164, 60, 227, 92, 150, 62, 26, 203, 70, 190, 102, 12, 77, 62, 98, 223, 16, 190, 89, 152, 145, 189, 7, 182, 196, 188, 240, 218, 186, 62, 255, 229, 70, 61, 75, 102, 170, 60, 68, 181, 227, 188, 10, 240, 133, 189, 77, 242, 7, 189, 214, 74, 98, 63, 141, 73, 77, 186, 132, 199, 177, 188, 113, 123, 13, 60, 143, 161, 244, 189, 124, 243, 158, 61, 46, 128, 173, 190, 233, 20, 24, 189, 10, 10, 135, 190, 66, 189, 10, 189, 24, 71, 240, 57, 209, 191, 203, 188, 30, 5, 115, 190, 236, 204, 115, 62, 229, 248, 68, 189, 130, 99, 141, 61, 12, 114, 5, 63, 96, 2, 53, 60, 109, 54, 40, 189, 119, 115, 95, 60, 27, 241, 145, 62, 43, 158, 178, 190, 60, 239, 127, 189, 57, 126, 46, 188, 246, 9, 19, 62, 20, 201, 223, 190, 143, 206, 230, 187, 190, 247, 133, 60, 144, 202, 82, 62, 35, 97, 210, 189, 204, 121, 82, 62, 30, 178, 50, 190, 129, 72, 10, 61, 108, 230, 136, 187, 191, 116, 133, 188, 255, 56, 145, 190, 63, 232, 194, 60, 110, 96, 147, 61, 202, 7, 82, 61, 31, 220, 154, 190, 57, 187, 126, 189, 35, 71, 8, 188, 31, 80, 144, 59, 174, 117, 50, 62, 161, 113, 151, 189, 84, 102, 198, 61, 242, 151, 124, 59, 130, 187, 71, 190, 132, 111, 84, 188, 90, 205, 78, 187, 217, 173, 72, 60, 9, 180, 210, 190, 132, 193, 237, 188, 228, 82, 130, 61, 143, 202, 2, 61, 174, 199, 174, 190, 10, 246, 143, 189, 131, 206, 133, 60, 230, 228, 100, 59, 49, 180, 103, 62, 56, 49, 11, 189, 3, 118, 191, 61, 14, 167, 7, 62, 40, 103, 185, 189, 197, 82, 203, 189, 155, 201, 31, 189, 141, 107, 6, 189, 30, 157, 35, 188, 89, 119, 176, 62, 38, 189, 11, 191, 131, 95, 202, 190, 215, 174, 37, 189, 68, 124, 110, 62, 95, 44, 64, 191, 55, 194, 43, 60, 100, 75, 18, 61, 20, 111, 144, 62, 101, 221, 199, 189, 112, 121, 225, 62, 66, 2, 69, 62, 202, 35, 144, 189, 238, 59, 142, 58, 128, 75, 141, 62, 78, 127, 25, 190, 180, 192, 150, 188, 47, 152, 1, 61, 29, 207, 235, 189, 140, 58, 51, 60, 56, 193, 189, 189, 132, 156, 79, 188, 13, 112, 184, 59, 114, 123, 122, 189, 179, 96, 42, 63, 132, 114, 45, 63, 254, 128, 42, 190, 173, 113, 107, 62, 102, 127, 85, 188, 3, 95, 3, 188, 73, 109, 246, 60, 104, 218, 204, 62, 95, 130, 233, 61, 161, 255, 4, 62, 80, 246, 149, 189, 207, 139, 132, 59, 29, 138, 170, 62, 84, 64, 42, 190, 248, 150, 163, 60, 229, 61, 220, 59, 164, 106, 78, 62, 88, 148, 137, 189, 77, 29, 169, 62, 233, 136, 254, 188, 245, 202, 218, 60, 181, 26, 177, 188, 10, 119, 221, 188, 12, 160, 12, 188, 7, 75, 168, 62, 136, 97, 225, 190, 250, 176, 152, 190, 169, 124, 173, 60, 186, 50, 211, 188, 38, 208, 154, 59, 230, 173, 108, 191, 219, 226, 33, 189, 3, 15, 137, 188, 153, 1, 197, 188, 19, 137, 175, 189, 79, 4, 81, 190, 219, 189, 124, 60, 177, 31, 236, 59, 252, 253, 59, 60, 87, 231, 193, 190, 159, 132, 239, 60, 129, 35, 74, 61, 89, 225, 28, 187, 208, 230, 254, 188, 243, 155, 186, 61, 9, 106, 235, 60, 239, 89, 151, 190, 30, 230, 253, 59, 13, 45, 142, 61, 55, 14, 68, 190, 100, 102, 105, 190, 40, 64, 81, 190, 178, 81, 146, 188, 1, 249, 208, 59, 226, 175, 38, 60, 68, 254, 231, 190, 229, 137, 23, 62, 55, 107, 25, 62, 226, 72, 225, 59, 76, 41, 172, 190, 167, 237, 56, 62, 124, 71, 18, 61, 144, 214, 148, 61, 232, 193, 233, 61, 79, 111, 140, 189, 29, 96, 69, 60, 67, 226, 0, 61, 198, 120, 240, 188, 97, 115, 141, 62, 27, 223, 205, 188, 157, 200, 38, 188, 128, 88, 214, 187, 74, 228, 59, 190, 84, 138, 25, 62, 207, 146, 169, 189, 123, 58, 173, 188, 102, 178, 21, 62, 124, 89, 7, 60, 236, 42, 174, 189, 44, 182, 235, 187, 86, 3, 166, 62, 57, 133, 205, 190, 186, 117, 194, 189, 140, 153, 199, 61, 96, 183, 40, 190, 234, 166, 163, 188, 122, 140, 83, 61, 123, 135, 129, 61, 158, 172, 159, 190, 231, 163, 172, 62, 186, 195, 90, 189, 196, 154, 22, 61, 7, 176, 130, 190, 162, 248, 99, 60, 87, 214, 123, 59, 156, 195, 0, 61, 60, 74, 208, 61, 156, 171, 2, 190, 148, 87, 16, 62, 46, 202, 175, 60, 33, 49, 26, 191, 140, 100, 153, 189, 228, 21, 26, 189, 46, 253, 118, 188, 118, 253, 15, 189, 238, 135, 107, 190, 251, 73, 246, 190, 251, 174, 89, 62, 170, 13, 206, 61, 251, 167, 89, 60, 53, 63, 102, 188, 41, 237, 199, 189, 69, 221, 28, 62, 73, 104, 102, 190, 64, 53, 76, 190, 145, 162, 73, 61, 34, 162, 236, 190, 9, 157, 164, 61, 36, 193, 209, 59, 19, 153, 33, 189, 188, 27, 148, 62, 41, 43, 79, 190, 41, 150, 242, 62, 143, 16, 1, 62, 37, 229, 86, 188, 130, 106, 103, 187, 150, 97, 158, 190, 229, 206, 215, 189, 24, 97, 68, 59, 136, 230, 11, 188, 54, 211, 190, 189, 238, 173, 93, 190, 220, 167, 136, 189, 168, 235, 192, 60, 166, 150, 164, 190, 8, 101, 253, 61, 189, 63, 209, 59, 175, 113, 0, 189, 241, 76, 31, 188, 95, 251, 126, 188, 1, 3, 144, 189, 3, 27, 97, 188, 86, 165, 8, 61, 222, 144, 139, 189, 183, 144, 129, 62, 99, 14, 191, 62, 170, 135, 237, 188, 140, 195, 135, 190, 83, 83, 209, 189, 184, 36, 132, 188, 162, 74, 50, 60, 56, 136, 249, 60, 19, 214, 17, 61, 133, 98, 133, 61, 220, 5, 88, 189, 6, 163, 48, 61, 205, 142, 82, 62, 92, 174, 164, 62, 65, 186, 20, 187, 49, 48, 31, 188, 251, 97, 36, 61, 75, 136, 18, 61, 53, 143, 129, 61, 216, 81, 97, 188, 226, 233, 71, 60, 56, 118, 188, 60, 238, 128, 209, 62, 162, 228, 164, 60, 195, 140, 14, 60, 127, 105, 243, 59, 205, 109, 245, 59, 0, 0, 6, 0, 8, 0, 4, 0, 6, 0, 0, 0, 4, 0, 0, 0, 192, 0, 0, 0, 0, 0, 0, 0, 0, 0, 0, 0, 0, 0, 0, 0, 0, 0, 0, 0, 0, 0, 0, 0, 0, 0, 0, 0, 0, 0, 0, 0, 0, 0, 0, 0, 0, 0, 0, 0, 0, 0, 0, 0, 0, 0, 0, 0, 0, 0, 0, 0, 0, 0, 0, 0, 0, 0, 0, 0, 0, 0, 0, 0, 0, 0, 0, 0, 0, 0, 0, 0, 0, 0, 0, 0, 0, 0, 0, 0, 0, 0, 0, 0, 0, 0, 0, 0, 0, 0, 0, 0, 0, 0, 0, 0, 0, 0, 0, 0, 0, 0, 0, 0, 0, 0, 0, 0, 0, 0, 0, 0, 0, 0, 0, 0, 0, 0, 0, 0, 0, 0, 0, 0, 0, 0, 0, 0, 0, 0, 0, 0, 0, 0, 0, 0, 0, 0, 0, 0, 0, 0, 0, 0, 0, 0, 0, 0, 0, 0, 0, 0, 0, 0, 0, 0, 0, 0, 0, 0, 0, 0, 0, 0, 0, 0, 0, 0, 0, 0, 0, 0, 0, 0, 0, 0, 0, 0, 0, 0, 0, 0, 0, 0, 0, 0, 0, 0, 0, 0, 0, 0, 0, 0, 0, 0, 196, 253, 255, 255, 200, 253, 255, 255, 15, 0, 0, 0, 77, 76, 73, 82, 32, 67, 111, 110, 118, 101, 114, 116, 101, 100, 46, 0, 1, 0, 0, 0, 20, 0, 0, 0, 0, 0, 14, 0, 24, 0, 20, 0, 16, 0, 12, 0, 8, 0, 4, 0, 14, 0, 0, 0, 20, 0, 0, 0, 28, 0, 0, 0, 116, 0, 0, 0, 120, 0, 0, 0, 124, 0, 0, 0, 4, 0, 0, 0, 109, 97, 105, 110, 0, 0, 0, 0, 1, 0, 0, 0, 20, 0, 0, 0, 0, 0, 14, 0, 22, 0, 0, 0, 16, 0, 12, 0, 11, 0, 4, 0, 14, 0, 0, 0, 28, 0, 0, 0, 0, 0, 0, 1, 32, 0, 0, 0, 36, 0, 0, 0, 0, 0, 10, 0, 12, 0, 0, 0, 8, 0, 4, 0, 10, 0, 0, 0, 1, 0, 0, 0, 1, 0, 0, 0, 1, 0, 0, 0, 3, 0, 0, 0, 3, 0, 0, 0, 0, 0, 0, 0, 2, 0, 0, 0, 1, 0, 0, 0, 1, 0, 0, 0, 3, 0, 0, 0, 1, 0, 0, 0, 0, 0, 0, 0, 4, 0, 0, 0, 68, 1, 0, 0, 224, 0, 0, 0, 112, 0, 0, 0, 4, 0, 0, 0, 226, 254, 255, 255, 0, 0, 0, 1, 20, 0, 0, 0, 36, 0, 0, 0, 36, 0, 0, 0, 4, 0, 0, 0, 60, 0, 0, 0, 4, 0, 0, 0, 255, 255, 255, 255, 24, 0, 0, 0, 24, 0, 0, 0, 48, 0, 0, 0, 204, 254, 255, 255, 25, 0, 0, 0, 83, 116, 97, 116, 101, 102, 117, 108, 80, 97, 114, 116, 105, 116, 105, 111, 110, 101, 100, 67, 97, 108, 108, 58, 48, 0, 0, 0, 4, 0, 0, 0, 1, 0, 0, 0, 24, 0, 0, 0, 24, 0, 0, 0, 48, 0, 0, 0, 170, 255, 255, 255, 0, 0, 0, 1, 16, 0, 0, 0, 16, 0, 0, 0, 3, 0, 0, 0, 44, 0, 0, 0, 28, 255, 255, 255, 31, 0, 0, 0, 109, 111, 100, 101, 108, 95, 49, 55, 47, 98, 108, 111, 99, 107, 95, 50, 95, 101, 120, 112, 97, 110, 100, 47, 67, 111, 110, 118, 50, 68, 49, 0, 4, 0, 0, 0, 48, 0, 0, 0, 1, 0, 0, 0, 1, 0, 0, 0, 8, 0, 0, 0, 0, 0, 22, 0, 24, 0, 20, 0, 0, 0, 16, 0, 12, 0, 8, 0, 0, 0, 0, 0, 0, 0, 7, 0, 22, 0, 0, 0, 0, 0, 0, 1, 16, 0, 0, 0, 16, 0, 0, 0, 2, 0, 0, 0, 44, 0, 0, 0, 136, 255, 255, 255, 30, 0, 0, 0, 109, 111, 100, 101, 108, 95, 49, 55, 47, 98, 108, 111, 99, 107, 95, 50, 95, 101, 120, 112, 97, 110, 100, 47, 67, 111, 110, 118, 50, 68, 0, 0, 1, 0, 0, 0, 48, 0, 0, 0, 0, 0, 22, 0, 28, 0, 24, 0, 0, 0, 20, 0, 16, 0, 12, 0, 0, 0, 0, 0, 8, 0, 7, 0, 22, 0, 0, 0, 0, 0, 0, 1, 20, 0, 0, 0, 40, 0, 0, 0, 40, 0, 0, 0, 1, 0, 0, 0, 64, 0, 0, 0, 4, 0, 0, 0, 255, 255, 255, 255, 24, 0, 0, 0, 24, 0, 0, 0, 8, 0, 0, 0, 4, 0, 4, 0, 4, 0, 0, 0, 26, 0, 0, 0, 115, 101, 114, 118, 105, 110, 103, 95, 100, 101, 102, 97, 117, 108, 116, 95, 105, 110, 112, 117, 116, 95, 49, 56, 58, 48, 0, 0, 4, 0, 0, 0, 1, 0, 0, 0, 24, 0, 0, 0, 24, 0, 0, 0, 8, 0, 0, 0, 1, 0, 0, 0, 16, 0, 0, 0, 12, 0, 12, 0, 11, 0, 0, 0, 0, 0, 4, 0, 12, 0, 0, 0, 3, 0, 0, 0, 0, 0, 0, 3
};
