#pragma once

#include <cstdint>

const uint8_t layer_45[] = {
28, 0, 0, 0, 84, 70, 76, 51, 20, 0, 32, 0, 28, 0, 24, 0, 20, 0, 16, 0, 12, 0, 0, 0, 8, 0, 4, 0, 20, 0, 0, 0, 28, 0, 0, 0, 156, 0, 0, 0, 244, 0, 0, 0, 192, 4, 0, 0, 208, 4, 0, 0, 224, 7, 0, 0, 3, 0, 0, 0, 1, 0, 0, 0, 16, 0, 0, 0, 0, 0, 10, 0, 16, 0, 12, 0, 8, 0, 4, 0, 10, 0, 0, 0, 12, 0, 0, 0, 28, 0, 0, 0, 68, 0, 0, 0, 15, 0, 0, 0, 115, 101, 114, 118, 105, 110, 103, 95, 100, 101, 102, 97, 117, 108, 116, 0, 1, 0, 0, 0, 4, 0, 0, 0, 140, 255, 255, 255, 4, 0, 0, 0, 4, 0, 0, 0, 17, 0, 0, 0, 98, 108, 111, 99, 107, 95, 53, 95, 101, 120, 112, 97, 110, 100, 95, 66, 78, 0, 0, 0, 1, 0, 0, 0, 4, 0, 0, 0, 86, 253, 255, 255, 4, 0, 0, 0, 8, 0, 0, 0, 105, 110, 112, 117, 116, 95, 52, 56, 0, 0, 0, 0, 2, 0, 0, 0, 52, 0, 0, 0, 4, 0, 0, 0, 220, 255, 255, 255, 7, 0, 0, 0, 4, 0, 0, 0, 19, 0, 0, 0, 67, 79, 78, 86, 69, 82, 83, 73, 79, 78, 95, 77, 69, 84, 65, 68, 65, 84, 65, 0, 8, 0, 12, 0, 8, 0, 4, 0, 8, 0, 0, 0, 6, 0, 0, 0, 4, 0, 0, 0, 19, 0, 0, 0, 109, 105, 110, 95, 114, 117, 110, 116, 105, 109, 101, 95, 118, 101, 114, 115, 105, 111, 110, 0, 8, 0, 0, 0, 200, 3, 0, 0, 192, 3, 0, 0, 48, 2, 0, 0, 152, 0, 0, 0, 144, 0, 0, 0, 136, 0, 0, 0, 104, 0, 0, 0, 4, 0, 0, 0, 238, 253, 255, 255, 4, 0, 0, 0, 84, 0, 0, 0, 12, 0, 0, 0, 8, 0, 14, 0, 8, 0, 4, 0, 8, 0, 0, 0, 16, 0, 0, 0, 36, 0, 0, 0, 0, 0, 6, 0, 8, 0, 4, 0, 6, 0, 0, 0, 4, 0, 0, 0, 0, 0, 0, 0, 0, 0, 10, 0, 16, 0, 12, 0, 8, 0, 4, 0, 10, 0, 0, 0, 2, 0, 0, 0, 2, 0, 0, 0, 4, 0, 0, 0, 6, 0, 0, 0, 50, 46, 49, 53, 46, 48, 0, 0, 78, 254, 255, 255, 4, 0, 0, 0, 16, 0, 0, 0, 49, 46, 53, 46, 48, 0, 0, 0, 0, 0, 0, 0, 0, 0, 0, 0, 156, 249, 255, 255, 160, 249, 255, 255, 114, 254, 255, 255, 4, 0, 0, 0, 128, 1, 0, 0, 91, 41, 206, 62, 31, 22, 188, 63, 72, 94, 244, 63, 3, 55, 20, 64, 89, 81, 63, 64, 210, 175, 129, 191, 196, 122, 78, 191, 171, 115, 207, 63, 84, 209, 20, 64, 99, 94, 177, 191, 192, 72, 43, 64, 111, 6, 99, 63, 35, 37, 161, 63, 71, 74, 21, 64, 99, 34, 24, 64, 248, 253, 11, 63, 142, 208, 226, 62, 238, 84, 158, 63, 67, 22, 13, 64, 62, 118, 151, 63, 9, 217, 157, 189, 101, 44, 103, 62, 82, 168, 0, 64, 202, 139, 38, 191, 217, 179, 38, 64, 198, 15, 150, 60, 14, 244, 14, 64, 68, 155, 181, 63, 23, 242, 207, 63, 63, 141, 98, 64, 196, 162, 52, 64, 213, 219, 30, 64, 3, 220, 212, 63, 217, 204, 81, 190, 171, 20, 254, 63, 222, 44, 19, 63, 45, 243, 9, 63, 199, 232, 187, 63, 215, 31, 46, 64, 109, 247, 14, 191, 43, 125, 239, 63, 166, 86, 202, 63, 78, 254, 44, 64, 167, 193, 136, 191, 46, 220, 79, 64, 22, 119, 200, 63, 164, 68, 221, 63, 67, 79, 45, 64, 191, 99, 131, 64, 239, 251, 5, 64, 62, 223, 3, 190, 233, 212, 222, 63, 182, 177, 136, 191, 60, 204, 79, 189, 150, 118, 129, 191, 57, 142, 143, 63, 68, 193, 250, 189, 97, 138, 239, 63, 171, 233, 1, 64, 137, 76, 190, 63, 200, 39, 207, 63, 38, 119, 178, 63, 114, 84, 189, 63, 82, 60, 128, 63, 74, 42, 31, 64, 27, 159, 246, 63, 4, 48, 166, 63, 110, 166, 169, 191, 29, 7, 216, 63, 186, 135, 51, 191, 33, 209, 140, 63, 146, 153, 203, 63, 42, 232, 5, 64, 135, 120, 132, 63, 245, 152, 197, 191, 55, 71, 175, 191, 11, 87, 214, 63, 28, 167, 198, 61, 163, 199, 64, 63, 44, 77, 205, 190, 221, 205, 2, 64, 123, 22, 211, 63, 21, 146, 89, 63, 120, 80, 249, 63, 231, 174, 148, 63, 249, 134, 94, 61, 109, 78, 22, 64, 173, 73, 119, 64, 86, 82, 184, 63, 105, 189, 15, 64, 172, 213, 160, 63, 95, 140, 198, 189, 165, 182, 185, 63, 23, 226, 207, 63, 64, 139, 142, 63, 78, 183, 217, 63, 0, 0, 6, 0, 8, 0, 4, 0, 6, 0, 0, 0, 4, 0, 0, 0, 128, 1, 0, 0, 240, 23, 199, 62, 89, 231, 138, 62, 101, 174, 200, 62, 245, 218, 70, 62, 187, 145, 131, 62, 214, 15, 251, 62, 44, 45, 20, 63, 85, 164, 213, 62, 11, 33, 54, 62, 62, 239, 59, 63, 67, 89, 41, 63, 242, 24, 215, 62, 74, 91, 186, 62, 119, 158, 238, 62, 182, 122, 16, 62, 135, 163, 177, 62, 0, 166, 173, 62, 203, 249, 218, 62, 164, 109, 133, 62, 224, 30, 7, 63, 127, 151, 198, 62, 111, 218, 89, 63, 11, 97, 56, 62, 142, 80, 1, 63, 12, 214, 79, 63, 238, 177, 47, 63, 10, 27, 192, 62, 240, 161, 38, 62, 100, 135, 36, 63, 3, 215, 19, 62, 11, 147, 244, 61, 9, 251, 37, 62, 175, 4, 113, 62, 201, 30, 202, 62, 101, 232, 247, 62, 56, 30, 247, 62, 206, 140, 190, 62, 81, 121, 8, 63, 184, 205, 95, 62, 162, 51, 14, 63, 171, 83, 168, 62, 135, 86, 121, 62, 126, 190, 31, 62, 141, 26, 231, 62, 237, 190, 40, 62, 196, 128, 183, 62, 15, 10, 192, 62, 101, 238, 159, 62, 56, 161, 20, 62, 150, 155, 14, 63, 41, 225, 194, 62, 73, 3, 103, 62, 108, 238, 215, 62, 187, 133, 200, 62, 103, 61, 184, 62, 192, 178, 116, 62, 225, 185, 187, 62, 30, 200, 71, 62, 95, 189, 216, 62, 66, 91, 157, 62, 246, 192, 248, 62, 26, 165, 47, 62, 44, 197, 213, 62, 155, 117, 184, 62, 168, 206, 161, 62, 73, 159, 146, 62, 34, 41, 11, 63, 44, 30, 0, 63, 245, 94, 21, 63, 80, 134, 242, 62, 238, 224, 155, 62, 27, 145, 84, 62, 240, 255, 107, 62, 221, 102, 157, 62, 105, 116, 253, 62, 83, 234, 13, 63, 103, 140, 222, 62, 75, 21, 171, 62, 156, 135, 32, 63, 152, 38, 0, 63, 151, 86, 87, 62, 88, 128, 96, 62, 172, 157, 231, 62, 205, 65, 100, 62, 198, 18, 38, 63, 112, 3, 1, 63, 226, 9, 205, 62, 119, 77, 153, 61, 234, 139, 162, 62, 177, 121, 167, 62, 140, 44, 1, 63, 188, 98, 7, 63, 173, 5, 167, 62, 198, 8, 161, 62, 8, 102, 239, 62, 89, 93, 134, 62, 196, 252, 255, 255, 200, 252, 255, 255, 15, 0, 0, 0, 77, 76, 73, 82, 32, 67, 111, 110, 118, 101, 114, 116, 101, 100, 46, 0, 1, 0, 0, 0, 20, 0, 0, 0, 0, 0, 14, 0, 24, 0, 20, 0, 16, 0, 12, 0, 8, 0, 4, 0, 14, 0, 0, 0, 20, 0, 0, 0, 28, 0, 0, 0, 160, 0, 0, 0, 164, 0, 0, 0, 168, 0, 0, 0, 4, 0, 0, 0, 109, 97, 105, 110, 0, 0, 0, 0, 2, 0, 0, 0, 88, 0, 0, 0, 20, 0, 0, 0, 0, 0, 14, 0, 24, 0, 20, 0, 16, 0, 12, 0, 11, 0, 4, 0, 14, 0, 0, 0, 20, 0, 0, 0, 0, 0, 0, 11, 16, 0, 0, 0, 20, 0, 0, 0, 1, 0, 0, 0, 80, 253, 255, 255, 1, 0, 0, 0, 4, 0, 0, 0, 2, 0, 0, 0, 3, 0, 0, 0, 2, 0, 0, 0, 0, 0, 14, 0, 20, 0, 0, 0, 16, 0, 12, 0, 11, 0, 4, 0, 14, 0, 0, 0, 16, 0, 0, 0, 0, 0, 0, 21, 12, 0, 0, 0, 16, 0, 0, 0, 140, 253, 255, 255, 1, 0, 0, 0, 3, 0, 0, 0, 2, 0, 0, 0, 0, 0, 0, 0, 1, 0, 0, 0, 1, 0, 0, 0, 4, 0, 0, 0, 1, 0, 0, 0, 0, 0, 0, 0, 5, 0, 0, 0, 212, 1, 0, 0, 100, 1, 0, 0, 240, 0, 0, 0, 112, 0, 0, 0, 4, 0, 0, 0, 86, 254, 255, 255, 0, 0, 0, 1, 20, 0, 0, 0, 36, 0, 0, 0, 36, 0, 0, 0, 5, 0, 0, 0, 60, 0, 0, 0, 4, 0, 0, 0, 255, 255, 255, 255, 12, 0, 0, 0, 12, 0, 0, 0, 96, 0, 0, 0, 252, 253, 255, 255, 25, 0, 0, 0, 83, 116, 97, 116, 101, 102, 117, 108, 80, 97, 114, 116, 105, 116, 105, 111, 110, 101, 100, 67, 97, 108, 108, 58, 48, 0, 0, 0, 4, 0, 0, 0, 1, 0, 0, 0, 12, 0, 0, 0, 12, 0, 0, 0, 96, 0, 0, 0, 190, 254, 255, 255, 0, 0, 0, 1, 20, 0, 0, 0, 36, 0, 0, 0, 36, 0, 0, 0, 4, 0, 0, 0, 80, 0, 0, 0, 4, 0, 0, 0, 255, 255, 255, 255, 12, 0, 0, 0, 12, 0, 0, 0, 96, 0, 0, 0, 100, 254, 255, 255, 44, 0, 0, 0, 109, 111, 100, 101, 108, 95, 52, 53, 47, 98, 108, 111, 99, 107, 95, 53, 95, 101, 120, 112, 97, 110, 100, 95, 66, 78, 47, 70, 117, 115, 101, 100, 66, 97, 116, 99, 104, 78, 111, 114, 109, 86, 51, 50, 0, 0, 0, 0, 4, 0, 0, 0, 1, 0, 0, 0, 12, 0, 0, 0, 12, 0, 0, 0, 96, 0, 0, 0, 166, 255, 255, 255, 0, 0, 0, 1, 16, 0, 0, 0, 16, 0, 0, 0, 3, 0, 0, 0, 60, 0, 0, 0, 200, 254, 255, 255, 44, 0, 0, 0, 109, 111, 100, 101, 108, 95, 52, 53, 47, 98, 108, 111, 99, 107, 95, 53, 95, 101, 120, 112, 97, 110, 100, 95, 66, 78, 47, 70, 117, 115, 101, 100, 66, 97, 116, 99, 104, 78, 111, 114, 109, 86, 51, 49, 0, 0, 0, 0, 1, 0, 0, 0, 96, 0, 0, 0, 0, 0, 22, 0, 24, 0, 20, 0, 0, 0, 16, 0, 12, 0, 8, 0, 0, 0, 0, 0, 0, 0, 7, 0, 22, 0, 0, 0, 0, 0, 0, 1, 16, 0, 0, 0, 16, 0, 0, 0, 2, 0, 0, 0, 56, 0, 0, 0, 56, 255, 255, 255, 43, 0, 0, 0, 109, 111, 100, 101, 108, 95, 52, 53, 47, 98, 108, 111, 99, 107, 95, 53, 95, 101, 120, 112, 97, 110, 100, 95, 66, 78, 47, 70, 117, 115, 101, 100, 66, 97, 116, 99, 104, 78, 111, 114, 109, 86, 51, 0, 1, 0, 0, 0, 96, 0, 0, 0, 0, 0, 22, 0, 28, 0, 24, 0, 0, 0, 20, 0, 16, 0, 12, 0, 0, 0, 0, 0, 8, 0, 7, 0, 22, 0, 0, 0, 0, 0, 0, 1, 20, 0, 0, 0, 36, 0, 0, 0, 36, 0, 0, 0, 1, 0, 0, 0, 60, 0, 0, 0, 4, 0, 0, 0, 255, 255, 255, 255, 12, 0, 0, 0, 12, 0, 0, 0, 96, 0, 0, 0, 188, 255, 255, 255, 26, 0, 0, 0, 115, 101, 114, 118, 105, 110, 103, 95, 100, 101, 102, 97, 117, 108, 116, 95, 105, 110, 112, 117, 116, 95, 52, 56, 58, 48, 0, 0, 4, 0, 0, 0, 1, 0, 0, 0, 12, 0, 0, 0, 12, 0, 0, 0, 96, 0, 0, 0, 2, 0, 0, 0, 28, 0, 0, 0, 8, 0, 0, 0, 4, 0, 4, 0, 4, 0, 0, 0, 12, 0, 12, 0, 11, 0, 0, 0, 0, 0, 4, 0, 12, 0, 0, 0, 18, 0, 0, 0, 0, 0, 0, 18
};
