#pragma once

#include <cstdint>

const uint8_t layer_4[] = {
28, 0, 0, 0, 84, 70, 76, 51, 20, 0, 32, 0, 28, 0, 24, 0, 20, 0, 16, 0, 12, 0, 0, 0, 8, 0, 4, 0, 20, 0, 0, 0, 28, 0, 0, 0, 160, 0, 0, 0, 248, 0, 0, 0, 68, 2, 0, 0, 84, 2, 0, 0, 124, 5, 0, 0, 3, 0, 0, 0, 1, 0, 0, 0, 16, 0, 0, 0, 0, 0, 10, 0, 16, 0, 12, 0, 8, 0, 4, 0, 10, 0, 0, 0, 12, 0, 0, 0, 28, 0, 0, 0, 76, 0, 0, 0, 15, 0, 0, 0, 115, 101, 114, 118, 105, 110, 103, 95, 100, 101, 102, 97, 117, 108, 116, 0, 1, 0, 0, 0, 4, 0, 0, 0, 136, 255, 255, 255, 4, 0, 0, 0, 4, 0, 0, 0, 26, 0, 0, 0, 101, 120, 112, 97, 110, 100, 101, 100, 95, 99, 111, 110, 118, 95, 100, 101, 112, 116, 104, 119, 105, 115, 101, 95, 66, 78, 0, 0, 1, 0, 0, 0, 4, 0, 0, 0, 154, 254, 255, 255, 4, 0, 0, 0, 7, 0, 0, 0, 105, 110, 112, 117, 116, 95, 53, 0, 2, 0, 0, 0, 52, 0, 0, 0, 4, 0, 0, 0, 220, 255, 255, 255, 7, 0, 0, 0, 4, 0, 0, 0, 19, 0, 0, 0, 67, 79, 78, 86, 69, 82, 83, 73, 79, 78, 95, 77, 69, 84, 65, 68, 65, 84, 65, 0, 8, 0, 12, 0, 8, 0, 4, 0, 8, 0, 0, 0, 6, 0, 0, 0, 4, 0, 0, 0, 19, 0, 0, 0, 109, 105, 110, 95, 114, 117, 110, 116, 105, 109, 101, 95, 118, 101, 114, 115, 105, 111, 110, 0, 8, 0, 0, 0, 72, 1, 0, 0, 64, 1, 0, 0, 240, 0, 0, 0, 152, 0, 0, 0, 144, 0, 0, 0, 136, 0, 0, 0, 104, 0, 0, 0, 4, 0, 0, 0, 46, 255, 255, 255, 4, 0, 0, 0, 84, 0, 0, 0, 12, 0, 0, 0, 8, 0, 14, 0, 8, 0, 4, 0, 8, 0, 0, 0, 16, 0, 0, 0, 36, 0, 0, 0, 0, 0, 6, 0, 8, 0, 4, 0, 6, 0, 0, 0, 4, 0, 0, 0, 0, 0, 0, 0, 0, 0, 10, 0, 16, 0, 12, 0, 8, 0, 4, 0, 10, 0, 0, 0, 2, 0, 0, 0, 2, 0, 0, 0, 4, 0, 0, 0, 6, 0, 0, 0, 50, 46, 49, 53, 46, 48, 0, 0, 142, 255, 255, 255, 4, 0, 0, 0, 16, 0, 0, 0, 49, 46, 53, 46, 48, 0, 0, 0, 0, 0, 0, 0, 0, 0, 0, 0, 4, 252, 255, 255, 8, 252, 255, 255, 178, 255, 255, 255, 4, 0, 0, 0, 64, 0, 0, 0, 198, 41, 154, 190, 237, 106, 37, 64, 174, 136, 128, 64, 62, 160, 96, 64, 178, 89, 228, 63, 97, 40, 84, 64, 77, 27, 167, 64, 165, 19, 121, 64, 162, 192, 63, 190, 195, 57, 228, 63, 34, 32, 188, 64, 192, 65, 40, 65, 105, 222, 165, 190, 96, 48, 207, 64, 118, 122, 6, 64, 43, 54, 213, 190, 0, 0, 6, 0, 8, 0, 4, 0, 6, 0, 0, 0, 4, 0, 0, 0, 64, 0, 0, 0, 128, 131, 135, 64, 132, 62, 173, 61, 179, 18, 121, 62, 151, 37, 106, 61, 135, 135, 61, 61, 227, 53, 188, 61, 8, 212, 211, 61, 243, 84, 31, 62, 168, 69, 96, 61, 236, 39, 135, 61, 99, 137, 111, 61, 180, 34, 254, 62, 93, 66, 32, 192, 126, 100, 129, 61, 156, 49, 16, 61, 77, 120, 47, 65, 172, 252, 255, 255, 176, 252, 255, 255, 15, 0, 0, 0, 77, 76, 73, 82, 32, 67, 111, 110, 118, 101, 114, 116, 101, 100, 46, 0, 1, 0, 0, 0, 20, 0, 0, 0, 0, 0, 14, 0, 24, 0, 20, 0, 16, 0, 12, 0, 8, 0, 4, 0, 14, 0, 0, 0, 20, 0, 0, 0, 28, 0, 0, 0, 160, 0, 0, 0, 164, 0, 0, 0, 168, 0, 0, 0, 4, 0, 0, 0, 109, 97, 105, 110, 0, 0, 0, 0, 2, 0, 0, 0, 88, 0, 0, 0, 20, 0, 0, 0, 0, 0, 14, 0, 24, 0, 20, 0, 16, 0, 12, 0, 11, 0, 4, 0, 14, 0, 0, 0, 20, 0, 0, 0, 0, 0, 0, 11, 16, 0, 0, 0, 20, 0, 0, 0, 1, 0, 0, 0, 56, 253, 255, 255, 1, 0, 0, 0, 4, 0, 0, 0, 2, 0, 0, 0, 3, 0, 0, 0, 2, 0, 0, 0, 0, 0, 14, 0, 20, 0, 0, 0, 16, 0, 12, 0, 11, 0, 4, 0, 14, 0, 0, 0, 16, 0, 0, 0, 0, 0, 0, 21, 12, 0, 0, 0, 16, 0, 0, 0, 116, 253, 255, 255, 1, 0, 0, 0, 3, 0, 0, 0, 2, 0, 0, 0, 0, 0, 0, 0, 1, 0, 0, 0, 1, 0, 0, 0, 4, 0, 0, 0, 1, 0, 0, 0, 0, 0, 0, 0, 5, 0, 0, 0, 236, 1, 0, 0, 116, 1, 0, 0, 248, 0, 0, 0, 112, 0, 0, 0, 4, 0, 0, 0, 62, 254, 255, 255, 0, 0, 0, 1, 20, 0, 0, 0, 36, 0, 0, 0, 36, 0, 0, 0, 5, 0, 0, 0, 60, 0, 0, 0, 4, 0, 0, 0, 255, 255, 255, 255, 48, 0, 0, 0, 48, 0, 0, 0, 16, 0, 0, 0, 228, 253, 255, 255, 25, 0, 0, 0, 83, 116, 97, 116, 101, 102, 117, 108, 80, 97, 114, 116, 105, 116, 105, 111, 110, 101, 100, 67, 97, 108, 108, 58, 48, 0, 0, 0, 4, 0, 0, 0, 1, 0, 0, 0, 48, 0, 0, 0, 48, 0, 0, 0, 16, 0, 0, 0, 166, 254, 255, 255, 0, 0, 0, 1, 20, 0, 0, 0, 36, 0, 0, 0, 36, 0, 0, 0, 4, 0, 0, 0, 88, 0, 0, 0, 4, 0, 0, 0, 255, 255, 255, 255, 48, 0, 0, 0, 48, 0, 0, 0, 16, 0, 0, 0, 76, 254, 255, 255, 52, 0, 0, 0, 109, 111, 100, 101, 108, 95, 52, 47, 101, 120, 112, 97, 110, 100, 101, 100, 95, 99, 111, 110, 118, 95, 100, 101, 112, 116, 104, 119, 105, 115, 101, 95, 66, 78, 47, 70, 117, 115, 101, 100, 66, 97, 116, 99, 104, 78, 111, 114, 109, 86, 51, 50, 0, 0, 0, 0, 4, 0, 0, 0, 1, 0, 0, 0, 48, 0, 0, 0, 48, 0, 0, 0, 16, 0, 0, 0, 158, 255, 255, 255, 0, 0, 0, 1, 16, 0, 0, 0, 16, 0, 0, 0, 3, 0, 0, 0, 68, 0, 0, 0, 184, 254, 255, 255, 52, 0, 0, 0, 109, 111, 100, 101, 108, 95, 52, 47, 101, 120, 112, 97, 110, 100, 101, 100, 95, 99, 111, 110, 118, 95, 100, 101, 112, 116, 104, 119, 105, 115, 101, 95, 66, 78, 47, 70, 117, 115, 101, 100, 66, 97, 116, 99, 104, 78, 111, 114, 109, 86, 51, 49, 0, 0, 0, 0, 1, 0, 0, 0, 16, 0, 0, 0, 0, 0, 22, 0, 24, 0, 20, 0, 0, 0, 16, 0, 12, 0, 8, 0, 0, 0, 0, 0, 0, 0, 7, 0, 22, 0, 0, 0, 0, 0, 0, 1, 16, 0, 0, 0, 16, 0, 0, 0, 2, 0, 0, 0, 64, 0, 0, 0, 48, 255, 255, 255, 51, 0, 0, 0, 109, 111, 100, 101, 108, 95, 52, 47, 101, 120, 112, 97, 110, 100, 101, 100, 95, 99, 111, 110, 118, 95, 100, 101, 112, 116, 104, 119, 105, 115, 101, 95, 66, 78, 47, 70, 117, 115, 101, 100, 66, 97, 116, 99, 104, 78, 111, 114, 109, 86, 51, 0, 1, 0, 0, 0, 16, 0, 0, 0, 0, 0, 22, 0, 28, 0, 24, 0, 0, 0, 20, 0, 16, 0, 12, 0, 0, 0, 0, 0, 8, 0, 7, 0, 22, 0, 0, 0, 0, 0, 0, 1, 20, 0, 0, 0, 36, 0, 0, 0, 36, 0, 0, 0, 1, 0, 0, 0, 60, 0, 0, 0, 4, 0, 0, 0, 255, 255, 255, 255, 48, 0, 0, 0, 48, 0, 0, 0, 16, 0, 0, 0, 188, 255, 255, 255, 25, 0, 0, 0, 115, 101, 114, 118, 105, 110, 103, 95, 100, 101, 102, 97, 117, 108, 116, 95, 105, 110, 112, 117, 116, 95, 53, 58, 48, 0, 0, 0, 4, 0, 0, 0, 1, 0, 0, 0, 48, 0, 0, 0, 48, 0, 0, 0, 16, 0, 0, 0, 2, 0, 0, 0, 28, 0, 0, 0, 8, 0, 0, 0, 4, 0, 4, 0, 4, 0, 0, 0, 12, 0, 12, 0, 11, 0, 0, 0, 0, 0, 4, 0, 12, 0, 0, 0, 18, 0, 0, 0, 0, 0, 0, 18
};
