#pragma once

#include <cstdint>

const uint8_t layer_53[] = {
28, 0, 0, 0, 84, 70, 76, 51, 20, 0, 32, 0, 28, 0, 24, 0, 20, 0, 16, 0, 12, 0, 0, 0, 8, 0, 4, 0, 20, 0, 0, 0, 28, 0, 0, 0, 152, 0, 0, 0, 240, 0, 0, 0, 52, 27, 0, 0, 68, 27, 0, 0, 156, 29, 0, 0, 3, 0, 0, 0, 1, 0, 0, 0, 16, 0, 0, 0, 0, 0, 10, 0, 16, 0, 12, 0, 8, 0, 4, 0, 10, 0, 0, 0, 12, 0, 0, 0, 28, 0, 0, 0, 64, 0, 0, 0, 15, 0, 0, 0, 115, 101, 114, 118, 105, 110, 103, 95, 100, 101, 102, 97, 117, 108, 116, 0, 1, 0, 0, 0, 4, 0, 0, 0, 144, 255, 255, 255, 3, 0, 0, 0, 4, 0, 0, 0, 14, 0, 0, 0, 98, 108, 111, 99, 107, 95, 54, 95, 101, 120, 112, 97, 110, 100, 0, 0, 1, 0, 0, 0, 4, 0, 0, 0, 222, 230, 255, 255, 4, 0, 0, 0, 8, 0, 0, 0, 105, 110, 112, 117, 116, 95, 53, 55, 0, 0, 0, 0, 2, 0, 0, 0, 52, 0, 0, 0, 4, 0, 0, 0, 220, 255, 255, 255, 6, 0, 0, 0, 4, 0, 0, 0, 19, 0, 0, 0, 67, 79, 78, 86, 69, 82, 83, 73, 79, 78, 95, 77, 69, 84, 65, 68, 65, 84, 65, 0, 8, 0, 12, 0, 8, 0, 4, 0, 8, 0, 0, 0, 5, 0, 0, 0, 4, 0, 0, 0, 19, 0, 0, 0, 109, 105, 110, 95, 114, 117, 110, 116, 105, 109, 101, 95, 118, 101, 114, 115, 105, 111, 110, 0, 7, 0, 0, 0, 64, 26, 0, 0, 56, 26, 0, 0, 168, 24, 0, 0, 144, 0, 0, 0, 136, 0, 0, 0, 104, 0, 0, 0, 4, 0, 0, 0, 114, 231, 255, 255, 4, 0, 0, 0, 84, 0, 0, 0, 12, 0, 0, 0, 8, 0, 14, 0, 8, 0, 4, 0, 8, 0, 0, 0, 16, 0, 0, 0, 36, 0, 0, 0, 0, 0, 6, 0, 8, 0, 4, 0, 6, 0, 0, 0, 4, 0, 0, 0, 0, 0, 0, 0, 0, 0, 10, 0, 16, 0, 12, 0, 8, 0, 4, 0, 10, 0, 0, 0, 2, 0, 0, 0, 2, 0, 0, 0, 4, 0, 0, 0, 6, 0, 0, 0, 50, 46, 49, 53, 46, 48, 0, 0, 210, 231, 255, 255, 4, 0, 0, 0, 16, 0, 0, 0, 49, 46, 53, 46, 48, 0, 0, 0, 0, 0, 0, 0, 0, 0, 0, 0, 32, 228, 255, 255, 242, 231, 255, 255, 4, 0, 0, 0, 0, 24, 0, 0, 183, 188, 155, 189, 96, 128, 129, 62, 172, 170, 68, 59, 24, 172, 172, 190, 154, 175, 228, 189, 138, 1, 188, 189, 147, 123, 147, 189, 48, 13, 44, 190, 222, 18, 149, 189, 41, 217, 111, 61, 141, 120, 163, 187, 238, 214, 89, 62, 92, 66, 133, 61, 146, 35, 45, 190, 18, 148, 16, 189, 69, 103, 11, 62, 18, 91, 187, 189, 140, 215, 115, 61, 65, 211, 38, 190, 177, 234, 65, 60, 149, 17, 105, 189, 131, 243, 98, 189, 8, 137, 103, 61, 186, 238, 71, 190, 49, 183, 42, 62, 125, 107, 9, 62, 179, 97, 22, 190, 156, 75, 121, 61, 50, 238, 140, 187, 176, 183, 136, 60, 189, 57, 198, 61, 44, 66, 159, 190, 68, 60, 226, 187, 24, 26, 189, 60, 41, 51, 151, 189, 52, 232, 162, 61, 250, 25, 91, 61, 90, 163, 230, 60, 51, 65, 182, 189, 16, 24, 161, 189, 11, 160, 87, 62, 141, 117, 15, 189, 58, 199, 197, 188, 188, 229, 219, 60, 183, 163, 143, 188, 60, 94, 2, 62, 185, 45, 184, 189, 138, 213, 216, 60, 127, 69, 234, 61, 201, 111, 16, 190, 8, 14, 234, 60, 117, 27, 94, 190, 10, 88, 248, 59, 180, 188, 129, 189, 178, 173, 235, 59, 180, 9, 54, 188, 176, 82, 58, 62, 234, 150, 177, 188, 99, 189, 20, 62, 110, 133, 140, 61, 31, 196, 171, 188, 9, 155, 170, 61, 206, 0, 142, 60, 12, 13, 127, 62, 118, 5, 38, 190, 151, 221, 225, 61, 239, 31, 83, 61, 45, 160, 157, 61, 207, 40, 171, 59, 160, 237, 7, 189, 203, 97, 250, 187, 210, 252, 155, 61, 164, 154, 120, 188, 229, 16, 222, 59, 3, 219, 231, 60, 82, 244, 124, 189, 249, 84, 140, 190, 6, 12, 10, 189, 244, 65, 87, 189, 110, 123, 144, 61, 73, 21, 188, 60, 28, 124, 28, 62, 199, 88, 114, 62, 220, 103, 202, 60, 163, 76, 106, 61, 80, 195, 64, 62, 28, 227, 60, 190, 171, 234, 66, 62, 11, 87, 210, 189, 173, 121, 62, 62, 96, 212, 132, 189, 116, 100, 125, 189, 75, 227, 205, 61, 213, 209, 191, 189, 166, 106, 138, 190, 147, 54, 40, 61, 130, 117, 122, 61, 46, 56, 204, 189, 222, 103, 109, 62, 226, 126, 86, 190, 107, 44, 108, 61, 71, 179, 107, 60, 165, 25, 88, 189, 189, 15, 34, 62, 86, 192, 35, 190, 229, 244, 63, 190, 56, 106, 158, 61, 66, 121, 148, 189, 94, 64, 63, 59, 193, 220, 13, 62, 47, 104, 131, 189, 188, 20, 16, 62, 166, 10, 166, 61, 65, 60, 118, 62, 139, 203, 96, 189, 107, 9, 227, 189, 170, 185, 67, 62, 44, 181, 228, 60, 186, 131, 143, 59, 109, 123, 238, 189, 119, 22, 120, 62, 252, 190, 82, 62, 13, 88, 147, 189, 88, 76, 31, 61, 202, 51, 66, 61, 174, 135, 144, 189, 226, 148, 209, 61, 209, 34, 164, 61, 41, 100, 63, 61, 243, 151, 145, 190, 146, 90, 57, 61, 55, 31, 124, 190, 36, 59, 150, 61, 35, 116, 45, 190, 252, 50, 124, 61, 16, 158, 111, 190, 235, 207, 150, 61, 73, 131, 58, 62, 58, 73, 107, 62, 2, 179, 163, 188, 139, 107, 46, 61, 246, 108, 211, 62, 78, 218, 108, 62, 227, 165, 67, 62, 49, 171, 91, 60, 35, 65, 191, 189, 68, 146, 5, 189, 64, 233, 221, 62, 213, 118, 22, 62, 171, 189, 242, 188, 121, 203, 1, 62, 132, 91, 60, 190, 81, 213, 67, 190, 34, 80, 194, 62, 195, 211, 213, 61, 34, 70, 131, 189, 217, 84, 247, 188, 30, 123, 75, 190, 11, 235, 4, 189, 67, 214, 37, 189, 48, 166, 245, 187, 80, 75, 80, 61, 1, 224, 167, 189, 3, 168, 157, 190, 142, 189, 161, 60, 109, 189, 140, 187, 39, 36, 35, 187, 232, 61, 132, 61, 45, 250, 71, 61, 239, 80, 187, 189, 159, 103, 13, 61, 220, 138, 134, 189, 110, 130, 40, 189, 195, 144, 201, 189, 146, 159, 113, 187, 172, 122, 165, 61, 158, 203, 145, 59, 114, 26, 128, 61, 247, 216, 182, 61, 102, 39, 99, 189, 231, 7, 105, 62, 145, 14, 166, 189, 184, 146, 146, 62, 1, 66, 63, 190, 178, 20, 147, 190, 146, 174, 199, 61, 141, 210, 32, 188, 172, 211, 166, 61, 4, 42, 216, 59, 21, 141, 199, 62, 18, 107, 108, 190, 130, 84, 190, 189, 114, 105, 179, 61, 64, 131, 175, 188, 6, 192, 83, 190, 43, 14, 14, 189, 144, 248, 25, 61, 197, 135, 221, 189, 206, 205, 99, 61, 80, 185, 15, 61, 180, 76, 72, 60, 209, 239, 228, 61, 61, 44, 216, 189, 49, 251, 61, 189, 77, 159, 44, 189, 171, 203, 45, 62, 222, 235, 10, 59, 209, 157, 7, 61, 0, 172, 185, 189, 163, 2, 233, 60, 183, 159, 219, 189, 215, 157, 46, 61, 26, 151, 8, 60, 215, 25, 47, 191, 160, 17, 80, 187, 158, 95, 157, 61, 210, 232, 34, 59, 13, 53, 157, 189, 213, 14, 161, 60, 171, 159, 140, 188, 223, 247, 92, 61, 233, 49, 185, 189, 174, 176, 77, 61, 250, 230, 159, 61, 166, 129, 70, 61, 164, 109, 97, 189, 35, 138, 82, 62, 64, 134, 139, 189, 98, 168, 214, 61, 186, 83, 175, 59, 139, 224, 101, 190, 175, 38, 65, 190, 248, 58, 112, 189, 123, 41, 190, 189, 182, 170, 73, 61, 27, 30, 185, 60, 0, 64, 201, 60, 59, 45, 251, 189, 197, 15, 97, 189, 81, 145, 68, 189, 118, 29, 5, 190, 203, 57, 245, 60, 171, 84, 197, 188, 250, 162, 200, 189, 189, 170, 153, 187, 173, 68, 6, 188, 155, 55, 58, 62, 1, 136, 140, 61, 121, 231, 140, 189, 200, 223, 133, 61, 112, 2, 239, 61, 166, 46, 86, 189, 219, 247, 123, 60, 84, 140, 242, 61, 239, 71, 221, 61, 2, 5, 184, 60, 148, 141, 14, 61, 234, 156, 214, 61, 204, 129, 107, 62, 105, 122, 22, 62, 111, 59, 113, 59, 205, 46, 27, 61, 11, 192, 18, 62, 239, 70, 231, 61, 221, 191, 45, 190, 53, 185, 26, 60, 233, 147, 246, 189, 82, 237, 199, 188, 222, 190, 74, 60, 64, 161, 241, 59, 25, 223, 224, 60, 165, 129, 7, 190, 64, 89, 42, 190, 124, 26, 221, 190, 164, 126, 155, 189, 4, 175, 233, 61, 105, 237, 144, 190, 169, 158, 205, 189, 224, 170, 128, 190, 162, 43, 139, 61, 25, 19, 234, 190, 101, 48, 206, 189, 107, 205, 142, 61, 201, 90, 36, 190, 95, 129, 164, 187, 60, 86, 41, 62, 144, 55, 132, 62, 235, 148, 32, 190, 196, 82, 167, 60, 146, 76, 19, 62, 249, 177, 170, 60, 209, 240, 81, 62, 145, 242, 18, 62, 179, 169, 250, 187, 49, 50, 81, 61, 78, 210, 144, 188, 60, 46, 109, 62, 163, 25, 240, 61, 36, 137, 212, 189, 209, 78, 214, 189, 55, 56, 51, 61, 143, 96, 190, 62, 62, 64, 44, 62, 238, 158, 158, 61, 248, 214, 24, 60, 130, 109, 27, 189, 9, 190, 198, 61, 8, 163, 184, 60, 23, 145, 56, 62, 81, 242, 44, 61, 232, 115, 51, 190, 38, 88, 254, 189, 17, 182, 57, 190, 160, 12, 31, 190, 144, 225, 118, 189, 216, 8, 98, 190, 243, 36, 161, 189, 106, 10, 211, 189, 185, 202, 32, 188, 215, 95, 154, 189, 9, 20, 25, 62, 129, 240, 12, 189, 55, 50, 142, 189, 96, 232, 177, 188, 70, 133, 117, 60, 91, 250, 28, 190, 140, 95, 9, 61, 217, 209, 56, 61, 233, 109, 172, 189, 49, 143, 71, 61, 58, 148, 34, 190, 164, 105, 248, 188, 134, 16, 44, 61, 99, 140, 58, 60, 126, 14, 76, 60, 48, 255, 154, 188, 201, 119, 202, 61, 198, 236, 173, 188, 65, 118, 169, 61, 159, 195, 50, 189, 211, 30, 26, 188, 75, 86, 160, 187, 116, 41, 243, 188, 230, 99, 232, 61, 151, 116, 145, 59, 83, 36, 13, 190, 29, 80, 177, 61, 69, 147, 92, 61, 234, 202, 116, 188, 199, 233, 10, 62, 115, 2, 136, 61, 168, 88, 240, 61, 65, 238, 11, 189, 64, 89, 135, 61, 174, 42, 66, 189, 121, 60, 94, 62, 181, 131, 201, 189, 188, 194, 195, 59, 172, 155, 47, 62, 31, 46, 224, 61, 210, 184, 20, 189, 226, 57, 82, 61, 71, 131, 192, 188, 240, 238, 115, 61, 9, 31, 79, 59, 138, 107, 84, 60, 91, 14, 217, 60, 212, 191, 156, 59, 213, 38, 190, 61, 85, 253, 12, 60, 52, 8, 0, 62, 111, 150, 1, 190, 222, 73, 186, 61, 194, 205, 172, 188, 103, 249, 233, 188, 178, 193, 156, 61, 110, 160, 152, 60, 228, 34, 55, 61, 146, 34, 140, 59, 156, 10, 140, 57, 114, 197, 144, 58, 240, 96, 15, 189, 44, 169, 48, 190, 118, 143, 11, 61, 245, 156, 235, 190, 233, 229, 23, 62, 8, 122, 213, 60, 31, 30, 115, 189, 177, 178, 229, 60, 188, 29, 204, 62, 56, 163, 148, 61, 249, 201, 156, 189, 131, 37, 24, 60, 241, 184, 109, 61, 143, 166, 198, 62, 236, 2, 138, 188, 231, 205, 144, 190, 53, 116, 146, 61, 69, 76, 99, 62, 201, 112, 221, 189, 108, 151, 219, 61, 125, 216, 233, 61, 109, 40, 31, 61, 15, 230, 173, 61, 208, 21, 117, 61, 197, 226, 202, 60, 16, 68, 135, 62, 63, 251, 115, 190, 158, 91, 213, 58, 105, 243, 15, 191, 3, 157, 103, 189, 79, 8, 108, 189, 36, 252, 42, 189, 234, 141, 14, 190, 137, 241, 142, 61, 107, 221, 207, 61, 215, 20, 236, 189, 75, 226, 60, 188, 99, 195, 64, 60, 25, 50, 170, 60, 116, 120, 33, 190, 12, 88, 74, 188, 240, 29, 232, 189, 183, 241, 11, 190, 184, 4, 204, 190, 224, 52, 1, 190, 182, 235, 93, 188, 210, 239, 3, 190, 221, 51, 200, 60, 73, 213, 204, 62, 179, 187, 12, 190, 116, 82, 50, 62, 37, 122, 63, 189, 253, 40, 23, 62, 218, 18, 134, 60, 24, 151, 171, 62, 148, 183, 59, 62, 171, 204, 8, 190, 184, 199, 206, 189, 159, 108, 21, 190, 107, 191, 150, 62, 233, 29, 63, 61, 156, 74, 1, 190, 109, 50, 3, 60, 205, 209, 25, 61, 60, 135, 24, 63, 205, 28, 170, 188, 170, 154, 69, 61, 57, 44, 33, 61, 166, 186, 36, 62, 249, 233, 46, 62, 92, 10, 24, 62, 114, 64, 155, 62, 23, 54, 156, 186, 93, 120, 213, 61, 178, 49, 162, 61, 234, 15, 131, 190, 64, 26, 159, 189, 169, 165, 244, 189, 229, 103, 205, 189, 189, 247, 51, 61, 193, 118, 116, 62, 75, 93, 214, 61, 181, 118, 159, 189, 77, 79, 148, 188, 78, 223, 157, 188, 43, 150, 52, 61, 112, 77, 30, 61, 215, 83, 172, 61, 224, 134, 74, 59, 198, 154, 40, 61, 53, 18, 223, 61, 81, 165, 169, 189, 192, 160, 68, 189, 99, 4, 244, 188, 234, 196, 216, 190, 212, 105, 223, 187, 69, 129, 107, 189, 5, 203, 87, 189, 41, 154, 222, 60, 214, 173, 135, 189, 3, 184, 141, 62, 26, 190, 28, 190, 179, 221, 127, 62, 231, 68, 26, 190, 132, 47, 139, 189, 161, 23, 47, 62, 173, 201, 230, 190, 95, 24, 50, 190, 183, 224, 62, 62, 114, 247, 123, 189, 196, 194, 189, 188, 110, 169, 90, 62, 56, 244, 6, 62, 93, 152, 127, 62, 252, 237, 159, 62, 29, 173, 175, 189, 226, 136, 60, 189, 33, 9, 11, 189, 62, 141, 16, 190, 171, 40, 180, 188, 214, 203, 172, 187, 170, 233, 1, 190, 104, 163, 129, 190, 222, 22, 119, 61, 169, 138, 39, 62, 241, 76, 4, 189, 135, 43, 141, 190, 171, 0, 173, 189, 28, 95, 226, 189, 100, 225, 135, 60, 53, 96, 78, 61, 138, 36, 195, 190, 199, 85, 106, 190, 218, 174, 51, 189, 70, 137, 65, 62, 71, 243, 51, 62, 217, 77, 241, 61, 234, 184, 118, 189, 63, 172, 252, 60, 225, 120, 42, 60, 222, 130, 1, 190, 160, 215, 152, 190, 92, 120, 23, 62, 129, 69, 84, 62, 69, 183, 145, 60, 18, 213, 61, 62, 148, 19, 78, 62, 185, 170, 165, 188, 225, 5, 252, 189, 232, 176, 187, 189, 176, 32, 167, 188, 38, 10, 129, 190, 111, 54, 245, 188, 91, 72, 69, 190, 186, 143, 1, 59, 15, 223, 24, 62, 182, 216, 94, 61, 24, 172, 58, 61, 68, 2, 10, 190, 26, 13, 188, 61, 174, 183, 156, 190, 67, 151, 173, 62, 7, 179, 174, 61, 13, 192, 49, 62, 109, 89, 40, 188, 143, 123, 126, 62, 218, 162, 209, 61, 169, 240, 62, 62, 0, 247, 158, 61, 206, 128, 74, 190, 174, 2, 161, 62, 67, 72, 153, 190, 188, 144, 67, 190, 165, 53, 121, 62, 214, 242, 156, 61, 75, 186, 4, 61, 63, 248, 22, 189, 101, 99, 142, 189, 189, 106, 242, 62, 76, 210, 211, 189, 19, 81, 19, 62, 24, 225, 70, 190, 93, 173, 25, 61, 7, 37, 38, 189, 158, 215, 110, 189, 96, 2, 193, 61, 223, 22, 168, 190, 165, 107, 88, 62, 153, 223, 130, 62, 190, 213, 109, 190, 73, 238, 187, 187, 15, 193, 211, 60, 246, 97, 19, 189, 181, 51, 91, 62, 80, 113, 163, 190, 93, 13, 69, 189, 188, 243, 48, 61, 15, 6, 31, 60, 187, 10, 52, 62, 233, 102, 24, 61, 10, 202, 64, 61, 58, 150, 35, 62, 212, 92, 65, 61, 173, 203, 89, 57, 50, 223, 64, 61, 109, 217, 201, 188, 194, 112, 154, 58, 23, 73, 92, 188, 199, 138, 74, 61, 96, 192, 134, 189, 213, 227, 124, 189, 129, 43, 139, 186, 237, 196, 193, 188, 93, 139, 154, 59, 128, 146, 234, 189, 67, 224, 11, 58, 116, 171, 12, 188, 253, 113, 186, 189, 98, 115, 203, 189, 112, 232, 6, 190, 237, 186, 103, 188, 159, 1, 9, 59, 102, 222, 102, 187, 242, 7, 142, 60, 240, 227, 137, 190, 33, 156, 10, 62, 124, 153, 196, 189, 30, 97, 250, 61, 249, 186, 134, 62, 15, 56, 236, 188, 173, 252, 35, 190, 101, 158, 185, 62, 43, 109, 191, 188, 209, 186, 189, 61, 175, 1, 5, 190, 191, 173, 162, 62, 82, 248, 106, 62, 227, 144, 44, 189, 215, 185, 100, 188, 32, 144, 209, 60, 98, 218, 202, 189, 165, 30, 24, 62, 42, 160, 71, 61, 254, 10, 176, 189, 102, 206, 51, 62, 134, 204, 60, 189, 245, 139, 181, 190, 200, 58, 21, 189, 161, 186, 107, 60, 48, 110, 5, 190, 68, 11, 225, 61, 117, 40, 26, 62, 172, 98, 63, 190, 250, 75, 133, 189, 112, 62, 6, 189, 22, 31, 66, 61, 128, 129, 92, 62, 69, 117, 8, 62, 51, 120, 143, 61, 105, 66, 192, 188, 43, 122, 4, 189, 175, 123, 45, 60, 5, 203, 29, 190, 254, 45, 233, 186, 70, 124, 29, 189, 92, 81, 255, 188, 177, 195, 123, 189, 55, 189, 60, 190, 247, 62, 143, 60, 68, 144, 132, 188, 1, 78, 239, 188, 115, 139, 136, 188, 45, 155, 82, 190, 244, 213, 50, 62, 70, 215, 246, 189, 149, 75, 62, 189, 51, 105, 93, 189, 47, 93, 27, 190, 220, 248, 61, 189, 8, 198, 84, 60, 121, 128, 226, 189, 71, 119, 18, 61, 253, 196, 103, 188, 204, 245, 142, 189, 190, 223, 78, 61, 230, 107, 21, 190, 63, 224, 37, 188, 27, 235, 192, 190, 62, 58, 155, 60, 23, 26, 161, 61, 80, 3, 203, 61, 88, 16, 131, 62, 34, 220, 47, 62, 16, 35, 157, 189, 108, 56, 134, 189, 247, 205, 32, 190, 0, 246, 241, 189, 238, 122, 71, 189, 228, 165, 235, 189, 204, 85, 108, 60, 22, 147, 96, 61, 37, 87, 54, 62, 44, 60, 245, 189, 100, 155, 235, 189, 221, 62, 199, 61, 62, 86, 103, 62, 196, 101, 95, 190, 78, 7, 161, 188, 37, 40, 3, 62, 44, 251, 232, 189, 224, 194, 198, 188, 192, 37, 160, 61, 48, 61, 19, 189, 214, 132, 237, 61, 86, 93, 39, 189, 56, 248, 175, 61, 209, 124, 247, 61, 110, 43, 44, 189, 57, 173, 40, 60, 143, 25, 17, 61, 48, 165, 28, 190, 253, 219, 141, 189, 53, 80, 124, 189, 238, 210, 132, 189, 76, 120, 184, 188, 192, 11, 144, 182, 47, 116, 166, 189, 115, 227, 4, 62, 18, 214, 189, 59, 55, 23, 95, 190, 141, 153, 138, 190, 51, 186, 175, 188, 79, 14, 109, 187, 157, 112, 247, 60, 80, 254, 198, 60, 238, 57, 5, 188, 229, 96, 121, 189, 215, 219, 44, 62, 151, 44, 30, 190, 230, 71, 195, 188, 148, 119, 148, 61, 162, 123, 89, 190, 172, 7, 80, 189, 36, 253, 81, 61, 203, 128, 209, 189, 222, 77, 152, 60, 61, 111, 210, 189, 129, 126, 9, 61, 180, 53, 97, 61, 52, 123, 79, 60, 127, 181, 215, 189, 153, 126, 4, 61, 73, 192, 211, 188, 6, 123, 185, 61, 47, 164, 63, 189, 178, 100, 70, 61, 214, 88, 23, 58, 149, 193, 88, 189, 50, 148, 172, 190, 169, 205, 49, 189, 28, 234, 113, 61, 174, 168, 197, 61, 186, 30, 210, 189, 174, 84, 242, 190, 39, 177, 193, 189, 145, 172, 237, 60, 41, 197, 66, 61, 95, 233, 11, 189, 231, 151, 244, 190, 217, 231, 114, 62, 34, 16, 220, 189, 230, 172, 204, 61, 118, 40, 103, 62, 244, 219, 194, 61, 28, 120, 112, 189, 188, 247, 20, 63, 235, 18, 119, 189, 183, 1, 7, 190, 218, 59, 180, 61, 94, 19, 104, 190, 116, 28, 77, 62, 41, 73, 47, 60, 86, 33, 231, 61, 18, 190, 203, 60, 250, 239, 216, 60, 136, 247, 10, 63, 98, 102, 14, 190, 130, 16, 170, 190, 72, 54, 80, 190, 5, 220, 60, 189, 167, 222, 239, 61, 153, 18, 51, 62, 255, 66, 117, 61, 130, 171, 87, 61, 49, 153, 61, 189, 222, 97, 180, 187, 127, 248, 128, 189, 78, 212, 148, 190, 3, 71, 238, 61, 32, 77, 31, 62, 218, 226, 240, 60, 216, 174, 62, 62, 115, 222, 9, 62, 6, 81, 12, 61, 160, 199, 173, 60, 14, 70, 79, 62, 163, 78, 48, 62, 188, 57, 142, 62, 204, 253, 33, 188, 255, 0, 176, 61, 40, 113, 128, 61, 167, 26, 127, 190, 160, 246, 236, 189, 17, 2, 192, 189, 9, 27, 53, 190, 115, 131, 9, 61, 65, 192, 129, 62, 113, 188, 33, 61, 94, 122, 252, 189, 156, 62, 147, 61, 254, 61, 69, 189, 254, 197, 99, 190, 84, 114, 22, 189, 185, 30, 148, 61, 134, 144, 161, 190, 190, 129, 183, 189, 67, 162, 141, 188, 92, 82, 61, 189, 121, 164, 63, 189, 243, 72, 40, 60, 114, 208, 203, 189, 167, 5, 202, 61, 143, 50, 32, 189, 241, 88, 205, 188, 200, 14, 208, 60, 164, 102, 133, 60, 21, 2, 214, 61, 43, 148, 1, 62, 160, 115, 173, 60, 18, 191, 96, 61, 105, 218, 174, 60, 210, 91, 43, 59, 10, 147, 74, 61, 238, 131, 181, 190, 150, 212, 20, 62, 178, 210, 70, 60, 220, 246, 152, 190, 154, 72, 176, 60, 145, 2, 166, 190, 139, 123, 180, 189, 50, 144, 106, 62, 89, 228, 131, 60, 63, 34, 214, 61, 140, 230, 58, 60, 39, 66, 224, 61, 136, 193, 193, 61, 156, 125, 22, 60, 84, 136, 150, 61, 14, 49, 170, 61, 95, 231, 12, 62, 166, 202, 85, 62, 128, 82, 113, 189, 4, 185, 1, 190, 179, 73, 168, 61, 178, 85, 154, 62, 38, 100, 9, 62, 194, 243, 89, 61, 0, 255, 130, 188, 240, 170, 35, 190, 32, 132, 129, 189, 85, 21, 136, 189, 43, 104, 153, 190, 234, 41, 193, 188, 66, 17, 132, 190, 119, 219, 179, 188, 198, 209, 16, 62, 223, 103, 168, 61, 109, 68, 67, 61, 195, 49, 76, 190, 118, 169, 208, 61, 133, 202, 228, 190, 218, 137, 203, 62, 20, 158, 150, 61, 30, 52, 217, 61, 175, 92, 232, 188, 197, 137, 199, 189, 76, 41, 237, 60, 106, 57, 122, 62, 82, 148, 23, 62, 166, 195, 110, 190, 63, 221, 144, 189, 73, 207, 1, 190, 50, 218, 160, 187, 253, 7, 136, 189, 47, 6, 2, 190, 171, 6, 16, 60, 45, 29, 146, 189, 132, 108, 63, 188, 51, 149, 180, 189, 228, 163, 17, 62, 87, 177, 188, 188, 225, 2, 238, 60, 10, 187, 87, 60, 208, 151, 239, 61, 118, 21, 221, 189, 203, 65, 71, 190, 91, 150, 206, 190, 143, 7, 3, 190, 83, 134, 116, 190, 144, 213, 49, 190, 177, 203, 184, 60, 201, 13, 241, 188, 68, 55, 164, 189, 214, 165, 55, 61, 178, 232, 18, 188, 41, 30, 149, 189, 0, 152, 135, 61, 37, 44, 186, 61, 109, 18, 157, 189, 121, 103, 68, 188, 92, 176, 195, 189, 167, 105, 211, 190, 242, 41, 148, 62, 155, 119, 163, 188, 208, 155, 8, 63, 153, 148, 154, 188, 178, 149, 71, 189, 152, 40, 219, 61, 133, 22, 157, 60, 60, 141, 112, 58, 197, 161, 223, 60, 240, 87, 156, 188, 171, 223, 107, 61, 130, 208, 29, 190, 70, 237, 48, 189, 247, 71, 40, 190, 44, 13, 6, 190, 123, 19, 176, 62, 150, 43, 138, 62, 27, 198, 122, 189, 198, 124, 163, 61, 24, 209, 54, 189, 113, 198, 4, 60, 64, 244, 147, 61, 238, 24, 106, 61, 125, 65, 188, 62, 248, 193, 20, 189, 114, 168, 243, 61, 103, 147, 44, 61, 98, 44, 135, 190, 24, 11, 122, 61, 55, 84, 40, 62, 81, 252, 76, 62, 22, 23, 104, 189, 162, 68, 204, 61, 48, 201, 100, 190, 14, 179, 136, 189, 5, 100, 101, 59, 76, 118, 237, 60, 217, 215, 150, 189, 5, 175, 144, 61, 154, 197, 59, 60, 10, 248, 73, 189, 38, 97, 149, 190, 86, 245, 80, 62, 30, 121, 159, 62, 49, 203, 161, 61, 216, 229, 105, 190, 137, 240, 58, 190, 239, 100, 184, 62, 246, 86, 197, 62, 232, 153, 161, 61, 55, 132, 234, 60, 75, 91, 194, 61, 219, 120, 8, 189, 243, 75, 53, 61, 185, 209, 68, 61, 118, 134, 105, 62, 90, 128, 92, 188, 246, 201, 27, 61, 47, 132, 160, 188, 93, 231, 47, 190, 51, 11, 107, 59, 68, 174, 161, 61, 240, 181, 211, 190, 231, 38, 172, 189, 14, 90, 174, 187, 77, 1, 76, 188, 173, 143, 105, 189, 154, 72, 154, 188, 141, 15, 151, 189, 93, 219, 165, 61, 225, 6, 58, 189, 140, 240, 186, 60, 64, 195, 133, 60, 167, 28, 180, 61, 11, 91, 26, 189, 169, 135, 234, 61, 63, 144, 240, 62, 90, 126, 146, 62, 220, 244, 158, 61, 228, 230, 228, 61, 35, 32, 0, 60, 204, 243, 199, 190, 7, 12, 189, 188, 240, 192, 70, 61, 170, 141, 22, 62, 155, 238, 54, 189, 106, 55, 163, 61, 164, 114, 226, 61, 136, 237, 63, 190, 77, 54, 237, 189, 183, 88, 175, 62, 69, 45, 24, 61, 46, 224, 243, 189, 90, 92, 145, 189, 94, 102, 176, 188, 200, 151, 79, 190, 86, 59, 12, 62, 107, 81, 75, 189, 110, 222, 50, 190, 143, 172, 115, 190, 158, 74, 13, 190, 160, 48, 12, 189, 207, 65, 140, 190, 23, 126, 37, 190, 135, 184, 228, 189, 254, 19, 27, 190, 193, 200, 188, 61, 68, 89, 177, 189, 179, 64, 220, 62, 186, 255, 133, 190, 60, 171, 132, 61, 137, 28, 111, 190, 149, 174, 247, 189, 29, 151, 103, 190, 145, 29, 187, 189, 225, 91, 184, 189, 148, 4, 10, 190, 137, 69, 152, 61, 247, 69, 89, 62, 22, 239, 244, 61, 86, 155, 6, 62, 13, 181, 194, 60, 244, 28, 177, 59, 237, 221, 142, 60, 59, 110, 239, 61, 4, 190, 8, 59, 203, 133, 6, 61, 41, 30, 26, 189, 230, 87, 59, 62, 166, 42, 122, 61, 189, 69, 0, 60, 210, 227, 90, 189, 72, 99, 10, 190, 244, 32, 35, 189, 143, 61, 211, 190, 27, 189, 49, 62, 33, 55, 190, 59, 237, 6, 177, 188, 236, 160, 159, 189, 0, 171, 34, 61, 206, 244, 145, 190, 250, 150, 178, 61, 96, 229, 149, 189, 223, 217, 45, 62, 28, 89, 182, 189, 38, 13, 91, 189, 254, 240, 193, 61, 252, 243, 244, 59, 126, 163, 141, 190, 154, 136, 246, 188, 30, 64, 6, 59, 167, 71, 173, 60, 112, 222, 214, 189, 192, 136, 36, 61, 128, 4, 12, 189, 165, 234, 173, 61, 209, 219, 31, 189, 250, 250, 83, 60, 100, 63, 219, 187, 122, 208, 2, 189, 230, 195, 58, 62, 44, 187, 3, 61, 123, 164, 200, 189, 72, 4, 175, 61, 119, 223, 143, 61, 164, 75, 157, 59, 189, 94, 92, 62, 104, 55, 60, 61, 246, 26, 234, 61, 60, 155, 23, 188, 232, 204, 63, 62, 53, 76, 136, 189, 196, 193, 208, 190, 72, 125, 38, 189, 254, 32, 110, 188, 29, 220, 77, 190, 175, 209, 237, 61, 34, 76, 140, 62, 217, 124, 154, 190, 103, 0, 202, 189, 90, 93, 237, 59, 141, 192, 199, 61, 13, 245, 109, 62, 96, 52, 101, 62, 95, 65, 233, 61, 80, 175, 164, 189, 253, 86, 189, 61, 152, 92, 210, 62, 99, 62, 8, 61, 22, 58, 12, 61, 128, 79, 140, 59, 132, 70, 195, 59, 159, 150, 115, 188, 194, 209, 13, 190, 151, 255, 137, 189, 7, 171, 85, 189, 229, 222, 233, 189, 138, 210, 218, 60, 219, 175, 153, 189, 68, 225, 126, 62, 148, 185, 193, 189, 189, 114, 141, 62, 179, 90, 49, 62, 116, 134, 149, 188, 109, 213, 11, 188, 100, 133, 54, 190, 128, 200, 160, 189, 202, 18, 28, 189, 227, 186, 186, 189, 136, 195, 82, 188, 186, 131, 14, 61, 99, 128, 68, 62, 229, 32, 241, 189, 27, 159, 10, 190, 159, 124, 202, 61, 120, 179, 8, 62, 188, 210, 70, 190, 34, 66, 3, 62, 208, 4, 15, 60, 200, 232, 49, 190, 218, 118, 69, 189, 147, 92, 219, 189, 18, 172, 178, 61, 206, 160, 85, 62, 100, 126, 216, 62, 8, 250, 12, 190, 106, 145, 154, 62, 139, 149, 234, 189, 127, 181, 69, 60, 146, 51, 68, 61, 255, 169, 97, 62, 237, 139, 226, 189, 60, 15, 163, 61, 41, 135, 4, 61, 87, 104, 13, 188, 168, 156, 27, 189, 16, 72, 32, 61, 219, 23, 21, 60, 156, 50, 160, 190, 205, 82, 134, 188, 237, 1, 180, 61, 165, 65, 223, 189, 150, 109, 153, 61, 166, 204, 151, 190, 142, 221, 16, 61, 201, 176, 248, 190, 219, 217, 20, 188, 203, 82, 53, 62, 74, 132, 46, 62, 60, 113, 194, 60, 67, 107, 142, 61, 167, 63, 196, 190, 189, 144, 60, 61, 198, 5, 19, 61, 114, 68, 16, 61, 23, 72, 112, 61, 215, 210, 129, 62, 239, 22, 198, 189, 9, 2, 129, 189, 204, 106, 149, 60, 245, 49, 24, 188, 88, 214, 126, 61, 245, 230, 233, 60, 137, 141, 179, 185, 118, 94, 227, 185, 246, 20, 30, 190, 64, 237, 170, 61, 102, 144, 32, 62, 227, 7, 174, 60, 56, 64, 47, 62, 62, 15, 225, 189, 14, 115, 133, 190, 255, 153, 221, 190, 56, 40, 84, 61, 25, 149, 128, 190, 53, 203, 221, 61, 43, 106, 141, 189, 28, 0, 4, 61, 74, 52, 57, 190, 73, 66, 234, 61, 253, 84, 73, 189, 236, 21, 146, 59, 10, 166, 198, 61, 107, 97, 187, 61, 209, 41, 192, 62, 177, 141, 51, 61, 36, 244, 202, 188, 180, 157, 104, 190, 89, 0, 133, 62, 6, 212, 60, 190, 7, 67, 136, 61, 105, 154, 15, 190, 255, 238, 8, 62, 166, 252, 146, 61, 229, 95, 166, 190, 192, 24, 250, 61, 115, 31, 149, 190, 195, 235, 251, 188, 68, 52, 131, 61, 97, 207, 245, 189, 203, 155, 23, 61, 188, 104, 92, 60, 102, 60, 174, 188, 53, 57, 170, 60, 204, 169, 233, 188, 139, 87, 123, 62, 154, 186, 138, 61, 158, 161, 106, 188, 13, 98, 27, 60, 184, 184, 17, 61, 57, 57, 93, 62, 155, 15, 94, 189, 57, 37, 10, 188, 9, 49, 92, 60, 170, 192, 75, 189, 103, 197, 210, 188, 72, 142, 183, 61, 97, 29, 128, 60, 2, 200, 146, 189, 66, 73, 141, 189, 137, 231, 142, 62, 218, 104, 177, 61, 53, 179, 242, 189, 19, 70, 188, 189, 188, 194, 5, 191, 127, 30, 104, 188, 219, 141, 78, 188, 222, 111, 51, 61, 92, 224, 60, 61, 162, 196, 247, 188, 209, 113, 72, 61, 165, 10, 24, 189, 100, 222, 116, 62, 5, 249, 223, 189, 102, 244, 10, 61, 27, 26, 35, 62, 6, 47, 65, 62, 152, 29, 122, 60, 116, 72, 148, 61, 111, 187, 158, 188, 144, 110, 126, 61, 179, 169, 163, 188, 45, 7, 1, 189, 16, 58, 178, 188, 47, 40, 111, 188, 196, 87, 140, 60, 95, 2, 199, 187, 184, 49, 122, 61, 252, 28, 34, 190, 215, 57, 131, 61, 84, 26, 221, 188, 34, 104, 21, 189, 85, 234, 152, 61, 168, 87, 230, 60, 197, 183, 191, 189, 148, 203, 201, 59, 151, 128, 95, 189, 71, 65, 38, 61, 59, 84, 83, 62, 93, 127, 233, 60, 27, 36, 161, 61, 14, 51, 18, 189, 42, 155, 118, 190, 7, 31, 76, 190, 28, 211, 242, 189, 121, 177, 109, 190, 122, 48, 106, 59, 198, 169, 140, 61, 67, 255, 82, 190, 11, 189, 159, 62, 1, 167, 67, 61, 246, 82, 95, 61, 143, 83, 35, 62, 138, 173, 98, 61, 240, 183, 209, 61, 50, 19, 242, 61, 206, 201, 15, 190, 9, 127, 107, 189, 244, 115, 133, 188, 149, 133, 8, 62, 113, 241, 3, 190, 199, 198, 95, 60, 227, 206, 100, 189, 134, 213, 109, 59, 76, 56, 12, 190, 32, 237, 140, 189, 22, 251, 152, 61, 7, 122, 126, 189, 124, 187, 241, 189, 34, 36, 14, 61, 197, 97, 1, 62, 144, 36, 2, 62, 139, 203, 91, 189, 20, 204, 39, 190, 152, 165, 42, 62, 159, 252, 238, 190, 99, 225, 174, 61, 185, 100, 116, 62, 182, 124, 241, 190, 53, 16, 20, 189, 55, 48, 72, 62, 156, 23, 36, 189, 8, 134, 31, 190, 157, 36, 121, 62, 83, 104, 1, 188, 51, 116, 218, 61, 162, 236, 13, 188, 31, 113, 140, 60, 62, 50, 206, 58, 26, 9, 214, 62, 211, 71, 79, 189, 64, 8, 0, 188, 7, 15, 60, 61, 73, 190, 236, 60, 74, 151, 197, 190, 25, 91, 57, 189, 119, 185, 49, 61, 242, 148, 163, 189, 63, 132, 71, 189, 1, 195, 166, 190, 154, 209, 172, 57, 204, 122, 190, 62, 48, 139, 183, 60, 195, 7, 191, 188, 185, 182, 211, 61, 166, 114, 178, 189, 133, 43, 65, 62, 81, 100, 144, 190, 59, 254, 98, 190, 65, 113, 178, 189, 195, 0, 41, 189, 12, 194, 212, 61, 201, 207, 162, 190, 164, 9, 10, 62, 28, 53, 6, 62, 114, 219, 244, 189, 142, 14, 160, 190, 141, 216, 168, 60, 25, 154, 231, 61, 20, 107, 218, 61, 207, 26, 141, 62, 157, 182, 133, 189, 238, 134, 111, 61, 83, 49, 235, 61, 177, 147, 66, 189, 16, 85, 62, 60, 2, 223, 71, 189, 178, 85, 218, 61, 24, 208, 93, 190, 121, 117, 85, 189, 65, 247, 185, 61, 152, 125, 84, 188, 230, 226, 211, 189, 177, 173, 133, 61, 202, 31, 228, 61, 10, 152, 11, 62, 96, 106, 214, 188, 221, 62, 135, 190, 211, 37, 203, 62, 159, 210, 139, 61, 240, 129, 183, 190, 232, 185, 110, 190, 9, 107, 165, 189, 122, 255, 206, 189, 91, 224, 16, 59, 242, 204, 27, 190, 62, 155, 164, 187, 59, 94, 106, 190, 170, 152, 169, 61, 221, 131, 139, 60, 13, 187, 177, 188, 188, 82, 138, 190, 87, 203, 206, 189, 112, 52, 130, 188, 224, 34, 215, 60, 121, 133, 162, 189, 168, 42, 218, 60, 119, 8, 170, 189, 205, 107, 154, 189, 168, 1, 197, 62, 82, 149, 170, 61, 152, 144, 128, 188, 40, 151, 179, 189, 57, 54, 140, 188, 178, 67, 235, 60, 25, 58, 158, 60, 105, 35, 182, 61, 226, 163, 90, 62, 203, 101, 71, 189, 13, 212, 204, 189, 11, 180, 17, 190, 170, 79, 4, 60, 222, 188, 228, 190, 45, 101, 226, 60, 200, 171, 7, 190, 88, 215, 66, 62, 188, 31, 120, 189, 41, 196, 208, 188, 93, 218, 109, 61, 102, 253, 93, 189, 19, 198, 242, 190, 154, 206, 167, 189, 46, 21, 223, 187, 181, 169, 183, 60, 238, 57, 17, 190, 213, 11, 3, 62, 35, 78, 45, 189, 74, 250, 60, 61, 143, 78, 253, 188, 225, 110, 203, 60, 211, 157, 41, 190, 206, 255, 34, 188, 134, 108, 214, 60, 39, 237, 176, 189, 251, 31, 50, 61, 93, 168, 47, 190, 30, 165, 138, 189, 198, 135, 65, 61, 213, 123, 235, 60, 66, 90, 236, 61, 86, 231, 138, 60, 236, 93, 139, 61, 73, 179, 136, 189, 64, 57, 253, 189, 50, 53, 239, 189, 129, 190, 142, 61, 219, 46, 189, 188, 162, 215, 167, 189, 190, 253, 135, 185, 158, 29, 220, 189, 251, 75, 183, 60, 154, 119, 193, 61, 161, 129, 41, 190, 104, 112, 177, 62, 253, 77, 227, 187, 152, 172, 179, 61, 130, 154, 3, 190, 68, 221, 233, 59, 190, 152, 20, 190, 156, 12, 247, 61, 91, 147, 45, 190, 193, 68, 51, 62, 216, 124, 226, 58, 121, 105, 35, 190, 170, 162, 108, 62, 100, 121, 21, 62, 2, 135, 111, 190, 6, 114, 229, 189, 60, 151, 164, 189, 60, 247, 92, 189, 110, 206, 166, 62, 232, 66, 21, 61, 163, 74, 179, 190, 213, 35, 213, 189, 223, 193, 248, 188, 173, 96, 121, 189, 42, 111, 189, 189, 173, 37, 137, 61, 167, 172, 50, 189, 105, 5, 163, 189, 211, 162, 135, 190, 248, 190, 2, 61, 225, 243, 14, 62, 120, 17, 160, 188, 53, 215, 166, 190, 15, 41, 156, 189, 55, 207, 26, 189, 233, 16, 121, 187, 117, 162, 139, 60, 250, 128, 234, 189, 199, 186, 195, 61, 66, 135, 92, 62, 229, 249, 143, 61, 254, 204, 47, 187, 189, 28, 24, 191, 134, 30, 172, 61, 226, 110, 9, 188, 39, 157, 129, 188, 112, 193, 3, 190, 200, 194, 193, 59, 160, 164, 163, 189, 209, 167, 191, 60, 16, 180, 3, 190, 242, 253, 136, 61, 3, 17, 46, 61, 88, 213, 34, 62, 215, 59, 132, 189, 245, 8, 223, 62, 101, 250, 252, 188, 171, 235, 58, 190, 38, 182, 82, 62, 115, 122, 162, 61, 64, 186, 183, 189, 35, 34, 110, 189, 119, 84, 212, 61, 201, 9, 135, 190, 79, 246, 91, 189, 226, 213, 174, 189, 246, 111, 18, 188, 202, 224, 219, 61, 185, 27, 165, 58, 89, 66, 175, 61, 249, 204, 58, 188, 208, 128, 44, 189, 101, 103, 160, 189, 112, 48, 168, 61, 94, 59, 24, 188, 5, 194, 45, 189, 5, 158, 212, 188, 150, 9, 6, 190, 224, 100, 90, 189, 74, 200, 62, 61, 153, 214, 77, 190, 142, 251, 225, 62, 222, 179, 135, 189, 212, 173, 171, 61, 205, 41, 209, 189, 101, 255, 160, 62, 55, 221, 124, 62, 85, 237, 149, 188, 162, 46, 201, 61, 219, 133, 120, 190, 229, 154, 6, 189, 72, 92, 70, 190, 241, 56, 144, 187, 27, 94, 52, 189, 16, 134, 91, 189, 225, 150, 112, 62, 244, 167, 227, 189, 16, 169, 230, 189, 209, 29, 145, 61, 68, 119, 83, 62, 165, 174, 71, 190, 0, 0, 6, 0, 8, 0, 4, 0, 6, 0, 0, 0, 4, 0, 0, 0, 128, 1, 0, 0, 0, 0, 0, 0, 0, 0, 0, 0, 0, 0, 0, 0, 0, 0, 0, 0, 0, 0, 0, 0, 0, 0, 0, 0, 0, 0, 0, 0, 0, 0, 0, 0, 0, 0, 0, 0, 0, 0, 0, 0, 0, 0, 0, 0, 0, 0, 0, 0, 0, 0, 0, 0, 0, 0, 0, 0, 0, 0, 0, 0, 0, 0, 0, 0, 0, 0, 0, 0, 0, 0, 0, 0, 0, 0, 0, 0, 0, 0, 0, 0, 0, 0, 0, 0, 0, 0, 0, 0, 0, 0, 0, 0, 0, 0, 0, 0, 0, 0, 0, 0, 0, 0, 0, 0, 0, 0, 0, 0, 0, 0, 0, 0, 0, 0, 0, 0, 0, 0, 0, 0, 0, 0, 0, 0, 0, 0, 0, 0, 0, 0, 0, 0, 0, 0, 0, 0, 0, 0, 0, 0, 0, 0, 0, 0, 0, 0, 0, 0, 0, 0, 0, 0, 0, 0, 0, 0, 0, 0, 0, 0, 0, 0, 0, 0, 0, 0, 0, 0, 0, 0, 0, 0, 0, 0, 0, 0, 0, 0, 0, 0, 0, 0, 0, 0, 0, 0, 0, 0, 0, 0, 0, 0, 0, 0, 0, 0, 0, 0, 0, 0, 0, 0, 0, 0, 0, 0, 0, 0, 0, 0, 0, 0, 0, 0, 0, 0, 0, 0, 0, 0, 0, 0, 0, 0, 0, 0, 0, 0, 0, 0, 0, 0, 0, 0, 0, 0, 0, 0, 0, 0, 0, 0, 0, 0, 0, 0, 0, 0, 0, 0, 0, 0, 0, 0, 0, 0, 0, 0, 0, 0, 0, 0, 0, 0, 0, 0, 0, 0, 0, 0, 0, 0, 0, 0, 0, 0, 0, 0, 0, 0, 0, 0, 0, 0, 0, 0, 0, 0, 0, 0, 0, 0, 0, 0, 0, 0, 0, 0, 0, 0, 0, 0, 0, 0, 0, 0, 0, 0, 0, 0, 0, 0, 0, 0, 0, 0, 0, 0, 0, 0, 0, 0, 0, 0, 0, 0, 0, 0, 0, 0, 0, 0, 0, 0, 0, 0, 0, 0, 0, 0, 0, 0, 0, 0, 0, 0, 0, 0, 0, 0, 0, 0, 0, 0, 0, 0, 0, 0, 0, 0, 0, 0, 0, 0, 0, 0, 0, 0, 0, 0, 0, 0, 0, 0, 0, 0, 0, 0, 0, 0, 0, 0, 0, 0, 196, 253, 255, 255, 200, 253, 255, 255, 15, 0, 0, 0, 77, 76, 73, 82, 32, 67, 111, 110, 118, 101, 114, 116, 101, 100, 46, 0, 1, 0, 0, 0, 20, 0, 0, 0, 0, 0, 14, 0, 24, 0, 20, 0, 16, 0, 12, 0, 8, 0, 4, 0, 14, 0, 0, 0, 20, 0, 0, 0, 28, 0, 0, 0, 116, 0, 0, 0, 120, 0, 0, 0, 124, 0, 0, 0, 4, 0, 0, 0, 109, 97, 105, 110, 0, 0, 0, 0, 1, 0, 0, 0, 20, 0, 0, 0, 0, 0, 14, 0, 22, 0, 0, 0, 16, 0, 12, 0, 11, 0, 4, 0, 14, 0, 0, 0, 28, 0, 0, 0, 0, 0, 0, 1, 32, 0, 0, 0, 36, 0, 0, 0, 0, 0, 10, 0, 12, 0, 0, 0, 8, 0, 4, 0, 10, 0, 0, 0, 1, 0, 0, 0, 1, 0, 0, 0, 1, 0, 0, 0, 3, 0, 0, 0, 3, 0, 0, 0, 0, 0, 0, 0, 2, 0, 0, 0, 1, 0, 0, 0, 1, 0, 0, 0, 3, 0, 0, 0, 1, 0, 0, 0, 0, 0, 0, 0, 4, 0, 0, 0, 68, 1, 0, 0, 224, 0, 0, 0, 112, 0, 0, 0, 4, 0, 0, 0, 226, 254, 255, 255, 0, 0, 0, 1, 20, 0, 0, 0, 36, 0, 0, 0, 36, 0, 0, 0, 4, 0, 0, 0, 60, 0, 0, 0, 4, 0, 0, 0, 255, 255, 255, 255, 12, 0, 0, 0, 12, 0, 0, 0, 96, 0, 0, 0, 204, 254, 255, 255, 25, 0, 0, 0, 83, 116, 97, 116, 101, 102, 117, 108, 80, 97, 114, 116, 105, 116, 105, 111, 110, 101, 100, 67, 97, 108, 108, 58, 48, 0, 0, 0, 4, 0, 0, 0, 1, 0, 0, 0, 12, 0, 0, 0, 12, 0, 0, 0, 96, 0, 0, 0, 170, 255, 255, 255, 0, 0, 0, 1, 16, 0, 0, 0, 16, 0, 0, 0, 3, 0, 0, 0, 44, 0, 0, 0, 28, 255, 255, 255, 31, 0, 0, 0, 109, 111, 100, 101, 108, 95, 53, 51, 47, 98, 108, 111, 99, 107, 95, 54, 95, 101, 120, 112, 97, 110, 100, 47, 67, 111, 110, 118, 50, 68, 49, 0, 4, 0, 0, 0, 96, 0, 0, 0, 1, 0, 0, 0, 1, 0, 0, 0, 16, 0, 0, 0, 0, 0, 22, 0, 24, 0, 20, 0, 0, 0, 16, 0, 12, 0, 8, 0, 0, 0, 0, 0, 0, 0, 7, 0, 22, 0, 0, 0, 0, 0, 0, 1, 16, 0, 0, 0, 16, 0, 0, 0, 2, 0, 0, 0, 44, 0, 0, 0, 136, 255, 255, 255, 30, 0, 0, 0, 109, 111, 100, 101, 108, 95, 53, 51, 47, 98, 108, 111, 99, 107, 95, 54, 95, 101, 120, 112, 97, 110, 100, 47, 67, 111, 110, 118, 50, 68, 0, 0, 1, 0, 0, 0, 96, 0, 0, 0, 0, 0, 22, 0, 28, 0, 24, 0, 0, 0, 20, 0, 16, 0, 12, 0, 0, 0, 0, 0, 8, 0, 7, 0, 22, 0, 0, 0, 0, 0, 0, 1, 20, 0, 0, 0, 40, 0, 0, 0, 40, 0, 0, 0, 1, 0, 0, 0, 64, 0, 0, 0, 4, 0, 0, 0, 255, 255, 255, 255, 12, 0, 0, 0, 12, 0, 0, 0, 16, 0, 0, 0, 4, 0, 4, 0, 4, 0, 0, 0, 26, 0, 0, 0, 115, 101, 114, 118, 105, 110, 103, 95, 100, 101, 102, 97, 117, 108, 116, 95, 105, 110, 112, 117, 116, 95, 53, 55, 58, 48, 0, 0, 4, 0, 0, 0, 1, 0, 0, 0, 12, 0, 0, 0, 12, 0, 0, 0, 16, 0, 0, 0, 1, 0, 0, 0, 16, 0, 0, 0, 12, 0, 12, 0, 11, 0, 0, 0, 0, 0, 4, 0, 12, 0, 0, 0, 3, 0, 0, 0, 0, 0, 0, 3
};
