#pragma once

#include <cstdint>

const uint8_t layer_38[] = {
28, 0, 0, 0, 84, 70, 76, 51, 20, 0, 32, 0, 28, 0, 24, 0, 20, 0, 16, 0, 12, 0, 0, 0, 8, 0, 4, 0, 20, 0, 0, 0, 28, 0, 0, 0, 156, 0, 0, 0, 244, 0, 0, 0, 184, 16, 0, 0, 200, 16, 0, 0, 52, 19, 0, 0, 3, 0, 0, 0, 1, 0, 0, 0, 16, 0, 0, 0, 0, 0, 10, 0, 16, 0, 12, 0, 8, 0, 4, 0, 10, 0, 0, 0, 12, 0, 0, 0, 28, 0, 0, 0, 68, 0, 0, 0, 15, 0, 0, 0, 115, 101, 114, 118, 105, 110, 103, 95, 100, 101, 102, 97, 117, 108, 116, 0, 1, 0, 0, 0, 4, 0, 0, 0, 140, 255, 255, 255, 3, 0, 0, 0, 4, 0, 0, 0, 17, 0, 0, 0, 98, 108, 111, 99, 107, 95, 52, 95, 100, 101, 112, 116, 104, 119, 105, 115, 101, 0, 0, 0, 1, 0, 0, 0, 4, 0, 0, 0, 94, 241, 255, 255, 4, 0, 0, 0, 8, 0, 0, 0, 105, 110, 112, 117, 116, 95, 52, 48, 0, 0, 0, 0, 2, 0, 0, 0, 52, 0, 0, 0, 4, 0, 0, 0, 220, 255, 255, 255, 6, 0, 0, 0, 4, 0, 0, 0, 19, 0, 0, 0, 67, 79, 78, 86, 69, 82, 83, 73, 79, 78, 95, 77, 69, 84, 65, 68, 65, 84, 65, 0, 8, 0, 12, 0, 8, 0, 4, 0, 8, 0, 0, 0, 5, 0, 0, 0, 4, 0, 0, 0, 19, 0, 0, 0, 109, 105, 110, 95, 114, 117, 110, 116, 105, 109, 101, 95, 118, 101, 114, 115, 105, 111, 110, 0, 7, 0, 0, 0, 192, 15, 0, 0, 184, 15, 0, 0, 40, 14, 0, 0, 144, 0, 0, 0, 136, 0, 0, 0, 104, 0, 0, 0, 4, 0, 0, 0, 242, 241, 255, 255, 4, 0, 0, 0, 84, 0, 0, 0, 12, 0, 0, 0, 8, 0, 14, 0, 8, 0, 4, 0, 8, 0, 0, 0, 16, 0, 0, 0, 36, 0, 0, 0, 0, 0, 6, 0, 8, 0, 4, 0, 6, 0, 0, 0, 4, 0, 0, 0, 0, 0, 0, 0, 0, 0, 10, 0, 16, 0, 12, 0, 8, 0, 4, 0, 10, 0, 0, 0, 2, 0, 0, 0, 2, 0, 0, 0, 4, 0, 0, 0, 6, 0, 0, 0, 50, 46, 49, 53, 46, 48, 0, 0, 82, 242, 255, 255, 4, 0, 0, 0, 16, 0, 0, 0, 49, 46, 53, 46, 48, 0, 0, 0, 0, 0, 0, 0, 0, 0, 0, 0, 140, 238, 255, 255, 114, 242, 255, 255, 4, 0, 0, 0, 128, 13, 0, 0, 91, 28, 34, 191, 108, 214, 244, 61, 16, 37, 98, 191, 71, 137, 38, 64, 111, 4, 219, 190, 161, 159, 25, 63, 133, 84, 219, 191, 89, 197, 159, 191, 224, 74, 211, 62, 118, 128, 14, 190, 202, 96, 8, 64, 45, 47, 136, 190, 1, 72, 128, 61, 197, 71, 121, 190, 134, 0, 0, 190, 242, 138, 72, 63, 45, 14, 4, 62, 229, 77, 225, 62, 203, 237, 194, 190, 65, 86, 196, 61, 63, 204, 155, 63, 110, 145, 53, 61, 200, 211, 84, 63, 168, 157, 73, 191, 121, 64, 174, 61, 88, 117, 225, 62, 54, 113, 75, 63, 43, 35, 149, 63, 58, 29, 255, 62, 235, 78, 118, 62, 233, 221, 51, 63, 125, 6, 162, 63, 61, 17, 220, 189, 17, 5, 27, 63, 199, 47, 75, 62, 207, 95, 17, 191, 75, 148, 57, 62, 250, 164, 166, 63, 249, 168, 1, 191, 17, 206, 31, 191, 15, 4, 30, 63, 14, 128, 161, 62, 19, 214, 79, 63, 6, 6, 195, 62, 119, 167, 9, 192, 18, 243, 84, 191, 181, 189, 57, 63, 191, 180, 138, 190, 86, 3, 191, 190, 64, 137, 194, 190, 159, 17, 121, 190, 12, 129, 117, 190, 7, 85, 209, 63, 69, 233, 34, 62, 166, 116, 97, 190, 253, 188, 19, 61, 229, 214, 137, 189, 168, 41, 114, 191, 60, 67, 245, 62, 52, 191, 37, 191, 51, 104, 20, 63, 182, 224, 1, 189, 98, 101, 60, 64, 39, 159, 57, 63, 126, 184, 194, 190, 32, 155, 221, 190, 93, 107, 6, 62, 14, 149, 106, 191, 190, 177, 198, 63, 34, 239, 156, 63, 2, 181, 32, 61, 23, 100, 16, 190, 141, 45, 206, 63, 242, 129, 31, 191, 28, 68, 169, 63, 7, 54, 10, 62, 134, 199, 235, 62, 1, 189, 55, 192, 214, 94, 41, 63, 232, 62, 137, 63, 116, 199, 205, 60, 46, 70, 116, 62, 43, 238, 17, 64, 22, 106, 205, 190, 81, 16, 125, 63, 152, 199, 80, 63, 103, 186, 10, 191, 152, 141, 223, 190, 152, 73, 77, 63, 78, 207, 41, 190, 182, 95, 191, 190, 177, 15, 7, 64, 73, 115, 200, 60, 110, 213, 32, 63, 95, 76, 164, 189, 241, 37, 147, 62, 108, 25, 230, 191, 63, 194, 118, 62, 102, 160, 185, 190, 194, 14, 120, 62, 210, 17, 177, 63, 67, 3, 56, 190, 151, 83, 144, 190, 16, 107, 59, 192, 175, 53, 113, 63, 21, 48, 200, 62, 236, 21, 43, 192, 255, 209, 10, 190, 148, 18, 207, 190, 136, 16, 187, 190, 120, 77, 235, 61, 200, 179, 170, 63, 60, 223, 228, 62, 232, 228, 81, 191, 127, 85, 36, 190, 90, 238, 196, 190, 31, 16, 161, 63, 197, 243, 14, 192, 230, 25, 81, 64, 188, 123, 22, 63, 227, 189, 53, 192, 45, 3, 76, 191, 18, 254, 252, 191, 102, 167, 194, 190, 36, 33, 38, 63, 189, 165, 52, 63, 238, 44, 189, 191, 234, 19, 233, 62, 116, 121, 236, 63, 125, 51, 132, 62, 15, 32, 104, 190, 47, 168, 82, 188, 223, 201, 62, 191, 43, 90, 87, 64, 152, 255, 12, 191, 41, 221, 61, 192, 126, 192, 135, 62, 134, 184, 26, 191, 154, 244, 103, 191, 2, 99, 158, 62, 229, 83, 150, 63, 26, 38, 241, 191, 166, 119, 112, 64, 228, 159, 20, 192, 255, 82, 53, 192, 66, 27, 121, 63, 67, 148, 186, 63, 33, 198, 139, 62, 105, 95, 165, 63, 116, 153, 15, 192, 2, 29, 93, 63, 119, 120, 229, 63, 150, 97, 90, 63, 121, 117, 145, 63, 244, 157, 216, 191, 73, 39, 228, 63, 190, 25, 51, 64, 97, 210, 76, 63, 109, 55, 190, 61, 165, 222, 4, 191, 204, 211, 164, 63, 252, 9, 195, 191, 10, 182, 143, 191, 108, 196, 208, 187, 112, 38, 91, 63, 172, 17, 132, 191, 14, 22, 153, 190, 5, 144, 96, 63, 83, 1, 124, 191, 92, 203, 108, 191, 38, 38, 2, 64, 62, 33, 235, 189, 149, 218, 95, 191, 114, 103, 174, 191, 75, 120, 50, 191, 142, 164, 134, 63, 80, 219, 193, 191, 85, 128, 112, 63, 31, 28, 138, 190, 22, 245, 120, 62, 170, 127, 132, 190, 114, 201, 174, 63, 39, 162, 135, 63, 178, 39, 111, 191, 76, 6, 25, 191, 135, 195, 166, 63, 165, 154, 184, 190, 202, 82, 239, 63, 125, 3, 14, 192, 116, 172, 105, 191, 199, 247, 84, 63, 217, 176, 58, 192, 225, 213, 183, 60, 48, 141, 166, 189, 221, 76, 130, 191, 163, 191, 235, 191, 217, 194, 102, 62, 26, 165, 250, 62, 166, 121, 131, 63, 201, 193, 251, 62, 239, 243, 207, 189, 17, 89, 7, 189, 49, 69, 244, 61, 255, 252, 220, 63, 20, 219, 141, 188, 147, 133, 202, 190, 79, 164, 154, 190, 187, 106, 193, 61, 83, 233, 140, 190, 133, 178, 237, 62, 178, 164, 57, 190, 244, 112, 229, 62, 77, 70, 204, 61, 213, 30, 12, 63, 55, 217, 27, 63, 36, 113, 67, 191, 37, 201, 24, 61, 225, 115, 73, 191, 104, 161, 34, 62, 105, 236, 142, 62, 254, 201, 41, 190, 171, 128, 197, 61, 97, 211, 174, 63, 111, 77, 8, 192, 173, 160, 47, 63, 41, 62, 193, 62, 64, 189, 60, 62, 150, 145, 99, 191, 224, 73, 210, 62, 116, 46, 232, 61, 114, 123, 135, 190, 13, 208, 251, 190, 222, 148, 100, 62, 249, 225, 226, 61, 11, 231, 237, 190, 49, 48, 53, 62, 16, 107, 17, 63, 29, 167, 235, 190, 175, 242, 27, 63, 161, 59, 2, 61, 73, 10, 137, 62, 60, 73, 25, 190, 227, 68, 31, 62, 189, 82, 76, 190, 255, 80, 49, 62, 74, 72, 55, 62, 90, 163, 18, 190, 162, 40, 125, 62, 246, 248, 47, 190, 126, 98, 154, 63, 125, 140, 0, 62, 253, 57, 42, 189, 186, 115, 118, 62, 70, 201, 204, 190, 151, 187, 156, 61, 150, 66, 223, 190, 207, 3, 74, 191, 94, 189, 50, 191, 196, 245, 191, 62, 194, 87, 98, 191, 249, 241, 32, 192, 254, 120, 101, 190, 13, 95, 43, 63, 228, 177, 174, 190, 155, 227, 37, 192, 224, 216, 221, 190, 140, 192, 124, 190, 191, 207, 1, 63, 47, 79, 148, 62, 151, 253, 126, 190, 202, 212, 6, 62, 105, 97, 70, 62, 77, 85, 150, 190, 61, 207, 180, 62, 113, 96, 38, 191, 135, 4, 163, 189, 64, 192, 131, 191, 10, 224, 25, 63, 50, 135, 2, 63, 78, 77, 92, 63, 217, 230, 7, 191, 132, 109, 204, 190, 106, 153, 50, 63, 18, 113, 157, 190, 214, 206, 162, 62, 207, 234, 104, 62, 84, 135, 119, 189, 98, 223, 132, 191, 130, 147, 191, 191, 173, 146, 144, 63, 159, 143, 70, 191, 103, 253, 111, 63, 123, 148, 14, 192, 81, 200, 197, 190, 19, 165, 153, 190, 102, 18, 131, 191, 157, 57, 31, 63, 150, 71, 38, 64, 73, 78, 112, 191, 183, 68, 25, 191, 158, 34, 54, 191, 247, 37, 77, 191, 63, 255, 58, 190, 63, 120, 99, 63, 216, 213, 64, 64, 28, 69, 38, 191, 22, 82, 131, 191, 228, 170, 175, 190, 52, 211, 116, 63, 27, 248, 59, 192, 228, 246, 58, 191, 168, 93, 184, 62, 244, 84, 209, 191, 188, 25, 156, 191, 190, 19, 25, 192, 56, 249, 234, 189, 3, 233, 98, 63, 112, 244, 53, 63, 40, 101, 192, 191, 141, 210, 57, 63, 20, 213, 251, 191, 183, 172, 222, 191, 15, 63, 131, 191, 9, 28, 37, 62, 111, 56, 8, 64, 200, 142, 121, 189, 189, 135, 223, 190, 11, 230, 136, 63, 192, 70, 22, 191, 220, 39, 56, 64, 122, 165, 226, 60, 216, 10, 127, 189, 74, 80, 98, 63, 99, 203, 65, 191, 61, 122, 198, 190, 253, 147, 213, 191, 164, 187, 152, 64, 109, 83, 89, 63, 79, 27, 249, 189, 102, 217, 73, 63, 238, 180, 190, 63, 172, 99, 154, 62, 126, 116, 125, 191, 212, 93, 18, 191, 235, 124, 54, 63, 103, 170, 128, 62, 210, 165, 5, 192, 123, 107, 43, 64, 70, 178, 77, 191, 54, 159, 0, 192, 248, 43, 247, 62, 166, 8, 88, 64, 94, 228, 229, 191, 145, 104, 185, 191, 183, 189, 131, 191, 84, 126, 17, 64, 136, 240, 93, 191, 218, 169, 139, 64, 227, 26, 140, 190, 224, 73, 130, 63, 159, 93, 59, 191, 84, 193, 133, 191, 26, 15, 52, 63, 152, 74, 130, 62, 172, 141, 132, 191, 204, 203, 202, 191, 88, 230, 49, 64, 104, 28, 72, 63, 159, 200, 57, 64, 238, 33, 12, 63, 39, 150, 223, 61, 161, 122, 13, 189, 239, 237, 83, 64, 53, 175, 88, 63, 231, 215, 237, 191, 195, 11, 143, 63, 34, 71, 86, 191, 255, 151, 89, 191, 91, 4, 56, 192, 255, 88, 132, 63, 251, 18, 215, 63, 251, 119, 71, 64, 80, 43, 129, 63, 187, 98, 171, 191, 78, 243, 148, 64, 28, 121, 28, 64, 251, 249, 176, 64, 169, 248, 73, 64, 212, 133, 153, 191, 222, 33, 80, 192, 178, 124, 94, 64, 47, 205, 12, 63, 83, 138, 74, 64, 162, 250, 91, 192, 248, 214, 176, 62, 163, 232, 96, 192, 33, 67, 30, 192, 12, 76, 132, 64, 64, 111, 101, 64, 247, 93, 234, 63, 209, 159, 196, 190, 94, 85, 94, 192, 180, 149, 50, 191, 136, 225, 80, 192, 183, 102, 6, 64, 207, 20, 9, 63, 78, 23, 219, 191, 81, 216, 60, 64, 230, 67, 186, 64, 109, 199, 82, 64, 45, 232, 134, 191, 254, 195, 65, 192, 34, 144, 64, 64, 120, 251, 33, 64, 48, 202, 116, 192, 204, 208, 88, 64, 232, 23, 9, 190, 18, 124, 59, 192, 227, 6, 17, 192, 133, 1, 166, 64, 110, 138, 131, 192, 146, 250, 147, 191, 0, 27, 75, 63, 82, 182, 35, 64, 250, 252, 120, 192, 233, 221, 133, 192, 203, 60, 118, 64, 185, 223, 50, 64, 201, 171, 79, 64, 164, 188, 223, 191, 138, 206, 75, 192, 213, 78, 211, 64, 82, 29, 1, 191, 75, 75, 30, 64, 56, 21, 116, 192, 116, 158, 156, 192, 204, 120, 133, 192, 94, 62, 141, 64, 134, 255, 92, 64, 11, 44, 132, 192, 38, 122, 60, 64, 21, 123, 90, 192, 237, 70, 53, 191, 32, 136, 92, 63, 194, 138, 20, 192, 186, 210, 28, 191, 12, 253, 205, 191, 81, 23, 227, 191, 225, 200, 115, 64, 50, 165, 164, 64, 20, 136, 90, 191, 165, 127, 18, 64, 176, 64, 64, 64, 210, 163, 105, 192, 25, 188, 2, 192, 142, 84, 27, 64, 59, 14, 92, 191, 211, 236, 22, 64, 46, 121, 30, 192, 120, 123, 117, 192, 67, 23, 105, 192, 234, 87, 53, 64, 22, 153, 211, 191, 113, 188, 5, 64, 76, 79, 125, 191, 226, 143, 243, 63, 113, 44, 183, 63, 235, 148, 100, 64, 200, 204, 119, 191, 17, 113, 106, 192, 51, 119, 253, 190, 203, 78, 30, 192, 85, 245, 52, 192, 68, 111, 68, 192, 123, 80, 35, 191, 231, 48, 84, 192, 195, 9, 200, 190, 174, 26, 120, 192, 176, 30, 145, 192, 7, 48, 43, 64, 66, 56, 98, 191, 1, 185, 161, 63, 97, 216, 209, 191, 132, 222, 105, 61, 170, 9, 88, 64, 226, 117, 231, 63, 217, 24, 25, 191, 121, 33, 146, 63, 96, 106, 237, 61, 202, 125, 39, 63, 102, 207, 136, 190, 9, 22, 240, 189, 101, 10, 29, 191, 204, 80, 128, 191, 159, 245, 181, 190, 67, 99, 225, 189, 183, 22, 30, 192, 194, 238, 18, 191, 252, 243, 188, 191, 114, 137, 129, 63, 109, 185, 252, 62, 4, 140, 224, 63, 138, 76, 156, 190, 47, 103, 45, 192, 252, 27, 200, 191, 57, 12, 133, 191, 89, 223, 18, 64, 103, 228, 220, 63, 36, 46, 101, 62, 3, 35, 51, 63, 194, 59, 11, 64, 57, 56, 84, 62, 180, 172, 249, 63, 223, 133, 141, 191, 188, 65, 22, 64, 79, 70, 234, 189, 174, 21, 225, 63, 45, 91, 19, 62, 40, 232, 73, 191, 202, 63, 164, 62, 213, 226, 141, 63, 43, 227, 73, 63, 138, 191, 49, 191, 60, 105, 141, 60, 187, 211, 21, 191, 59, 242, 65, 191, 64, 244, 193, 190, 12, 148, 13, 192, 163, 128, 66, 64, 3, 108, 144, 62, 228, 240, 178, 190, 207, 90, 197, 63, 187, 180, 43, 190, 82, 54, 31, 190, 167, 143, 3, 192, 197, 135, 238, 190, 179, 32, 14, 63, 95, 219, 11, 63, 100, 103, 8, 64, 186, 68, 240, 191, 38, 30, 60, 61, 168, 212, 58, 64, 162, 253, 62, 59, 184, 204, 111, 191, 111, 144, 86, 192, 231, 127, 145, 191, 127, 102, 100, 191, 228, 63, 229, 63, 177, 181, 180, 62, 157, 216, 14, 191, 25, 20, 233, 63, 52, 96, 239, 62, 216, 103, 181, 190, 35, 110, 137, 191, 45, 190, 84, 62, 143, 237, 181, 63, 179, 64, 85, 191, 116, 119, 35, 190, 155, 97, 113, 191, 111, 39, 126, 189, 26, 236, 134, 191, 50, 119, 8, 62, 6, 207, 81, 63, 41, 142, 48, 63, 154, 121, 19, 192, 50, 88, 130, 63, 91, 117, 30, 64, 203, 32, 138, 191, 80, 251, 59, 63, 44, 95, 6, 191, 75, 0, 102, 64, 20, 60, 136, 190, 190, 200, 252, 191, 77, 52, 136, 63, 204, 15, 152, 63, 69, 119, 221, 62, 38, 37, 18, 190, 170, 122, 71, 191, 47, 16, 109, 191, 28, 54, 195, 191, 121, 80, 185, 189, 78, 191, 185, 62, 249, 91, 138, 63, 57, 42, 52, 63, 17, 61, 74, 189, 224, 83, 142, 62, 74, 80, 211, 190, 30, 67, 184, 63, 184, 175, 11, 63, 105, 157, 142, 191, 7, 3, 59, 190, 142, 188, 193, 61, 72, 87, 125, 63, 185, 155, 78, 61, 8, 164, 31, 62, 225, 92, 18, 63, 115, 218, 36, 190, 201, 177, 44, 63, 44, 173, 222, 190, 186, 190, 28, 191, 73, 23, 139, 61, 38, 188, 28, 191, 40, 17, 30, 62, 180, 142, 147, 61, 252, 222, 118, 190, 222, 195, 12, 190, 215, 198, 187, 63, 139, 32, 1, 192, 131, 110, 21, 191, 3, 245, 192, 63, 216, 29, 252, 190, 12, 157, 125, 191, 2, 48, 130, 63, 184, 160, 101, 191, 28, 62, 9, 191, 98, 112, 191, 62, 175, 90, 139, 62, 130, 223, 166, 62, 17, 168, 130, 191, 166, 248, 209, 62, 210, 3, 165, 62, 83, 22, 148, 191, 248, 157, 195, 190, 247, 3, 130, 189, 181, 227, 166, 190, 40, 235, 235, 61, 133, 192, 244, 62, 235, 113, 148, 190, 22, 112, 142, 62, 129, 253, 172, 60, 254, 103, 24, 191, 186, 182, 50, 62, 205, 38, 230, 188, 177, 238, 152, 63, 72, 13, 85, 191, 146, 39, 56, 63, 41, 27, 3, 190, 97, 63, 137, 190, 125, 217, 230, 61, 82, 140, 237, 62, 59, 115, 52, 190, 76, 224, 205, 190, 216, 246, 135, 62, 171, 128, 108, 191, 62, 77, 171, 191, 95, 143, 195, 62, 158, 26, 171, 190, 244, 25, 117, 190, 179, 185, 27, 192, 120, 240, 24, 191, 65, 25, 161, 187, 178, 239, 9, 63, 152, 107, 208, 62, 68, 76, 138, 190, 222, 18, 160, 63, 112, 220, 141, 62, 228, 212, 2, 63, 33, 102, 175, 62, 9, 102, 56, 191, 216, 16, 222, 62, 18, 204, 164, 62, 171, 153, 61, 63, 3, 184, 195, 190, 12, 160, 117, 62, 210, 192, 216, 61, 158, 97, 30, 63, 174, 2, 36, 63, 7, 57, 29, 190, 236, 170, 166, 62, 102, 177, 158, 63, 214, 124, 121, 190, 143, 205, 44, 191, 212, 142, 129, 191, 187, 192, 84, 190, 219, 159, 150, 191, 240, 204, 21, 63, 242, 19, 149, 191, 73, 161, 245, 63, 38, 200, 49, 191, 198, 150, 195, 63, 82, 15, 23, 62, 124, 142, 13, 190, 32, 8, 147, 63, 171, 137, 167, 190, 80, 149, 58, 64, 144, 162, 113, 190, 84, 250, 249, 190, 189, 65, 122, 190, 63, 187, 87, 188, 80, 199, 140, 191, 201, 23, 38, 191, 254, 78, 32, 63, 187, 173, 180, 190, 112, 26, 230, 63, 125, 254, 145, 191, 0, 62, 39, 192, 82, 120, 10, 192, 244, 72, 157, 191, 119, 162, 238, 63, 215, 251, 213, 63, 169, 237, 157, 62, 108, 124, 90, 63, 11, 176, 207, 63, 203, 218, 125, 189, 164, 131, 240, 191, 48, 171, 181, 63, 203, 47, 132, 190, 24, 10, 104, 191, 72, 80, 106, 191, 20, 90, 48, 191, 63, 143, 135, 191, 5, 255, 148, 189, 190, 227, 173, 63, 168, 48, 221, 190, 152, 164, 225, 190, 169, 122, 71, 63, 167, 147, 44, 191, 71, 107, 40, 191, 79, 153, 15, 191, 58, 187, 31, 192, 0, 185, 14, 192, 245, 247, 7, 63, 225, 189, 1, 64, 236, 163, 115, 63, 142, 0, 177, 190, 171, 239, 51, 192, 32, 149, 73, 63, 162, 239, 212, 63, 36, 64, 199, 62, 109, 190, 53, 63, 128, 158, 159, 63, 217, 119, 150, 191, 75, 4, 224, 62, 161, 225, 166, 191, 43, 159, 68, 190, 57, 166, 192, 60, 10, 141, 15, 63, 45, 26, 135, 191, 232, 220, 191, 191, 143, 98, 116, 191, 252, 244, 134, 190, 210, 232, 108, 191, 7, 58, 131, 191, 76, 241, 212, 62, 19, 89, 60, 63, 27, 74, 97, 191, 121, 166, 24, 191, 145, 2, 87, 190, 231, 6, 165, 191, 214, 149, 6, 63, 21, 29, 156, 191, 171, 162, 109, 60, 126, 227, 141, 63, 115, 186, 4, 63, 205, 208, 174, 62, 25, 170, 149, 62, 140, 125, 27, 62, 221, 184, 231, 63, 236, 243, 228, 191, 101, 192, 62, 64, 141, 238, 175, 62, 107, 48, 68, 64, 92, 234, 96, 191, 19, 162, 249, 190, 135, 177, 252, 63, 30, 177, 32, 191, 174, 246, 210, 63, 194, 200, 243, 63, 169, 132, 171, 190, 235, 158, 44, 191, 83, 14, 143, 191, 249, 140, 58, 63, 88, 244, 176, 62, 190, 237, 214, 63, 182, 120, 153, 191, 161, 173, 153, 62, 153, 189, 212, 61, 216, 235, 33, 190, 60, 219, 153, 60, 125, 131, 186, 62, 8, 219, 134, 62, 193, 110, 212, 191, 225, 94, 129, 190, 248, 82, 64, 190, 54, 101, 131, 191, 87, 116, 26, 190, 153, 44, 78, 62, 11, 18, 6, 63, 20, 71, 204, 190, 244, 107, 223, 61, 70, 156, 8, 191, 59, 98, 164, 61, 56, 91, 41, 190, 234, 253, 251, 62, 73, 84, 128, 189, 193, 104, 156, 63, 69, 67, 58, 189, 112, 151, 229, 189, 140, 134, 130, 63, 228, 158, 63, 63, 78, 144, 144, 62, 37, 116, 114, 63, 114, 20, 189, 62, 130, 32, 101, 191, 128, 124, 71, 190, 64, 242, 43, 191, 107, 114, 116, 190, 230, 74, 48, 62, 109, 213, 175, 62, 162, 216, 183, 190, 67, 114, 40, 63, 151, 233, 70, 62, 123, 167, 240, 191, 167, 2, 241, 190, 135, 231, 206, 190, 124, 24, 89, 62, 121, 206, 49, 189, 100, 196, 162, 190, 30, 224, 234, 188, 212, 190, 22, 190, 126, 250, 130, 190, 109, 216, 141, 62, 161, 153, 243, 190, 140, 250, 49, 190, 246, 81, 214, 188, 111, 235, 169, 191, 10, 140, 100, 62, 252, 166, 30, 191, 181, 164, 242, 190, 134, 57, 146, 63, 93, 0, 84, 62, 97, 17, 61, 191, 17, 114, 161, 190, 0, 204, 197, 189, 182, 137, 215, 62, 135, 18, 116, 191, 185, 229, 137, 63, 82, 181, 125, 62, 96, 0, 88, 63, 43, 48, 212, 190, 214, 202, 32, 63, 119, 127, 134, 191, 0, 76, 183, 190, 19, 205, 43, 63, 98, 21, 157, 62, 141, 254, 122, 62, 195, 244, 225, 189, 105, 150, 178, 62, 202, 1, 46, 191, 196, 44, 248, 62, 178, 53, 202, 63, 17, 217, 207, 190, 103, 97, 221, 190, 20, 128, 202, 63, 132, 156, 66, 63, 122, 126, 73, 190, 240, 177, 28, 64, 72, 21, 149, 62, 199, 68, 104, 61, 247, 56, 0, 191, 76, 48, 31, 62, 186, 237, 41, 191, 224, 167, 112, 190, 168, 70, 146, 191, 0, 0, 6, 0, 8, 0, 4, 0, 6, 0, 0, 0, 4, 0, 0, 0, 128, 1, 0, 0, 0, 0, 0, 0, 0, 0, 0, 0, 0, 0, 0, 0, 0, 0, 0, 0, 0, 0, 0, 0, 0, 0, 0, 0, 0, 0, 0, 0, 0, 0, 0, 0, 0, 0, 0, 0, 0, 0, 0, 0, 0, 0, 0, 0, 0, 0, 0, 0, 0, 0, 0, 0, 0, 0, 0, 0, 0, 0, 0, 0, 0, 0, 0, 0, 0, 0, 0, 0, 0, 0, 0, 0, 0, 0, 0, 0, 0, 0, 0, 0, 0, 0, 0, 0, 0, 0, 0, 0, 0, 0, 0, 0, 0, 0, 0, 0, 0, 0, 0, 0, 0, 0, 0, 0, 0, 0, 0, 0, 0, 0, 0, 0, 0, 0, 0, 0, 0, 0, 0, 0, 0, 0, 0, 0, 0, 0, 0, 0, 0, 0, 0, 0, 0, 0, 0, 0, 0, 0, 0, 0, 0, 0, 0, 0, 0, 0, 0, 0, 0, 0, 0, 0, 0, 0, 0, 0, 0, 0, 0, 0, 0, 0, 0, 0, 0, 0, 0, 0, 0, 0, 0, 0, 0, 0, 0, 0, 0, 0, 0, 0, 0, 0, 0, 0, 0, 0, 0, 0, 0, 0, 0, 0, 0, 0, 0, 0, 0, 0, 0, 0, 0, 0, 0, 0, 0, 0, 0, 0, 0, 0, 0, 0, 0, 0, 0, 0, 0, 0, 0, 0, 0, 0, 0, 0, 0, 0, 0, 0, 0, 0, 0, 0, 0, 0, 0, 0, 0, 0, 0, 0, 0, 0, 0, 0, 0, 0, 0, 0, 0, 0, 0, 0, 0, 0, 0, 0, 0, 0, 0, 0, 0, 0, 0, 0, 0, 0, 0, 0, 0, 0, 0, 0, 0, 0, 0, 0, 0, 0, 0, 0, 0, 0, 0, 0, 0, 0, 0, 0, 0, 0, 0, 0, 0, 0, 0, 0, 0, 0, 0, 0, 0, 0, 0, 0, 0, 0, 0, 0, 0, 0, 0, 0, 0, 0, 0, 0, 0, 0, 0, 0, 0, 0, 0, 0, 0, 0, 0, 0, 0, 0, 0, 0, 0, 0, 0, 0, 0, 0, 0, 0, 0, 0, 0, 0, 0, 0, 0, 0, 0, 0, 0, 0, 0, 0, 0, 0, 0, 0, 0, 0, 0, 0, 0, 0, 0, 0, 0, 0, 0, 0, 0, 0, 0, 0, 0, 0, 0, 0, 0, 0, 0, 0, 0, 0, 176, 253, 255, 255, 180, 253, 255, 255, 15, 0, 0, 0, 77, 76, 73, 82, 32, 67, 111, 110, 118, 101, 114, 116, 101, 100, 46, 0, 1, 0, 0, 0, 20, 0, 0, 0, 0, 0, 14, 0, 24, 0, 20, 0, 16, 0, 12, 0, 8, 0, 4, 0, 14, 0, 0, 0, 20, 0, 0, 0, 28, 0, 0, 0, 120, 0, 0, 0, 124, 0, 0, 0, 128, 0, 0, 0, 4, 0, 0, 0, 109, 97, 105, 110, 0, 0, 0, 0, 1, 0, 0, 0, 20, 0, 0, 0, 0, 0, 14, 0, 20, 0, 0, 0, 16, 0, 12, 0, 11, 0, 4, 0, 14, 0, 0, 0, 28, 0, 0, 0, 0, 0, 0, 2, 36, 0, 0, 0, 40, 0, 0, 0, 12, 0, 16, 0, 0, 0, 12, 0, 8, 0, 4, 0, 12, 0, 0, 0, 1, 0, 0, 0, 1, 0, 0, 0, 1, 0, 0, 0, 1, 0, 0, 0, 3, 0, 0, 0, 3, 0, 0, 0, 0, 0, 0, 0, 2, 0, 0, 0, 1, 0, 0, 0, 1, 0, 0, 0, 3, 0, 0, 0, 1, 0, 0, 0, 0, 0, 0, 0, 4, 0, 0, 0, 84, 1, 0, 0, 232, 0, 0, 0, 112, 0, 0, 0, 4, 0, 0, 0, 210, 254, 255, 255, 0, 0, 0, 1, 20, 0, 0, 0, 36, 0, 0, 0, 36, 0, 0, 0, 4, 0, 0, 0, 60, 0, 0, 0, 4, 0, 0, 0, 255, 255, 255, 255, 12, 0, 0, 0, 12, 0, 0, 0, 96, 0, 0, 0, 188, 254, 255, 255, 25, 0, 0, 0, 83, 116, 97, 116, 101, 102, 117, 108, 80, 97, 114, 116, 105, 116, 105, 111, 110, 101, 100, 67, 97, 108, 108, 58, 48, 0, 0, 0, 4, 0, 0, 0, 1, 0, 0, 0, 12, 0, 0, 0, 12, 0, 0, 0, 96, 0, 0, 0, 162, 255, 255, 255, 0, 0, 0, 1, 16, 0, 0, 0, 16, 0, 0, 0, 3, 0, 0, 0, 52, 0, 0, 0, 12, 255, 255, 255, 37, 0, 0, 0, 109, 111, 100, 101, 108, 95, 51, 56, 47, 98, 108, 111, 99, 107, 95, 52, 95, 100, 101, 112, 116, 104, 119, 105, 115, 101, 47, 100, 101, 112, 116, 104, 119, 105, 115, 101, 49, 0, 0, 0, 4, 0, 0, 0, 1, 0, 0, 0, 3, 0, 0, 0, 3, 0, 0, 0, 96, 0, 0, 0, 0, 0, 22, 0, 24, 0, 20, 0, 0, 0, 16, 0, 12, 0, 8, 0, 0, 0, 0, 0, 0, 0, 7, 0, 22, 0, 0, 0, 0, 0, 0, 1, 16, 0, 0, 0, 16, 0, 0, 0, 2, 0, 0, 0, 52, 0, 0, 0, 128, 255, 255, 255, 36, 0, 0, 0, 109, 111, 100, 101, 108, 95, 51, 56, 47, 98, 108, 111, 99, 107, 95, 52, 95, 100, 101, 112, 116, 104, 119, 105, 115, 101, 47, 100, 101, 112, 116, 104, 119, 105, 115, 101, 0, 0, 0, 0, 1, 0, 0, 0, 96, 0, 0, 0, 0, 0, 22, 0, 28, 0, 24, 0, 0, 0, 20, 0, 16, 0, 12, 0, 0, 0, 0, 0, 8, 0, 7, 0, 22, 0, 0, 0, 0, 0, 0, 1, 20, 0, 0, 0, 40, 0, 0, 0, 40, 0, 0, 0, 1, 0, 0, 0, 64, 0, 0, 0, 4, 0, 0, 0, 255, 255, 255, 255, 12, 0, 0, 0, 12, 0, 0, 0, 96, 0, 0, 0, 4, 0, 4, 0, 4, 0, 0, 0, 26, 0, 0, 0, 115, 101, 114, 118, 105, 110, 103, 95, 100, 101, 102, 97, 117, 108, 116, 95, 105, 110, 112, 117, 116, 95, 52, 48, 58, 48, 0, 0, 4, 0, 0, 0, 1, 0, 0, 0, 12, 0, 0, 0, 12, 0, 0, 0, 96, 0, 0, 0, 1, 0, 0, 0, 16, 0, 0, 0, 12, 0, 12, 0, 11, 0, 0, 0, 0, 0, 4, 0, 12, 0, 0, 0, 4, 0, 0, 0, 0, 0, 0, 4
};
