#pragma once

#include <cstdint>

const uint8_t layer_20[] = {
28, 0, 0, 0, 84, 70, 76, 51, 20, 0, 32, 0, 28, 0, 24, 0, 20, 0, 16, 0, 12, 0, 0, 0, 8, 0, 4, 0, 20, 0, 0, 0, 28, 0, 0, 0, 156, 0, 0, 0, 244, 0, 0, 0, 56, 9, 0, 0, 72, 9, 0, 0, 180, 11, 0, 0, 3, 0, 0, 0, 1, 0, 0, 0, 16, 0, 0, 0, 0, 0, 10, 0, 16, 0, 12, 0, 8, 0, 4, 0, 10, 0, 0, 0, 12, 0, 0, 0, 28, 0, 0, 0, 68, 0, 0, 0, 15, 0, 0, 0, 115, 101, 114, 118, 105, 110, 103, 95, 100, 101, 102, 97, 117, 108, 116, 0, 1, 0, 0, 0, 4, 0, 0, 0, 140, 255, 255, 255, 3, 0, 0, 0, 4, 0, 0, 0, 17, 0, 0, 0, 98, 108, 111, 99, 107, 95, 50, 95, 100, 101, 112, 116, 104, 119, 105, 115, 101, 0, 0, 0, 1, 0, 0, 0, 4, 0, 0, 0, 30, 248, 255, 255, 4, 0, 0, 0, 8, 0, 0, 0, 105, 110, 112, 117, 116, 95, 50, 49, 0, 0, 0, 0, 2, 0, 0, 0, 52, 0, 0, 0, 4, 0, 0, 0, 220, 255, 255, 255, 6, 0, 0, 0, 4, 0, 0, 0, 19, 0, 0, 0, 67, 79, 78, 86, 69, 82, 83, 73, 79, 78, 95, 77, 69, 84, 65, 68, 65, 84, 65, 0, 8, 0, 12, 0, 8, 0, 4, 0, 8, 0, 0, 0, 5, 0, 0, 0, 4, 0, 0, 0, 19, 0, 0, 0, 109, 105, 110, 95, 114, 117, 110, 116, 105, 109, 101, 95, 118, 101, 114, 115, 105, 111, 110, 0, 7, 0, 0, 0, 64, 8, 0, 0, 56, 8, 0, 0, 104, 7, 0, 0, 144, 0, 0, 0, 136, 0, 0, 0, 104, 0, 0, 0, 4, 0, 0, 0, 178, 248, 255, 255, 4, 0, 0, 0, 84, 0, 0, 0, 12, 0, 0, 0, 8, 0, 14, 0, 8, 0, 4, 0, 8, 0, 0, 0, 16, 0, 0, 0, 36, 0, 0, 0, 0, 0, 6, 0, 8, 0, 4, 0, 6, 0, 0, 0, 4, 0, 0, 0, 0, 0, 0, 0, 0, 0, 10, 0, 16, 0, 12, 0, 8, 0, 4, 0, 10, 0, 0, 0, 2, 0, 0, 0, 2, 0, 0, 0, 4, 0, 0, 0, 6, 0, 0, 0, 50, 46, 49, 53, 46, 48, 0, 0, 18, 249, 255, 255, 4, 0, 0, 0, 16, 0, 0, 0, 49, 46, 53, 46, 48, 0, 0, 0, 0, 0, 0, 0, 0, 0, 0, 0, 12, 246, 255, 255, 50, 249, 255, 255, 4, 0, 0, 0, 192, 6, 0, 0, 226, 27, 21, 62, 73, 79, 0, 190, 63, 176, 149, 63, 229, 40, 132, 64, 173, 10, 89, 62, 222, 255, 13, 64, 177, 46, 8, 189, 52, 201, 242, 63, 147, 173, 218, 62, 76, 9, 180, 62, 60, 18, 160, 62, 22, 25, 175, 62, 80, 68, 134, 190, 227, 177, 227, 190, 127, 210, 177, 191, 160, 229, 240, 62, 121, 194, 152, 189, 130, 3, 47, 63, 237, 184, 8, 191, 117, 125, 30, 192, 230, 22, 88, 190, 247, 1, 93, 191, 214, 243, 156, 64, 182, 200, 6, 191, 69, 75, 212, 189, 124, 189, 37, 62, 90, 10, 130, 190, 74, 43, 168, 62, 225, 244, 64, 190, 183, 30, 74, 62, 32, 215, 20, 63, 47, 227, 65, 64, 132, 39, 98, 63, 148, 166, 158, 63, 6, 110, 168, 63, 157, 178, 150, 191, 14, 147, 141, 61, 223, 218, 171, 63, 160, 77, 77, 189, 201, 225, 234, 60, 47, 194, 107, 63, 52, 155, 198, 191, 147, 8, 129, 190, 81, 113, 158, 190, 124, 19, 20, 63, 255, 117, 153, 61, 144, 36, 106, 190, 194, 207, 225, 190, 110, 48, 132, 64, 119, 121, 238, 62, 110, 50, 91, 63, 201, 115, 153, 192, 163, 108, 185, 63, 247, 244, 23, 64, 87, 47, 214, 62, 29, 49, 55, 63, 57, 59, 94, 64, 143, 53, 180, 64, 158, 13, 112, 62, 26, 127, 251, 63, 238, 181, 203, 191, 75, 143, 152, 191, 224, 246, 29, 62, 0, 10, 221, 62, 150, 91, 167, 64, 252, 176, 151, 192, 182, 227, 180, 191, 242, 159, 155, 191, 119, 231, 97, 192, 144, 140, 127, 63, 115, 159, 133, 192, 185, 167, 74, 63, 8, 146, 34, 63, 209, 54, 0, 64, 56, 16, 209, 191, 159, 245, 69, 192, 208, 200, 108, 63, 176, 207, 117, 63, 43, 137, 180, 62, 64, 235, 115, 192, 252, 98, 105, 62, 24, 18, 43, 192, 120, 168, 140, 64, 141, 115, 201, 62, 223, 15, 12, 192, 228, 231, 237, 191, 213, 226, 49, 190, 60, 33, 93, 64, 1, 82, 133, 192, 73, 219, 15, 192, 60, 227, 115, 191, 175, 140, 234, 61, 136, 139, 146, 191, 53, 137, 127, 190, 186, 179, 129, 192, 119, 60, 126, 63, 100, 65, 132, 191, 156, 155, 11, 190, 54, 197, 214, 62, 215, 185, 16, 63, 13, 205, 161, 188, 6, 78, 226, 63, 210, 210, 30, 62, 22, 222, 150, 63, 224, 240, 67, 63, 121, 92, 183, 62, 28, 42, 219, 190, 213, 57, 182, 63, 119, 82, 227, 190, 75, 16, 25, 190, 226, 139, 250, 62, 192, 8, 81, 62, 19, 246, 135, 192, 141, 137, 26, 64, 82, 221, 153, 189, 184, 211, 217, 63, 2, 64, 139, 191, 215, 60, 225, 190, 49, 36, 44, 191, 247, 234, 178, 190, 118, 174, 36, 190, 125, 244, 218, 191, 78, 196, 4, 190, 41, 51, 137, 63, 197, 51, 41, 191, 161, 12, 78, 62, 202, 175, 32, 62, 247, 88, 43, 191, 142, 221, 172, 62, 247, 102, 131, 191, 238, 149, 14, 63, 155, 245, 79, 191, 246, 177, 161, 188, 216, 169, 239, 63, 214, 111, 159, 63, 51, 75, 203, 190, 39, 167, 42, 64, 130, 50, 100, 63, 110, 41, 254, 190, 79, 63, 222, 62, 114, 251, 183, 191, 20, 123, 193, 61, 31, 33, 133, 189, 1, 26, 134, 190, 156, 69, 130, 64, 186, 155, 169, 62, 228, 176, 23, 61, 9, 245, 107, 192, 110, 67, 54, 63, 114, 153, 63, 191, 47, 230, 173, 63, 85, 66, 140, 191, 43, 118, 111, 62, 212, 42, 193, 62, 54, 78, 197, 190, 126, 201, 27, 64, 16, 210, 79, 190, 119, 234, 90, 189, 12, 211, 15, 63, 242, 119, 224, 191, 50, 51, 104, 186, 15, 127, 134, 192, 61, 66, 180, 191, 10, 142, 238, 191, 86, 63, 178, 62, 205, 198, 56, 192, 142, 86, 152, 192, 131, 198, 124, 191, 40, 166, 56, 62, 185, 80, 51, 64, 65, 35, 67, 191, 49, 161, 150, 192, 207, 24, 170, 190, 235, 10, 192, 63, 12, 254, 219, 62, 66, 254, 84, 192, 15, 148, 59, 63, 143, 14, 21, 192, 163, 217, 182, 189, 51, 61, 169, 64, 104, 218, 49, 190, 0, 121, 19, 64, 53, 166, 156, 191, 164, 23, 152, 63, 1, 12, 82, 192, 75, 67, 60, 192, 68, 201, 162, 63, 40, 134, 85, 192, 22, 57, 190, 191, 185, 153, 218, 190, 43, 79, 210, 190, 251, 89, 83, 190, 168, 224, 94, 63, 163, 180, 190, 192, 222, 142, 236, 192, 104, 88, 138, 64, 216, 119, 212, 192, 42, 237, 96, 192, 43, 225, 158, 192, 70, 57, 9, 193, 254, 170, 101, 192, 123, 230, 136, 192, 220, 29, 130, 64, 115, 247, 185, 192, 23, 151, 125, 64, 171, 100, 202, 64, 59, 106, 138, 63, 45, 254, 219, 192, 36, 187, 90, 192, 154, 234, 43, 65, 1, 110, 64, 64, 118, 0, 20, 192, 208, 60, 142, 64, 95, 53, 160, 64, 7, 214, 137, 64, 255, 138, 219, 64, 16, 204, 151, 64, 9, 58, 105, 192, 243, 92, 215, 192, 198, 242, 131, 63, 65, 128, 161, 192, 90, 56, 189, 192, 192, 180, 92, 64, 148, 90, 120, 64, 167, 12, 177, 192, 31, 109, 176, 64, 204, 241, 129, 191, 44, 50, 221, 191, 66, 27, 225, 64, 156, 35, 161, 192, 18, 104, 110, 64, 124, 143, 114, 64, 223, 207, 215, 64, 230, 105, 238, 191, 166, 107, 131, 64, 174, 212, 154, 64, 62, 225, 137, 64, 45, 38, 108, 192, 181, 213, 77, 64, 136, 197, 149, 64, 187, 133, 222, 63, 82, 49, 130, 62, 239, 27, 52, 64, 59, 237, 254, 190, 241, 148, 141, 62, 194, 13, 216, 191, 16, 44, 219, 63, 200, 137, 157, 63, 98, 116, 46, 191, 172, 147, 30, 63, 166, 72, 85, 192, 128, 183, 186, 190, 128, 137, 238, 59, 89, 11, 0, 192, 31, 126, 125, 64, 233, 147, 110, 62, 244, 181, 36, 64, 95, 112, 177, 192, 248, 155, 217, 191, 241, 133, 240, 63, 191, 76, 242, 62, 45, 213, 228, 191, 140, 137, 224, 62, 49, 111, 229, 191, 33, 33, 97, 61, 162, 48, 32, 62, 179, 62, 254, 191, 172, 157, 32, 64, 55, 5, 75, 63, 128, 152, 232, 63, 232, 234, 156, 60, 190, 88, 162, 61, 184, 74, 179, 63, 207, 16, 248, 191, 101, 94, 153, 62, 247, 9, 49, 64, 130, 40, 146, 190, 233, 252, 34, 64, 3, 6, 2, 64, 36, 209, 159, 190, 82, 220, 136, 192, 64, 182, 73, 62, 178, 121, 46, 192, 208, 145, 152, 191, 202, 132, 107, 63, 72, 118, 252, 190, 103, 39, 178, 190, 162, 196, 112, 62, 56, 177, 217, 191, 230, 152, 151, 190, 253, 18, 187, 63, 86, 139, 28, 191, 238, 92, 179, 62, 12, 84, 113, 63, 221, 31, 187, 191, 66, 37, 192, 63, 6, 24, 86, 62, 15, 140, 137, 191, 172, 223, 193, 62, 140, 253, 189, 63, 93, 231, 83, 62, 45, 213, 152, 190, 102, 38, 153, 191, 114, 82, 120, 63, 13, 47, 69, 62, 80, 52, 234, 63, 0, 186, 167, 190, 36, 56, 19, 64, 236, 133, 89, 62, 142, 247, 158, 191, 137, 112, 25, 191, 163, 87, 38, 191, 20, 62, 2, 190, 139, 140, 27, 63, 90, 190, 97, 60, 118, 74, 240, 63, 8, 108, 196, 190, 91, 102, 5, 62, 214, 131, 220, 63, 227, 16, 126, 191, 43, 138, 75, 191, 167, 163, 245, 191, 172, 94, 142, 191, 231, 173, 212, 191, 56, 73, 139, 189, 74, 45, 154, 63, 243, 166, 125, 62, 126, 53, 50, 191, 213, 172, 1, 63, 48, 4, 189, 189, 72, 137, 173, 63, 164, 92, 177, 191, 141, 58, 153, 191, 112, 100, 10, 63, 157, 176, 177, 190, 9, 118, 70, 63, 178, 34, 15, 64, 224, 154, 189, 64, 242, 28, 139, 64, 186, 45, 78, 63, 199, 36, 84, 63, 233, 193, 16, 191, 52, 59, 154, 64, 89, 243, 22, 64, 178, 16, 0, 63, 253, 157, 24, 190, 99, 16, 177, 63, 72, 80, 153, 63, 117, 67, 37, 190, 191, 220, 30, 189, 134, 255, 53, 192, 46, 109, 172, 63, 59, 193, 24, 192, 19, 156, 152, 192, 96, 166, 95, 191, 154, 27, 43, 64, 249, 94, 167, 191, 49, 246, 246, 63, 166, 86, 232, 62, 6, 46, 136, 63, 60, 199, 152, 63, 100, 43, 234, 191, 238, 161, 6, 192, 150, 225, 137, 63, 27, 127, 67, 64, 93, 186, 167, 60, 234, 162, 150, 64, 153, 4, 37, 63, 44, 239, 108, 64, 121, 166, 147, 191, 6, 234, 124, 62, 31, 107, 192, 191, 197, 133, 179, 191, 235, 111, 48, 191, 16, 182, 194, 190, 123, 174, 99, 64, 0, 235, 182, 191, 16, 9, 140, 190, 183, 139, 167, 191, 125, 65, 220, 63, 142, 63, 53, 63, 147, 125, 122, 191, 100, 135, 100, 62, 242, 0, 178, 192, 198, 203, 171, 191, 74, 112, 43, 190, 29, 222, 185, 62, 66, 79, 233, 189, 145, 83, 123, 62, 147, 97, 34, 190, 174, 128, 25, 192, 170, 24, 3, 63, 37, 135, 6, 191, 155, 99, 245, 190, 140, 218, 161, 191, 69, 114, 234, 191, 124, 121, 30, 63, 204, 193, 231, 190, 18, 109, 135, 190, 21, 104, 30, 63, 80, 38, 173, 63, 162, 97, 255, 63, 220, 139, 98, 190, 54, 24, 48, 192, 71, 30, 83, 63, 64, 119, 192, 190, 34, 188, 66, 62, 208, 249, 242, 190, 158, 118, 120, 190, 21, 33, 142, 62, 210, 7, 6, 191, 175, 200, 0, 192, 15, 198, 22, 191, 15, 223, 176, 62, 164, 127, 77, 62, 110, 127, 113, 62, 88, 17, 100, 191, 81, 127, 114, 64, 37, 210, 162, 191, 26, 184, 115, 191, 104, 87, 139, 190, 0, 189, 181, 63, 142, 236, 63, 63, 53, 198, 232, 191, 172, 99, 130, 62, 217, 49, 78, 62, 4, 162, 155, 191, 241, 100, 131, 62, 88, 177, 182, 191, 145, 149, 118, 64, 58, 149, 27, 190, 33, 56, 20, 190, 0, 0, 6, 0, 8, 0, 4, 0, 6, 0, 0, 0, 4, 0, 0, 0, 192, 0, 0, 0, 0, 0, 0, 0, 0, 0, 0, 0, 0, 0, 0, 0, 0, 0, 0, 0, 0, 0, 0, 0, 0, 0, 0, 0, 0, 0, 0, 0, 0, 0, 0, 0, 0, 0, 0, 0, 0, 0, 0, 0, 0, 0, 0, 0, 0, 0, 0, 0, 0, 0, 0, 0, 0, 0, 0, 0, 0, 0, 0, 0, 0, 0, 0, 0, 0, 0, 0, 0, 0, 0, 0, 0, 0, 0, 0, 0, 0, 0, 0, 0, 0, 0, 0, 0, 0, 0, 0, 0, 0, 0, 0, 0, 0, 0, 0, 0, 0, 0, 0, 0, 0, 0, 0, 0, 0, 0, 0, 0, 0, 0, 0, 0, 0, 0, 0, 0, 0, 0, 0, 0, 0, 0, 0, 0, 0, 0, 0, 0, 0, 0, 0, 0, 0, 0, 0, 0, 0, 0, 0, 0, 0, 0, 0, 0, 0, 0, 0, 0, 0, 0, 0, 0, 0, 0, 0, 0, 0, 0, 0, 0, 0, 0, 0, 0, 0, 0, 0, 0, 0, 0, 0, 0, 0, 0, 0, 0, 0, 0, 0, 0, 0, 0, 0, 0, 0, 0, 0, 0, 0, 0, 0, 0, 176, 253, 255, 255, 180, 253, 255, 255, 15, 0, 0, 0, 77, 76, 73, 82, 32, 67, 111, 110, 118, 101, 114, 116, 101, 100, 46, 0, 1, 0, 0, 0, 20, 0, 0, 0, 0, 0, 14, 0, 24, 0, 20, 0, 16, 0, 12, 0, 8, 0, 4, 0, 14, 0, 0, 0, 20, 0, 0, 0, 28, 0, 0, 0, 120, 0, 0, 0, 124, 0, 0, 0, 128, 0, 0, 0, 4, 0, 0, 0, 109, 97, 105, 110, 0, 0, 0, 0, 1, 0, 0, 0, 20, 0, 0, 0, 0, 0, 14, 0, 20, 0, 0, 0, 16, 0, 12, 0, 11, 0, 4, 0, 14, 0, 0, 0, 28, 0, 0, 0, 0, 0, 0, 2, 36, 0, 0, 0, 40, 0, 0, 0, 12, 0, 16, 0, 0, 0, 12, 0, 8, 0, 4, 0, 12, 0, 0, 0, 1, 0, 0, 0, 1, 0, 0, 0, 1, 0, 0, 0, 1, 0, 0, 0, 3, 0, 0, 0, 3, 0, 0, 0, 0, 0, 0, 0, 2, 0, 0, 0, 1, 0, 0, 0, 1, 0, 0, 0, 3, 0, 0, 0, 1, 0, 0, 0, 0, 0, 0, 0, 4, 0, 0, 0, 84, 1, 0, 0, 232, 0, 0, 0, 112, 0, 0, 0, 4, 0, 0, 0, 210, 254, 255, 255, 0, 0, 0, 1, 20, 0, 0, 0, 36, 0, 0, 0, 36, 0, 0, 0, 4, 0, 0, 0, 60, 0, 0, 0, 4, 0, 0, 0, 255, 255, 255, 255, 24, 0, 0, 0, 24, 0, 0, 0, 48, 0, 0, 0, 188, 254, 255, 255, 25, 0, 0, 0, 83, 116, 97, 116, 101, 102, 117, 108, 80, 97, 114, 116, 105, 116, 105, 111, 110, 101, 100, 67, 97, 108, 108, 58, 48, 0, 0, 0, 4, 0, 0, 0, 1, 0, 0, 0, 24, 0, 0, 0, 24, 0, 0, 0, 48, 0, 0, 0, 162, 255, 255, 255, 0, 0, 0, 1, 16, 0, 0, 0, 16, 0, 0, 0, 3, 0, 0, 0, 52, 0, 0, 0, 12, 255, 255, 255, 37, 0, 0, 0, 109, 111, 100, 101, 108, 95, 50, 48, 47, 98, 108, 111, 99, 107, 95, 50, 95, 100, 101, 112, 116, 104, 119, 105, 115, 101, 47, 100, 101, 112, 116, 104, 119, 105, 115, 101, 49, 0, 0, 0, 4, 0, 0, 0, 1, 0, 0, 0, 3, 0, 0, 0, 3, 0, 0, 0, 48, 0, 0, 0, 0, 0, 22, 0, 24, 0, 20, 0, 0, 0, 16, 0, 12, 0, 8, 0, 0, 0, 0, 0, 0, 0, 7, 0, 22, 0, 0, 0, 0, 0, 0, 1, 16, 0, 0, 0, 16, 0, 0, 0, 2, 0, 0, 0, 52, 0, 0, 0, 128, 255, 255, 255, 36, 0, 0, 0, 109, 111, 100, 101, 108, 95, 50, 48, 47, 98, 108, 111, 99, 107, 95, 50, 95, 100, 101, 112, 116, 104, 119, 105, 115, 101, 47, 100, 101, 112, 116, 104, 119, 105, 115, 101, 0, 0, 0, 0, 1, 0, 0, 0, 48, 0, 0, 0, 0, 0, 22, 0, 28, 0, 24, 0, 0, 0, 20, 0, 16, 0, 12, 0, 0, 0, 0, 0, 8, 0, 7, 0, 22, 0, 0, 0, 0, 0, 0, 1, 20, 0, 0, 0, 40, 0, 0, 0, 40, 0, 0, 0, 1, 0, 0, 0, 64, 0, 0, 0, 4, 0, 0, 0, 255, 255, 255, 255, 24, 0, 0, 0, 24, 0, 0, 0, 48, 0, 0, 0, 4, 0, 4, 0, 4, 0, 0, 0, 26, 0, 0, 0, 115, 101, 114, 118, 105, 110, 103, 95, 100, 101, 102, 97, 117, 108, 116, 95, 105, 110, 112, 117, 116, 95, 50, 49, 58, 48, 0, 0, 4, 0, 0, 0, 1, 0, 0, 0, 24, 0, 0, 0, 24, 0, 0, 0, 48, 0, 0, 0, 1, 0, 0, 0, 16, 0, 0, 0, 12, 0, 12, 0, 11, 0, 0, 0, 0, 0, 4, 0, 12, 0, 0, 0, 4, 0, 0, 0, 0, 0, 0, 4
};
