#pragma once

#include <cstdint>

const uint8_t layer_41[] = {
28, 0, 0, 0, 84, 70, 76, 51, 20, 0, 32, 0, 28, 0, 24, 0, 20, 0, 16, 0, 12, 0, 0, 0, 8, 0, 4, 0, 20, 0, 0, 0, 28, 0, 0, 0, 152, 0, 0, 0, 240, 0, 0, 0, 244, 25, 0, 0, 4, 26, 0, 0, 96, 28, 0, 0, 3, 0, 0, 0, 1, 0, 0, 0, 16, 0, 0, 0, 0, 0, 10, 0, 16, 0, 12, 0, 8, 0, 4, 0, 10, 0, 0, 0, 12, 0, 0, 0, 28, 0, 0, 0, 64, 0, 0, 0, 15, 0, 0, 0, 115, 101, 114, 118, 105, 110, 103, 95, 100, 101, 102, 97, 117, 108, 116, 0, 1, 0, 0, 0, 4, 0, 0, 0, 144, 255, 255, 255, 3, 0, 0, 0, 4, 0, 0, 0, 15, 0, 0, 0, 98, 108, 111, 99, 107, 95, 52, 95, 112, 114, 111, 106, 101, 99, 116, 0, 1, 0, 0, 0, 4, 0, 0, 0, 222, 230, 255, 255, 4, 0, 0, 0, 8, 0, 0, 0, 105, 110, 112, 117, 116, 95, 52, 51, 0, 0, 0, 0, 2, 0, 0, 0, 52, 0, 0, 0, 4, 0, 0, 0, 220, 255, 255, 255, 6, 0, 0, 0, 4, 0, 0, 0, 19, 0, 0, 0, 67, 79, 78, 86, 69, 82, 83, 73, 79, 78, 95, 77, 69, 84, 65, 68, 65, 84, 65, 0, 8, 0, 12, 0, 8, 0, 4, 0, 8, 0, 0, 0, 5, 0, 0, 0, 4, 0, 0, 0, 19, 0, 0, 0, 109, 105, 110, 95, 114, 117, 110, 116, 105, 109, 101, 95, 118, 101, 114, 115, 105, 111, 110, 0, 7, 0, 0, 0, 0, 25, 0, 0, 248, 24, 0, 0, 168, 24, 0, 0, 144, 0, 0, 0, 136, 0, 0, 0, 104, 0, 0, 0, 4, 0, 0, 0, 114, 231, 255, 255, 4, 0, 0, 0, 84, 0, 0, 0, 12, 0, 0, 0, 8, 0, 14, 0, 8, 0, 4, 0, 8, 0, 0, 0, 16, 0, 0, 0, 36, 0, 0, 0, 0, 0, 6, 0, 8, 0, 4, 0, 6, 0, 0, 0, 4, 0, 0, 0, 0, 0, 0, 0, 0, 0, 10, 0, 16, 0, 12, 0, 8, 0, 4, 0, 10, 0, 0, 0, 2, 0, 0, 0, 2, 0, 0, 0, 4, 0, 0, 0, 6, 0, 0, 0, 50, 46, 49, 53, 46, 48, 0, 0, 210, 231, 255, 255, 4, 0, 0, 0, 16, 0, 0, 0, 49, 46, 53, 46, 48, 0, 0, 0, 0, 0, 0, 0, 0, 0, 0, 0, 92, 229, 255, 255, 242, 231, 255, 255, 4, 0, 0, 0, 0, 24, 0, 0, 33, 158, 107, 188, 50, 144, 110, 61, 9, 110, 27, 189, 156, 186, 151, 61, 61, 178, 1, 62, 132, 83, 113, 62, 22, 89, 221, 189, 120, 168, 191, 189, 136, 171, 31, 62, 23, 42, 191, 187, 185, 236, 237, 60, 67, 141, 117, 60, 162, 55, 156, 188, 70, 160, 41, 61, 241, 44, 159, 61, 7, 217, 98, 62, 115, 251, 251, 59, 88, 19, 193, 188, 146, 90, 221, 188, 100, 220, 158, 188, 152, 138, 168, 62, 213, 61, 69, 190, 132, 187, 180, 60, 12, 119, 130, 189, 216, 251, 193, 189, 148, 120, 4, 190, 52, 28, 28, 190, 126, 74, 159, 190, 28, 219, 8, 189, 150, 152, 152, 188, 250, 146, 42, 62, 125, 80, 28, 62, 1, 173, 190, 62, 95, 71, 58, 59, 95, 48, 54, 60, 76, 133, 213, 188, 234, 205, 28, 61, 223, 110, 127, 189, 207, 249, 149, 189, 127, 245, 5, 61, 133, 125, 218, 189, 178, 41, 185, 60, 103, 87, 153, 61, 210, 74, 215, 189, 24, 108, 26, 60, 4, 254, 203, 189, 133, 131, 71, 189, 29, 48, 143, 61, 197, 111, 102, 189, 226, 99, 86, 61, 163, 76, 212, 59, 173, 206, 128, 188, 198, 69, 227, 189, 130, 222, 124, 189, 185, 211, 139, 60, 219, 3, 31, 188, 226, 6, 223, 61, 94, 14, 183, 61, 239, 210, 147, 189, 11, 79, 191, 189, 53, 185, 84, 190, 97, 213, 207, 61, 155, 200, 245, 188, 241, 61, 24, 189, 38, 124, 39, 61, 58, 106, 32, 61, 80, 235, 54, 62, 166, 219, 10, 188, 145, 204, 27, 61, 0, 249, 43, 60, 195, 73, 81, 59, 24, 198, 197, 189, 203, 35, 78, 190, 188, 88, 38, 188, 223, 189, 91, 188, 74, 212, 24, 187, 181, 15, 255, 188, 23, 159, 151, 190, 18, 153, 216, 60, 90, 7, 113, 189, 55, 173, 4, 62, 204, 155, 83, 189, 22, 143, 44, 190, 141, 76, 11, 190, 50, 75, 155, 61, 174, 201, 246, 188, 127, 155, 112, 60, 115, 10, 149, 61, 172, 77, 47, 188, 75, 130, 18, 61, 142, 108, 124, 61, 203, 92, 216, 189, 17, 66, 143, 61, 136, 176, 151, 61, 203, 140, 28, 189, 221, 2, 214, 62, 107, 19, 61, 62, 35, 147, 59, 190, 237, 179, 233, 61, 188, 109, 51, 62, 205, 139, 182, 188, 139, 92, 2, 190, 254, 24, 20, 189, 178, 198, 163, 189, 46, 32, 67, 189, 158, 27, 57, 190, 222, 233, 181, 59, 64, 48, 77, 61, 6, 71, 6, 61, 195, 44, 3, 190, 241, 126, 146, 189, 194, 122, 8, 190, 212, 56, 52, 190, 34, 92, 212, 188, 178, 26, 243, 60, 167, 222, 90, 61, 234, 7, 156, 189, 43, 195, 90, 190, 177, 100, 169, 189, 14, 108, 123, 61, 232, 173, 148, 62, 241, 235, 2, 190, 126, 213, 20, 190, 42, 77, 196, 60, 72, 227, 89, 189, 32, 254, 70, 62, 2, 97, 48, 189, 103, 34, 231, 61, 236, 182, 16, 61, 161, 107, 34, 61, 158, 156, 192, 189, 115, 135, 120, 61, 171, 37, 64, 189, 139, 31, 204, 188, 125, 201, 5, 62, 25, 67, 84, 189, 103, 100, 141, 59, 196, 174, 42, 190, 130, 202, 56, 62, 230, 37, 68, 189, 18, 155, 223, 189, 45, 146, 242, 60, 8, 7, 16, 62, 42, 180, 108, 57, 62, 157, 143, 61, 103, 230, 75, 61, 171, 171, 178, 187, 4, 69, 34, 190, 77, 229, 9, 62, 21, 120, 29, 190, 210, 57, 202, 61, 197, 113, 71, 189, 235, 137, 96, 61, 116, 210, 103, 61, 14, 216, 200, 188, 88, 35, 93, 190, 138, 91, 203, 61, 240, 188, 30, 190, 253, 76, 13, 61, 29, 209, 208, 189, 253, 168, 144, 60, 236, 47, 49, 190, 239, 163, 136, 61, 113, 123, 217, 61, 55, 116, 179, 61, 2, 56, 248, 61, 254, 126, 154, 189, 141, 12, 17, 60, 11, 65, 89, 190, 127, 70, 202, 61, 41, 150, 129, 189, 184, 191, 16, 62, 200, 69, 192, 61, 4, 189, 106, 62, 14, 248, 66, 61, 237, 240, 118, 189, 81, 216, 215, 61, 64, 76, 3, 188, 23, 116, 30, 190, 26, 213, 151, 61, 110, 241, 38, 190, 27, 100, 28, 62, 205, 236, 104, 60, 49, 3, 22, 62, 92, 101, 215, 189, 101, 108, 40, 61, 41, 32, 104, 61, 217, 179, 13, 60, 230, 239, 236, 60, 71, 238, 193, 189, 117, 16, 172, 61, 237, 146, 168, 60, 152, 186, 81, 61, 114, 186, 235, 60, 82, 131, 138, 60, 14, 133, 179, 189, 180, 82, 8, 188, 19, 116, 52, 187, 177, 25, 51, 189, 187, 171, 151, 61, 81, 208, 42, 62, 170, 28, 93, 189, 99, 189, 6, 61, 216, 47, 47, 62, 31, 218, 159, 187, 173, 19, 163, 59, 24, 43, 225, 61, 171, 81, 23, 60, 201, 201, 4, 189, 219, 150, 240, 188, 25, 120, 110, 61, 155, 189, 205, 188, 162, 158, 63, 189, 93, 16, 73, 190, 223, 72, 187, 187, 149, 110, 51, 190, 223, 57, 241, 188, 23, 251, 137, 189, 255, 250, 205, 189, 42, 116, 42, 61, 126, 96, 10, 189, 163, 245, 146, 61, 225, 191, 181, 62, 152, 176, 54, 190, 142, 245, 189, 60, 59, 221, 62, 190, 27, 247, 139, 189, 243, 40, 21, 62, 57, 57, 25, 61, 120, 51, 180, 62, 249, 81, 233, 189, 241, 243, 173, 189, 38, 54, 201, 59, 206, 77, 151, 189, 51, 87, 237, 188, 229, 26, 145, 61, 203, 176, 6, 190, 159, 108, 25, 190, 211, 89, 65, 190, 92, 63, 63, 61, 52, 242, 160, 61, 40, 85, 141, 61, 95, 95, 158, 189, 0, 185, 146, 189, 249, 24, 184, 61, 23, 238, 4, 189, 154, 177, 17, 189, 45, 73, 160, 189, 2, 135, 183, 189, 34, 164, 44, 58, 69, 173, 32, 188, 93, 116, 95, 61, 26, 107, 192, 187, 4, 12, 14, 59, 91, 43, 76, 62, 162, 159, 125, 62, 155, 220, 157, 60, 122, 110, 102, 190, 232, 108, 10, 61, 124, 205, 92, 190, 94, 158, 40, 189, 169, 144, 126, 189, 196, 38, 249, 188, 56, 86, 223, 59, 254, 72, 182, 188, 249, 184, 232, 60, 48, 23, 134, 189, 211, 114, 228, 60, 67, 6, 201, 60, 122, 178, 8, 62, 83, 131, 162, 60, 102, 34, 6, 61, 224, 183, 6, 61, 17, 18, 133, 62, 12, 137, 164, 61, 158, 206, 216, 188, 135, 138, 36, 189, 19, 140, 180, 60, 185, 111, 136, 60, 49, 64, 249, 187, 150, 220, 165, 61, 189, 54, 15, 61, 82, 164, 218, 188, 55, 20, 11, 190, 223, 40, 7, 190, 78, 207, 199, 59, 164, 209, 30, 188, 59, 77, 29, 62, 180, 7, 37, 189, 126, 255, 153, 189, 20, 240, 209, 189, 143, 22, 210, 61, 13, 87, 194, 61, 246, 153, 183, 189, 70, 193, 154, 60, 159, 77, 79, 189, 234, 33, 146, 189, 88, 139, 116, 61, 45, 125, 171, 187, 184, 212, 12, 61, 101, 5, 215, 60, 12, 64, 59, 189, 209, 242, 11, 62, 136, 138, 34, 189, 130, 60, 232, 61, 159, 153, 1, 190, 48, 213, 157, 61, 100, 251, 34, 61, 125, 155, 45, 189, 112, 179, 255, 188, 33, 209, 39, 189, 123, 204, 132, 60, 94, 252, 64, 189, 206, 215, 81, 61, 193, 135, 33, 61, 192, 106, 59, 188, 221, 51, 75, 61, 2, 251, 249, 189, 78, 93, 41, 62, 253, 64, 146, 189, 238, 114, 82, 61, 183, 38, 142, 189, 163, 132, 69, 189, 12, 29, 22, 62, 8, 69, 193, 188, 50, 228, 0, 188, 144, 188, 231, 188, 238, 204, 45, 61, 79, 101, 16, 61, 63, 105, 76, 190, 38, 57, 130, 61, 222, 195, 195, 189, 172, 43, 0, 189, 74, 203, 90, 60, 149, 170, 28, 188, 110, 191, 24, 60, 153, 28, 182, 190, 7, 100, 253, 61, 1, 235, 218, 188, 226, 153, 159, 61, 98, 152, 186, 190, 52, 218, 14, 190, 193, 13, 137, 189, 91, 85, 219, 189, 220, 190, 131, 61, 40, 37, 244, 186, 127, 200, 34, 189, 139, 97, 18, 62, 178, 110, 18, 189, 64, 232, 147, 61, 145, 104, 131, 60, 30, 16, 29, 61, 112, 14, 59, 189, 209, 40, 131, 190, 250, 221, 244, 189, 163, 51, 141, 61, 219, 223, 34, 62, 97, 217, 100, 61, 72, 222, 163, 188, 135, 238, 121, 61, 73, 173, 6, 190, 87, 233, 0, 61, 127, 62, 204, 188, 117, 3, 255, 189, 168, 126, 33, 190, 144, 97, 30, 190, 100, 164, 160, 61, 125, 33, 229, 189, 4, 128, 30, 61, 188, 164, 133, 189, 20, 170, 61, 61, 120, 168, 58, 62, 227, 35, 207, 61, 252, 17, 16, 62, 233, 245, 172, 61, 238, 108, 220, 60, 181, 174, 203, 61, 195, 62, 44, 189, 30, 155, 219, 188, 30, 207, 114, 60, 216, 26, 147, 189, 10, 7, 38, 60, 128, 50, 34, 189, 139, 110, 166, 189, 130, 101, 165, 188, 224, 250, 194, 189, 104, 160, 21, 61, 193, 141, 95, 190, 137, 136, 118, 186, 93, 47, 125, 189, 1, 61, 16, 190, 186, 107, 122, 60, 167, 159, 165, 189, 53, 120, 0, 190, 224, 46, 208, 189, 50, 138, 4, 189, 147, 127, 42, 59, 185, 140, 103, 62, 70, 43, 85, 61, 185, 108, 213, 60, 65, 179, 24, 62, 22, 203, 6, 189, 188, 78, 12, 61, 185, 155, 159, 187, 252, 135, 230, 188, 241, 20, 189, 61, 160, 81, 66, 62, 208, 171, 56, 60, 190, 20, 233, 188, 229, 169, 57, 187, 194, 238, 135, 61, 111, 141, 91, 61, 14, 98, 201, 60, 35, 115, 240, 188, 168, 124, 222, 188, 205, 230, 74, 188, 84, 56, 223, 189, 27, 46, 196, 60, 124, 56, 199, 59, 45, 112, 145, 61, 233, 244, 195, 61, 118, 208, 179, 189, 136, 143, 219, 187, 104, 29, 3, 189, 16, 116, 226, 60, 12, 202, 0, 61, 223, 239, 157, 190, 135, 148, 220, 189, 199, 211, 205, 61, 181, 219, 100, 187, 225, 22, 231, 188, 76, 222, 10, 189, 28, 39, 28, 60, 77, 51, 132, 62, 33, 51, 51, 189, 206, 186, 142, 189, 209, 152, 166, 189, 11, 129, 56, 189, 157, 155, 47, 61, 31, 172, 10, 189, 24, 202, 208, 187, 40, 135, 219, 189, 228, 238, 159, 61, 165, 120, 226, 61, 151, 212, 104, 61, 15, 169, 213, 60, 119, 61, 187, 60, 186, 59, 31, 189, 136, 2, 210, 61, 186, 220, 195, 190, 4, 79, 163, 61, 234, 197, 111, 189, 199, 133, 29, 190, 2, 113, 117, 61, 82, 207, 142, 189, 155, 235, 72, 60, 111, 82, 23, 189, 178, 163, 4, 61, 101, 221, 88, 189, 202, 199, 224, 61, 245, 254, 121, 189, 203, 122, 68, 62, 221, 22, 55, 62, 88, 122, 168, 60, 60, 126, 252, 60, 169, 159, 203, 60, 106, 178, 208, 62, 9, 43, 5, 190, 66, 39, 20, 62, 113, 37, 144, 189, 33, 23, 66, 189, 217, 107, 156, 187, 28, 25, 96, 62, 102, 61, 197, 60, 153, 5, 128, 188, 42, 41, 116, 61, 81, 192, 214, 189, 196, 156, 159, 61, 248, 98, 21, 57, 197, 62, 33, 190, 205, 203, 19, 187, 23, 86, 70, 60, 161, 167, 95, 60, 112, 189, 79, 187, 116, 6, 45, 56, 66, 253, 149, 188, 152, 180, 222, 59, 176, 5, 178, 62, 60, 243, 35, 62, 236, 181, 217, 188, 242, 184, 9, 189, 245, 9, 164, 189, 76, 104, 2, 189, 217, 238, 183, 61, 104, 199, 246, 61, 39, 111, 176, 61, 66, 179, 74, 189, 20, 28, 42, 189, 5, 168, 106, 188, 206, 54, 215, 189, 14, 154, 9, 190, 239, 53, 92, 188, 28, 219, 104, 59, 139, 98, 10, 190, 36, 119, 120, 61, 6, 167, 32, 61, 163, 185, 189, 61, 15, 2, 113, 62, 239, 41, 100, 62, 198, 229, 90, 59, 245, 154, 54, 62, 2, 83, 26, 62, 141, 193, 244, 189, 159, 119, 24, 61, 4, 9, 61, 59, 55, 170, 230, 59, 50, 149, 17, 190, 239, 151, 35, 190, 146, 197, 192, 189, 254, 191, 2, 189, 91, 199, 216, 189, 39, 63, 232, 188, 85, 55, 123, 188, 36, 19, 203, 59, 91, 132, 66, 62, 93, 33, 97, 61, 40, 48, 12, 61, 29, 68, 108, 61, 32, 124, 221, 60, 19, 95, 44, 61, 234, 86, 133, 189, 96, 104, 141, 59, 153, 43, 212, 189, 114, 135, 154, 188, 88, 100, 253, 60, 196, 149, 95, 188, 121, 10, 71, 189, 230, 49, 71, 189, 48, 16, 93, 188, 153, 247, 231, 61, 186, 209, 14, 190, 124, 23, 140, 61, 176, 223, 107, 189, 110, 57, 236, 189, 60, 21, 156, 60, 98, 213, 87, 61, 61, 205, 60, 189, 151, 147, 11, 61, 132, 95, 94, 58, 234, 130, 108, 61, 104, 252, 131, 60, 139, 205, 84, 60, 24, 225, 164, 61, 201, 131, 148, 60, 14, 170, 238, 60, 45, 238, 102, 187, 221, 80, 62, 187, 67, 83, 203, 61, 51, 157, 176, 60, 44, 36, 194, 62, 217, 64, 7, 188, 227, 62, 6, 190, 47, 240, 135, 61, 84, 94, 196, 61, 224, 23, 215, 60, 41, 140, 131, 188, 44, 6, 165, 61, 240, 179, 134, 189, 64, 1, 96, 188, 227, 39, 175, 189, 107, 189, 142, 61, 27, 170, 179, 190, 12, 171, 166, 189, 16, 29, 80, 189, 64, 55, 204, 188, 184, 132, 160, 190, 195, 224, 225, 189, 5, 40, 228, 188, 223, 233, 96, 189, 181, 110, 57, 190, 8, 191, 24, 189, 72, 19, 121, 189, 133, 142, 148, 189, 93, 254, 209, 60, 38, 111, 144, 59, 223, 180, 103, 61, 228, 116, 98, 189, 69, 56, 103, 188, 237, 3, 207, 61, 246, 37, 108, 190, 180, 14, 89, 58, 205, 147, 177, 188, 122, 248, 115, 188, 93, 107, 76, 190, 204, 125, 236, 61, 227, 109, 1, 61, 108, 232, 16, 60, 130, 236, 93, 188, 156, 172, 182, 189, 43, 33, 105, 61, 160, 218, 103, 62, 110, 49, 94, 189, 142, 189, 238, 188, 103, 24, 82, 188, 30, 204, 51, 61, 232, 223, 11, 185, 29, 74, 81, 61, 222, 240, 78, 189, 196, 237, 200, 189, 244, 27, 244, 59, 142, 2, 189, 189, 29, 82, 142, 188, 162, 106, 26, 61, 204, 0, 235, 60, 211, 159, 96, 61, 10, 24, 199, 61, 23, 254, 249, 187, 124, 33, 243, 189, 220, 196, 62, 190, 34, 39, 179, 189, 90, 103, 199, 188, 63, 158, 178, 189, 228, 12, 139, 61, 132, 192, 229, 190, 236, 237, 156, 61, 239, 177, 171, 61, 245, 63, 135, 61, 15, 252, 116, 61, 134, 16, 132, 61, 84, 50, 130, 188, 88, 107, 93, 189, 141, 116, 38, 190, 102, 46, 216, 61, 92, 248, 149, 188, 42, 64, 15, 189, 143, 215, 12, 187, 204, 140, 86, 61, 176, 107, 41, 61, 143, 137, 135, 185, 115, 167, 120, 60, 60, 137, 236, 61, 78, 205, 78, 62, 88, 65, 130, 61, 197, 23, 187, 189, 102, 9, 185, 189, 63, 131, 68, 189, 197, 254, 240, 60, 159, 130, 187, 189, 93, 99, 138, 61, 249, 104, 5, 60, 192, 7, 18, 62, 161, 254, 177, 188, 85, 137, 234, 189, 13, 247, 140, 61, 53, 197, 129, 60, 95, 176, 245, 60, 237, 212, 131, 189, 108, 137, 39, 186, 190, 145, 40, 62, 51, 116, 247, 189, 218, 244, 157, 188, 136, 249, 11, 62, 44, 38, 52, 61, 107, 233, 197, 189, 250, 84, 136, 61, 81, 44, 72, 61, 179, 92, 16, 190, 100, 1, 238, 188, 221, 182, 182, 189, 200, 139, 176, 60, 227, 23, 141, 188, 224, 68, 179, 60, 231, 84, 158, 61, 20, 107, 10, 61, 173, 81, 24, 62, 248, 231, 157, 189, 96, 239, 53, 188, 155, 4, 152, 60, 155, 74, 195, 188, 94, 38, 153, 189, 28, 29, 9, 189, 168, 201, 28, 189, 76, 186, 122, 189, 63, 235, 139, 189, 178, 123, 195, 188, 126, 57, 180, 190, 255, 206, 241, 61, 25, 187, 251, 58, 135, 196, 18, 187, 138, 14, 28, 190, 104, 157, 141, 189, 91, 168, 158, 188, 146, 19, 64, 61, 70, 45, 121, 189, 245, 188, 33, 190, 241, 32, 110, 188, 0, 131, 129, 189, 212, 250, 66, 189, 175, 67, 91, 60, 106, 190, 138, 189, 12, 142, 188, 60, 184, 44, 188, 60, 155, 76, 2, 61, 149, 42, 82, 60, 203, 93, 25, 189, 216, 77, 140, 60, 50, 140, 27, 189, 249, 105, 96, 189, 145, 205, 150, 60, 69, 157, 13, 189, 99, 217, 234, 189, 117, 25, 215, 61, 85, 60, 166, 60, 108, 166, 68, 189, 204, 146, 138, 189, 58, 83, 250, 61, 232, 211, 230, 187, 118, 43, 74, 61, 40, 121, 127, 189, 36, 31, 149, 62, 197, 4, 46, 188, 48, 175, 178, 61, 45, 28, 70, 189, 114, 50, 192, 189, 70, 228, 203, 189, 220, 211, 228, 60, 35, 213, 135, 60, 59, 51, 62, 190, 204, 21, 36, 62, 153, 159, 31, 60, 231, 133, 131, 59, 29, 85, 99, 60, 97, 124, 241, 187, 221, 200, 182, 60, 210, 197, 55, 189, 50, 10, 140, 188, 71, 111, 197, 189, 36, 50, 40, 62, 219, 110, 119, 61, 231, 83, 210, 189, 158, 25, 87, 189, 151, 141, 137, 188, 225, 17, 65, 59, 130, 181, 39, 62, 81, 253, 31, 189, 97, 76, 215, 188, 71, 98, 75, 189, 146, 240, 63, 61, 190, 183, 66, 62, 157, 132, 47, 61, 11, 94, 203, 187, 70, 252, 181, 189, 60, 131, 17, 61, 215, 161, 35, 190, 208, 189, 31, 62, 116, 30, 171, 187, 26, 14, 0, 190, 47, 228, 5, 63, 69, 81, 118, 187, 27, 119, 82, 188, 62, 95, 7, 190, 177, 226, 180, 189, 135, 101, 50, 60, 241, 166, 154, 61, 149, 231, 149, 189, 83, 83, 46, 60, 123, 101, 84, 188, 186, 171, 190, 60, 43, 32, 18, 190, 216, 30, 214, 61, 102, 4, 253, 189, 161, 251, 39, 60, 162, 89, 234, 61, 254, 83, 107, 188, 108, 32, 12, 189, 45, 144, 185, 61, 12, 238, 46, 61, 135, 163, 73, 62, 58, 0, 214, 189, 254, 173, 148, 60, 102, 79, 3, 61, 200, 68, 226, 61, 19, 141, 73, 62, 24, 198, 24, 189, 82, 36, 120, 188, 245, 42, 145, 61, 219, 78, 89, 190, 217, 112, 67, 61, 47, 119, 53, 61, 194, 20, 189, 61, 91, 37, 177, 189, 58, 158, 25, 60, 66, 120, 158, 189, 250, 37, 253, 188, 206, 180, 126, 61, 194, 20, 80, 61, 40, 148, 254, 61, 11, 69, 131, 190, 103, 139, 251, 187, 128, 202, 228, 59, 159, 207, 194, 61, 190, 177, 9, 61, 207, 120, 254, 60, 148, 105, 220, 185, 58, 123, 43, 189, 119, 190, 133, 61, 137, 216, 242, 189, 38, 237, 15, 62, 98, 101, 232, 60, 16, 32, 72, 61, 92, 211, 225, 60, 249, 200, 151, 190, 58, 83, 212, 189, 39, 40, 100, 187, 60, 70, 247, 61, 244, 42, 87, 189, 207, 85, 218, 189, 51, 142, 151, 61, 63, 15, 136, 187, 90, 113, 43, 62, 4, 30, 145, 190, 207, 87, 93, 62, 107, 199, 117, 61, 202, 226, 146, 188, 117, 182, 235, 60, 71, 224, 49, 189, 224, 0, 106, 189, 230, 135, 206, 188, 30, 88, 204, 60, 14, 174, 171, 189, 247, 127, 10, 61, 61, 116, 69, 61, 202, 101, 137, 189, 4, 93, 201, 61, 131, 153, 202, 61, 33, 73, 56, 189, 155, 64, 184, 188, 122, 102, 7, 59, 121, 3, 163, 61, 219, 181, 94, 62, 229, 220, 135, 189, 29, 235, 188, 61, 183, 106, 207, 61, 107, 186, 170, 61, 123, 6, 165, 188, 185, 193, 86, 190, 172, 198, 240, 187, 73, 251, 192, 189, 200, 167, 42, 189, 226, 7, 62, 189, 169, 34, 135, 61, 93, 196, 226, 60, 232, 221, 32, 190, 141, 39, 193, 60, 35, 16, 78, 61, 241, 52, 184, 189, 202, 69, 57, 188, 128, 1, 191, 61, 138, 29, 93, 189, 166, 247, 135, 60, 218, 184, 218, 61, 10, 219, 169, 188, 168, 214, 90, 189, 14, 225, 137, 188, 251, 73, 192, 61, 149, 214, 50, 190, 178, 174, 170, 189, 254, 65, 174, 189, 67, 29, 129, 61, 69, 168, 135, 61, 221, 84, 70, 189, 113, 122, 158, 61, 99, 36, 150, 61, 195, 8, 207, 188, 32, 138, 241, 186, 62, 205, 53, 61, 24, 76, 248, 189, 6, 247, 93, 189, 188, 202, 40, 61, 6, 56, 41, 61, 131, 236, 132, 188, 43, 148, 79, 188, 240, 163, 191, 61, 241, 99, 122, 189, 52, 124, 141, 189, 69, 155, 30, 61, 59, 193, 170, 189, 88, 250, 233, 189, 48, 131, 247, 61, 59, 14, 96, 61, 72, 110, 200, 61, 180, 5, 83, 188, 174, 99, 165, 189, 232, 90, 239, 189, 17, 225, 132, 189, 186, 231, 253, 59, 206, 79, 125, 187, 235, 170, 208, 60, 172, 12, 113, 61, 185, 56, 255, 61, 185, 17, 223, 60, 221, 200, 227, 61, 188, 146, 216, 189, 82, 0, 173, 61, 213, 70, 55, 61, 177, 55, 36, 61, 0, 214, 33, 189, 208, 93, 113, 190, 190, 248, 0, 61, 106, 200, 184, 188, 135, 68, 171, 61, 80, 53, 181, 190, 14, 243, 207, 189, 241, 161, 198, 59, 44, 205, 26, 188, 132, 78, 142, 61, 14, 12, 128, 189, 151, 5, 31, 61, 46, 7, 138, 188, 19, 174, 207, 60, 225, 43, 242, 189, 200, 45, 163, 61, 62, 235, 230, 188, 119, 228, 136, 61, 224, 47, 42, 61, 219, 226, 71, 61, 68, 99, 227, 60, 121, 205, 175, 61, 178, 191, 114, 61, 130, 154, 172, 62, 100, 21, 234, 61, 78, 167, 13, 62, 199, 33, 234, 60, 99, 141, 29, 188, 33, 140, 2, 61, 200, 83, 114, 189, 195, 28, 74, 189, 171, 109, 48, 58, 130, 138, 190, 189, 77, 80, 53, 61, 188, 175, 89, 62, 252, 177, 20, 60, 223, 209, 31, 61, 82, 181, 18, 61, 25, 107, 241, 188, 142, 87, 70, 188, 14, 171, 59, 61, 62, 224, 217, 189, 193, 233, 80, 60, 189, 142, 169, 61, 218, 43, 102, 59, 68, 58, 216, 60, 81, 30, 14, 190, 146, 69, 151, 61, 39, 120, 163, 189, 213, 246, 66, 58, 89, 219, 15, 61, 220, 215, 248, 60, 102, 19, 111, 60, 84, 201, 7, 189, 11, 179, 95, 61, 145, 45, 0, 62, 5, 31, 165, 189, 16, 173, 169, 61, 110, 254, 61, 62, 133, 108, 166, 190, 48, 186, 116, 189, 52, 16, 208, 189, 110, 42, 244, 60, 38, 195, 30, 62, 22, 1, 215, 61, 76, 59, 250, 187, 132, 70, 55, 189, 247, 91, 36, 61, 59, 175, 241, 60, 193, 118, 76, 190, 184, 236, 24, 61, 123, 169, 3, 62, 14, 100, 61, 189, 212, 242, 241, 61, 174, 35, 100, 190, 38, 0, 84, 189, 184, 255, 52, 189, 212, 120, 188, 189, 246, 164, 82, 190, 84, 102, 194, 189, 34, 51, 42, 190, 145, 17, 11, 62, 201, 31, 185, 60, 171, 96, 51, 61, 174, 17, 202, 60, 104, 211, 177, 61, 108, 125, 86, 189, 49, 75, 0, 189, 53, 53, 143, 61, 135, 218, 250, 188, 234, 161, 111, 62, 181, 201, 54, 189, 87, 80, 31, 189, 246, 233, 17, 189, 151, 167, 48, 189, 56, 250, 69, 62, 249, 177, 245, 61, 226, 168, 168, 189, 47, 190, 60, 190, 146, 219, 104, 189, 227, 153, 3, 190, 240, 131, 29, 60, 5, 242, 40, 189, 195, 157, 153, 189, 63, 67, 246, 189, 218, 238, 88, 187, 59, 60, 105, 188, 232, 62, 109, 189, 203, 52, 158, 185, 16, 241, 41, 189, 183, 57, 151, 60, 110, 182, 180, 61, 196, 18, 147, 189, 188, 242, 104, 189, 204, 153, 227, 58, 214, 26, 52, 60, 22, 143, 48, 189, 87, 169, 137, 61, 152, 168, 119, 60, 70, 117, 199, 61, 239, 132, 22, 62, 63, 185, 117, 61, 57, 110, 72, 61, 10, 177, 51, 188, 196, 159, 164, 61, 38, 148, 18, 62, 134, 108, 8, 190, 81, 103, 121, 189, 142, 222, 25, 190, 30, 27, 154, 188, 88, 88, 119, 188, 58, 39, 93, 61, 96, 83, 83, 189, 197, 141, 45, 61, 47, 241, 141, 61, 121, 147, 79, 59, 251, 119, 67, 190, 187, 30, 175, 189, 165, 110, 47, 62, 224, 160, 17, 190, 40, 203, 132, 62, 145, 218, 212, 188, 24, 65, 103, 189, 117, 79, 33, 61, 81, 244, 105, 61, 3, 194, 10, 189, 181, 107, 86, 62, 106, 67, 232, 61, 52, 189, 52, 189, 240, 89, 197, 190, 142, 2, 49, 62, 118, 37, 33, 62, 94, 133, 7, 190, 153, 185, 207, 61, 13, 195, 139, 188, 80, 245, 147, 61, 189, 156, 101, 62, 170, 15, 188, 60, 198, 231, 216, 188, 120, 212, 69, 189, 229, 37, 176, 189, 41, 175, 40, 189, 55, 181, 42, 60, 25, 233, 137, 60, 64, 227, 25, 62, 58, 139, 96, 186, 44, 40, 85, 188, 233, 7, 82, 189, 252, 173, 207, 190, 101, 136, 15, 188, 216, 116, 110, 60, 223, 78, 78, 61, 177, 239, 136, 60, 242, 238, 30, 189, 247, 242, 52, 190, 178, 166, 144, 189, 6, 248, 28, 189, 240, 151, 27, 61, 32, 195, 241, 187, 76, 49, 164, 61, 182, 184, 243, 59, 91, 239, 138, 188, 249, 137, 93, 188, 152, 251, 197, 60, 93, 39, 204, 59, 124, 208, 194, 61, 190, 19, 49, 61, 147, 139, 60, 61, 245, 55, 69, 189, 138, 213, 196, 61, 148, 246, 37, 60, 234, 111, 214, 61, 240, 21, 123, 62, 211, 236, 204, 190, 212, 175, 233, 61, 123, 245, 39, 190, 222, 8, 79, 60, 3, 53, 136, 188, 54, 226, 4, 191, 179, 202, 72, 61, 218, 21, 68, 61, 124, 121, 54, 190, 104, 21, 183, 61, 199, 237, 217, 61, 255, 244, 228, 188, 98, 249, 58, 61, 163, 185, 111, 189, 168, 147, 63, 189, 19, 87, 42, 61, 73, 167, 219, 60, 197, 207, 131, 61, 89, 0, 73, 189, 13, 14, 17, 189, 232, 17, 72, 60, 148, 201, 94, 190, 136, 76, 99, 62, 25, 97, 156, 189, 29, 176, 9, 61, 26, 52, 132, 61, 63, 229, 27, 188, 234, 79, 188, 61, 112, 109, 78, 61, 136, 177, 89, 190, 98, 147, 247, 189, 78, 70, 65, 61, 84, 124, 12, 62, 176, 73, 182, 188, 165, 149, 25, 190, 124, 118, 92, 190, 135, 75, 17, 61, 171, 40, 32, 61, 242, 120, 104, 188, 138, 137, 191, 62, 135, 175, 76, 62, 122, 55, 163, 60, 137, 246, 21, 189, 136, 216, 109, 189, 143, 199, 20, 189, 85, 177, 172, 59, 120, 182, 164, 61, 105, 171, 108, 189, 11, 64, 102, 187, 71, 88, 193, 186, 250, 71, 45, 61, 70, 127, 178, 189, 90, 104, 93, 61, 233, 36, 150, 189, 175, 40, 29, 188, 95, 218, 69, 61, 220, 225, 242, 185, 246, 232, 163, 189, 227, 87, 211, 61, 152, 151, 110, 61, 200, 195, 219, 60, 34, 133, 200, 62, 88, 173, 211, 59, 164, 240, 83, 189, 164, 27, 37, 60, 95, 31, 134, 60, 251, 95, 51, 61, 88, 135, 216, 189, 254, 89, 22, 190, 190, 6, 204, 61, 224, 189, 141, 61, 233, 189, 167, 60, 116, 12, 129, 62, 202, 33, 47, 62, 153, 194, 229, 61, 148, 244, 21, 189, 189, 154, 143, 189, 148, 146, 155, 60, 77, 163, 2, 61, 38, 56, 120, 61, 10, 181, 200, 189, 87, 14, 160, 190, 237, 170, 171, 186, 187, 51, 194, 61, 39, 21, 227, 189, 237, 99, 198, 60, 248, 81, 10, 189, 130, 170, 28, 188, 133, 28, 164, 189, 126, 110, 109, 61, 220, 155, 9, 59, 235, 233, 23, 62, 143, 106, 74, 188, 2, 194, 40, 190, 133, 105, 131, 189, 63, 87, 209, 187, 163, 106, 90, 61, 221, 70, 170, 60, 190, 225, 219, 61, 15, 235, 45, 60, 254, 191, 37, 59, 203, 90, 93, 61, 96, 90, 203, 60, 150, 200, 253, 189, 167, 211, 56, 61, 235, 204, 87, 60, 246, 165, 153, 187, 174, 211, 36, 61, 27, 246, 186, 187, 132, 187, 89, 62, 85, 180, 155, 189, 239, 192, 57, 61, 158, 115, 19, 61, 140, 86, 96, 61, 2, 252, 238, 188, 177, 41, 18, 61, 143, 49, 164, 188, 105, 37, 54, 188, 150, 211, 199, 61, 109, 252, 247, 189, 52, 193, 184, 60, 119, 84, 53, 60, 117, 234, 130, 60, 55, 218, 25, 189, 22, 220, 2, 190, 151, 127, 92, 61, 225, 152, 48, 61, 105, 80, 110, 190, 228, 165, 151, 59, 15, 114, 205, 61, 112, 41, 246, 59, 40, 176, 34, 61, 162, 162, 81, 190, 99, 180, 255, 188, 8, 66, 147, 59, 179, 187, 5, 62, 108, 171, 244, 61, 28, 220, 69, 189, 159, 28, 107, 189, 234, 143, 152, 189, 211, 99, 186, 189, 209, 92, 36, 61, 252, 185, 68, 61, 146, 137, 226, 186, 24, 38, 17, 62, 201, 33, 230, 188, 92, 155, 173, 189, 155, 154, 47, 61, 14, 23, 78, 61, 197, 40, 7, 62, 239, 79, 155, 189, 235, 246, 43, 190, 42, 159, 4, 62, 125, 183, 17, 62, 76, 241, 238, 186, 22, 53, 197, 60, 25, 143, 154, 188, 212, 165, 16, 189, 144, 255, 183, 187, 207, 164, 42, 61, 78, 61, 113, 187, 204, 227, 79, 61, 223, 98, 157, 189, 207, 69, 61, 61, 60, 194, 82, 189, 148, 164, 184, 61, 140, 107, 180, 190, 180, 144, 38, 190, 189, 249, 106, 61, 182, 86, 4, 189, 21, 142, 255, 189, 9, 212, 222, 60, 248, 120, 116, 185, 4, 206, 193, 60, 28, 223, 211, 60, 82, 57, 180, 188, 10, 251, 51, 189, 215, 196, 148, 189, 131, 86, 21, 190, 219, 20, 65, 188, 10, 38, 129, 61, 102, 223, 205, 188, 181, 210, 30, 61, 92, 182, 243, 60, 22, 96, 70, 62, 116, 32, 161, 61, 162, 126, 72, 60, 43, 238, 0, 61, 42, 91, 137, 61, 138, 4, 137, 57, 234, 93, 254, 60, 41, 240, 198, 61, 222, 73, 43, 62, 110, 33, 173, 61, 254, 122, 140, 61, 53, 11, 159, 189, 225, 235, 50, 191, 168, 93, 226, 61, 20, 69, 62, 189, 189, 25, 18, 61, 104, 84, 97, 61, 149, 10, 113, 189, 10, 42, 78, 189, 37, 249, 148, 61, 219, 248, 16, 61, 9, 175, 150, 189, 80, 86, 166, 61, 183, 68, 214, 61, 254, 50, 51, 61, 38, 110, 56, 60, 167, 108, 178, 61, 237, 173, 23, 189, 224, 205, 144, 60, 218, 237, 137, 189, 138, 121, 248, 189, 135, 44, 245, 189, 46, 72, 152, 190, 245, 217, 157, 60, 196, 216, 118, 61, 130, 197, 135, 189, 16, 103, 61, 190, 98, 110, 90, 189, 29, 194, 68, 62, 249, 165, 11, 189, 198, 210, 219, 61, 185, 17, 15, 190, 227, 206, 155, 188, 155, 46, 150, 61, 228, 24, 15, 188, 246, 133, 12, 62, 144, 8, 25, 189, 56, 20, 164, 189, 31, 197, 179, 61, 123, 12, 109, 61, 164, 115, 11, 62, 246, 227, 228, 60, 183, 192, 150, 61, 210, 83, 144, 187, 165, 232, 120, 60, 177, 93, 204, 61, 212, 138, 13, 189, 34, 230, 230, 187, 24, 193, 130, 61, 251, 177, 54, 189, 136, 45, 127, 189, 106, 103, 181, 190, 163, 42, 9, 190, 124, 151, 132, 61, 36, 92, 31, 62, 170, 79, 180, 61, 3, 109, 180, 189, 42, 236, 179, 189, 55, 117, 196, 60, 10, 135, 88, 189, 224, 40, 82, 60, 105, 180, 254, 188, 154, 34, 18, 61, 140, 57, 53, 62, 30, 247, 196, 60, 75, 145, 190, 190, 128, 6, 157, 59, 123, 140, 89, 62, 140, 63, 29, 189, 107, 144, 122, 189, 192, 166, 198, 61, 98, 243, 63, 189, 246, 209, 135, 188, 141, 129, 2, 62, 83, 100, 137, 61, 222, 79, 174, 190, 240, 134, 135, 60, 197, 71, 196, 61, 184, 143, 94, 189, 183, 10, 3, 190, 253, 97, 99, 190, 37, 147, 218, 189, 1, 71, 235, 186, 243, 231, 159, 186, 72, 120, 37, 61, 143, 174, 148, 61, 206, 80, 109, 190, 214, 251, 168, 61, 213, 46, 211, 61, 164, 72, 141, 60, 90, 143, 94, 61, 88, 21, 138, 61, 234, 138, 247, 61, 51, 97, 202, 188, 205, 253, 192, 189, 197, 143, 81, 61, 25, 131, 184, 62, 168, 132, 114, 62, 16, 61, 37, 62, 5, 214, 176, 190, 146, 248, 11, 62, 222, 206, 69, 61, 129, 175, 228, 61, 228, 222, 8, 190, 63, 181, 98, 188, 221, 245, 196, 61, 254, 48, 171, 188, 69, 172, 152, 60, 35, 48, 6, 61, 191, 74, 59, 62, 10, 98, 41, 62, 188, 194, 245, 61, 234, 45, 27, 62, 192, 242, 243, 60, 27, 128, 10, 62, 7, 30, 226, 186, 198, 132, 87, 189, 164, 215, 15, 190, 45, 160, 7, 62, 146, 98, 154, 60, 190, 130, 116, 62, 246, 250, 42, 190, 9, 62, 132, 190, 242, 248, 125, 190, 196, 38, 184, 58, 147, 49, 127, 188, 213, 110, 11, 62, 61, 223, 3, 189, 166, 148, 0, 62, 184, 156, 130, 62, 106, 18, 211, 59, 128, 169, 41, 62, 251, 37, 62, 61, 252, 91, 205, 61, 30, 150, 151, 61, 216, 76, 12, 62, 74, 113, 145, 60, 192, 161, 20, 62, 155, 237, 245, 61, 44, 45, 128, 61, 37, 99, 28, 62, 102, 17, 97, 62, 114, 169, 183, 188, 6, 9, 134, 188, 231, 119, 104, 61, 90, 46, 93, 61, 203, 24, 199, 189, 79, 113, 72, 62, 113, 51, 147, 189, 231, 168, 139, 61, 80, 106, 117, 187, 16, 45, 254, 188, 210, 193, 66, 62, 193, 83, 129, 61, 207, 97, 159, 189, 17, 193, 138, 188, 39, 168, 208, 61, 163, 61, 129, 60, 96, 49, 126, 60, 194, 7, 88, 190, 171, 52, 34, 189, 244, 127, 61, 189, 162, 158, 202, 61, 117, 72, 172, 60, 60, 125, 246, 61, 210, 159, 7, 62, 40, 193, 229, 188, 115, 212, 34, 61, 71, 21, 7, 61, 189, 100, 82, 190, 57, 208, 23, 62, 154, 17, 13, 61, 30, 39, 128, 59, 162, 134, 189, 61, 176, 113, 164, 188, 54, 161, 42, 61, 178, 248, 246, 61, 202, 63, 9, 190, 253, 125, 72, 190, 170, 72, 11, 60, 117, 67, 218, 189, 188, 0, 194, 61, 99, 111, 199, 188, 233, 71, 206, 61, 164, 6, 153, 189, 104, 205, 10, 190, 68, 82, 135, 190, 102, 194, 168, 188, 137, 201, 134, 61, 2, 113, 71, 188, 188, 11, 142, 61, 65, 38, 73, 188, 75, 32, 210, 61, 248, 200, 150, 189, 67, 163, 228, 189, 44, 249, 131, 62, 238, 188, 247, 189, 9, 189, 240, 189, 78, 125, 160, 61, 128, 194, 2, 62, 208, 243, 166, 190, 232, 167, 12, 62, 132, 147, 128, 190, 104, 246, 196, 187, 117, 186, 14, 190, 251, 220, 55, 61, 145, 2, 35, 61, 246, 70, 156, 190, 17, 94, 83, 188, 68, 198, 40, 61, 199, 85, 77, 61, 232, 28, 59, 62, 109, 7, 134, 189, 77, 12, 18, 190, 31, 230, 186, 61, 178, 52, 187, 189, 252, 19, 39, 62, 247, 69, 132, 189, 38, 75, 26, 61, 225, 4, 250, 61, 218, 226, 125, 61, 176, 231, 86, 61, 3, 89, 48, 60, 130, 254, 23, 61, 35, 175, 28, 190, 133, 116, 37, 62, 130, 186, 204, 188, 251, 244, 227, 188, 190, 49, 77, 60, 253, 215, 200, 61, 183, 47, 69, 62, 113, 157, 86, 189, 78, 116, 154, 187, 120, 154, 176, 188, 26, 35, 25, 190, 185, 157, 130, 60, 207, 140, 213, 59, 90, 226, 30, 62, 195, 18, 25, 60, 72, 106, 54, 190, 208, 20, 17, 62, 183, 248, 98, 61, 161, 46, 65, 189, 0, 0, 6, 0, 8, 0, 4, 0, 6, 0, 0, 0, 4, 0, 0, 0, 64, 0, 0, 0, 0, 0, 0, 0, 0, 0, 0, 0, 0, 0, 0, 0, 0, 0, 0, 0, 0, 0, 0, 0, 0, 0, 0, 0, 0, 0, 0, 0, 0, 0, 0, 0, 0, 0, 0, 0, 0, 0, 0, 0, 0, 0, 0, 0, 0, 0, 0, 0, 0, 0, 0, 0, 0, 0, 0, 0, 0, 0, 0, 0, 0, 0, 0, 0, 192, 253, 255, 255, 196, 253, 255, 255, 15, 0, 0, 0, 77, 76, 73, 82, 32, 67, 111, 110, 118, 101, 114, 116, 101, 100, 46, 0, 1, 0, 0, 0, 20, 0, 0, 0, 0, 0, 14, 0, 24, 0, 20, 0, 16, 0, 12, 0, 8, 0, 4, 0, 14, 0, 0, 0, 20, 0, 0, 0, 28, 0, 0, 0, 116, 0, 0, 0, 120, 0, 0, 0, 124, 0, 0, 0, 4, 0, 0, 0, 109, 97, 105, 110, 0, 0, 0, 0, 1, 0, 0, 0, 20, 0, 0, 0, 0, 0, 14, 0, 22, 0, 0, 0, 16, 0, 12, 0, 11, 0, 4, 0, 14, 0, 0, 0, 28, 0, 0, 0, 0, 0, 0, 1, 32, 0, 0, 0, 36, 0, 0, 0, 0, 0, 10, 0, 12, 0, 0, 0, 8, 0, 4, 0, 10, 0, 0, 0, 1, 0, 0, 0, 1, 0, 0, 0, 1, 0, 0, 0, 3, 0, 0, 0, 3, 0, 0, 0, 0, 0, 0, 0, 2, 0, 0, 0, 1, 0, 0, 0, 1, 0, 0, 0, 3, 0, 0, 0, 1, 0, 0, 0, 0, 0, 0, 0, 4, 0, 0, 0, 72, 1, 0, 0, 228, 0, 0, 0, 112, 0, 0, 0, 4, 0, 0, 0, 222, 254, 255, 255, 0, 0, 0, 1, 20, 0, 0, 0, 36, 0, 0, 0, 36, 0, 0, 0, 4, 0, 0, 0, 60, 0, 0, 0, 4, 0, 0, 0, 255, 255, 255, 255, 12, 0, 0, 0, 12, 0, 0, 0, 16, 0, 0, 0, 200, 254, 255, 255, 25, 0, 0, 0, 83, 116, 97, 116, 101, 102, 117, 108, 80, 97, 114, 116, 105, 116, 105, 111, 110, 101, 100, 67, 97, 108, 108, 58, 48, 0, 0, 0, 4, 0, 0, 0, 1, 0, 0, 0, 12, 0, 0, 0, 12, 0, 0, 0, 16, 0, 0, 0, 166, 255, 255, 255, 0, 0, 0, 1, 16, 0, 0, 0, 16, 0, 0, 0, 3, 0, 0, 0, 48, 0, 0, 0, 24, 255, 255, 255, 32, 0, 0, 0, 109, 111, 100, 101, 108, 95, 52, 49, 47, 98, 108, 111, 99, 107, 95, 52, 95, 112, 114, 111, 106, 101, 99, 116, 47, 67, 111, 110, 118, 50, 68, 49, 0, 0, 0, 0, 4, 0, 0, 0, 16, 0, 0, 0, 1, 0, 0, 0, 1, 0, 0, 0, 96, 0, 0, 0, 0, 0, 22, 0, 24, 0, 20, 0, 0, 0, 16, 0, 12, 0, 8, 0, 0, 0, 0, 0, 0, 0, 7, 0, 22, 0, 0, 0, 0, 0, 0, 1, 16, 0, 0, 0, 16, 0, 0, 0, 2, 0, 0, 0, 44, 0, 0, 0, 136, 255, 255, 255, 31, 0, 0, 0, 109, 111, 100, 101, 108, 95, 52, 49, 47, 98, 108, 111, 99, 107, 95, 52, 95, 112, 114, 111, 106, 101, 99, 116, 47, 67, 111, 110, 118, 50, 68, 0, 1, 0, 0, 0, 16, 0, 0, 0, 0, 0, 22, 0, 28, 0, 24, 0, 0, 0, 20, 0, 16, 0, 12, 0, 0, 0, 0, 0, 8, 0, 7, 0, 22, 0, 0, 0, 0, 0, 0, 1, 20, 0, 0, 0, 40, 0, 0, 0, 40, 0, 0, 0, 1, 0, 0, 0, 64, 0, 0, 0, 4, 0, 0, 0, 255, 255, 255, 255, 12, 0, 0, 0, 12, 0, 0, 0, 96, 0, 0, 0, 4, 0, 4, 0, 4, 0, 0, 0, 26, 0, 0, 0, 115, 101, 114, 118, 105, 110, 103, 95, 100, 101, 102, 97, 117, 108, 116, 95, 105, 110, 112, 117, 116, 95, 52, 51, 58, 48, 0, 0, 4, 0, 0, 0, 1, 0, 0, 0, 12, 0, 0, 0, 12, 0, 0, 0, 96, 0, 0, 0, 1, 0, 0, 0, 16, 0, 0, 0, 12, 0, 12, 0, 11, 0, 0, 0, 0, 0, 4, 0, 12, 0, 0, 0, 3, 0, 0, 0, 0, 0, 0, 3
};
