#pragma once

#include <cstdint>

const uint8_t layer_27[] = {
28, 0, 0, 0, 84, 70, 76, 51, 20, 0, 32, 0, 28, 0, 24, 0, 20, 0, 16, 0, 12, 0, 0, 0, 8, 0, 4, 0, 20, 0, 0, 0, 28, 0, 0, 0, 156, 0, 0, 0, 244, 0, 0, 0, 64, 3, 0, 0, 80, 3, 0, 0, 96, 6, 0, 0, 3, 0, 0, 0, 1, 0, 0, 0, 16, 0, 0, 0, 0, 0, 10, 0, 16, 0, 12, 0, 8, 0, 4, 0, 10, 0, 0, 0, 12, 0, 0, 0, 28, 0, 0, 0, 68, 0, 0, 0, 15, 0, 0, 0, 115, 101, 114, 118, 105, 110, 103, 95, 100, 101, 102, 97, 117, 108, 116, 0, 1, 0, 0, 0, 4, 0, 0, 0, 140, 255, 255, 255, 4, 0, 0, 0, 4, 0, 0, 0, 17, 0, 0, 0, 98, 108, 111, 99, 107, 95, 51, 95, 101, 120, 112, 97, 110, 100, 95, 66, 78, 0, 0, 0, 1, 0, 0, 0, 4, 0, 0, 0, 22, 254, 255, 255, 4, 0, 0, 0, 8, 0, 0, 0, 105, 110, 112, 117, 116, 95, 50, 57, 0, 0, 0, 0, 2, 0, 0, 0, 52, 0, 0, 0, 4, 0, 0, 0, 220, 255, 255, 255, 7, 0, 0, 0, 4, 0, 0, 0, 19, 0, 0, 0, 67, 79, 78, 86, 69, 82, 83, 73, 79, 78, 95, 77, 69, 84, 65, 68, 65, 84, 65, 0, 8, 0, 12, 0, 8, 0, 4, 0, 8, 0, 0, 0, 6, 0, 0, 0, 4, 0, 0, 0, 19, 0, 0, 0, 109, 105, 110, 95, 114, 117, 110, 116, 105, 109, 101, 95, 118, 101, 114, 115, 105, 111, 110, 0, 8, 0, 0, 0, 72, 2, 0, 0, 64, 2, 0, 0, 112, 1, 0, 0, 152, 0, 0, 0, 144, 0, 0, 0, 136, 0, 0, 0, 104, 0, 0, 0, 4, 0, 0, 0, 174, 254, 255, 255, 4, 0, 0, 0, 84, 0, 0, 0, 12, 0, 0, 0, 8, 0, 14, 0, 8, 0, 4, 0, 8, 0, 0, 0, 16, 0, 0, 0, 36, 0, 0, 0, 0, 0, 6, 0, 8, 0, 4, 0, 6, 0, 0, 0, 4, 0, 0, 0, 0, 0, 0, 0, 0, 0, 10, 0, 16, 0, 12, 0, 8, 0, 4, 0, 10, 0, 0, 0, 2, 0, 0, 0, 2, 0, 0, 0, 4, 0, 0, 0, 6, 0, 0, 0, 50, 46, 49, 53, 46, 48, 0, 0, 14, 255, 255, 255, 4, 0, 0, 0, 16, 0, 0, 0, 49, 46, 53, 46, 48, 0, 0, 0, 0, 0, 0, 0, 0, 0, 0, 0, 28, 251, 255, 255, 32, 251, 255, 255, 50, 255, 255, 255, 4, 0, 0, 0, 192, 0, 0, 0, 139, 88, 102, 62, 234, 196, 54, 63, 72, 255, 18, 63, 30, 139, 45, 62, 174, 7, 13, 64, 212, 55, 129, 64, 93, 165, 140, 63, 8, 110, 34, 60, 91, 81, 149, 190, 116, 45, 230, 190, 218, 37, 129, 63, 71, 141, 151, 62, 153, 235, 163, 63, 221, 29, 65, 63, 178, 124, 102, 64, 9, 54, 160, 63, 207, 249, 248, 62, 227, 213, 211, 190, 225, 166, 111, 189, 52, 27, 112, 63, 173, 44, 27, 191, 79, 177, 36, 64, 23, 249, 108, 64, 114, 174, 197, 63, 193, 68, 206, 63, 0, 53, 173, 61, 74, 39, 222, 64, 183, 184, 237, 63, 233, 253, 224, 63, 30, 189, 103, 190, 145, 132, 39, 64, 128, 1, 156, 63, 31, 96, 211, 62, 126, 195, 120, 188, 25, 225, 108, 64, 250, 210, 235, 63, 125, 17, 180, 191, 46, 129, 182, 61, 2, 48, 59, 190, 85, 39, 240, 63, 56, 44, 28, 62, 193, 192, 242, 189, 24, 82, 151, 190, 64, 92, 14, 60, 9, 86, 246, 63, 94, 208, 176, 63, 246, 57, 131, 62, 14, 217, 148, 63, 0, 0, 6, 0, 8, 0, 4, 0, 6, 0, 0, 0, 4, 0, 0, 0, 192, 0, 0, 0, 24, 42, 24, 62, 215, 217, 15, 63, 237, 102, 62, 62, 146, 62, 35, 62, 173, 216, 67, 62, 113, 58, 13, 62, 217, 203, 129, 62, 66, 9, 205, 61, 169, 172, 87, 62, 87, 43, 249, 62, 17, 251, 27, 63, 158, 189, 253, 61, 213, 247, 29, 62, 178, 20, 1, 63, 204, 96, 0, 62, 26, 156, 104, 62, 8, 240, 59, 62, 37, 89, 80, 62, 77, 63, 179, 61, 181, 114, 116, 62, 242, 104, 90, 62, 66, 122, 43, 62, 9, 152, 148, 62, 20, 158, 131, 61, 68, 69, 109, 62, 183, 109, 219, 61, 121, 108, 137, 63, 58, 235, 219, 61, 181, 229, 102, 62, 158, 236, 46, 62, 144, 16, 106, 62, 122, 66, 53, 62, 39, 35, 255, 62, 23, 101, 187, 61, 95, 137, 169, 62, 142, 244, 30, 62, 165, 19, 135, 62, 212, 24, 6, 62, 43, 128, 211, 61, 240, 62, 146, 62, 125, 112, 179, 61, 150, 248, 31, 62, 253, 144, 36, 62, 145, 52, 4, 62, 66, 61, 167, 63, 142, 208, 159, 62, 45, 190, 10, 62, 179, 56, 40, 63, 196, 252, 255, 255, 200, 252, 255, 255, 15, 0, 0, 0, 77, 76, 73, 82, 32, 67, 111, 110, 118, 101, 114, 116, 101, 100, 46, 0, 1, 0, 0, 0, 20, 0, 0, 0, 0, 0, 14, 0, 24, 0, 20, 0, 16, 0, 12, 0, 8, 0, 4, 0, 14, 0, 0, 0, 20, 0, 0, 0, 28, 0, 0, 0, 160, 0, 0, 0, 164, 0, 0, 0, 168, 0, 0, 0, 4, 0, 0, 0, 109, 97, 105, 110, 0, 0, 0, 0, 2, 0, 0, 0, 88, 0, 0, 0, 20, 0, 0, 0, 0, 0, 14, 0, 24, 0, 20, 0, 16, 0, 12, 0, 11, 0, 4, 0, 14, 0, 0, 0, 20, 0, 0, 0, 0, 0, 0, 11, 16, 0, 0, 0, 20, 0, 0, 0, 1, 0, 0, 0, 80, 253, 255, 255, 1, 0, 0, 0, 4, 0, 0, 0, 2, 0, 0, 0, 3, 0, 0, 0, 2, 0, 0, 0, 0, 0, 14, 0, 20, 0, 0, 0, 16, 0, 12, 0, 11, 0, 4, 0, 14, 0, 0, 0, 16, 0, 0, 0, 0, 0, 0, 21, 12, 0, 0, 0, 16, 0, 0, 0, 140, 253, 255, 255, 1, 0, 0, 0, 3, 0, 0, 0, 2, 0, 0, 0, 0, 0, 0, 0, 1, 0, 0, 0, 1, 0, 0, 0, 4, 0, 0, 0, 1, 0, 0, 0, 0, 0, 0, 0, 5, 0, 0, 0, 212, 1, 0, 0, 100, 1, 0, 0, 240, 0, 0, 0, 112, 0, 0, 0, 4, 0, 0, 0, 86, 254, 255, 255, 0, 0, 0, 1, 20, 0, 0, 0, 36, 0, 0, 0, 36, 0, 0, 0, 5, 0, 0, 0, 60, 0, 0, 0, 4, 0, 0, 0, 255, 255, 255, 255, 24, 0, 0, 0, 24, 0, 0, 0, 48, 0, 0, 0, 252, 253, 255, 255, 25, 0, 0, 0, 83, 116, 97, 116, 101, 102, 117, 108, 80, 97, 114, 116, 105, 116, 105, 111, 110, 101, 100, 67, 97, 108, 108, 58, 48, 0, 0, 0, 4, 0, 0, 0, 1, 0, 0, 0, 24, 0, 0, 0, 24, 0, 0, 0, 48, 0, 0, 0, 190, 254, 255, 255, 0, 0, 0, 1, 20, 0, 0, 0, 36, 0, 0, 0, 36, 0, 0, 0, 4, 0, 0, 0, 80, 0, 0, 0, 4, 0, 0, 0, 255, 255, 255, 255, 24, 0, 0, 0, 24, 0, 0, 0, 48, 0, 0, 0, 100, 254, 255, 255, 44, 0, 0, 0, 109, 111, 100, 101, 108, 95, 50, 55, 47, 98, 108, 111, 99, 107, 95, 51, 95, 101, 120, 112, 97, 110, 100, 95, 66, 78, 47, 70, 117, 115, 101, 100, 66, 97, 116, 99, 104, 78, 111, 114, 109, 86, 51, 50, 0, 0, 0, 0, 4, 0, 0, 0, 1, 0, 0, 0, 24, 0, 0, 0, 24, 0, 0, 0, 48, 0, 0, 0, 166, 255, 255, 255, 0, 0, 0, 1, 16, 0, 0, 0, 16, 0, 0, 0, 3, 0, 0, 0, 60, 0, 0, 0, 200, 254, 255, 255, 44, 0, 0, 0, 109, 111, 100, 101, 108, 95, 50, 55, 47, 98, 108, 111, 99, 107, 95, 51, 95, 101, 120, 112, 97, 110, 100, 95, 66, 78, 47, 70, 117, 115, 101, 100, 66, 97, 116, 99, 104, 78, 111, 114, 109, 86, 51, 49, 0, 0, 0, 0, 1, 0, 0, 0, 48, 0, 0, 0, 0, 0, 22, 0, 24, 0, 20, 0, 0, 0, 16, 0, 12, 0, 8, 0, 0, 0, 0, 0, 0, 0, 7, 0, 22, 0, 0, 0, 0, 0, 0, 1, 16, 0, 0, 0, 16, 0, 0, 0, 2, 0, 0, 0, 56, 0, 0, 0, 56, 255, 255, 255, 43, 0, 0, 0, 109, 111, 100, 101, 108, 95, 50, 55, 47, 98, 108, 111, 99, 107, 95, 51, 95, 101, 120, 112, 97, 110, 100, 95, 66, 78, 47, 70, 117, 115, 101, 100, 66, 97, 116, 99, 104, 78, 111, 114, 109, 86, 51, 0, 1, 0, 0, 0, 48, 0, 0, 0, 0, 0, 22, 0, 28, 0, 24, 0, 0, 0, 20, 0, 16, 0, 12, 0, 0, 0, 0, 0, 8, 0, 7, 0, 22, 0, 0, 0, 0, 0, 0, 1, 20, 0, 0, 0, 36, 0, 0, 0, 36, 0, 0, 0, 1, 0, 0, 0, 60, 0, 0, 0, 4, 0, 0, 0, 255, 255, 255, 255, 24, 0, 0, 0, 24, 0, 0, 0, 48, 0, 0, 0, 188, 255, 255, 255, 26, 0, 0, 0, 115, 101, 114, 118, 105, 110, 103, 95, 100, 101, 102, 97, 117, 108, 116, 95, 105, 110, 112, 117, 116, 95, 50, 57, 58, 48, 0, 0, 4, 0, 0, 0, 1, 0, 0, 0, 24, 0, 0, 0, 24, 0, 0, 0, 48, 0, 0, 0, 2, 0, 0, 0, 28, 0, 0, 0, 8, 0, 0, 0, 4, 0, 4, 0, 4, 0, 0, 0, 12, 0, 12, 0, 11, 0, 0, 0, 0, 0, 4, 0, 12, 0, 0, 0, 18, 0, 0, 0, 0, 0, 0, 18
};
