#pragma once

#include <cstdint>

const uint8_t layer_44[] = {
28, 0, 0, 0, 84, 70, 76, 51, 20, 0, 32, 0, 28, 0, 24, 0, 20, 0, 16, 0, 12, 0, 0, 0, 8, 0, 4, 0, 20, 0, 0, 0, 28, 0, 0, 0, 152, 0, 0, 0, 240, 0, 0, 0, 52, 27, 0, 0, 68, 27, 0, 0, 156, 29, 0, 0, 3, 0, 0, 0, 1, 0, 0, 0, 16, 0, 0, 0, 0, 0, 10, 0, 16, 0, 12, 0, 8, 0, 4, 0, 10, 0, 0, 0, 12, 0, 0, 0, 28, 0, 0, 0, 64, 0, 0, 0, 15, 0, 0, 0, 115, 101, 114, 118, 105, 110, 103, 95, 100, 101, 102, 97, 117, 108, 116, 0, 1, 0, 0, 0, 4, 0, 0, 0, 144, 255, 255, 255, 3, 0, 0, 0, 4, 0, 0, 0, 14, 0, 0, 0, 98, 108, 111, 99, 107, 95, 53, 95, 101, 120, 112, 97, 110, 100, 0, 0, 1, 0, 0, 0, 4, 0, 0, 0, 222, 230, 255, 255, 4, 0, 0, 0, 8, 0, 0, 0, 105, 110, 112, 117, 116, 95, 52, 55, 0, 0, 0, 0, 2, 0, 0, 0, 52, 0, 0, 0, 4, 0, 0, 0, 220, 255, 255, 255, 6, 0, 0, 0, 4, 0, 0, 0, 19, 0, 0, 0, 67, 79, 78, 86, 69, 82, 83, 73, 79, 78, 95, 77, 69, 84, 65, 68, 65, 84, 65, 0, 8, 0, 12, 0, 8, 0, 4, 0, 8, 0, 0, 0, 5, 0, 0, 0, 4, 0, 0, 0, 19, 0, 0, 0, 109, 105, 110, 95, 114, 117, 110, 116, 105, 109, 101, 95, 118, 101, 114, 115, 105, 111, 110, 0, 7, 0, 0, 0, 64, 26, 0, 0, 56, 26, 0, 0, 168, 24, 0, 0, 144, 0, 0, 0, 136, 0, 0, 0, 104, 0, 0, 0, 4, 0, 0, 0, 114, 231, 255, 255, 4, 0, 0, 0, 84, 0, 0, 0, 12, 0, 0, 0, 8, 0, 14, 0, 8, 0, 4, 0, 8, 0, 0, 0, 16, 0, 0, 0, 36, 0, 0, 0, 0, 0, 6, 0, 8, 0, 4, 0, 6, 0, 0, 0, 4, 0, 0, 0, 0, 0, 0, 0, 0, 0, 10, 0, 16, 0, 12, 0, 8, 0, 4, 0, 10, 0, 0, 0, 2, 0, 0, 0, 2, 0, 0, 0, 4, 0, 0, 0, 6, 0, 0, 0, 50, 46, 49, 53, 46, 48, 0, 0, 210, 231, 255, 255, 4, 0, 0, 0, 16, 0, 0, 0, 49, 46, 53, 46, 48, 0, 0, 0, 0, 0, 0, 0, 0, 0, 0, 0, 32, 228, 255, 255, 242, 231, 255, 255, 4, 0, 0, 0, 0, 24, 0, 0, 85, 136, 15, 188, 155, 153, 244, 61, 37, 232, 6, 189, 156, 225, 10, 62, 89, 22, 56, 61, 113, 166, 19, 61, 135, 86, 178, 60, 83, 122, 165, 188, 107, 215, 69, 61, 49, 201, 117, 61, 83, 24, 198, 189, 6, 155, 72, 62, 78, 133, 147, 58, 10, 156, 100, 190, 55, 129, 140, 61, 174, 88, 90, 190, 121, 1, 105, 61, 154, 170, 9, 62, 73, 23, 155, 188, 133, 113, 163, 189, 70, 72, 137, 61, 72, 46, 196, 189, 83, 224, 151, 62, 235, 218, 148, 190, 40, 163, 165, 59, 3, 205, 71, 62, 167, 144, 184, 188, 6, 169, 53, 189, 200, 45, 24, 60, 189, 96, 223, 189, 6, 95, 165, 61, 140, 130, 196, 60, 104, 217, 48, 190, 88, 114, 76, 61, 75, 29, 19, 189, 237, 182, 37, 189, 0, 120, 154, 186, 30, 201, 112, 59, 80, 226, 141, 61, 8, 98, 31, 62, 197, 228, 129, 189, 21, 204, 105, 61, 85, 249, 27, 62, 93, 116, 56, 189, 224, 70, 224, 189, 118, 173, 52, 61, 60, 175, 131, 60, 227, 111, 135, 189, 231, 92, 183, 189, 71, 50, 167, 61, 45, 210, 150, 61, 215, 195, 164, 61, 114, 58, 86, 189, 34, 139, 142, 61, 242, 157, 158, 61, 103, 240, 35, 62, 130, 242, 46, 59, 146, 200, 171, 61, 170, 244, 9, 190, 81, 128, 180, 59, 37, 186, 64, 61, 32, 230, 188, 189, 218, 61, 206, 189, 255, 30, 163, 189, 156, 140, 176, 60, 78, 57, 63, 188, 43, 105, 173, 61, 199, 183, 27, 62, 105, 192, 143, 189, 241, 108, 40, 62, 147, 232, 70, 188, 159, 34, 252, 61, 200, 27, 192, 60, 47, 177, 136, 189, 102, 152, 52, 59, 79, 138, 180, 58, 134, 247, 164, 61, 120, 178, 104, 60, 234, 20, 169, 190, 85, 230, 112, 189, 126, 162, 71, 188, 236, 187, 112, 189, 127, 211, 253, 61, 222, 198, 96, 189, 63, 180, 232, 59, 240, 163, 91, 189, 226, 154, 168, 59, 205, 224, 118, 61, 7, 222, 19, 190, 53, 19, 62, 62, 230, 100, 121, 189, 194, 248, 123, 190, 229, 171, 140, 188, 91, 123, 60, 61, 28, 6, 236, 189, 150, 133, 2, 189, 12, 123, 15, 61, 116, 212, 197, 187, 171, 61, 204, 61, 123, 9, 71, 189, 240, 87, 202, 61, 181, 255, 15, 62, 195, 218, 46, 190, 76, 40, 75, 190, 13, 114, 253, 188, 214, 228, 132, 58, 55, 170, 8, 62, 153, 148, 36, 189, 242, 243, 174, 62, 234, 97, 133, 189, 193, 251, 55, 189, 237, 31, 168, 189, 182, 210, 66, 61, 246, 236, 129, 60, 232, 28, 140, 62, 170, 217, 197, 188, 20, 230, 89, 189, 72, 242, 86, 189, 51, 84, 14, 60, 35, 242, 59, 188, 112, 176, 44, 190, 132, 193, 26, 61, 140, 97, 36, 190, 244, 225, 198, 189, 233, 7, 33, 60, 223, 251, 175, 188, 249, 136, 71, 61, 78, 159, 190, 188, 201, 71, 234, 60, 235, 111, 75, 61, 246, 34, 239, 61, 20, 68, 236, 61, 8, 87, 182, 189, 41, 68, 6, 62, 230, 228, 4, 61, 172, 9, 134, 61, 201, 234, 129, 61, 187, 172, 11, 188, 141, 99, 8, 60, 220, 195, 249, 189, 135, 170, 65, 189, 44, 43, 143, 60, 114, 98, 56, 190, 78, 204, 246, 189, 220, 39, 116, 61, 5, 244, 31, 190, 99, 235, 166, 61, 31, 190, 167, 61, 119, 103, 202, 60, 228, 186, 93, 189, 210, 222, 144, 59, 165, 198, 61, 61, 159, 146, 49, 62, 247, 67, 84, 60, 72, 244, 215, 61, 0, 166, 54, 60, 139, 255, 145, 188, 9, 246, 194, 60, 23, 217, 19, 190, 12, 177, 80, 189, 33, 156, 120, 189, 47, 80, 18, 190, 35, 246, 135, 60, 45, 151, 196, 188, 178, 187, 247, 189, 110, 238, 24, 188, 194, 161, 191, 187, 73, 89, 138, 61, 26, 219, 242, 61, 254, 228, 32, 62, 112, 212, 143, 61, 8, 55, 35, 189, 72, 247, 8, 189, 168, 235, 210, 61, 7, 237, 227, 61, 137, 20, 234, 187, 112, 214, 143, 61, 215, 241, 1, 189, 49, 178, 157, 59, 123, 117, 22, 190, 251, 173, 104, 60, 64, 156, 128, 189, 71, 225, 25, 190, 172, 68, 56, 190, 29, 114, 204, 189, 235, 233, 117, 61, 254, 38, 53, 188, 56, 145, 106, 189, 192, 5, 137, 61, 224, 154, 106, 189, 46, 190, 149, 61, 168, 218, 207, 189, 78, 126, 219, 188, 70, 8, 142, 60, 137, 136, 132, 60, 89, 254, 129, 189, 81, 232, 78, 189, 27, 168, 165, 189, 149, 120, 30, 190, 56, 119, 84, 188, 112, 112, 126, 189, 196, 176, 213, 189, 205, 203, 67, 189, 238, 127, 6, 61, 243, 141, 99, 61, 180, 171, 93, 62, 166, 43, 12, 62, 214, 4, 146, 61, 81, 126, 161, 189, 209, 142, 64, 190, 216, 216, 156, 189, 137, 212, 129, 61, 35, 171, 12, 188, 1, 237, 231, 189, 139, 88, 183, 60, 44, 105, 86, 189, 104, 177, 144, 61, 99, 51, 163, 60, 19, 163, 136, 188, 105, 177, 185, 188, 0, 46, 40, 61, 34, 236, 224, 60, 153, 27, 55, 62, 84, 225, 85, 61, 152, 136, 191, 57, 75, 241, 195, 189, 185, 186, 198, 61, 234, 203, 50, 61, 202, 27, 66, 61, 230, 54, 53, 61, 253, 158, 159, 60, 224, 205, 93, 62, 244, 64, 16, 61, 168, 81, 175, 61, 199, 180, 80, 60, 242, 47, 74, 189, 7, 88, 222, 60, 89, 101, 151, 61, 63, 160, 207, 189, 19, 131, 53, 62, 127, 91, 68, 61, 118, 23, 247, 189, 105, 177, 0, 61, 172, 109, 69, 62, 36, 39, 91, 61, 75, 177, 17, 59, 230, 167, 158, 62, 117, 208, 101, 188, 47, 247, 218, 186, 186, 198, 224, 190, 68, 126, 112, 61, 109, 161, 211, 189, 163, 42, 196, 187, 205, 248, 167, 189, 77, 247, 34, 189, 78, 192, 231, 189, 140, 227, 88, 61, 86, 135, 26, 190, 37, 116, 166, 189, 36, 6, 84, 61, 178, 109, 101, 60, 245, 102, 106, 60, 134, 166, 140, 61, 82, 61, 5, 190, 34, 5, 132, 62, 162, 12, 222, 61, 196, 228, 53, 62, 152, 105, 50, 187, 210, 250, 166, 59, 66, 220, 96, 62, 28, 25, 246, 61, 230, 70, 94, 62, 102, 96, 138, 189, 159, 22, 140, 189, 48, 251, 60, 61, 135, 59, 220, 61, 69, 13, 238, 61, 12, 215, 49, 61, 85, 50, 19, 60, 133, 237, 11, 189, 91, 113, 236, 61, 108, 29, 94, 189, 142, 211, 159, 187, 232, 205, 239, 188, 146, 147, 248, 58, 91, 134, 92, 61, 32, 238, 230, 189, 128, 203, 176, 60, 111, 136, 8, 189, 141, 7, 35, 61, 211, 192, 9, 188, 105, 248, 10, 61, 137, 74, 64, 190, 208, 25, 103, 60, 85, 251, 55, 188, 142, 142, 142, 61, 220, 123, 247, 189, 125, 30, 47, 189, 92, 107, 46, 189, 144, 127, 186, 189, 248, 47, 142, 60, 71, 120, 111, 190, 10, 236, 6, 62, 156, 242, 106, 188, 182, 124, 129, 61, 249, 172, 136, 189, 36, 193, 104, 61, 11, 216, 159, 189, 216, 21, 219, 61, 81, 79, 39, 61, 135, 205, 0, 190, 203, 158, 209, 61, 187, 30, 243, 61, 163, 110, 180, 189, 43, 174, 155, 61, 11, 185, 121, 61, 52, 104, 50, 188, 189, 44, 189, 61, 136, 196, 83, 61, 194, 1, 11, 62, 230, 188, 220, 61, 211, 158, 75, 189, 192, 73, 4, 62, 29, 40, 44, 190, 219, 189, 247, 188, 252, 165, 52, 60, 126, 123, 155, 189, 126, 148, 222, 61, 166, 244, 69, 188, 13, 150, 219, 189, 127, 88, 109, 62, 225, 218, 236, 188, 58, 132, 221, 60, 79, 154, 53, 61, 112, 148, 142, 189, 174, 199, 159, 62, 116, 36, 249, 189, 130, 175, 25, 189, 251, 206, 143, 188, 52, 213, 89, 189, 38, 87, 51, 61, 115, 177, 37, 61, 30, 160, 44, 190, 103, 33, 235, 189, 90, 220, 19, 189, 4, 192, 12, 62, 38, 168, 48, 188, 62, 115, 130, 60, 105, 209, 125, 190, 75, 51, 18, 189, 0, 233, 153, 61, 73, 111, 13, 189, 242, 219, 122, 61, 35, 183, 135, 189, 33, 44, 184, 61, 10, 235, 137, 189, 129, 154, 26, 61, 99, 74, 67, 190, 182, 209, 233, 60, 122, 18, 33, 189, 27, 183, 190, 190, 85, 109, 179, 61, 33, 89, 248, 188, 124, 254, 224, 189, 231, 214, 64, 189, 113, 23, 222, 188, 196, 248, 75, 62, 166, 236, 48, 189, 203, 196, 68, 61, 192, 34, 25, 61, 210, 216, 96, 61, 51, 168, 217, 188, 49, 7, 207, 60, 97, 160, 108, 61, 174, 69, 79, 189, 0, 168, 114, 60, 41, 34, 30, 188, 217, 184, 164, 188, 37, 16, 62, 62, 136, 75, 149, 189, 95, 248, 239, 62, 56, 236, 174, 187, 76, 110, 165, 60, 58, 169, 35, 190, 44, 101, 191, 188, 84, 116, 131, 60, 173, 178, 73, 188, 91, 130, 10, 190, 57, 37, 155, 189, 236, 192, 97, 189, 14, 189, 215, 61, 208, 41, 14, 61, 231, 188, 212, 189, 241, 135, 48, 60, 73, 9, 10, 189, 69, 136, 150, 190, 166, 115, 230, 60, 72, 75, 94, 190, 134, 27, 222, 61, 35, 116, 20, 61, 141, 95, 199, 189, 29, 61, 176, 59, 224, 117, 246, 188, 124, 121, 184, 186, 62, 61, 82, 61, 181, 117, 234, 188, 156, 0, 171, 189, 64, 189, 9, 190, 232, 91, 53, 189, 216, 106, 52, 61, 66, 87, 246, 188, 120, 78, 137, 189, 137, 244, 156, 189, 166, 132, 204, 189, 187, 143, 174, 60, 143, 159, 51, 189, 90, 252, 82, 61, 39, 68, 162, 188, 36, 29, 133, 61, 156, 61, 26, 190, 28, 185, 53, 62, 150, 162, 33, 189, 195, 102, 101, 58, 50, 213, 148, 60, 151, 241, 57, 62, 41, 84, 143, 189, 7, 192, 130, 61, 239, 59, 79, 189, 82, 93, 145, 59, 142, 228, 15, 62, 158, 30, 90, 60, 134, 13, 250, 61, 252, 120, 196, 62, 143, 150, 215, 189, 151, 13, 158, 61, 236, 177, 215, 189, 230, 52, 10, 190, 172, 122, 64, 190, 73, 216, 230, 187, 156, 168, 159, 189, 77, 231, 192, 189, 180, 20, 164, 61, 29, 202, 1, 191, 114, 190, 130, 61, 251, 219, 145, 61, 128, 150, 70, 189, 195, 252, 149, 60, 50, 202, 26, 62, 201, 36, 47, 190, 14, 117, 145, 188, 17, 123, 71, 190, 161, 156, 222, 189, 255, 133, 156, 61, 233, 109, 131, 188, 109, 170, 207, 61, 154, 140, 143, 189, 148, 175, 25, 60, 150, 195, 178, 61, 253, 205, 214, 189, 224, 95, 161, 59, 225, 53, 126, 61, 253, 89, 76, 186, 36, 133, 83, 189, 31, 74, 157, 61, 248, 214, 245, 189, 88, 103, 44, 189, 189, 85, 164, 188, 13, 69, 93, 62, 112, 249, 37, 189, 10, 155, 68, 61, 164, 253, 87, 187, 151, 75, 181, 189, 80, 197, 224, 188, 80, 210, 38, 188, 204, 114, 32, 190, 119, 32, 147, 61, 168, 246, 3, 61, 90, 102, 15, 190, 226, 137, 59, 61, 160, 100, 165, 189, 16, 117, 161, 61, 193, 81, 104, 188, 216, 51, 79, 62, 137, 76, 17, 189, 21, 120, 172, 61, 121, 189, 118, 61, 192, 234, 119, 189, 111, 93, 217, 61, 129, 202, 112, 189, 95, 21, 11, 190, 250, 56, 203, 61, 244, 99, 58, 189, 76, 34, 25, 188, 235, 81, 57, 61, 244, 94, 176, 189, 116, 62, 224, 61, 44, 214, 29, 61, 14, 74, 127, 190, 189, 44, 190, 60, 147, 138, 25, 190, 10, 113, 134, 60, 132, 39, 40, 190, 101, 129, 3, 61, 191, 203, 3, 190, 250, 74, 98, 189, 128, 72, 181, 61, 137, 40, 137, 62, 28, 157, 110, 61, 102, 4, 150, 189, 91, 27, 126, 62, 212, 35, 29, 62, 163, 90, 174, 62, 120, 127, 63, 189, 38, 229, 102, 62, 117, 139, 187, 189, 153, 228, 230, 61, 251, 237, 213, 190, 136, 76, 178, 61, 79, 183, 90, 190, 10, 153, 7, 190, 126, 110, 68, 190, 169, 81, 218, 189, 234, 82, 101, 188, 69, 227, 25, 62, 128, 148, 20, 61, 239, 224, 26, 62, 201, 163, 204, 61, 174, 141, 66, 62, 144, 7, 74, 61, 86, 63, 83, 189, 173, 140, 170, 61, 103, 81, 148, 62, 158, 241, 42, 61, 167, 167, 53, 60, 55, 230, 134, 61, 157, 148, 237, 189, 73, 35, 131, 190, 156, 225, 198, 61, 129, 50, 27, 62, 246, 47, 109, 189, 113, 115, 197, 60, 58, 146, 120, 60, 98, 170, 203, 59, 245, 191, 106, 62, 72, 163, 95, 61, 73, 247, 100, 59, 53, 139, 84, 186, 94, 25, 233, 187, 90, 38, 232, 61, 139, 98, 101, 189, 149, 10, 72, 190, 11, 91, 10, 189, 123, 91, 144, 189, 201, 0, 21, 62, 209, 90, 99, 189, 172, 36, 92, 60, 35, 255, 18, 189, 225, 134, 181, 57, 92, 0, 242, 60, 20, 211, 97, 60, 130, 1, 2, 62, 74, 125, 219, 60, 184, 118, 32, 189, 3, 52, 111, 60, 70, 76, 19, 61, 102, 244, 100, 190, 163, 83, 55, 189, 19, 93, 63, 188, 116, 200, 251, 188, 119, 110, 132, 60, 52, 72, 28, 190, 71, 5, 156, 59, 107, 137, 1, 62, 130, 74, 3, 61, 208, 83, 66, 188, 139, 119, 229, 60, 226, 209, 110, 61, 140, 25, 77, 188, 167, 52, 152, 190, 179, 16, 7, 60, 80, 68, 252, 61, 145, 152, 214, 60, 142, 115, 190, 189, 136, 156, 90, 61, 14, 115, 145, 189, 217, 221, 135, 189, 43, 94, 16, 187, 125, 103, 215, 188, 47, 47, 112, 186, 234, 58, 83, 61, 8, 117, 111, 189, 233, 82, 2, 61, 164, 55, 230, 59, 27, 229, 57, 59, 68, 31, 146, 62, 117, 233, 134, 188, 52, 15, 253, 189, 134, 16, 107, 61, 87, 22, 33, 61, 27, 224, 6, 190, 9, 4, 6, 189, 30, 87, 58, 61, 154, 19, 197, 189, 201, 73, 7, 61, 249, 0, 35, 61, 135, 223, 7, 189, 119, 138, 30, 61, 78, 73, 59, 59, 44, 201, 122, 190, 1, 144, 135, 61, 69, 249, 202, 187, 56, 53, 155, 61, 60, 53, 139, 61, 82, 252, 251, 61, 231, 152, 26, 61, 44, 142, 28, 189, 38, 218, 191, 60, 30, 156, 134, 188, 23, 172, 109, 62, 238, 38, 235, 188, 127, 148, 112, 189, 131, 82, 4, 60, 104, 1, 151, 188, 33, 58, 109, 189, 246, 68, 60, 189, 174, 69, 91, 188, 154, 228, 75, 61, 142, 114, 19, 62, 67, 84, 231, 61, 252, 205, 119, 189, 113, 200, 229, 190, 43, 67, 38, 62, 105, 110, 134, 61, 227, 234, 2, 62, 250, 101, 158, 188, 167, 255, 14, 190, 32, 57, 127, 60, 16, 204, 51, 189, 174, 135, 246, 59, 132, 13, 54, 187, 51, 236, 6, 60, 30, 119, 247, 61, 35, 193, 225, 188, 162, 212, 64, 62, 131, 188, 13, 59, 172, 249, 140, 61, 250, 63, 169, 61, 251, 88, 107, 61, 60, 185, 238, 189, 138, 11, 108, 189, 181, 78, 80, 189, 93, 156, 163, 61, 116, 133, 160, 60, 89, 154, 74, 61, 169, 133, 197, 189, 94, 87, 36, 189, 237, 208, 12, 61, 155, 60, 5, 61, 164, 37, 171, 189, 103, 225, 128, 189, 105, 52, 214, 189, 105, 216, 31, 188, 42, 51, 138, 62, 225, 195, 61, 62, 135, 183, 216, 189, 22, 74, 61, 62, 136, 133, 115, 189, 136, 246, 155, 188, 49, 18, 186, 56, 106, 59, 32, 62, 17, 204, 148, 61, 220, 252, 113, 188, 68, 18, 8, 61, 36, 87, 80, 189, 111, 217, 158, 188, 165, 50, 171, 188, 125, 250, 47, 61, 222, 65, 9, 61, 12, 144, 170, 189, 90, 172, 163, 61, 128, 9, 173, 61, 245, 11, 16, 190, 94, 52, 21, 62, 98, 81, 107, 61, 81, 225, 186, 188, 167, 77, 119, 61, 84, 2, 151, 189, 40, 123, 36, 61, 174, 251, 8, 190, 239, 106, 199, 60, 239, 164, 53, 61, 168, 108, 148, 189, 29, 73, 133, 61, 201, 251, 58, 61, 229, 9, 24, 190, 224, 140, 18, 190, 138, 226, 84, 189, 200, 147, 175, 61, 254, 235, 12, 60, 230, 182, 215, 188, 238, 215, 135, 190, 118, 182, 48, 189, 14, 83, 143, 61, 53, 229, 152, 188, 42, 100, 219, 60, 159, 210, 183, 60, 164, 65, 42, 189, 148, 209, 233, 187, 64, 86, 190, 188, 224, 34, 50, 189, 33, 160, 108, 188, 2, 163, 2, 190, 239, 69, 177, 62, 94, 152, 194, 187, 79, 146, 79, 61, 14, 216, 245, 61, 179, 150, 34, 61, 182, 247, 83, 62, 246, 130, 8, 60, 103, 68, 0, 62, 196, 209, 155, 189, 26, 195, 20, 190, 235, 130, 225, 186, 87, 16, 25, 190, 155, 249, 42, 61, 118, 107, 217, 188, 46, 252, 239, 188, 34, 204, 116, 61, 34, 114, 39, 61, 120, 199, 250, 189, 249, 7, 156, 188, 192, 26, 39, 189, 43, 10, 3, 61, 165, 107, 30, 62, 196, 181, 118, 189, 233, 120, 65, 62, 126, 42, 217, 189, 157, 108, 73, 61, 7, 149, 149, 189, 21, 255, 96, 62, 176, 13, 75, 190, 52, 7, 74, 189, 201, 148, 41, 60, 223, 97, 31, 190, 63, 38, 143, 190, 88, 11, 218, 61, 159, 149, 205, 189, 175, 189, 37, 189, 160, 164, 133, 186, 24, 108, 152, 61, 238, 216, 243, 59, 129, 9, 173, 189, 163, 218, 65, 189, 224, 205, 41, 189, 208, 96, 56, 190, 107, 134, 102, 62, 150, 64, 34, 187, 141, 98, 167, 61, 5, 143, 105, 59, 53, 236, 55, 189, 87, 151, 91, 60, 105, 6, 198, 61, 82, 7, 217, 61, 219, 125, 212, 61, 14, 17, 190, 188, 185, 119, 161, 188, 134, 253, 70, 61, 122, 218, 53, 189, 68, 26, 181, 188, 204, 222, 166, 186, 163, 113, 81, 60, 27, 241, 73, 190, 115, 82, 51, 61, 32, 6, 34, 189, 220, 23, 27, 189, 32, 203, 242, 188, 143, 242, 124, 189, 118, 201, 100, 61, 154, 75, 107, 61, 170, 92, 64, 59, 54, 173, 6, 60, 124, 226, 147, 61, 9, 52, 91, 62, 247, 157, 177, 61, 244, 34, 66, 189, 145, 18, 103, 60, 32, 89, 93, 61, 178, 141, 19, 62, 217, 11, 127, 187, 157, 46, 90, 61, 39, 81, 144, 189, 189, 114, 185, 188, 235, 215, 199, 60, 82, 67, 95, 189, 120, 218, 206, 189, 52, 2, 53, 189, 121, 49, 62, 189, 187, 181, 129, 189, 250, 69, 235, 189, 75, 242, 25, 190, 2, 170, 164, 59, 177, 240, 233, 61, 240, 106, 255, 60, 38, 204, 60, 190, 197, 218, 231, 61, 2, 129, 17, 61, 208, 144, 242, 188, 20, 130, 186, 61, 37, 155, 108, 62, 15, 193, 172, 188, 147, 184, 118, 189, 39, 195, 186, 59, 109, 171, 243, 58, 199, 113, 130, 189, 35, 225, 13, 61, 100, 56, 129, 189, 130, 198, 164, 60, 232, 58, 151, 189, 150, 108, 148, 61, 198, 224, 220, 188, 254, 14, 215, 61, 163, 128, 144, 188, 167, 157, 13, 190, 72, 202, 176, 190, 53, 194, 16, 61, 255, 237, 55, 190, 239, 211, 152, 188, 222, 31, 20, 188, 81, 216, 1, 189, 3, 22, 154, 188, 13, 226, 1, 189, 156, 59, 176, 188, 146, 228, 137, 61, 238, 41, 2, 61, 174, 142, 47, 189, 181, 25, 74, 61, 16, 195, 124, 61, 151, 222, 225, 188, 80, 33, 251, 189, 238, 198, 83, 62, 30, 92, 27, 190, 61, 254, 115, 62, 177, 195, 221, 189, 123, 132, 87, 189, 129, 213, 23, 62, 143, 38, 72, 62, 36, 239, 98, 58, 59, 230, 78, 189, 220, 124, 120, 186, 58, 118, 52, 62, 140, 22, 110, 187, 99, 236, 49, 190, 73, 171, 135, 189, 135, 49, 107, 187, 75, 78, 59, 61, 136, 26, 28, 189, 55, 19, 252, 189, 102, 57, 168, 189, 155, 94, 173, 189, 20, 112, 191, 61, 24, 141, 240, 60, 185, 17, 122, 190, 207, 249, 45, 190, 179, 53, 133, 188, 125, 175, 152, 188, 117, 4, 194, 60, 125, 151, 157, 61, 112, 184, 231, 61, 73, 195, 25, 62, 8, 231, 128, 189, 178, 77, 59, 61, 74, 107, 223, 189, 206, 49, 216, 188, 103, 190, 221, 61, 62, 141, 53, 189, 247, 237, 130, 189, 151, 102, 206, 188, 216, 175, 239, 62, 185, 7, 36, 190, 223, 62, 117, 189, 118, 134, 123, 190, 7, 77, 113, 62, 168, 74, 82, 62, 48, 151, 138, 189, 210, 218, 194, 61, 103, 28, 165, 188, 93, 71, 28, 189, 100, 250, 181, 188, 232, 220, 255, 189, 30, 178, 53, 61, 139, 70, 102, 62, 190, 173, 36, 189, 92, 143, 17, 189, 234, 222, 31, 189, 147, 49, 96, 62, 166, 194, 132, 188, 56, 111, 208, 61, 156, 187, 175, 60, 30, 116, 109, 60, 9, 147, 46, 190, 116, 215, 31, 62, 39, 180, 138, 186, 23, 39, 167, 188, 3, 234, 116, 61, 41, 41, 213, 61, 87, 20, 128, 189, 106, 20, 154, 61, 175, 113, 100, 62, 181, 73, 167, 188, 42, 17, 144, 186, 6, 53, 33, 62, 182, 252, 129, 61, 184, 210, 99, 189, 76, 213, 198, 187, 170, 20, 189, 60, 95, 133, 6, 62, 141, 241, 17, 189, 32, 136, 101, 61, 156, 43, 167, 61, 146, 104, 122, 62, 172, 238, 165, 188, 131, 207, 148, 60, 240, 76, 189, 58, 74, 222, 149, 189, 157, 201, 213, 58, 42, 240, 174, 61, 207, 214, 164, 59, 139, 179, 36, 61, 119, 87, 64, 61, 50, 169, 155, 62, 68, 131, 0, 189, 224, 142, 139, 190, 97, 156, 132, 60, 33, 5, 119, 61, 168, 128, 36, 189, 43, 230, 98, 61, 88, 32, 133, 62, 136, 112, 142, 59, 96, 111, 39, 188, 98, 201, 58, 62, 134, 226, 232, 60, 74, 20, 66, 190, 182, 32, 232, 61, 224, 168, 30, 62, 216, 240, 94, 61, 148, 73, 154, 61, 249, 31, 160, 61, 216, 12, 66, 190, 177, 113, 145, 189, 17, 111, 13, 186, 236, 216, 76, 61, 234, 238, 132, 188, 147, 70, 58, 60, 55, 203, 250, 60, 128, 180, 41, 61, 190, 93, 213, 189, 247, 42, 135, 188, 32, 227, 102, 190, 154, 8, 233, 189, 125, 248, 150, 60, 121, 109, 244, 61, 253, 93, 177, 188, 198, 197, 102, 62, 136, 13, 161, 189, 114, 105, 167, 189, 220, 103, 141, 62, 141, 236, 98, 61, 150, 240, 170, 189, 33, 153, 241, 187, 159, 55, 165, 61, 245, 71, 233, 189, 26, 116, 196, 188, 10, 25, 48, 61, 176, 51, 53, 60, 31, 47, 91, 61, 47, 213, 242, 188, 168, 150, 43, 189, 163, 47, 49, 61, 251, 79, 148, 189, 118, 45, 178, 189, 168, 100, 212, 189, 68, 16, 219, 60, 33, 223, 44, 62, 138, 15, 60, 62, 110, 15, 255, 188, 124, 62, 1, 62, 169, 21, 153, 188, 231, 173, 191, 60, 17, 168, 222, 60, 243, 65, 17, 62, 209, 107, 225, 60, 172, 141, 70, 189, 198, 53, 149, 188, 192, 219, 49, 188, 68, 244, 103, 188, 165, 62, 161, 188, 213, 189, 13, 190, 12, 139, 64, 61, 87, 4, 212, 189, 177, 106, 239, 59, 247, 119, 47, 189, 36, 154, 247, 188, 88, 6, 49, 59, 201, 19, 153, 189, 133, 155, 119, 60, 120, 203, 62, 190, 136, 215, 8, 62, 239, 254, 223, 58, 147, 14, 5, 61, 241, 12, 129, 189, 61, 162, 210, 188, 163, 35, 31, 190, 188, 17, 147, 61, 200, 37, 48, 60, 207, 28, 68, 190, 229, 254, 83, 190, 72, 226, 190, 189, 94, 67, 45, 62, 163, 234, 84, 189, 64, 78, 169, 60, 25, 197, 191, 61, 27, 92, 12, 187, 96, 109, 39, 61, 231, 156, 141, 189, 145, 240, 129, 189, 214, 47, 34, 188, 134, 112, 148, 61, 89, 29, 204, 61, 70, 42, 35, 62, 185, 48, 89, 188, 193, 229, 171, 189, 70, 71, 132, 190, 184, 175, 133, 61, 44, 92, 82, 190, 11, 238, 108, 59, 96, 146, 153, 189, 161, 51, 119, 188, 106, 7, 236, 188, 62, 123, 207, 188, 28, 77, 66, 60, 247, 118, 163, 190, 229, 74, 200, 60, 177, 127, 176, 61, 173, 237, 55, 190, 39, 221, 67, 61, 110, 105, 46, 62, 31, 148, 230, 61, 55, 123, 3, 190, 58, 77, 89, 190, 243, 127, 143, 61, 250, 158, 19, 62, 146, 96, 26, 189, 78, 151, 98, 188, 171, 36, 89, 61, 62, 43, 136, 189, 201, 30, 95, 189, 213, 230, 155, 61, 159, 46, 205, 59, 28, 31, 8, 62, 250, 120, 27, 61, 53, 216, 121, 189, 7, 155, 14, 61, 109, 95, 23, 189, 170, 0, 129, 61, 189, 249, 101, 189, 108, 101, 113, 188, 123, 118, 161, 61, 234, 235, 208, 189, 87, 226, 202, 188, 198, 245, 160, 61, 17, 197, 45, 190, 182, 171, 20, 189, 202, 201, 35, 61, 180, 218, 67, 189, 61, 140, 116, 189, 233, 115, 199, 61, 217, 147, 166, 61, 69, 69, 123, 189, 255, 223, 196, 189, 212, 106, 20, 190, 140, 155, 132, 61, 255, 245, 39, 190, 155, 48, 211, 189, 82, 176, 87, 189, 215, 50, 15, 190, 124, 130, 203, 60, 255, 47, 226, 189, 225, 104, 7, 61, 149, 85, 46, 60, 104, 133, 46, 189, 137, 187, 214, 189, 175, 30, 183, 61, 235, 72, 161, 189, 112, 246, 4, 190, 108, 229, 66, 187, 105, 94, 185, 189, 198, 113, 33, 189, 12, 48, 137, 187, 235, 34, 126, 61, 199, 186, 197, 189, 43, 68, 30, 189, 190, 145, 156, 61, 185, 104, 47, 62, 189, 54, 175, 188, 27, 0, 106, 189, 14, 212, 120, 61, 81, 140, 242, 189, 52, 93, 229, 61, 83, 78, 108, 188, 45, 7, 67, 190, 46, 87, 10, 61, 166, 15, 250, 61, 95, 214, 133, 61, 1, 252, 236, 60, 114, 47, 186, 61, 105, 205, 55, 188, 131, 153, 66, 62, 219, 61, 150, 61, 77, 178, 5, 188, 54, 79, 142, 59, 218, 43, 233, 59, 131, 35, 2, 61, 67, 61, 133, 189, 184, 101, 185, 189, 157, 21, 212, 189, 90, 28, 35, 60, 244, 36, 150, 62, 50, 207, 89, 62, 149, 203, 120, 189, 56, 178, 211, 61, 181, 253, 1, 189, 217, 223, 244, 59, 207, 107, 212, 60, 233, 186, 182, 61, 146, 233, 77, 61, 165, 221, 198, 59, 51, 53, 219, 60, 97, 213, 93, 188, 85, 169, 165, 189, 126, 5, 229, 189, 22, 61, 119, 61, 11, 180, 13, 58, 213, 186, 89, 60, 144, 103, 13, 62, 218, 237, 81, 189, 80, 115, 191, 189, 182, 86, 228, 188, 103, 119, 58, 59, 241, 38, 159, 60, 164, 20, 153, 190, 192, 121, 67, 62, 78, 166, 5, 60, 41, 22, 45, 61, 131, 164, 105, 61, 234, 208, 140, 188, 116, 185, 90, 61, 14, 15, 66, 61, 84, 80, 97, 189, 245, 103, 152, 189, 244, 229, 105, 190, 85, 202, 225, 60, 24, 159, 195, 61, 198, 185, 216, 189, 158, 210, 196, 60, 206, 255, 178, 61, 145, 24, 184, 61, 53, 211, 141, 61, 88, 58, 191, 61, 241, 115, 158, 189, 237, 162, 129, 190, 158, 151, 153, 189, 145, 98, 14, 190, 55, 14, 41, 190, 140, 209, 28, 189, 160, 178, 136, 61, 14, 26, 142, 189, 203, 38, 53, 189, 35, 167, 177, 59, 247, 87, 150, 189, 155, 77, 166, 189, 93, 79, 195, 60, 128, 217, 185, 189, 110, 84, 2, 62, 109, 133, 97, 188, 171, 93, 98, 189, 245, 95, 132, 61, 253, 152, 8, 62, 201, 175, 125, 62, 179, 94, 81, 188, 150, 124, 28, 188, 124, 231, 148, 190, 68, 74, 105, 62, 172, 252, 125, 61, 92, 251, 143, 189, 136, 18, 214, 189, 80, 217, 215, 189, 36, 137, 34, 60, 40, 236, 125, 187, 202, 157, 12, 189, 4, 219, 83, 188, 228, 159, 189, 189, 205, 8, 119, 61, 211, 184, 158, 189, 98, 158, 154, 59, 178, 235, 127, 189, 199, 11, 27, 62, 2, 238, 31, 62, 50, 251, 70, 62, 240, 238, 146, 188, 250, 44, 197, 61, 55, 138, 173, 59, 210, 35, 143, 189, 215, 59, 98, 190, 239, 151, 1, 62, 28, 79, 177, 60, 17, 17, 64, 61, 164, 112, 229, 60, 130, 12, 38, 189, 29, 151, 90, 189, 165, 176, 91, 189, 253, 64, 172, 61, 202, 8, 10, 190, 166, 218, 97, 190, 167, 3, 89, 190, 23, 143, 62, 189, 113, 140, 19, 189, 213, 177, 43, 60, 25, 69, 138, 188, 79, 0, 151, 61, 109, 204, 115, 188, 236, 73, 246, 61, 234, 162, 65, 189, 217, 172, 214, 189, 189, 223, 138, 60, 210, 136, 196, 189, 7, 171, 162, 189, 206, 237, 23, 190, 223, 220, 64, 59, 87, 180, 181, 188, 211, 127, 253, 189, 223, 161, 184, 62, 248, 105, 158, 60, 100, 135, 65, 190, 96, 29, 33, 60, 248, 218, 205, 188, 18, 191, 10, 62, 83, 242, 145, 61, 26, 238, 130, 190, 69, 19, 43, 190, 112, 101, 53, 190, 95, 224, 69, 188, 246, 16, 11, 62, 168, 113, 200, 61, 110, 51, 196, 61, 235, 204, 25, 189, 222, 130, 97, 61, 107, 181, 77, 187, 183, 156, 203, 189, 82, 225, 19, 190, 88, 191, 249, 61, 228, 168, 179, 61, 36, 163, 219, 188, 170, 77, 34, 62, 202, 88, 197, 61, 183, 47, 167, 61, 124, 213, 71, 188, 99, 59, 155, 61, 124, 27, 250, 189, 189, 158, 138, 62, 155, 63, 202, 60, 162, 201, 227, 61, 202, 3, 59, 61, 35, 168, 58, 62, 212, 253, 90, 61, 170, 14, 229, 187, 13, 244, 90, 61, 57, 243, 30, 187, 199, 84, 9, 189, 8, 158, 170, 60, 11, 3, 175, 189, 79, 236, 14, 188, 148, 36, 150, 189, 190, 171, 206, 61, 19, 194, 82, 190, 216, 107, 198, 188, 252, 25, 158, 189, 54, 189, 6, 60, 188, 197, 228, 60, 103, 197, 34, 190, 251, 191, 139, 189, 111, 61, 17, 189, 130, 222, 198, 189, 62, 152, 249, 187, 205, 111, 86, 62, 47, 191, 153, 189, 39, 237, 247, 60, 160, 82, 86, 61, 191, 48, 191, 188, 101, 154, 217, 61, 104, 170, 129, 61, 89, 189, 180, 60, 225, 26, 173, 61, 91, 7, 7, 189, 81, 184, 255, 188, 183, 5, 175, 186, 224, 13, 12, 189, 157, 167, 37, 188, 51, 184, 128, 189, 245, 210, 219, 187, 128, 8, 124, 61, 161, 70, 134, 190, 83, 150, 4, 61, 161, 120, 210, 189, 147, 36, 126, 188, 12, 251, 4, 61, 61, 114, 22, 190, 122, 50, 18, 188, 60, 59, 254, 188, 8, 102, 89, 187, 158, 185, 244, 188, 224, 236, 232, 188, 150, 64, 16, 189, 104, 163, 143, 189, 162, 82, 18, 190, 149, 199, 202, 188, 202, 4, 239, 189, 9, 26, 3, 190, 200, 26, 93, 61, 23, 53, 75, 188, 20, 70, 12, 61, 76, 195, 241, 188, 193, 209, 240, 189, 184, 82, 186, 189, 2, 65, 185, 57, 207, 203, 112, 187, 87, 99, 158, 61, 196, 235, 16, 190, 184, 91, 237, 187, 69, 12, 113, 60, 205, 230, 25, 190, 82, 7, 28, 61, 188, 159, 82, 190, 123, 81, 108, 60, 211, 217, 184, 61, 238, 172, 114, 62, 19, 239, 62, 61, 209, 58, 43, 61, 179, 120, 179, 61, 153, 57, 198, 189, 33, 165, 212, 59, 202, 108, 209, 189, 157, 31, 9, 61, 200, 61, 137, 188, 243, 48, 3, 189, 228, 232, 67, 62, 105, 111, 206, 187, 47, 88, 17, 190, 189, 110, 83, 61, 64, 18, 31, 62, 108, 132, 10, 190, 175, 191, 1, 189, 47, 22, 142, 188, 173, 198, 249, 60, 23, 49, 140, 189, 214, 65, 164, 61, 251, 75, 117, 188, 214, 62, 203, 189, 249, 112, 100, 62, 72, 229, 18, 190, 25, 7, 96, 190, 22, 55, 2, 190, 113, 7, 184, 189, 87, 87, 24, 189, 12, 131, 25, 62, 128, 141, 40, 62, 14, 40, 114, 190, 17, 87, 7, 61, 110, 222, 253, 59, 248, 29, 139, 57, 136, 7, 239, 59, 1, 123, 215, 189, 140, 0, 200, 61, 13, 182, 103, 189, 29, 141, 141, 61, 87, 243, 37, 190, 22, 152, 173, 189, 194, 241, 70, 61, 218, 115, 30, 189, 148, 172, 135, 188, 59, 12, 129, 190, 227, 119, 131, 188, 119, 148, 42, 61, 109, 40, 149, 62, 143, 150, 164, 189, 41, 223, 205, 60, 63, 69, 237, 188, 228, 197, 212, 189, 35, 20, 208, 189, 65, 91, 192, 186, 20, 77, 28, 187, 232, 190, 165, 60, 57, 233, 162, 60, 85, 103, 123, 190, 101, 17, 8, 61, 9, 193, 192, 61, 19, 240, 255, 187, 242, 81, 185, 60, 54, 221, 230, 61, 251, 138, 9, 61, 140, 70, 233, 61, 173, 159, 236, 188, 68, 100, 199, 188, 26, 125, 17, 189, 20, 243, 170, 188, 161, 122, 45, 189, 26, 225, 29, 189, 91, 6, 13, 62, 112, 21, 242, 59, 68, 255, 14, 61, 57, 124, 237, 60, 103, 235, 39, 189, 86, 144, 97, 189, 81, 222, 23, 62, 144, 25, 10, 190, 124, 37, 154, 61, 239, 70, 3, 62, 173, 109, 42, 190, 34, 114, 62, 189, 118, 18, 138, 189, 39, 34, 56, 189, 74, 246, 30, 61, 160, 50, 11, 190, 216, 61, 211, 61, 142, 118, 224, 61, 104, 168, 129, 61, 180, 96, 144, 189, 117, 172, 186, 189, 210, 224, 85, 188, 55, 159, 184, 188, 206, 107, 120, 190, 91, 58, 167, 187, 9, 132, 96, 189, 196, 173, 142, 188, 151, 106, 186, 189, 38, 222, 170, 189, 172, 9, 53, 61, 47, 100, 73, 62, 212, 87, 190, 189, 252, 104, 9, 62, 247, 39, 178, 189, 184, 169, 59, 60, 97, 145, 8, 190, 70, 197, 80, 61, 208, 112, 29, 189, 210, 216, 136, 189, 68, 155, 123, 188, 132, 205, 23, 61, 26, 71, 77, 60, 85, 188, 143, 189, 193, 116, 85, 190, 28, 2, 164, 189, 193, 219, 194, 59, 131, 32, 138, 61, 180, 213, 138, 189, 194, 193, 192, 189, 72, 194, 135, 61, 178, 145, 27, 62, 135, 83, 234, 61, 129, 80, 13, 61, 83, 60, 5, 189, 70, 179, 213, 61, 163, 141, 137, 62, 192, 14, 31, 61, 154, 102, 44, 187, 180, 74, 207, 59, 167, 162, 14, 61, 31, 155, 236, 61, 230, 250, 171, 188, 43, 35, 32, 190, 85, 94, 120, 190, 135, 225, 156, 61, 190, 202, 1, 190, 85, 244, 132, 185, 94, 99, 136, 189, 79, 156, 148, 189, 51, 71, 27, 189, 140, 55, 140, 187, 48, 244, 239, 188, 151, 158, 8, 62, 91, 61, 100, 187, 12, 73, 135, 61, 143, 206, 78, 190, 244, 103, 93, 189, 33, 71, 233, 186, 42, 121, 42, 189, 6, 184, 163, 61, 253, 16, 200, 61, 15, 217, 5, 190, 54, 172, 35, 62, 58, 54, 148, 188, 115, 195, 118, 189, 8, 11, 77, 62, 232, 100, 34, 189, 33, 132, 14, 61, 150, 84, 55, 190, 46, 72, 110, 61, 79, 157, 44, 190, 252, 59, 119, 60, 168, 167, 241, 61, 64, 242, 80, 190, 181, 146, 10, 189, 39, 158, 27, 60, 75, 142, 73, 188, 239, 53, 168, 189, 145, 81, 16, 62, 159, 104, 90, 189, 78, 88, 39, 188, 145, 227, 67, 187, 140, 8, 47, 189, 19, 99, 156, 59, 213, 83, 96, 189, 132, 51, 211, 61, 170, 145, 254, 60, 113, 171, 106, 190, 135, 47, 49, 188, 108, 84, 61, 185, 32, 166, 59, 189, 196, 92, 226, 59, 120, 254, 218, 60, 185, 63, 68, 189, 249, 53, 216, 189, 148, 118, 26, 190, 250, 164, 56, 59, 82, 251, 87, 61, 135, 240, 216, 189, 123, 6, 145, 188, 0, 0, 6, 0, 8, 0, 4, 0, 6, 0, 0, 0, 4, 0, 0, 0, 128, 1, 0, 0, 0, 0, 0, 0, 0, 0, 0, 0, 0, 0, 0, 0, 0, 0, 0, 0, 0, 0, 0, 0, 0, 0, 0, 0, 0, 0, 0, 0, 0, 0, 0, 0, 0, 0, 0, 0, 0, 0, 0, 0, 0, 0, 0, 0, 0, 0, 0, 0, 0, 0, 0, 0, 0, 0, 0, 0, 0, 0, 0, 0, 0, 0, 0, 0, 0, 0, 0, 0, 0, 0, 0, 0, 0, 0, 0, 0, 0, 0, 0, 0, 0, 0, 0, 0, 0, 0, 0, 0, 0, 0, 0, 0, 0, 0, 0, 0, 0, 0, 0, 0, 0, 0, 0, 0, 0, 0, 0, 0, 0, 0, 0, 0, 0, 0, 0, 0, 0, 0, 0, 0, 0, 0, 0, 0, 0, 0, 0, 0, 0, 0, 0, 0, 0, 0, 0, 0, 0, 0, 0, 0, 0, 0, 0, 0, 0, 0, 0, 0, 0, 0, 0, 0, 0, 0, 0, 0, 0, 0, 0, 0, 0, 0, 0, 0, 0, 0, 0, 0, 0, 0, 0, 0, 0, 0, 0, 0, 0, 0, 0, 0, 0, 0, 0, 0, 0, 0, 0, 0, 0, 0, 0, 0, 0, 0, 0, 0, 0, 0, 0, 0, 0, 0, 0, 0, 0, 0, 0, 0, 0, 0, 0, 0, 0, 0, 0, 0, 0, 0, 0, 0, 0, 0, 0, 0, 0, 0, 0, 0, 0, 0, 0, 0, 0, 0, 0, 0, 0, 0, 0, 0, 0, 0, 0, 0, 0, 0, 0, 0, 0, 0, 0, 0, 0, 0, 0, 0, 0, 0, 0, 0, 0, 0, 0, 0, 0, 0, 0, 0, 0, 0, 0, 0, 0, 0, 0, 0, 0, 0, 0, 0, 0, 0, 0, 0, 0, 0, 0, 0, 0, 0, 0, 0, 0, 0, 0, 0, 0, 0, 0, 0, 0, 0, 0, 0, 0, 0, 0, 0, 0, 0, 0, 0, 0, 0, 0, 0, 0, 0, 0, 0, 0, 0, 0, 0, 0, 0, 0, 0, 0, 0, 0, 0, 0, 0, 0, 0, 0, 0, 0, 0, 0, 0, 0, 0, 0, 0, 0, 0, 0, 0, 0, 0, 0, 0, 0, 0, 0, 0, 0, 0, 0, 0, 0, 0, 0, 0, 0, 0, 0, 0, 0, 0, 0, 0, 0, 0, 0, 0, 0, 0, 0, 0, 0, 0, 196, 253, 255, 255, 200, 253, 255, 255, 15, 0, 0, 0, 77, 76, 73, 82, 32, 67, 111, 110, 118, 101, 114, 116, 101, 100, 46, 0, 1, 0, 0, 0, 20, 0, 0, 0, 0, 0, 14, 0, 24, 0, 20, 0, 16, 0, 12, 0, 8, 0, 4, 0, 14, 0, 0, 0, 20, 0, 0, 0, 28, 0, 0, 0, 116, 0, 0, 0, 120, 0, 0, 0, 124, 0, 0, 0, 4, 0, 0, 0, 109, 97, 105, 110, 0, 0, 0, 0, 1, 0, 0, 0, 20, 0, 0, 0, 0, 0, 14, 0, 22, 0, 0, 0, 16, 0, 12, 0, 11, 0, 4, 0, 14, 0, 0, 0, 28, 0, 0, 0, 0, 0, 0, 1, 32, 0, 0, 0, 36, 0, 0, 0, 0, 0, 10, 0, 12, 0, 0, 0, 8, 0, 4, 0, 10, 0, 0, 0, 1, 0, 0, 0, 1, 0, 0, 0, 1, 0, 0, 0, 3, 0, 0, 0, 3, 0, 0, 0, 0, 0, 0, 0, 2, 0, 0, 0, 1, 0, 0, 0, 1, 0, 0, 0, 3, 0, 0, 0, 1, 0, 0, 0, 0, 0, 0, 0, 4, 0, 0, 0, 68, 1, 0, 0, 224, 0, 0, 0, 112, 0, 0, 0, 4, 0, 0, 0, 226, 254, 255, 255, 0, 0, 0, 1, 20, 0, 0, 0, 36, 0, 0, 0, 36, 0, 0, 0, 4, 0, 0, 0, 60, 0, 0, 0, 4, 0, 0, 0, 255, 255, 255, 255, 12, 0, 0, 0, 12, 0, 0, 0, 96, 0, 0, 0, 204, 254, 255, 255, 25, 0, 0, 0, 83, 116, 97, 116, 101, 102, 117, 108, 80, 97, 114, 116, 105, 116, 105, 111, 110, 101, 100, 67, 97, 108, 108, 58, 48, 0, 0, 0, 4, 0, 0, 0, 1, 0, 0, 0, 12, 0, 0, 0, 12, 0, 0, 0, 96, 0, 0, 0, 170, 255, 255, 255, 0, 0, 0, 1, 16, 0, 0, 0, 16, 0, 0, 0, 3, 0, 0, 0, 44, 0, 0, 0, 28, 255, 255, 255, 31, 0, 0, 0, 109, 111, 100, 101, 108, 95, 52, 52, 47, 98, 108, 111, 99, 107, 95, 53, 95, 101, 120, 112, 97, 110, 100, 47, 67, 111, 110, 118, 50, 68, 49, 0, 4, 0, 0, 0, 96, 0, 0, 0, 1, 0, 0, 0, 1, 0, 0, 0, 16, 0, 0, 0, 0, 0, 22, 0, 24, 0, 20, 0, 0, 0, 16, 0, 12, 0, 8, 0, 0, 0, 0, 0, 0, 0, 7, 0, 22, 0, 0, 0, 0, 0, 0, 1, 16, 0, 0, 0, 16, 0, 0, 0, 2, 0, 0, 0, 44, 0, 0, 0, 136, 255, 255, 255, 30, 0, 0, 0, 109, 111, 100, 101, 108, 95, 52, 52, 47, 98, 108, 111, 99, 107, 95, 53, 95, 101, 120, 112, 97, 110, 100, 47, 67, 111, 110, 118, 50, 68, 0, 0, 1, 0, 0, 0, 96, 0, 0, 0, 0, 0, 22, 0, 28, 0, 24, 0, 0, 0, 20, 0, 16, 0, 12, 0, 0, 0, 0, 0, 8, 0, 7, 0, 22, 0, 0, 0, 0, 0, 0, 1, 20, 0, 0, 0, 40, 0, 0, 0, 40, 0, 0, 0, 1, 0, 0, 0, 64, 0, 0, 0, 4, 0, 0, 0, 255, 255, 255, 255, 12, 0, 0, 0, 12, 0, 0, 0, 16, 0, 0, 0, 4, 0, 4, 0, 4, 0, 0, 0, 26, 0, 0, 0, 115, 101, 114, 118, 105, 110, 103, 95, 100, 101, 102, 97, 117, 108, 116, 95, 105, 110, 112, 117, 116, 95, 52, 55, 58, 48, 0, 0, 4, 0, 0, 0, 1, 0, 0, 0, 12, 0, 0, 0, 12, 0, 0, 0, 16, 0, 0, 0, 1, 0, 0, 0, 16, 0, 0, 0, 12, 0, 12, 0, 11, 0, 0, 0, 0, 0, 4, 0, 12, 0, 0, 0, 3, 0, 0, 0, 0, 0, 0, 3
};
