#pragma once

#include <cstdint>

const uint8_t layer_54[] = {
28, 0, 0, 0, 84, 70, 76, 51, 20, 0, 32, 0, 28, 0, 24, 0, 20, 0, 16, 0, 12, 0, 0, 0, 8, 0, 4, 0, 20, 0, 0, 0, 28, 0, 0, 0, 156, 0, 0, 0, 244, 0, 0, 0, 192, 4, 0, 0, 208, 4, 0, 0, 224, 7, 0, 0, 3, 0, 0, 0, 1, 0, 0, 0, 16, 0, 0, 0, 0, 0, 10, 0, 16, 0, 12, 0, 8, 0, 4, 0, 10, 0, 0, 0, 12, 0, 0, 0, 28, 0, 0, 0, 68, 0, 0, 0, 15, 0, 0, 0, 115, 101, 114, 118, 105, 110, 103, 95, 100, 101, 102, 97, 117, 108, 116, 0, 1, 0, 0, 0, 4, 0, 0, 0, 140, 255, 255, 255, 4, 0, 0, 0, 4, 0, 0, 0, 17, 0, 0, 0, 98, 108, 111, 99, 107, 95, 54, 95, 101, 120, 112, 97, 110, 100, 95, 66, 78, 0, 0, 0, 1, 0, 0, 0, 4, 0, 0, 0, 86, 253, 255, 255, 4, 0, 0, 0, 8, 0, 0, 0, 105, 110, 112, 117, 116, 95, 53, 56, 0, 0, 0, 0, 2, 0, 0, 0, 52, 0, 0, 0, 4, 0, 0, 0, 220, 255, 255, 255, 7, 0, 0, 0, 4, 0, 0, 0, 19, 0, 0, 0, 67, 79, 78, 86, 69, 82, 83, 73, 79, 78, 95, 77, 69, 84, 65, 68, 65, 84, 65, 0, 8, 0, 12, 0, 8, 0, 4, 0, 8, 0, 0, 0, 6, 0, 0, 0, 4, 0, 0, 0, 19, 0, 0, 0, 109, 105, 110, 95, 114, 117, 110, 116, 105, 109, 101, 95, 118, 101, 114, 115, 105, 111, 110, 0, 8, 0, 0, 0, 200, 3, 0, 0, 192, 3, 0, 0, 48, 2, 0, 0, 152, 0, 0, 0, 144, 0, 0, 0, 136, 0, 0, 0, 104, 0, 0, 0, 4, 0, 0, 0, 238, 253, 255, 255, 4, 0, 0, 0, 84, 0, 0, 0, 12, 0, 0, 0, 8, 0, 14, 0, 8, 0, 4, 0, 8, 0, 0, 0, 16, 0, 0, 0, 36, 0, 0, 0, 0, 0, 6, 0, 8, 0, 4, 0, 6, 0, 0, 0, 4, 0, 0, 0, 0, 0, 0, 0, 0, 0, 10, 0, 16, 0, 12, 0, 8, 0, 4, 0, 10, 0, 0, 0, 2, 0, 0, 0, 2, 0, 0, 0, 4, 0, 0, 0, 6, 0, 0, 0, 50, 46, 49, 53, 46, 48, 0, 0, 78, 254, 255, 255, 4, 0, 0, 0, 16, 0, 0, 0, 49, 46, 53, 46, 48, 0, 0, 0, 0, 0, 0, 0, 0, 0, 0, 0, 156, 249, 255, 255, 160, 249, 255, 255, 114, 254, 255, 255, 4, 0, 0, 0, 128, 1, 0, 0, 241, 148, 30, 191, 155, 129, 199, 63, 52, 71, 24, 64, 221, 61, 100, 63, 247, 224, 133, 191, 216, 224, 190, 191, 249, 152, 85, 64, 197, 169, 55, 63, 71, 218, 23, 63, 38, 111, 41, 191, 20, 104, 0, 64, 29, 206, 120, 189, 46, 205, 34, 192, 49, 170, 54, 64, 30, 217, 70, 64, 83, 204, 149, 63, 106, 205, 240, 63, 234, 133, 183, 63, 212, 192, 250, 191, 223, 238, 215, 191, 186, 167, 30, 63, 70, 17, 44, 64, 51, 38, 69, 64, 236, 235, 211, 63, 101, 165, 62, 62, 9, 119, 238, 62, 19, 181, 63, 64, 137, 90, 136, 63, 181, 54, 9, 63, 51, 83, 251, 191, 247, 207, 189, 63, 86, 53, 70, 191, 204, 40, 146, 189, 67, 164, 149, 63, 44, 200, 16, 59, 229, 137, 130, 62, 112, 109, 242, 63, 118, 125, 135, 63, 20, 109, 26, 191, 46, 76, 225, 63, 249, 76, 162, 63, 229, 246, 36, 64, 194, 54, 193, 63, 249, 140, 19, 64, 253, 178, 243, 63, 24, 140, 127, 63, 169, 227, 4, 63, 225, 217, 9, 64, 147, 173, 172, 63, 101, 187, 170, 191, 18, 204, 200, 191, 2, 148, 230, 61, 216, 101, 8, 190, 139, 206, 151, 190, 186, 217, 68, 63, 168, 239, 42, 60, 230, 29, 182, 61, 19, 190, 145, 190, 188, 178, 195, 191, 6, 26, 235, 63, 0, 188, 64, 191, 26, 142, 41, 63, 40, 216, 145, 190, 122, 186, 69, 191, 195, 218, 237, 191, 138, 23, 247, 63, 27, 26, 10, 64, 14, 124, 195, 62, 244, 207, 146, 191, 74, 100, 174, 62, 98, 88, 211, 62, 122, 228, 2, 63, 197, 6, 171, 63, 238, 138, 209, 190, 91, 138, 32, 62, 187, 53, 9, 64, 28, 78, 15, 190, 237, 244, 238, 63, 32, 157, 233, 63, 51, 78, 70, 190, 117, 227, 185, 63, 127, 126, 174, 62, 213, 119, 139, 189, 48, 143, 136, 62, 93, 223, 230, 63, 119, 226, 23, 64, 155, 255, 22, 64, 50, 90, 146, 62, 141, 9, 53, 63, 115, 103, 2, 64, 167, 147, 171, 189, 157, 192, 254, 191, 134, 92, 113, 62, 211, 58, 134, 191, 199, 149, 29, 191, 129, 29, 209, 190, 0, 0, 6, 0, 8, 0, 4, 0, 6, 0, 0, 0, 4, 0, 0, 0, 128, 1, 0, 0, 61, 231, 140, 62, 208, 58, 207, 62, 34, 27, 231, 62, 132, 123, 222, 62, 16, 109, 224, 62, 49, 20, 216, 62, 8, 55, 104, 62, 21, 58, 213, 62, 199, 209, 39, 62, 121, 210, 163, 62, 23, 229, 89, 62, 168, 162, 94, 62, 24, 208, 5, 63, 87, 210, 25, 63, 98, 73, 149, 62, 24, 45, 175, 62, 162, 18, 75, 62, 172, 177, 72, 62, 230, 211, 227, 62, 78, 206, 204, 62, 66, 138, 129, 62, 133, 146, 48, 62, 39, 172, 97, 62, 51, 108, 59, 62, 120, 82, 9, 62, 32, 159, 128, 62, 6, 17, 0, 63, 198, 25, 86, 62, 155, 199, 122, 62, 193, 212, 168, 62, 228, 79, 32, 62, 143, 63, 171, 62, 43, 18, 50, 62, 86, 106, 110, 62, 138, 73, 86, 62, 99, 87, 92, 62, 34, 94, 185, 62, 246, 169, 146, 62, 87, 255, 170, 62, 183, 132, 190, 62, 69, 187, 103, 62, 159, 186, 223, 62, 213, 103, 188, 62, 134, 240, 225, 62, 23, 16, 2, 63, 203, 19, 199, 62, 79, 207, 59, 62, 33, 219, 61, 62, 255, 100, 142, 62, 146, 114, 138, 62, 22, 93, 155, 62, 110, 148, 49, 62, 139, 235, 36, 63, 205, 72, 50, 62, 232, 114, 239, 62, 243, 244, 158, 62, 5, 75, 133, 62, 231, 174, 110, 62, 28, 187, 224, 62, 47, 25, 15, 62, 5, 83, 63, 63, 76, 175, 165, 62, 224, 185, 83, 62, 80, 50, 184, 62, 55, 54, 231, 62, 57, 113, 161, 62, 3, 47, 25, 62, 124, 255, 60, 62, 216, 68, 194, 62, 243, 186, 0, 63, 98, 197, 47, 62, 213, 31, 42, 62, 9, 32, 46, 63, 217, 87, 105, 62, 140, 27, 116, 62, 3, 240, 140, 62, 157, 136, 69, 62, 125, 12, 24, 62, 208, 87, 67, 62, 0, 90, 77, 62, 94, 75, 171, 62, 107, 109, 8, 62, 55, 197, 28, 62, 229, 162, 89, 62, 139, 39, 50, 62, 3, 121, 130, 62, 117, 239, 255, 62, 213, 16, 20, 62, 98, 182, 111, 62, 124, 107, 21, 63, 35, 169, 126, 62, 132, 211, 129, 62, 214, 84, 7, 62, 152, 166, 185, 62, 238, 201, 165, 62, 180, 164, 80, 62, 196, 252, 255, 255, 200, 252, 255, 255, 15, 0, 0, 0, 77, 76, 73, 82, 32, 67, 111, 110, 118, 101, 114, 116, 101, 100, 46, 0, 1, 0, 0, 0, 20, 0, 0, 0, 0, 0, 14, 0, 24, 0, 20, 0, 16, 0, 12, 0, 8, 0, 4, 0, 14, 0, 0, 0, 20, 0, 0, 0, 28, 0, 0, 0, 160, 0, 0, 0, 164, 0, 0, 0, 168, 0, 0, 0, 4, 0, 0, 0, 109, 97, 105, 110, 0, 0, 0, 0, 2, 0, 0, 0, 88, 0, 0, 0, 20, 0, 0, 0, 0, 0, 14, 0, 24, 0, 20, 0, 16, 0, 12, 0, 11, 0, 4, 0, 14, 0, 0, 0, 20, 0, 0, 0, 0, 0, 0, 11, 16, 0, 0, 0, 20, 0, 0, 0, 1, 0, 0, 0, 80, 253, 255, 255, 1, 0, 0, 0, 4, 0, 0, 0, 2, 0, 0, 0, 3, 0, 0, 0, 2, 0, 0, 0, 0, 0, 14, 0, 20, 0, 0, 0, 16, 0, 12, 0, 11, 0, 4, 0, 14, 0, 0, 0, 16, 0, 0, 0, 0, 0, 0, 21, 12, 0, 0, 0, 16, 0, 0, 0, 140, 253, 255, 255, 1, 0, 0, 0, 3, 0, 0, 0, 2, 0, 0, 0, 0, 0, 0, 0, 1, 0, 0, 0, 1, 0, 0, 0, 4, 0, 0, 0, 1, 0, 0, 0, 0, 0, 0, 0, 5, 0, 0, 0, 212, 1, 0, 0, 100, 1, 0, 0, 240, 0, 0, 0, 112, 0, 0, 0, 4, 0, 0, 0, 86, 254, 255, 255, 0, 0, 0, 1, 20, 0, 0, 0, 36, 0, 0, 0, 36, 0, 0, 0, 5, 0, 0, 0, 60, 0, 0, 0, 4, 0, 0, 0, 255, 255, 255, 255, 12, 0, 0, 0, 12, 0, 0, 0, 96, 0, 0, 0, 252, 253, 255, 255, 25, 0, 0, 0, 83, 116, 97, 116, 101, 102, 117, 108, 80, 97, 114, 116, 105, 116, 105, 111, 110, 101, 100, 67, 97, 108, 108, 58, 48, 0, 0, 0, 4, 0, 0, 0, 1, 0, 0, 0, 12, 0, 0, 0, 12, 0, 0, 0, 96, 0, 0, 0, 190, 254, 255, 255, 0, 0, 0, 1, 20, 0, 0, 0, 36, 0, 0, 0, 36, 0, 0, 0, 4, 0, 0, 0, 80, 0, 0, 0, 4, 0, 0, 0, 255, 255, 255, 255, 12, 0, 0, 0, 12, 0, 0, 0, 96, 0, 0, 0, 100, 254, 255, 255, 44, 0, 0, 0, 109, 111, 100, 101, 108, 95, 53, 52, 47, 98, 108, 111, 99, 107, 95, 54, 95, 101, 120, 112, 97, 110, 100, 95, 66, 78, 47, 70, 117, 115, 101, 100, 66, 97, 116, 99, 104, 78, 111, 114, 109, 86, 51, 50, 0, 0, 0, 0, 4, 0, 0, 0, 1, 0, 0, 0, 12, 0, 0, 0, 12, 0, 0, 0, 96, 0, 0, 0, 166, 255, 255, 255, 0, 0, 0, 1, 16, 0, 0, 0, 16, 0, 0, 0, 3, 0, 0, 0, 60, 0, 0, 0, 200, 254, 255, 255, 44, 0, 0, 0, 109, 111, 100, 101, 108, 95, 53, 52, 47, 98, 108, 111, 99, 107, 95, 54, 95, 101, 120, 112, 97, 110, 100, 95, 66, 78, 47, 70, 117, 115, 101, 100, 66, 97, 116, 99, 104, 78, 111, 114, 109, 86, 51, 49, 0, 0, 0, 0, 1, 0, 0, 0, 96, 0, 0, 0, 0, 0, 22, 0, 24, 0, 20, 0, 0, 0, 16, 0, 12, 0, 8, 0, 0, 0, 0, 0, 0, 0, 7, 0, 22, 0, 0, 0, 0, 0, 0, 1, 16, 0, 0, 0, 16, 0, 0, 0, 2, 0, 0, 0, 56, 0, 0, 0, 56, 255, 255, 255, 43, 0, 0, 0, 109, 111, 100, 101, 108, 95, 53, 52, 47, 98, 108, 111, 99, 107, 95, 54, 95, 101, 120, 112, 97, 110, 100, 95, 66, 78, 47, 70, 117, 115, 101, 100, 66, 97, 116, 99, 104, 78, 111, 114, 109, 86, 51, 0, 1, 0, 0, 0, 96, 0, 0, 0, 0, 0, 22, 0, 28, 0, 24, 0, 0, 0, 20, 0, 16, 0, 12, 0, 0, 0, 0, 0, 8, 0, 7, 0, 22, 0, 0, 0, 0, 0, 0, 1, 20, 0, 0, 0, 36, 0, 0, 0, 36, 0, 0, 0, 1, 0, 0, 0, 60, 0, 0, 0, 4, 0, 0, 0, 255, 255, 255, 255, 12, 0, 0, 0, 12, 0, 0, 0, 96, 0, 0, 0, 188, 255, 255, 255, 26, 0, 0, 0, 115, 101, 114, 118, 105, 110, 103, 95, 100, 101, 102, 97, 117, 108, 116, 95, 105, 110, 112, 117, 116, 95, 53, 56, 58, 48, 0, 0, 4, 0, 0, 0, 1, 0, 0, 0, 12, 0, 0, 0, 12, 0, 0, 0, 96, 0, 0, 0, 2, 0, 0, 0, 28, 0, 0, 0, 8, 0, 0, 0, 4, 0, 4, 0, 4, 0, 0, 0, 12, 0, 12, 0, 11, 0, 0, 0, 0, 0, 4, 0, 12, 0, 0, 0, 18, 0, 0, 0, 0, 0, 0, 18
};
