#pragma once

#include <cstdint>

const uint8_t layer_57[] = {
28, 0, 0, 0, 84, 70, 76, 51, 20, 0, 32, 0, 28, 0, 24, 0, 20, 0, 16, 0, 12, 0, 0, 0, 8, 0, 4, 0, 20, 0, 0, 0, 28, 0, 0, 0, 144, 0, 0, 0, 232, 0, 0, 0, 180, 2, 0, 0, 196, 2, 0, 0, 32, 5, 0, 0, 3, 0, 0, 0, 1, 0, 0, 0, 16, 0, 0, 0, 0, 0, 10, 0, 16, 0, 12, 0, 8, 0, 4, 0, 10, 0, 0, 0, 12, 0, 0, 0, 28, 0, 0, 0, 56, 0, 0, 0, 15, 0, 0, 0, 115, 101, 114, 118, 105, 110, 103, 95, 100, 101, 102, 97, 117, 108, 116, 0, 1, 0, 0, 0, 4, 0, 0, 0, 152, 255, 255, 255, 3, 0, 0, 0, 4, 0, 0, 0, 6, 0, 0, 0, 108, 111, 103, 105, 116, 115, 0, 0, 1, 0, 0, 0, 4, 0, 0, 0, 222, 253, 255, 255, 4, 0, 0, 0, 8, 0, 0, 0, 105, 110, 112, 117, 116, 95, 54, 49, 0, 0, 0, 0, 2, 0, 0, 0, 52, 0, 0, 0, 4, 0, 0, 0, 220, 255, 255, 255, 6, 0, 0, 0, 4, 0, 0, 0, 19, 0, 0, 0, 67, 79, 78, 86, 69, 82, 83, 73, 79, 78, 95, 77, 69, 84, 65, 68, 65, 84, 65, 0, 8, 0, 12, 0, 8, 0, 4, 0, 8, 0, 0, 0, 5, 0, 0, 0, 4, 0, 0, 0, 19, 0, 0, 0, 109, 105, 110, 95, 114, 117, 110, 116, 105, 109, 101, 95, 118, 101, 114, 115, 105, 111, 110, 0, 7, 0, 0, 0, 200, 1, 0, 0, 192, 1, 0, 0, 168, 1, 0, 0, 144, 0, 0, 0, 136, 0, 0, 0, 104, 0, 0, 0, 4, 0, 0, 0, 114, 254, 255, 255, 4, 0, 0, 0, 84, 0, 0, 0, 12, 0, 0, 0, 8, 0, 14, 0, 8, 0, 4, 0, 8, 0, 0, 0, 16, 0, 0, 0, 36, 0, 0, 0, 0, 0, 6, 0, 8, 0, 4, 0, 6, 0, 0, 0, 4, 0, 0, 0, 0, 0, 0, 0, 0, 0, 10, 0, 16, 0, 12, 0, 8, 0, 4, 0, 10, 0, 0, 0, 2, 0, 0, 0, 2, 0, 0, 0, 4, 0, 0, 0, 6, 0, 0, 0, 50, 46, 49, 53, 46, 48, 0, 0, 210, 254, 255, 255, 4, 0, 0, 0, 16, 0, 0, 0, 49, 46, 53, 46, 48, 0, 0, 0, 0, 0, 0, 0, 0, 0, 0, 0, 148, 252, 255, 255, 242, 254, 255, 255, 4, 0, 0, 0, 0, 1, 0, 0, 75, 69, 105, 62, 134, 59, 14, 190, 12, 242, 49, 190, 39, 222, 183, 62, 170, 74, 146, 190, 105, 128, 165, 60, 21, 132, 86, 190, 111, 92, 109, 62, 254, 151, 195, 62, 242, 96, 7, 190, 202, 58, 25, 190, 31, 175, 150, 189, 147, 62, 112, 189, 209, 253, 130, 62, 189, 17, 58, 190, 192, 59, 221, 61, 249, 236, 192, 62, 150, 35, 152, 190, 153, 115, 30, 190, 41, 45, 181, 190, 62, 65, 166, 62, 123, 20, 129, 62, 63, 188, 128, 62, 12, 180, 103, 190, 110, 105, 69, 190, 239, 143, 148, 190, 140, 91, 67, 190, 243, 144, 133, 62, 52, 184, 4, 61, 252, 187, 174, 190, 27, 101, 136, 189, 63, 146, 90, 62, 99, 71, 71, 62, 148, 86, 139, 62, 135, 246, 134, 62, 178, 15, 107, 190, 113, 32, 135, 190, 209, 114, 138, 62, 27, 74, 219, 188, 66, 201, 82, 61, 65, 204, 5, 190, 117, 79, 69, 189, 178, 47, 11, 62, 40, 31, 191, 62, 189, 220, 206, 62, 162, 219, 29, 62, 92, 73, 14, 62, 206, 126, 158, 186, 57, 149, 16, 190, 194, 185, 239, 59, 63, 0, 126, 190, 122, 57, 163, 190, 163, 48, 142, 190, 105, 61, 6, 62, 191, 128, 247, 61, 72, 96, 202, 62, 148, 20, 142, 62, 60, 19, 130, 62, 220, 162, 43, 190, 122, 13, 181, 188, 232, 222, 183, 62, 255, 59, 189, 190, 95, 54, 195, 190, 205, 236, 101, 189, 0, 0, 6, 0, 8, 0, 4, 0, 6, 0, 0, 0, 4, 0, 0, 0, 8, 0, 0, 0, 198, 220, 151, 64, 185, 172, 152, 192, 192, 253, 255, 255, 196, 253, 255, 255, 15, 0, 0, 0, 77, 76, 73, 82, 32, 67, 111, 110, 118, 101, 114, 116, 101, 100, 46, 0, 1, 0, 0, 0, 20, 0, 0, 0, 0, 0, 14, 0, 24, 0, 20, 0, 16, 0, 12, 0, 8, 0, 4, 0, 14, 0, 0, 0, 20, 0, 0, 0, 28, 0, 0, 0, 120, 0, 0, 0, 124, 0, 0, 0, 128, 0, 0, 0, 4, 0, 0, 0, 109, 97, 105, 110, 0, 0, 0, 0, 1, 0, 0, 0, 20, 0, 0, 0, 0, 0, 14, 0, 22, 0, 0, 0, 16, 0, 12, 0, 11, 0, 4, 0, 14, 0, 0, 0, 28, 0, 0, 0, 0, 0, 0, 1, 36, 0, 0, 0, 40, 0, 0, 0, 0, 0, 10, 0, 16, 0, 15, 0, 8, 0, 4, 0, 10, 0, 0, 0, 1, 0, 0, 0, 1, 0, 0, 0, 0, 0, 0, 1, 1, 0, 0, 0, 3, 0, 0, 0, 3, 0, 0, 0, 0, 0, 0, 0, 2, 0, 0, 0, 1, 0, 0, 0, 1, 0, 0, 0, 3, 0, 0, 0, 1, 0, 0, 0, 0, 0, 0, 0, 4, 0, 0, 0, 68, 1, 0, 0, 216, 0, 0, 0, 112, 0, 0, 0, 4, 0, 0, 0, 226, 254, 255, 255, 0, 0, 0, 1, 20, 0, 0, 0, 36, 0, 0, 0, 36, 0, 0, 0, 4, 0, 0, 0, 60, 0, 0, 0, 4, 0, 0, 0, 255, 255, 255, 255, 12, 0, 0, 0, 12, 0, 0, 0, 2, 0, 0, 0, 204, 254, 255, 255, 25, 0, 0, 0, 83, 116, 97, 116, 101, 102, 117, 108, 80, 97, 114, 116, 105, 116, 105, 111, 110, 101, 100, 67, 97, 108, 108, 58, 48, 0, 0, 0, 4, 0, 0, 0, 1, 0, 0, 0, 12, 0, 0, 0, 12, 0, 0, 0, 2, 0, 0, 0, 178, 255, 255, 255, 0, 0, 0, 1, 16, 0, 0, 0, 16, 0, 0, 0, 3, 0, 0, 0, 36, 0, 0, 0, 28, 255, 255, 255, 22, 0, 0, 0, 109, 111, 100, 101, 108, 95, 53, 55, 47, 108, 111, 103, 105, 116, 115, 47, 67, 111, 110, 118, 50, 68, 0, 0, 4, 0, 0, 0, 2, 0, 0, 0, 1, 0, 0, 0, 1, 0, 0, 0, 32, 0, 0, 0, 0, 0, 22, 0, 24, 0, 20, 0, 0, 0, 16, 0, 12, 0, 8, 0, 0, 0, 0, 0, 0, 0, 7, 0, 22, 0, 0, 0, 0, 0, 0, 1, 16, 0, 0, 0, 16, 0, 0, 0, 2, 0, 0, 0, 52, 0, 0, 0, 128, 255, 255, 255, 38, 0, 0, 0, 109, 111, 100, 101, 108, 95, 53, 55, 47, 108, 111, 103, 105, 116, 115, 47, 66, 105, 97, 115, 65, 100, 100, 47, 82, 101, 97, 100, 86, 97, 114, 105, 97, 98, 108, 101, 79, 112, 0, 0, 1, 0, 0, 0, 2, 0, 0, 0, 0, 0, 22, 0, 28, 0, 24, 0, 0, 0, 20, 0, 16, 0, 12, 0, 0, 0, 0, 0, 8, 0, 7, 0, 22, 0, 0, 0, 0, 0, 0, 1, 20, 0, 0, 0, 40, 0, 0, 0, 40, 0, 0, 0, 1, 0, 0, 0, 64, 0, 0, 0, 4, 0, 0, 0, 255, 255, 255, 255, 12, 0, 0, 0, 12, 0, 0, 0, 32, 0, 0, 0, 4, 0, 4, 0, 4, 0, 0, 0, 26, 0, 0, 0, 115, 101, 114, 118, 105, 110, 103, 95, 100, 101, 102, 97, 117, 108, 116, 95, 105, 110, 112, 117, 116, 95, 54, 49, 58, 48, 0, 0, 4, 0, 0, 0, 1, 0, 0, 0, 12, 0, 0, 0, 12, 0, 0, 0, 32, 0, 0, 0, 1, 0, 0, 0, 16, 0, 0, 0, 12, 0, 12, 0, 11, 0, 0, 0, 0, 0, 4, 0, 12, 0, 0, 0, 3, 0, 0, 0, 0, 0, 0, 3
};
