#pragma once

#include <cstdint>

const uint8_t layer_56[] = {
28, 0, 0, 0, 84, 70, 76, 51, 20, 0, 32, 0, 28, 0, 24, 0, 20, 0, 16, 0, 12, 0, 0, 0, 8, 0, 4, 0, 20, 0, 0, 0, 28, 0, 0, 0, 144, 0, 0, 0, 232, 0, 0, 0, 44, 50, 0, 0, 60, 50, 0, 0, 156, 52, 0, 0, 3, 0, 0, 0, 1, 0, 0, 0, 16, 0, 0, 0, 0, 0, 10, 0, 16, 0, 12, 0, 8, 0, 4, 0, 10, 0, 0, 0, 12, 0, 0, 0, 28, 0, 0, 0, 56, 0, 0, 0, 15, 0, 0, 0, 115, 101, 114, 118, 105, 110, 103, 95, 100, 101, 102, 97, 117, 108, 116, 0, 1, 0, 0, 0, 4, 0, 0, 0, 152, 255, 255, 255, 3, 0, 0, 0, 4, 0, 0, 0, 4, 0, 0, 0, 104, 101, 97, 100, 0, 0, 0, 0, 1, 0, 0, 0, 4, 0, 0, 0, 222, 206, 255, 255, 4, 0, 0, 0, 8, 0, 0, 0, 105, 110, 112, 117, 116, 95, 54, 48, 0, 0, 0, 0, 2, 0, 0, 0, 52, 0, 0, 0, 4, 0, 0, 0, 220, 255, 255, 255, 6, 0, 0, 0, 4, 0, 0, 0, 19, 0, 0, 0, 67, 79, 78, 86, 69, 82, 83, 73, 79, 78, 95, 77, 69, 84, 65, 68, 65, 84, 65, 0, 8, 0, 12, 0, 8, 0, 4, 0, 8, 0, 0, 0, 5, 0, 0, 0, 4, 0, 0, 0, 19, 0, 0, 0, 109, 105, 110, 95, 114, 117, 110, 116, 105, 109, 101, 95, 118, 101, 114, 115, 105, 111, 110, 0, 7, 0, 0, 0, 64, 49, 0, 0, 56, 49, 0, 0, 168, 48, 0, 0, 144, 0, 0, 0, 136, 0, 0, 0, 104, 0, 0, 0, 4, 0, 0, 0, 114, 207, 255, 255, 4, 0, 0, 0, 84, 0, 0, 0, 12, 0, 0, 0, 8, 0, 14, 0, 8, 0, 4, 0, 8, 0, 0, 0, 16, 0, 0, 0, 36, 0, 0, 0, 0, 0, 6, 0, 8, 0, 4, 0, 6, 0, 0, 0, 4, 0, 0, 0, 0, 0, 0, 0, 0, 0, 10, 0, 16, 0, 12, 0, 8, 0, 4, 0, 10, 0, 0, 0, 2, 0, 0, 0, 2, 0, 0, 0, 4, 0, 0, 0, 6, 0, 0, 0, 50, 46, 49, 53, 46, 48, 0, 0, 210, 207, 255, 255, 4, 0, 0, 0, 16, 0, 0, 0, 49, 46, 53, 46, 48, 0, 0, 0, 0, 0, 0, 0, 0, 0, 0, 0, 24, 205, 255, 255, 242, 207, 255, 255, 4, 0, 0, 0, 0, 48, 0, 0, 46, 140, 143, 189, 165, 207, 183, 189, 26, 63, 68, 62, 56, 187, 77, 60, 56, 207, 30, 62, 31, 218, 253, 188, 36, 64, 34, 190, 131, 186, 67, 190, 201, 9, 227, 61, 60, 245, 63, 190, 20, 191, 73, 190, 127, 115, 153, 59, 96, 232, 217, 61, 90, 146, 142, 60, 79, 254, 133, 189, 164, 150, 206, 61, 251, 49, 197, 189, 180, 68, 97, 189, 46, 42, 252, 189, 110, 94, 229, 189, 107, 184, 0, 190, 234, 58, 63, 190, 223, 93, 59, 60, 234, 161, 78, 62, 7, 101, 94, 190, 137, 180, 148, 60, 170, 153, 20, 62, 227, 182, 177, 189, 37, 72, 78, 62, 231, 34, 151, 188, 44, 168, 13, 189, 17, 134, 37, 190, 117, 18, 27, 62, 133, 91, 237, 189, 66, 150, 41, 190, 250, 176, 237, 61, 40, 103, 73, 190, 29, 229, 20, 190, 198, 150, 56, 190, 40, 60, 80, 61, 138, 198, 14, 62, 191, 222, 30, 190, 254, 107, 52, 190, 94, 32, 64, 62, 36, 135, 185, 61, 249, 198, 74, 190, 199, 9, 75, 62, 199, 61, 7, 189, 103, 188, 1, 61, 22, 19, 220, 189, 238, 85, 131, 189, 39, 191, 55, 62, 49, 185, 15, 190, 184, 40, 208, 189, 38, 110, 52, 190, 92, 56, 66, 62, 66, 168, 78, 61, 116, 176, 0, 62, 41, 40, 104, 62, 139, 237, 73, 190, 118, 192, 15, 190, 115, 114, 28, 62, 55, 42, 204, 189, 45, 253, 188, 61, 140, 218, 71, 189, 13, 125, 236, 60, 137, 138, 6, 62, 6, 192, 40, 62, 184, 192, 184, 61, 55, 188, 54, 62, 210, 114, 38, 62, 69, 223, 92, 190, 161, 114, 66, 62, 22, 28, 72, 190, 92, 78, 146, 61, 57, 213, 32, 62, 164, 48, 76, 190, 41, 152, 234, 60, 198, 136, 222, 189, 37, 159, 84, 61, 18, 183, 203, 61, 7, 100, 15, 61, 134, 153, 45, 62, 171, 218, 85, 188, 235, 244, 216, 189, 179, 144, 147, 189, 196, 36, 29, 190, 202, 91, 63, 62, 33, 252, 94, 61, 168, 83, 91, 62, 222, 176, 189, 188, 211, 186, 110, 190, 197, 155, 194, 60, 168, 214, 0, 62, 132, 30, 84, 61, 182, 88, 29, 61, 160, 70, 192, 189, 209, 221, 146, 61, 19, 213, 242, 189, 19, 33, 17, 59, 149, 243, 130, 189, 74, 217, 34, 62, 83, 188, 167, 61, 113, 17, 192, 60, 60, 40, 33, 62, 77, 141, 53, 190, 55, 82, 55, 190, 187, 80, 84, 62, 189, 211, 254, 61, 73, 185, 22, 189, 164, 100, 107, 61, 231, 237, 7, 62, 178, 147, 90, 62, 134, 171, 126, 189, 210, 167, 134, 61, 230, 124, 107, 62, 60, 234, 154, 189, 74, 111, 47, 59, 22, 198, 163, 61, 227, 117, 129, 61, 154, 58, 148, 61, 109, 11, 64, 61, 122, 61, 128, 189, 83, 200, 82, 62, 54, 98, 253, 60, 237, 232, 118, 60, 207, 166, 70, 62, 13, 18, 225, 189, 151, 117, 242, 61, 142, 230, 77, 62, 13, 223, 58, 187, 212, 182, 117, 61, 244, 194, 224, 61, 56, 1, 255, 61, 218, 200, 164, 188, 250, 7, 223, 189, 13, 92, 207, 189, 135, 31, 200, 60, 237, 218, 2, 189, 255, 86, 39, 190, 246, 14, 88, 189, 176, 91, 157, 61, 41, 0, 47, 189, 150, 1, 179, 189, 111, 222, 1, 189, 104, 67, 23, 190, 80, 194, 90, 62, 128, 217, 248, 61, 94, 90, 198, 60, 248, 226, 36, 62, 253, 132, 7, 190, 77, 80, 165, 189, 62, 52, 117, 61, 119, 34, 69, 62, 58, 194, 249, 61, 2, 255, 40, 62, 120, 201, 204, 189, 114, 226, 102, 62, 226, 231, 224, 189, 147, 81, 9, 190, 243, 151, 221, 189, 116, 96, 155, 61, 117, 50, 28, 62, 148, 237, 164, 61, 25, 109, 82, 62, 63, 213, 109, 61, 55, 171, 61, 61, 217, 136, 242, 60, 211, 81, 73, 190, 209, 12, 57, 62, 199, 114, 161, 189, 59, 67, 201, 61, 193, 202, 37, 62, 239, 64, 144, 189, 74, 219, 129, 189, 98, 221, 11, 62, 92, 112, 9, 190, 46, 202, 36, 62, 40, 90, 180, 189, 57, 244, 81, 190, 9, 130, 132, 61, 83, 123, 104, 62, 136, 149, 231, 189, 147, 243, 223, 189, 100, 152, 32, 62, 17, 85, 34, 62, 148, 149, 54, 62, 233, 85, 102, 61, 194, 231, 41, 62, 251, 218, 56, 62, 235, 163, 105, 61, 1, 69, 0, 187, 26, 115, 195, 61, 195, 86, 160, 61, 223, 212, 204, 189, 30, 239, 53, 62, 66, 32, 7, 189, 198, 149, 201, 189, 140, 28, 50, 62, 249, 24, 56, 62, 149, 139, 48, 190, 29, 164, 42, 62, 127, 226, 89, 189, 193, 147, 102, 62, 116, 53, 49, 62, 197, 33, 131, 188, 104, 240, 38, 62, 109, 155, 67, 190, 95, 52, 188, 189, 213, 44, 20, 189, 159, 34, 128, 61, 68, 98, 231, 61, 196, 133, 41, 190, 68, 212, 114, 188, 228, 141, 93, 62, 180, 83, 81, 61, 206, 234, 25, 189, 134, 239, 35, 62, 39, 181, 79, 62, 87, 153, 213, 60, 192, 44, 235, 189, 168, 221, 26, 62, 92, 15, 33, 62, 46, 221, 57, 62, 168, 8, 241, 189, 214, 178, 224, 188, 20, 33, 31, 190, 72, 153, 64, 190, 52, 215, 18, 190, 21, 205, 61, 62, 252, 67, 74, 62, 151, 83, 38, 189, 170, 91, 77, 190, 131, 104, 2, 190, 197, 58, 13, 61, 172, 197, 67, 59, 76, 245, 17, 190, 42, 224, 100, 62, 246, 240, 8, 189, 101, 96, 4, 190, 239, 182, 69, 62, 225, 6, 159, 61, 80, 36, 45, 62, 32, 201, 22, 190, 151, 65, 166, 189, 204, 242, 250, 61, 94, 159, 82, 61, 200, 132, 47, 61, 9, 122, 240, 189, 18, 111, 59, 62, 96, 79, 212, 189, 48, 64, 171, 60, 89, 172, 199, 188, 220, 82, 249, 61, 81, 212, 88, 189, 186, 56, 13, 62, 213, 61, 42, 62, 57, 189, 194, 61, 170, 55, 206, 61, 129, 103, 39, 62, 245, 160, 35, 190, 108, 61, 4, 62, 159, 180, 237, 60, 158, 17, 247, 189, 237, 198, 147, 61, 155, 225, 255, 189, 154, 16, 142, 61, 58, 191, 128, 61, 93, 232, 181, 189, 35, 140, 4, 189, 48, 198, 171, 60, 126, 66, 170, 60, 219, 129, 165, 61, 130, 158, 43, 190, 243, 235, 74, 188, 127, 149, 138, 189, 222, 147, 106, 60, 160, 59, 40, 190, 14, 131, 189, 188, 44, 156, 66, 189, 253, 218, 51, 62, 172, 32, 93, 62, 61, 195, 28, 189, 197, 157, 177, 60, 126, 100, 141, 189, 106, 241, 14, 190, 180, 148, 162, 189, 117, 187, 238, 189, 94, 233, 2, 62, 91, 45, 21, 187, 43, 162, 141, 61, 7, 54, 64, 189, 43, 20, 0, 190, 215, 183, 196, 61, 139, 156, 86, 190, 210, 51, 141, 61, 110, 68, 187, 61, 3, 178, 44, 61, 120, 235, 235, 61, 162, 242, 157, 59, 120, 138, 54, 62, 121, 21, 47, 62, 168, 240, 4, 62, 108, 201, 254, 59, 87, 182, 66, 62, 37, 66, 52, 62, 250, 50, 80, 189, 150, 59, 172, 60, 83, 28, 86, 62, 216, 137, 39, 190, 252, 235, 249, 189, 6, 202, 89, 190, 39, 109, 54, 189, 163, 150, 88, 190, 166, 144, 28, 190, 214, 188, 77, 62, 201, 231, 175, 61, 68, 168, 51, 190, 29, 133, 30, 62, 30, 162, 74, 60, 54, 25, 218, 189, 236, 50, 141, 189, 226, 98, 7, 189, 156, 1, 238, 188, 165, 255, 44, 190, 28, 254, 80, 189, 36, 51, 151, 61, 173, 167, 173, 61, 42, 179, 82, 189, 136, 104, 49, 190, 217, 39, 55, 190, 246, 55, 38, 187, 168, 136, 4, 62, 231, 113, 75, 61, 231, 113, 191, 189, 233, 63, 33, 190, 219, 91, 246, 61, 199, 220, 21, 190, 146, 138, 158, 61, 140, 250, 149, 187, 86, 101, 84, 62, 77, 29, 71, 61, 216, 146, 37, 62, 218, 164, 64, 190, 228, 44, 84, 190, 1, 219, 93, 190, 247, 107, 92, 190, 42, 60, 228, 189, 13, 33, 58, 190, 211, 250, 135, 61, 126, 154, 138, 189, 124, 109, 16, 62, 113, 95, 238, 61, 107, 151, 132, 189, 87, 137, 234, 189, 174, 35, 111, 189, 93, 101, 102, 189, 69, 30, 253, 189, 123, 148, 85, 60, 52, 115, 56, 62, 149, 92, 28, 61, 4, 18, 77, 190, 8, 155, 207, 61, 13, 95, 186, 189, 187, 65, 136, 61, 217, 11, 53, 62, 175, 67, 49, 62, 77, 60, 243, 189, 214, 236, 43, 190, 254, 189, 100, 190, 54, 191, 154, 61, 102, 2, 44, 62, 102, 2, 76, 61, 115, 80, 159, 61, 100, 100, 169, 189, 125, 3, 96, 190, 122, 254, 27, 190, 127, 191, 161, 61, 45, 195, 131, 60, 132, 28, 76, 190, 53, 235, 41, 62, 182, 72, 45, 190, 134, 186, 39, 190, 231, 47, 234, 61, 41, 243, 168, 61, 176, 214, 50, 62, 6, 13, 91, 188, 130, 17, 178, 61, 233, 86, 108, 189, 244, 203, 100, 189, 18, 50, 52, 61, 74, 65, 132, 60, 217, 91, 207, 61, 158, 188, 28, 62, 126, 26, 221, 188, 134, 58, 166, 61, 60, 54, 77, 61, 162, 184, 160, 189, 217, 33, 10, 189, 137, 51, 6, 190, 122, 133, 111, 189, 88, 31, 162, 188, 95, 242, 243, 189, 54, 17, 121, 60, 58, 27, 59, 62, 69, 194, 53, 190, 75, 250, 18, 62, 19, 236, 11, 61, 73, 161, 44, 189, 198, 183, 162, 188, 247, 161, 211, 61, 91, 45, 242, 189, 40, 44, 205, 189, 239, 65, 86, 61, 76, 238, 7, 190, 17, 120, 218, 189, 42, 102, 237, 61, 146, 154, 73, 62, 53, 254, 102, 60, 100, 135, 72, 190, 224, 45, 212, 189, 254, 20, 197, 188, 237, 224, 95, 190, 83, 229, 155, 61, 167, 94, 210, 189, 200, 131, 254, 189, 130, 101, 20, 190, 180, 124, 53, 190, 69, 228, 78, 61, 31, 208, 56, 62, 96, 183, 83, 61, 140, 170, 184, 61, 224, 144, 245, 60, 31, 135, 175, 189, 193, 59, 34, 189, 86, 203, 26, 190, 35, 217, 45, 190, 99, 71, 145, 61, 125, 246, 43, 190, 81, 239, 207, 60, 233, 215, 90, 61, 176, 69, 59, 190, 26, 136, 54, 61, 38, 88, 84, 60, 235, 15, 58, 59, 199, 240, 20, 190, 166, 22, 170, 189, 128, 254, 5, 190, 50, 131, 189, 189, 55, 209, 181, 61, 228, 4, 26, 188, 59, 149, 157, 189, 157, 187, 29, 61, 169, 64, 70, 190, 226, 223, 65, 190, 238, 34, 39, 190, 144, 243, 227, 189, 197, 145, 217, 60, 218, 149, 45, 62, 149, 12, 174, 61, 241, 188, 200, 61, 129, 106, 91, 189, 122, 195, 216, 188, 178, 225, 224, 189, 119, 133, 20, 187, 240, 160, 188, 189, 8, 207, 66, 190, 121, 88, 69, 189, 182, 214, 63, 188, 246, 255, 230, 61, 244, 22, 28, 62, 51, 100, 30, 188, 31, 212, 105, 190, 114, 175, 23, 190, 140, 166, 146, 61, 78, 61, 150, 61, 9, 115, 40, 61, 158, 3, 45, 62, 86, 59, 65, 190, 151, 159, 44, 189, 186, 76, 63, 62, 69, 185, 32, 190, 245, 238, 26, 62, 178, 31, 32, 62, 194, 125, 157, 61, 83, 115, 76, 190, 138, 187, 119, 61, 95, 63, 221, 61, 79, 47, 77, 62, 239, 142, 80, 190, 153, 241, 224, 59, 120, 134, 228, 189, 96, 164, 72, 61, 198, 9, 66, 62, 77, 176, 154, 61, 111, 138, 157, 61, 230, 25, 254, 61, 101, 105, 247, 61, 148, 213, 8, 190, 212, 61, 67, 62, 47, 12, 137, 61, 207, 7, 215, 61, 96, 165, 49, 61, 220, 53, 25, 189, 223, 54, 61, 190, 147, 150, 211, 189, 220, 94, 151, 188, 33, 220, 34, 190, 235, 182, 199, 61, 151, 117, 114, 61, 78, 144, 33, 61, 202, 150, 48, 190, 15, 130, 131, 189, 59, 20, 63, 60, 64, 220, 236, 189, 112, 131, 26, 61, 207, 118, 73, 190, 81, 213, 95, 189, 108, 159, 180, 61, 43, 153, 68, 61, 102, 77, 26, 190, 207, 85, 172, 189, 0, 35, 167, 61, 243, 252, 64, 62, 58, 201, 86, 189, 103, 212, 80, 61, 134, 50, 152, 61, 139, 1, 174, 189, 39, 108, 63, 190, 242, 165, 73, 62, 59, 233, 70, 61, 183, 121, 141, 61, 141, 179, 150, 61, 200, 59, 15, 61, 38, 221, 149, 61, 43, 4, 1, 189, 42, 7, 80, 62, 59, 8, 200, 61, 11, 227, 186, 189, 167, 77, 127, 189, 238, 67, 129, 61, 252, 229, 229, 189, 243, 74, 160, 61, 182, 7, 255, 189, 101, 146, 111, 189, 116, 61, 70, 62, 124, 18, 27, 189, 36, 228, 96, 61, 250, 43, 22, 62, 204, 153, 233, 59, 147, 16, 77, 62, 241, 222, 242, 189, 19, 17, 161, 189, 61, 6, 26, 62, 44, 174, 49, 189, 147, 1, 249, 189, 147, 174, 207, 60, 69, 17, 157, 189, 225, 157, 2, 61, 126, 31, 28, 62, 127, 167, 81, 62, 88, 96, 164, 61, 100, 60, 103, 61, 81, 25, 80, 62, 126, 205, 12, 190, 88, 178, 35, 62, 144, 136, 163, 183, 247, 41, 161, 61, 122, 136, 9, 62, 137, 28, 48, 190, 17, 242, 96, 62, 145, 138, 48, 62, 87, 185, 180, 188, 242, 212, 109, 61, 118, 204, 11, 62, 2, 177, 22, 190, 8, 49, 192, 60, 232, 102, 186, 189, 6, 86, 73, 62, 49, 86, 7, 62, 126, 174, 37, 190, 48, 62, 0, 190, 25, 161, 90, 188, 1, 255, 232, 61, 94, 207, 7, 189, 198, 163, 33, 190, 192, 31, 16, 59, 61, 171, 44, 190, 68, 134, 38, 62, 137, 180, 186, 61, 25, 164, 76, 62, 128, 77, 102, 190, 77, 20, 133, 61, 0, 197, 182, 187, 208, 253, 70, 59, 172, 199, 50, 62, 18, 198, 25, 190, 64, 225, 102, 190, 27, 179, 65, 62, 136, 173, 199, 61, 113, 33, 243, 189, 197, 97, 34, 190, 33, 36, 206, 188, 254, 107, 228, 189, 230, 57, 109, 189, 17, 88, 89, 190, 145, 237, 154, 61, 233, 25, 25, 190, 60, 225, 48, 190, 45, 87, 104, 190, 47, 53, 187, 189, 248, 64, 76, 190, 176, 107, 215, 188, 235, 31, 128, 61, 148, 59, 76, 190, 196, 153, 14, 62, 65, 42, 23, 62, 86, 181, 190, 61, 255, 252, 13, 61, 112, 189, 27, 189, 168, 141, 90, 190, 249, 21, 60, 62, 211, 71, 46, 190, 167, 52, 186, 189, 153, 68, 37, 190, 143, 67, 211, 60, 169, 126, 91, 189, 196, 207, 4, 190, 229, 202, 213, 61, 234, 8, 218, 189, 74, 188, 38, 62, 181, 69, 107, 189, 187, 205, 232, 59, 190, 26, 181, 188, 140, 235, 0, 190, 221, 89, 72, 62, 8, 219, 56, 190, 243, 253, 194, 187, 67, 113, 231, 61, 89, 238, 14, 190, 69, 175, 196, 189, 102, 109, 227, 61, 50, 0, 50, 62, 140, 202, 190, 189, 223, 61, 9, 62, 150, 234, 133, 188, 198, 75, 77, 190, 93, 165, 144, 188, 238, 212, 192, 61, 128, 135, 10, 190, 108, 190, 48, 190, 169, 115, 170, 189, 228, 148, 30, 190, 206, 11, 71, 190, 231, 147, 228, 189, 205, 26, 103, 189, 160, 232, 82, 61, 10, 128, 102, 189, 7, 155, 148, 61, 0, 173, 104, 189, 119, 196, 14, 190, 95, 110, 44, 190, 246, 207, 166, 189, 236, 177, 57, 190, 147, 189, 19, 62, 194, 105, 39, 62, 0, 140, 45, 62, 225, 211, 203, 60, 48, 229, 213, 189, 179, 220, 4, 190, 1, 90, 7, 62, 27, 228, 99, 189, 175, 62, 100, 62, 45, 105, 9, 62, 14, 91, 114, 189, 238, 28, 152, 189, 254, 191, 1, 190, 12, 157, 97, 62, 91, 216, 207, 188, 44, 180, 154, 59, 152, 85, 97, 62, 149, 139, 133, 60, 57, 144, 43, 190, 159, 175, 35, 61, 11, 182, 220, 61, 96, 196, 27, 190, 62, 168, 195, 61, 3, 115, 20, 62, 226, 217, 221, 61, 76, 133, 36, 61, 213, 68, 145, 187, 182, 116, 97, 62, 36, 194, 219, 61, 25, 210, 152, 61, 5, 132, 176, 58, 172, 34, 45, 62, 178, 244, 246, 189, 46, 186, 75, 62, 161, 125, 175, 61, 248, 195, 227, 61, 243, 119, 7, 190, 2, 87, 75, 62, 183, 38, 207, 188, 250, 83, 150, 61, 120, 55, 85, 61, 199, 227, 84, 61, 92, 199, 7, 62, 191, 135, 66, 62, 184, 107, 56, 190, 75, 194, 45, 62, 47, 229, 112, 188, 124, 228, 49, 189, 162, 157, 60, 62, 100, 164, 5, 190, 208, 231, 38, 62, 155, 219, 12, 62, 37, 198, 207, 61, 240, 119, 17, 59, 19, 129, 75, 62, 138, 89, 71, 190, 195, 150, 217, 61, 57, 245, 196, 189, 68, 83, 75, 190, 18, 60, 231, 189, 205, 49, 51, 189, 202, 231, 37, 62, 3, 213, 40, 61, 71, 175, 130, 61, 160, 138, 96, 62, 74, 49, 32, 190, 121, 66, 160, 60, 81, 188, 192, 189, 30, 197, 132, 60, 34, 33, 196, 58, 170, 36, 31, 62, 45, 220, 73, 190, 101, 97, 3, 190, 183, 121, 187, 189, 110, 122, 9, 62, 172, 182, 55, 61, 6, 53, 63, 190, 77, 177, 48, 61, 205, 120, 7, 62, 30, 162, 39, 62, 197, 212, 40, 62, 58, 6, 97, 61, 134, 48, 242, 61, 198, 75, 241, 61, 118, 238, 223, 189, 194, 166, 228, 61, 72, 173, 48, 190, 103, 164, 171, 61, 150, 225, 52, 62, 44, 221, 123, 189, 40, 3, 242, 188, 54, 88, 4, 190, 209, 33, 46, 62, 14, 1, 150, 61, 107, 215, 66, 190, 238, 171, 55, 62, 121, 139, 33, 62, 243, 218, 152, 60, 62, 38, 40, 62, 113, 28, 3, 62, 246, 20, 188, 189, 57, 38, 131, 189, 139, 234, 237, 186, 30, 102, 236, 189, 37, 254, 2, 60, 135, 140, 66, 61, 83, 79, 196, 189, 53, 77, 53, 190, 132, 225, 199, 61, 55, 25, 15, 61, 22, 110, 29, 190, 146, 197, 84, 189, 142, 189, 7, 187, 84, 184, 95, 61, 237, 70, 132, 61, 34, 156, 32, 62, 225, 40, 40, 188, 216, 158, 197, 189, 75, 255, 46, 190, 149, 147, 23, 190, 188, 65, 18, 190, 150, 167, 32, 62, 10, 219, 253, 189, 197, 228, 131, 60, 194, 142, 33, 61, 37, 181, 125, 189, 143, 197, 7, 62, 152, 177, 60, 62, 18, 84, 103, 190, 216, 204, 26, 62, 8, 31, 134, 61, 110, 59, 255, 61, 65, 236, 14, 190, 253, 105, 172, 60, 182, 216, 57, 190, 163, 250, 73, 62, 166, 213, 35, 62, 179, 39, 151, 189, 62, 43, 140, 61, 155, 242, 130, 188, 54, 100, 72, 62, 123, 177, 50, 188, 85, 167, 62, 189, 30, 34, 234, 61, 134, 128, 5, 62, 136, 67, 47, 62, 164, 176, 93, 190, 95, 132, 109, 190, 101, 159, 9, 189, 134, 35, 136, 189, 129, 145, 114, 189, 189, 82, 59, 62, 225, 134, 187, 60, 205, 120, 59, 190, 235, 97, 4, 190, 114, 49, 177, 188, 181, 148, 1, 190, 155, 67, 231, 188, 237, 32, 147, 189, 241, 211, 89, 190, 204, 216, 152, 61, 211, 206, 57, 62, 52, 37, 64, 190, 234, 188, 49, 62, 35, 53, 67, 62, 109, 67, 123, 61, 5, 74, 128, 61, 81, 44, 59, 62, 197, 19, 137, 189, 242, 104, 205, 189, 231, 110, 99, 189, 55, 27, 48, 62, 189, 173, 47, 190, 141, 80, 166, 61, 215, 101, 45, 61, 205, 9, 156, 188, 190, 249, 254, 61, 66, 163, 227, 61, 207, 75, 144, 59, 3, 72, 206, 60, 41, 8, 208, 189, 102, 98, 54, 62, 93, 34, 10, 62, 202, 101, 3, 62, 55, 129, 67, 61, 139, 104, 14, 62, 107, 30, 97, 190, 18, 53, 47, 190, 157, 153, 244, 60, 66, 180, 113, 61, 101, 80, 244, 61, 159, 104, 190, 189, 186, 71, 78, 61, 111, 185, 174, 189, 103, 136, 39, 190, 39, 43, 45, 62, 195, 30, 39, 190, 35, 95, 78, 190, 189, 165, 203, 189, 25, 46, 206, 61, 5, 136, 25, 59, 9, 110, 22, 59, 113, 175, 78, 62, 117, 125, 163, 61, 163, 136, 27, 62, 214, 127, 81, 190, 119, 134, 202, 189, 126, 149, 95, 190, 114, 89, 138, 61, 168, 247, 174, 61, 30, 202, 209, 188, 227, 162, 179, 61, 160, 89, 5, 189, 22, 181, 26, 190, 42, 234, 70, 190, 174, 131, 119, 189, 130, 127, 48, 58, 178, 197, 58, 188, 129, 71, 72, 190, 133, 133, 0, 190, 24, 162, 129, 187, 94, 79, 48, 62, 69, 163, 86, 190, 130, 9, 78, 190, 197, 111, 74, 62, 251, 30, 194, 188, 11, 164, 5, 189, 90, 72, 26, 61, 167, 106, 8, 189, 248, 31, 190, 189, 86, 139, 49, 190, 189, 178, 64, 62, 200, 107, 212, 61, 248, 189, 249, 187, 194, 250, 43, 61, 12, 215, 47, 189, 65, 176, 27, 190, 196, 191, 170, 60, 86, 230, 133, 189, 107, 95, 184, 189, 105, 107, 158, 61, 141, 178, 6, 190, 52, 0, 183, 61, 48, 176, 55, 190, 238, 162, 15, 62, 255, 100, 239, 60, 205, 112, 78, 190, 38, 27, 178, 61, 173, 159, 170, 61, 113, 72, 250, 188, 163, 92, 28, 190, 205, 192, 194, 189, 67, 150, 249, 61, 39, 140, 16, 190, 210, 50, 8, 190, 113, 178, 59, 62, 7, 184, 17, 62, 171, 136, 251, 189, 109, 46, 239, 188, 42, 233, 171, 188, 73, 29, 45, 190, 36, 227, 57, 62, 240, 106, 46, 62, 227, 207, 22, 190, 198, 208, 30, 190, 102, 172, 160, 186, 140, 206, 57, 62, 60, 216, 162, 61, 75, 35, 172, 189, 79, 54, 52, 62, 73, 53, 61, 62, 105, 211, 49, 190, 203, 242, 129, 58, 78, 224, 20, 62, 137, 201, 80, 190, 222, 143, 60, 190, 239, 248, 29, 190, 117, 85, 107, 190, 246, 215, 167, 189, 113, 77, 63, 62, 199, 53, 77, 61, 76, 229, 51, 61, 33, 156, 55, 62, 203, 174, 60, 61, 152, 158, 185, 189, 5, 104, 61, 190, 73, 165, 92, 61, 85, 47, 31, 189, 35, 34, 46, 62, 79, 72, 70, 61, 48, 232, 135, 189, 201, 166, 106, 62, 222, 163, 69, 62, 172, 38, 96, 188, 137, 221, 208, 61, 103, 168, 153, 189, 156, 240, 209, 189, 0, 149, 36, 62, 222, 119, 56, 62, 138, 34, 237, 189, 49, 158, 189, 188, 89, 231, 79, 62, 94, 124, 86, 62, 163, 82, 108, 61, 152, 218, 161, 61, 181, 76, 132, 61, 173, 47, 97, 61, 164, 208, 226, 189, 205, 6, 68, 62, 182, 42, 37, 62, 12, 191, 75, 189, 87, 86, 10, 61, 191, 139, 76, 189, 155, 34, 35, 62, 130, 164, 57, 190, 188, 167, 207, 189, 216, 225, 189, 188, 121, 164, 133, 61, 2, 21, 240, 61, 36, 236, 232, 189, 124, 136, 132, 61, 103, 81, 232, 61, 247, 172, 77, 190, 116, 17, 74, 190, 26, 4, 159, 189, 59, 146, 25, 62, 217, 14, 35, 190, 182, 29, 16, 190, 117, 188, 39, 62, 62, 171, 68, 62, 167, 178, 108, 62, 155, 37, 17, 62, 99, 195, 121, 189, 165, 145, 198, 60, 148, 33, 108, 189, 64, 34, 148, 61, 40, 143, 86, 189, 224, 220, 100, 62, 143, 41, 72, 190, 229, 137, 99, 189, 230, 128, 43, 190, 29, 247, 198, 189, 203, 238, 215, 59, 221, 94, 200, 189, 84, 199, 251, 59, 67, 180, 28, 60, 199, 146, 147, 61, 166, 159, 8, 61, 119, 55, 239, 61, 248, 177, 55, 61, 194, 38, 218, 189, 105, 40, 93, 189, 253, 242, 52, 190, 63, 201, 151, 188, 145, 3, 134, 61, 54, 57, 144, 189, 136, 42, 130, 56, 114, 85, 35, 62, 217, 163, 91, 62, 122, 129, 178, 61, 33, 68, 90, 62, 39, 129, 2, 190, 192, 75, 41, 190, 169, 24, 23, 189, 132, 50, 90, 61, 117, 225, 6, 189, 98, 137, 34, 190, 82, 77, 229, 189, 32, 104, 44, 62, 106, 230, 4, 62, 185, 191, 17, 190, 76, 8, 86, 62, 119, 167, 153, 188, 175, 139, 5, 62, 123, 202, 8, 62, 72, 77, 45, 61, 10, 26, 29, 62, 194, 219, 159, 59, 89, 61, 223, 61, 94, 169, 73, 62, 171, 231, 47, 190, 235, 128, 14, 62, 136, 217, 72, 62, 156, 181, 16, 189, 127, 170, 157, 61, 29, 52, 213, 60, 64, 109, 44, 187, 19, 166, 239, 189, 165, 200, 172, 189, 60, 14, 159, 189, 136, 122, 159, 189, 92, 161, 236, 189, 194, 212, 67, 62, 13, 109, 146, 60, 142, 216, 166, 188, 192, 235, 58, 62, 53, 142, 90, 62, 53, 80, 191, 61, 103, 226, 211, 61, 169, 116, 77, 61, 243, 8, 71, 62, 100, 221, 43, 62, 186, 22, 13, 190, 77, 57, 88, 62, 147, 252, 53, 188, 251, 223, 32, 190, 159, 228, 106, 61, 209, 72, 245, 189, 66, 147, 193, 189, 29, 132, 63, 190, 86, 128, 207, 61, 141, 69, 175, 61, 135, 150, 94, 61, 36, 233, 16, 62, 24, 142, 75, 61, 15, 2, 70, 190, 198, 88, 72, 190, 77, 156, 38, 190, 97, 12, 6, 189, 126, 140, 8, 62, 249, 124, 26, 62, 250, 193, 164, 188, 20, 26, 68, 61, 230, 73, 50, 189, 165, 48, 43, 190, 10, 188, 17, 190, 88, 52, 210, 61, 162, 117, 150, 61, 64, 243, 216, 189, 224, 235, 15, 62, 203, 134, 126, 189, 255, 151, 226, 189, 140, 147, 56, 189, 208, 113, 69, 62, 202, 105, 15, 190, 118, 133, 140, 60, 114, 160, 147, 189, 213, 57, 236, 189, 210, 20, 47, 190, 38, 32, 37, 190, 42, 241, 14, 62, 187, 235, 75, 62, 3, 55, 56, 62, 73, 190, 208, 61, 125, 202, 55, 190, 101, 95, 55, 190, 42, 227, 39, 61, 9, 228, 94, 61, 49, 171, 17, 190, 101, 52, 235, 189, 102, 105, 87, 189, 115, 100, 33, 190, 233, 65, 41, 190, 79, 85, 43, 62, 145, 87, 38, 62, 90, 4, 169, 60, 162, 98, 227, 60, 184, 53, 37, 62, 85, 29, 203, 189, 102, 136, 47, 61, 250, 157, 44, 62, 59, 9, 198, 61, 195, 24, 33, 190, 251, 234, 5, 190, 89, 96, 139, 61, 48, 76, 74, 62, 193, 171, 53, 190, 10, 57, 199, 61, 82, 25, 236, 189, 0, 52, 138, 61, 64, 235, 160, 189, 193, 230, 20, 62, 74, 234, 67, 190, 74, 250, 90, 189, 173, 145, 9, 190, 35, 157, 187, 189, 76, 84, 180, 61, 182, 18, 12, 190, 120, 2, 200, 60, 208, 180, 72, 189, 120, 91, 48, 190, 124, 31, 145, 188, 200, 9, 184, 60, 199, 16, 68, 190, 31, 239, 27, 190, 121, 11, 88, 189, 99, 172, 40, 190, 62, 240, 167, 189, 29, 180, 18, 61, 219, 130, 10, 62, 136, 79, 180, 189, 92, 237, 14, 60, 240, 49, 43, 62, 15, 125, 211, 60, 111, 254, 78, 189, 49, 86, 146, 61, 103, 145, 4, 190, 5, 227, 242, 61, 146, 228, 101, 188, 11, 102, 41, 61, 76, 10, 148, 189, 166, 17, 16, 61, 9, 5, 208, 61, 54, 189, 5, 190, 154, 196, 41, 190, 90, 210, 61, 189, 59, 77, 179, 189, 9, 148, 8, 190, 47, 218, 118, 61, 152, 47, 166, 187, 65, 77, 56, 61, 152, 94, 68, 62, 90, 131, 233, 189, 205, 163, 152, 189, 77, 119, 73, 62, 140, 23, 47, 190, 169, 67, 58, 62, 56, 245, 254, 60, 13, 138, 86, 189, 17, 220, 98, 62, 195, 187, 23, 190, 187, 192, 239, 189, 19, 50, 141, 189, 73, 9, 25, 61, 247, 89, 32, 60, 198, 232, 251, 189, 226, 136, 221, 188, 170, 98, 180, 61, 12, 17, 101, 62, 207, 151, 175, 61, 253, 178, 68, 190, 27, 179, 111, 189, 19, 24, 221, 188, 199, 120, 16, 190, 201, 46, 110, 189, 166, 58, 103, 62, 27, 70, 141, 189, 219, 16, 78, 190, 176, 202, 9, 190, 104, 181, 82, 62, 114, 76, 147, 61, 53, 154, 18, 60, 230, 179, 13, 190, 119, 69, 43, 62, 39, 171, 213, 188, 223, 87, 197, 189, 167, 69, 224, 61, 200, 41, 11, 62, 103, 98, 233, 61, 113, 140, 99, 62, 109, 13, 130, 59, 131, 122, 227, 61, 55, 67, 81, 62, 20, 252, 149, 61, 20, 156, 143, 189, 240, 68, 96, 62, 86, 109, 241, 61, 151, 0, 69, 62, 183, 193, 183, 61, 217, 48, 19, 62, 150, 123, 40, 62, 108, 118, 97, 62, 12, 129, 154, 188, 68, 171, 18, 59, 217, 226, 95, 189, 200, 49, 160, 61, 116, 124, 76, 190, 236, 123, 43, 190, 149, 195, 188, 189, 109, 233, 71, 62, 39, 175, 190, 61, 104, 50, 18, 61, 36, 63, 85, 189, 153, 59, 150, 61, 112, 183, 227, 61, 166, 129, 98, 62, 43, 126, 33, 190, 150, 233, 62, 190, 87, 97, 51, 62, 52, 226, 182, 61, 82, 198, 74, 62, 182, 101, 89, 188, 48, 88, 110, 61, 135, 80, 20, 62, 17, 220, 89, 62, 143, 121, 203, 189, 7, 126, 75, 62, 11, 71, 59, 62, 139, 137, 54, 62, 122, 108, 98, 62, 111, 200, 35, 62, 99, 156, 255, 61, 67, 127, 16, 62, 144, 25, 55, 190, 154, 215, 6, 61, 60, 141, 23, 189, 30, 178, 50, 62, 73, 88, 18, 62, 111, 228, 9, 62, 71, 178, 153, 189, 164, 112, 77, 190, 130, 59, 239, 189, 44, 225, 11, 190, 92, 66, 135, 61, 238, 188, 9, 62, 58, 194, 25, 189, 59, 35, 106, 62, 0, 117, 148, 189, 193, 212, 228, 189, 239, 140, 179, 61, 225, 76, 190, 60, 215, 69, 53, 61, 71, 242, 23, 190, 168, 161, 33, 190, 185, 112, 39, 62, 95, 70, 159, 61, 23, 167, 168, 61, 197, 186, 75, 62, 228, 84, 198, 188, 133, 149, 154, 61, 177, 105, 14, 190, 130, 173, 40, 189, 230, 184, 79, 61, 163, 102, 10, 62, 96, 116, 211, 189, 69, 150, 28, 62, 157, 82, 179, 189, 49, 181, 18, 61, 62, 223, 139, 189, 197, 196, 124, 61, 244, 209, 15, 60, 171, 112, 49, 189, 180, 176, 153, 61, 108, 13, 71, 62, 114, 131, 114, 189, 227, 190, 54, 190, 250, 73, 54, 190, 249, 65, 120, 61, 186, 24, 72, 62, 71, 138, 12, 190, 132, 224, 160, 189, 130, 102, 120, 61, 44, 227, 208, 188, 193, 121, 252, 189, 93, 94, 47, 189, 203, 79, 105, 62, 240, 255, 2, 190, 200, 156, 20, 61, 98, 251, 197, 189, 160, 83, 211, 189, 41, 98, 32, 190, 11, 233, 38, 62, 177, 23, 93, 189, 11, 110, 138, 188, 183, 15, 66, 62, 204, 91, 3, 60, 41, 142, 31, 190, 189, 146, 163, 61, 60, 245, 3, 190, 12, 148, 132, 189, 39, 211, 58, 190, 156, 184, 11, 62, 173, 51, 36, 62, 235, 13, 230, 189, 52, 192, 219, 61, 25, 194, 44, 190, 202, 46, 58, 62, 188, 197, 61, 61, 216, 99, 12, 190, 84, 152, 47, 190, 198, 39, 58, 62, 79, 67, 103, 62, 216, 191, 10, 188, 155, 52, 175, 189, 42, 42, 5, 190, 126, 139, 224, 61, 252, 178, 96, 62, 239, 160, 167, 189, 124, 160, 2, 62, 224, 10, 180, 187, 125, 29, 6, 190, 174, 162, 64, 190, 43, 230, 40, 62, 110, 195, 250, 61, 218, 13, 224, 61, 9, 201, 84, 189, 177, 196, 202, 188, 101, 213, 92, 190, 251, 98, 37, 190, 234, 239, 174, 189, 49, 249, 6, 62, 193, 193, 15, 62, 227, 199, 149, 189, 236, 117, 31, 190, 196, 96, 33, 190, 96, 17, 48, 190, 216, 27, 192, 189, 162, 53, 255, 189, 13, 178, 74, 187, 130, 238, 107, 61, 243, 57, 200, 189, 21, 3, 129, 61, 220, 182, 157, 187, 156, 142, 239, 61, 50, 202, 104, 190, 25, 193, 237, 189, 52, 82, 133, 189, 115, 62, 95, 61, 220, 64, 90, 190, 37, 165, 108, 190, 85, 75, 38, 190, 144, 232, 114, 61, 124, 174, 54, 62, 149, 38, 124, 189, 202, 75, 88, 189, 183, 38, 241, 187, 244, 171, 50, 62, 2, 160, 100, 62, 172, 204, 38, 61, 0, 224, 79, 190, 215, 144, 15, 187, 25, 230, 80, 190, 115, 109, 121, 61, 189, 48, 42, 62, 131, 138, 8, 62, 182, 31, 96, 190, 63, 236, 207, 61, 122, 168, 29, 190, 159, 42, 80, 62, 134, 132, 122, 61, 213, 227, 252, 61, 199, 206, 193, 61, 58, 38, 33, 62, 28, 126, 108, 189, 218, 143, 154, 188, 176, 12, 29, 61, 83, 106, 223, 189, 176, 197, 131, 187, 51, 186, 161, 61, 199, 2, 39, 62, 13, 242, 87, 189, 145, 75, 25, 190, 246, 8, 26, 189, 190, 22, 197, 61, 70, 203, 75, 190, 46, 214, 183, 188, 43, 168, 18, 62, 58, 115, 75, 190, 105, 249, 57, 190, 136, 104, 63, 190, 83, 118, 55, 190, 36, 226, 27, 62, 193, 72, 26, 188, 252, 251, 36, 62, 222, 91, 193, 61, 231, 250, 9, 190, 112, 254, 191, 61, 82, 66, 74, 190, 44, 58, 209, 61, 248, 77, 9, 61, 161, 57, 165, 61, 49, 53, 87, 189, 155, 3, 125, 190, 91, 149, 179, 189, 19, 172, 89, 190, 183, 220, 32, 190, 181, 223, 95, 190, 135, 162, 63, 62, 70, 50, 65, 62, 72, 242, 173, 59, 242, 6, 44, 62, 55, 224, 247, 189, 187, 39, 17, 62, 47, 176, 58, 62, 135, 47, 124, 189, 223, 149, 185, 61, 34, 83, 150, 60, 115, 45, 119, 189, 116, 141, 133, 189, 69, 100, 247, 61, 109, 248, 32, 62, 46, 90, 46, 190, 89, 18, 198, 61, 174, 34, 65, 190, 237, 80, 195, 61, 162, 220, 139, 188, 121, 10, 19, 190, 130, 19, 172, 59, 219, 163, 63, 62, 93, 5, 47, 188, 81, 57, 54, 190, 21, 174, 95, 190, 140, 138, 23, 62, 244, 85, 137, 59, 155, 45, 55, 190, 128, 204, 7, 61, 221, 80, 150, 61, 38, 104, 164, 60, 29, 112, 241, 61, 219, 127, 60, 62, 25, 205, 8, 62, 250, 148, 223, 61, 228, 160, 105, 61, 219, 144, 32, 62, 124, 217, 204, 60, 241, 205, 189, 61, 42, 184, 216, 61, 108, 80, 71, 190, 240, 242, 104, 187, 86, 202, 163, 184, 22, 68, 5, 190, 228, 93, 156, 188, 162, 4, 12, 190, 56, 244, 67, 62, 222, 46, 66, 62, 108, 233, 11, 190, 245, 14, 125, 60, 157, 213, 66, 62, 148, 61, 209, 189, 243, 73, 106, 189, 119, 131, 10, 61, 83, 127, 30, 190, 10, 19, 189, 189, 47, 85, 35, 190, 118, 68, 223, 188, 197, 122, 33, 190, 246, 194, 129, 188, 34, 83, 38, 61, 110, 84, 69, 190, 81, 188, 73, 190, 150, 197, 210, 189, 239, 96, 206, 188, 179, 161, 226, 61, 5, 227, 166, 61, 213, 132, 198, 189, 205, 49, 62, 62, 244, 240, 190, 189, 49, 120, 9, 190, 71, 109, 46, 188, 151, 91, 49, 62, 20, 134, 148, 189, 169, 23, 40, 62, 34, 253, 19, 190, 146, 1, 206, 187, 89, 1, 249, 189, 186, 90, 49, 187, 226, 75, 204, 61, 38, 196, 23, 190, 44, 151, 164, 60, 117, 80, 21, 189, 7, 38, 191, 61, 154, 242, 85, 190, 167, 42, 136, 188, 203, 45, 177, 61, 149, 98, 54, 62, 18, 28, 8, 62, 197, 214, 38, 190, 234, 1, 195, 61, 168, 243, 87, 190, 161, 201, 1, 190, 5, 30, 112, 190, 68, 63, 164, 189, 55, 80, 58, 190, 22, 137, 96, 61, 236, 229, 15, 62, 151, 78, 233, 61, 100, 204, 91, 190, 148, 72, 165, 189, 123, 169, 174, 61, 35, 151, 64, 62, 6, 29, 83, 190, 210, 12, 69, 62, 160, 101, 12, 190, 174, 89, 10, 188, 210, 249, 51, 62, 235, 179, 242, 189, 85, 21, 142, 61, 73, 238, 71, 62, 193, 28, 229, 189, 121, 84, 133, 61, 152, 40, 163, 61, 18, 153, 162, 61, 8, 56, 85, 190, 39, 120, 238, 61, 140, 10, 7, 189, 13, 70, 204, 189, 97, 106, 220, 189, 227, 36, 250, 189, 241, 237, 58, 62, 143, 216, 6, 62, 147, 194, 3, 62, 131, 68, 217, 61, 247, 112, 67, 62, 226, 224, 6, 62, 24, 103, 171, 189, 125, 48, 169, 61, 43, 165, 142, 189, 152, 127, 176, 61, 100, 92, 12, 190, 122, 206, 216, 61, 25, 212, 71, 190, 4, 125, 165, 60, 239, 71, 124, 61, 140, 225, 100, 60, 67, 127, 77, 190, 129, 133, 6, 62, 7, 152, 182, 61, 187, 205, 204, 61, 199, 181, 157, 189, 174, 107, 175, 61, 83, 10, 196, 189, 0, 130, 10, 190, 130, 215, 228, 60, 238, 123, 197, 189, 193, 27, 251, 61, 58, 172, 27, 62, 54, 172, 213, 61, 31, 215, 53, 62, 251, 169, 49, 62, 31, 12, 16, 189, 252, 161, 236, 189, 21, 158, 86, 190, 251, 193, 210, 59, 79, 206, 63, 62, 235, 255, 162, 189, 24, 202, 80, 62, 93, 59, 228, 61, 175, 114, 148, 61, 64, 162, 33, 61, 244, 222, 28, 62, 197, 177, 234, 61, 95, 253, 50, 60, 138, 53, 81, 62, 254, 111, 61, 62, 40, 37, 80, 61, 222, 96, 209, 61, 117, 209, 206, 61, 213, 173, 92, 60, 166, 69, 162, 189, 56, 170, 39, 62, 160, 179, 138, 61, 13, 3, 50, 62, 95, 63, 144, 189, 33, 28, 242, 188, 59, 68, 53, 61, 208, 101, 33, 62, 154, 1, 214, 61, 91, 232, 22, 62, 185, 21, 242, 188, 170, 44, 43, 62, 205, 254, 87, 190, 41, 67, 219, 188, 168, 247, 85, 60, 115, 189, 31, 190, 114, 10, 201, 61, 28, 229, 82, 60, 162, 39, 2, 60, 110, 242, 44, 62, 145, 218, 49, 62, 191, 144, 231, 59, 231, 181, 4, 62, 48, 192, 88, 60, 121, 128, 3, 189, 164, 185, 72, 62, 133, 245, 236, 61, 12, 104, 143, 189, 123, 151, 33, 190, 36, 41, 38, 61, 200, 62, 170, 61, 55, 182, 71, 190, 146, 205, 138, 61, 68, 218, 45, 62, 154, 90, 170, 189, 169, 206, 90, 190, 209, 173, 198, 189, 243, 130, 40, 190, 108, 165, 206, 61, 92, 206, 36, 190, 194, 204, 49, 62, 4, 146, 251, 61, 227, 78, 72, 62, 20, 225, 10, 62, 21, 171, 65, 190, 44, 150, 232, 61, 76, 194, 178, 61, 20, 207, 245, 61, 28, 154, 75, 62, 26, 124, 78, 62, 173, 200, 21, 190, 64, 63, 205, 56, 62, 203, 76, 61, 253, 157, 147, 189, 81, 21, 5, 61, 221, 18, 23, 62, 141, 229, 240, 189, 79, 209, 146, 61, 156, 242, 99, 62, 81, 116, 201, 189, 133, 227, 9, 189, 192, 181, 15, 62, 220, 92, 90, 189, 99, 89, 221, 188, 27, 111, 176, 61, 16, 82, 120, 60, 29, 150, 131, 189, 72, 125, 77, 62, 124, 246, 34, 190, 25, 158, 31, 189, 164, 82, 30, 190, 195, 200, 95, 189, 77, 210, 199, 187, 209, 75, 84, 187, 207, 36, 149, 60, 242, 164, 255, 60, 76, 140, 52, 62, 4, 169, 56, 190, 155, 77, 48, 62, 92, 120, 91, 62, 162, 22, 156, 188, 212, 26, 136, 61, 93, 48, 134, 188, 202, 158, 31, 62, 229, 148, 40, 62, 160, 0, 251, 189, 129, 8, 82, 190, 185, 204, 58, 62, 254, 96, 47, 190, 89, 206, 56, 190, 235, 185, 148, 61, 190, 51, 21, 190, 190, 91, 251, 61, 238, 2, 73, 62, 71, 141, 39, 190, 40, 227, 238, 189, 222, 79, 210, 61, 167, 143, 55, 190, 217, 237, 58, 190, 130, 153, 75, 60, 181, 235, 102, 62, 24, 16, 154, 61, 253, 96, 19, 61, 239, 152, 91, 190, 41, 81, 255, 189, 60, 13, 16, 62, 197, 42, 91, 62, 118, 162, 131, 189, 190, 28, 205, 61, 44, 223, 218, 189, 83, 240, 51, 61, 53, 198, 199, 188, 189, 174, 234, 189, 122, 54, 32, 190, 253, 217, 58, 190, 250, 251, 28, 62, 52, 242, 48, 62, 220, 115, 63, 189, 234, 25, 132, 61, 10, 112, 32, 62, 126, 181, 49, 190, 159, 61, 95, 190, 104, 206, 62, 59, 21, 24, 77, 62, 13, 60, 15, 61, 93, 165, 49, 61, 36, 141, 44, 190, 143, 157, 83, 62, 239, 233, 96, 62, 51, 68, 221, 189, 200, 46, 9, 60, 163, 3, 43, 190, 235, 187, 44, 190, 94, 107, 163, 60, 8, 108, 15, 60, 205, 234, 26, 62, 198, 255, 52, 190, 40, 44, 142, 189, 16, 43, 113, 189, 164, 162, 172, 61, 221, 168, 2, 62, 42, 175, 186, 189, 250, 4, 110, 61, 160, 13, 192, 188, 178, 178, 16, 62, 184, 1, 188, 188, 247, 144, 84, 62, 246, 166, 132, 189, 151, 227, 108, 61, 239, 13, 255, 189, 88, 95, 142, 61, 98, 118, 39, 190, 58, 234, 67, 188, 86, 36, 106, 62, 13, 146, 160, 61, 237, 143, 182, 61, 197, 71, 138, 60, 61, 120, 199, 61, 26, 52, 231, 61, 163, 76, 8, 189, 61, 109, 64, 190, 35, 184, 42, 190, 34, 158, 28, 189, 69, 145, 156, 61, 35, 103, 76, 189, 251, 36, 18, 62, 168, 73, 105, 189, 156, 81, 123, 60, 110, 78, 156, 189, 156, 83, 127, 59, 1, 173, 67, 190, 250, 151, 74, 61, 102, 126, 95, 61, 95, 172, 78, 60, 236, 52, 101, 61, 137, 195, 18, 189, 203, 8, 23, 62, 93, 132, 121, 61, 111, 175, 35, 190, 64, 133, 3, 187, 209, 137, 5, 61, 96, 19, 52, 62, 119, 26, 78, 189, 66, 218, 168, 61, 131, 65, 82, 188, 163, 129, 71, 190, 139, 142, 55, 62, 216, 33, 92, 62, 98, 6, 112, 61, 29, 151, 167, 61, 183, 221, 207, 189, 94, 84, 72, 190, 148, 161, 26, 189, 161, 154, 66, 62, 185, 206, 4, 62, 31, 40, 250, 189, 171, 112, 222, 189, 238, 183, 92, 62, 76, 192, 26, 190, 20, 85, 106, 189, 99, 31, 6, 190, 123, 141, 40, 190, 91, 42, 5, 62, 75, 175, 244, 61, 59, 244, 146, 60, 30, 20, 235, 189, 14, 114, 171, 189, 220, 96, 117, 60, 249, 234, 179, 188, 191, 253, 216, 189, 31, 157, 78, 62, 148, 82, 40, 189, 16, 14, 21, 62, 53, 171, 14, 62, 6, 174, 47, 190, 155, 200, 219, 189, 59, 211, 191, 189, 153, 174, 88, 62, 65, 46, 58, 62, 233, 222, 164, 189, 33, 44, 240, 61, 166, 93, 186, 188, 24, 129, 224, 60, 252, 183, 60, 61, 231, 67, 4, 62, 127, 32, 124, 61, 62, 50, 210, 61, 20, 50, 33, 190, 231, 137, 42, 62, 119, 237, 32, 62, 173, 202, 36, 62, 54, 93, 245, 189, 73, 27, 52, 61, 103, 51, 213, 188, 131, 94, 50, 190, 173, 137, 87, 61, 27, 126, 221, 189, 249, 156, 206, 61, 212, 5, 1, 62, 127, 243, 72, 190, 18, 150, 68, 62, 81, 214, 217, 61, 131, 125, 64, 189, 136, 121, 12, 62, 143, 227, 221, 189, 136, 104, 130, 60, 116, 71, 6, 62, 96, 28, 27, 190, 191, 232, 58, 61, 132, 62, 4, 190, 163, 167, 46, 190, 248, 224, 96, 190, 146, 149, 0, 190, 52, 121, 159, 61, 137, 77, 13, 62, 121, 160, 33, 190, 72, 19, 83, 61, 76, 249, 25, 188, 234, 16, 10, 60, 148, 70, 7, 190, 78, 109, 220, 189, 9, 178, 66, 190, 141, 173, 150, 61, 106, 6, 94, 190, 16, 44, 33, 190, 170, 252, 54, 60, 181, 224, 37, 190, 65, 251, 61, 61, 6, 241, 6, 62, 7, 134, 52, 190, 92, 13, 108, 189, 194, 237, 128, 61, 197, 17, 156, 189, 12, 161, 154, 61, 6, 5, 143, 189, 37, 179, 156, 60, 139, 29, 231, 59, 214, 181, 178, 188, 93, 171, 19, 61, 207, 46, 46, 62, 12, 230, 86, 187, 40, 78, 104, 189, 160, 52, 193, 61, 90, 126, 214, 189, 193, 44, 54, 62, 71, 128, 219, 61, 233, 212, 3, 190, 218, 15, 55, 188, 143, 85, 99, 189, 254, 64, 33, 188, 210, 229, 134, 188, 250, 4, 187, 61, 190, 172, 3, 62, 116, 31, 198, 189, 231, 155, 246, 189, 30, 233, 96, 190, 195, 137, 208, 189, 145, 109, 28, 190, 97, 197, 71, 189, 202, 214, 88, 190, 62, 180, 152, 60, 172, 189, 61, 62, 169, 251, 200, 61, 116, 240, 91, 190, 212, 231, 121, 189, 5, 84, 8, 62, 142, 18, 40, 190, 246, 139, 167, 188, 112, 253, 220, 59, 129, 185, 98, 188, 84, 162, 30, 62, 193, 225, 62, 61, 165, 133, 88, 188, 95, 205, 229, 61, 133, 216, 134, 189, 16, 227, 77, 62, 112, 249, 248, 61, 150, 39, 187, 189, 52, 183, 235, 188, 45, 185, 247, 61, 202, 87, 249, 61, 18, 233, 42, 62, 110, 57, 37, 190, 159, 212, 39, 62, 181, 24, 231, 60, 240, 174, 204, 61, 10, 108, 183, 60, 28, 92, 153, 60, 32, 135, 38, 190, 79, 152, 224, 186, 91, 58, 148, 188, 233, 186, 26, 62, 5, 197, 137, 61, 5, 146, 14, 190, 195, 181, 202, 189, 63, 107, 147, 189, 16, 188, 229, 189, 210, 65, 133, 189, 81, 87, 16, 61, 240, 73, 178, 189, 28, 16, 20, 190, 222, 80, 10, 190, 245, 117, 11, 62, 83, 243, 12, 190, 220, 191, 70, 190, 188, 10, 171, 61, 218, 98, 23, 61, 146, 208, 148, 60, 40, 159, 162, 189, 124, 94, 74, 62, 176, 78, 58, 62, 219, 210, 154, 61, 108, 142, 7, 189, 209, 235, 197, 61, 231, 225, 141, 61, 249, 95, 134, 189, 225, 163, 8, 189, 154, 241, 77, 190, 112, 31, 35, 190, 68, 53, 142, 189, 98, 141, 42, 190, 37, 92, 69, 190, 242, 141, 98, 189, 86, 38, 251, 189, 98, 4, 9, 190, 138, 121, 61, 62, 226, 156, 221, 61, 106, 221, 94, 190, 197, 185, 66, 190, 246, 97, 130, 61, 80, 180, 179, 61, 138, 219, 73, 62, 90, 85, 181, 61, 59, 183, 182, 187, 182, 92, 39, 62, 112, 158, 0, 62, 65, 113, 52, 62, 149, 205, 30, 62, 254, 141, 73, 62, 70, 185, 211, 189, 103, 145, 1, 190, 15, 159, 111, 189, 58, 251, 65, 189, 132, 94, 1, 190, 97, 215, 200, 189, 41, 205, 208, 60, 218, 26, 33, 190, 155, 74, 16, 190, 75, 116, 5, 190, 28, 213, 11, 62, 89, 214, 247, 189, 16, 18, 34, 190, 176, 50, 86, 61, 242, 147, 242, 60, 85, 150, 72, 62, 87, 22, 9, 62, 115, 160, 69, 62, 251, 4, 72, 62, 241, 190, 24, 62, 41, 190, 165, 59, 142, 88, 24, 62, 191, 140, 77, 189, 234, 237, 207, 61, 48, 49, 78, 62, 180, 16, 9, 189, 254, 92, 2, 62, 152, 24, 244, 60, 26, 204, 43, 62, 188, 198, 68, 61, 168, 170, 230, 61, 95, 195, 15, 61, 179, 84, 34, 61, 211, 244, 74, 188, 179, 61, 32, 60, 45, 255, 49, 62, 1, 140, 19, 62, 101, 211, 11, 62, 18, 23, 62, 190, 183, 162, 40, 62, 32, 82, 11, 190, 230, 47, 16, 62, 220, 212, 8, 61, 105, 163, 163, 186, 199, 103, 235, 189, 117, 29, 1, 190, 171, 151, 179, 61, 188, 113, 107, 60, 102, 205, 153, 61, 255, 171, 177, 189, 76, 183, 32, 190, 47, 200, 54, 190, 146, 192, 68, 189, 51, 22, 65, 61, 4, 125, 39, 189, 154, 184, 78, 62, 226, 205, 166, 189, 164, 176, 13, 62, 148, 122, 19, 190, 25, 88, 212, 61, 202, 52, 26, 190, 63, 229, 84, 189, 174, 88, 14, 62, 48, 66, 10, 61, 230, 46, 47, 59, 63, 176, 193, 187, 226, 206, 51, 189, 11, 229, 100, 60, 243, 236, 32, 61, 23, 179, 36, 190, 137, 11, 81, 190, 15, 189, 88, 62, 68, 248, 57, 62, 94, 29, 88, 190, 96, 51, 109, 189, 116, 106, 211, 187, 52, 92, 149, 60, 60, 68, 100, 61, 241, 156, 141, 188, 248, 0, 54, 190, 174, 245, 22, 190, 131, 168, 15, 190, 191, 61, 51, 62, 56, 111, 20, 189, 31, 249, 254, 189, 30, 176, 61, 188, 124, 46, 40, 62, 3, 194, 136, 61, 118, 21, 250, 61, 214, 96, 48, 190, 159, 244, 55, 61, 56, 235, 183, 189, 89, 194, 208, 61, 206, 175, 166, 189, 156, 190, 103, 62, 120, 147, 203, 61, 192, 156, 2, 190, 208, 61, 176, 60, 50, 204, 145, 188, 114, 53, 11, 62, 155, 152, 127, 61, 17, 255, 110, 189, 202, 154, 5, 190, 3, 182, 65, 190, 161, 247, 75, 187, 71, 50, 244, 61, 177, 192, 19, 62, 116, 183, 137, 61, 133, 12, 60, 189, 121, 13, 9, 62, 34, 178, 4, 62, 218, 167, 80, 190, 227, 131, 56, 189, 31, 48, 245, 61, 53, 105, 67, 62, 238, 184, 245, 60, 163, 86, 59, 62, 247, 207, 131, 61, 58, 45, 7, 190, 141, 68, 90, 61, 97, 59, 43, 190, 158, 77, 0, 62, 42, 157, 24, 190, 83, 81, 61, 190, 93, 205, 22, 62, 65, 181, 74, 62, 99, 143, 107, 190, 110, 226, 158, 189, 239, 60, 231, 189, 245, 12, 251, 61, 200, 164, 88, 189, 99, 199, 120, 61, 2, 70, 195, 189, 40, 173, 1, 190, 31, 117, 56, 190, 141, 182, 24, 62, 180, 124, 191, 189, 116, 133, 87, 62, 22, 16, 228, 61, 234, 147, 51, 190, 151, 62, 44, 62, 145, 148, 2, 190, 15, 66, 68, 190, 179, 64, 87, 62, 188, 250, 74, 190, 60, 230, 75, 190, 110, 13, 23, 190, 131, 3, 169, 61, 91, 190, 37, 62, 36, 18, 78, 190, 253, 148, 208, 189, 254, 25, 44, 62, 111, 9, 0, 190, 240, 238, 140, 61, 160, 86, 142, 61, 186, 113, 50, 62, 194, 36, 160, 59, 2, 242, 77, 190, 207, 201, 63, 62, 100, 28, 194, 189, 82, 84, 17, 190, 43, 136, 227, 189, 206, 136, 76, 190, 221, 3, 167, 61, 56, 169, 242, 61, 111, 97, 58, 61, 81, 156, 201, 60, 225, 29, 148, 60, 140, 162, 154, 188, 112, 58, 214, 189, 75, 249, 81, 190, 137, 55, 84, 60, 234, 237, 117, 188, 131, 231, 35, 60, 108, 157, 60, 62, 187, 220, 225, 61, 172, 72, 86, 190, 247, 76, 54, 62, 16, 172, 244, 188, 182, 59, 222, 189, 67, 199, 19, 190, 201, 244, 152, 59, 214, 141, 157, 188, 248, 75, 238, 189, 101, 54, 43, 190, 106, 141, 157, 189, 58, 144, 136, 61, 245, 163, 167, 188, 253, 145, 74, 189, 101, 201, 22, 189, 151, 168, 55, 189, 157, 211, 63, 62, 72, 191, 0, 190, 200, 247, 5, 190, 220, 33, 81, 190, 155, 66, 1, 190, 186, 112, 50, 61, 155, 238, 74, 190, 59, 163, 177, 189, 53, 172, 95, 62, 141, 185, 71, 62, 70, 127, 254, 188, 118, 31, 37, 59, 108, 42, 237, 189, 155, 42, 187, 60, 88, 95, 6, 62, 58, 60, 36, 190, 232, 213, 179, 61, 122, 153, 171, 189, 178, 204, 2, 62, 37, 93, 39, 62, 24, 253, 80, 62, 234, 97, 57, 190, 248, 235, 20, 190, 173, 102, 91, 190, 182, 114, 30, 62, 30, 14, 41, 62, 6, 72, 65, 62, 56, 135, 90, 189, 41, 106, 194, 189, 200, 30, 136, 61, 55, 96, 0, 190, 20, 94, 228, 61, 48, 92, 54, 61, 57, 237, 82, 61, 202, 88, 97, 189, 135, 86, 62, 62, 113, 34, 246, 61, 71, 239, 31, 190, 23, 211, 154, 60, 156, 80, 221, 61, 16, 70, 53, 62, 177, 236, 75, 190, 74, 78, 151, 60, 32, 255, 60, 190, 121, 64, 222, 61, 80, 69, 17, 190, 74, 74, 41, 62, 138, 140, 24, 62, 81, 146, 1, 61, 130, 184, 63, 190, 155, 2, 55, 61, 21, 124, 128, 189, 51, 10, 50, 62, 192, 202, 81, 189, 127, 134, 73, 190, 15, 72, 71, 62, 83, 186, 53, 62, 31, 5, 13, 190, 165, 54, 77, 62, 237, 103, 84, 189, 110, 75, 199, 188, 236, 184, 93, 188, 230, 127, 37, 62, 81, 78, 65, 61, 3, 35, 14, 62, 228, 98, 176, 61, 52, 5, 15, 62, 29, 50, 136, 189, 121, 15, 133, 189, 41, 80, 172, 61, 171, 51, 66, 61, 82, 196, 129, 61, 87, 73, 66, 62, 70, 65, 49, 187, 17, 139, 86, 190, 165, 76, 144, 60, 86, 108, 58, 190, 187, 242, 27, 60, 77, 18, 192, 60, 225, 6, 66, 190, 69, 148, 244, 189, 232, 55, 35, 190, 58, 219, 92, 62, 171, 167, 110, 61, 146, 23, 26, 62, 237, 31, 70, 190, 14, 96, 42, 190, 113, 63, 169, 189, 142, 110, 25, 62, 101, 51, 222, 189, 71, 132, 180, 189, 200, 251, 46, 62, 147, 251, 23, 190, 75, 213, 253, 188, 168, 168, 68, 62, 13, 30, 191, 61, 231, 96, 81, 190, 38, 215, 30, 190, 161, 173, 175, 189, 232, 66, 57, 188, 57, 39, 102, 61, 46, 201, 157, 61, 253, 90, 79, 190, 57, 28, 75, 190, 111, 41, 1, 62, 103, 157, 187, 188, 35, 151, 92, 62, 34, 83, 252, 189, 223, 140, 76, 187, 192, 204, 97, 189, 9, 16, 123, 189, 238, 78, 40, 190, 161, 107, 183, 61, 95, 9, 237, 188, 40, 173, 57, 62, 203, 216, 87, 62, 37, 39, 179, 189, 241, 205, 189, 189, 231, 59, 51, 61, 69, 194, 63, 190, 24, 15, 58, 62, 70, 15, 203, 60, 106, 183, 93, 62, 248, 195, 251, 188, 142, 39, 31, 190, 202, 235, 174, 61, 166, 40, 74, 62, 52, 161, 150, 188, 58, 187, 77, 62, 62, 168, 172, 189, 168, 226, 103, 189, 168, 33, 35, 62, 186, 198, 29, 190, 58, 92, 223, 189, 244, 215, 86, 190, 91, 202, 16, 190, 193, 101, 42, 190, 86, 215, 90, 190, 12, 55, 20, 190, 3, 237, 61, 190, 251, 211, 215, 61, 61, 108, 72, 62, 183, 179, 8, 62, 108, 146, 137, 61, 246, 35, 75, 62, 128, 1, 193, 61, 32, 135, 187, 189, 12, 101, 107, 190, 252, 175, 44, 190, 197, 62, 117, 61, 151, 124, 4, 61, 218, 199, 202, 189, 104, 48, 33, 62, 1, 216, 41, 190, 186, 133, 247, 189, 52, 245, 178, 189, 219, 241, 167, 61, 156, 223, 135, 189, 237, 45, 239, 61, 123, 221, 176, 61, 132, 248, 52, 62, 132, 35, 199, 61, 251, 7, 59, 188, 160, 247, 252, 189, 143, 223, 105, 187, 92, 211, 111, 186, 179, 34, 157, 61, 18, 171, 10, 61, 226, 114, 239, 189, 249, 89, 50, 190, 186, 58, 220, 61, 198, 178, 95, 189, 233, 225, 28, 190, 231, 76, 77, 190, 129, 47, 46, 62, 1, 113, 64, 188, 207, 53, 169, 60, 17, 210, 175, 189, 221, 151, 133, 61, 9, 31, 231, 61, 252, 63, 46, 190, 8, 161, 205, 189, 234, 215, 79, 189, 176, 199, 68, 60, 141, 229, 226, 61, 207, 178, 192, 61, 2, 64, 222, 61, 104, 75, 28, 190, 188, 12, 211, 188, 95, 108, 0, 62, 97, 211, 35, 61, 26, 68, 138, 188, 160, 126, 23, 62, 237, 92, 235, 188, 217, 138, 100, 61, 106, 160, 31, 62, 126, 34, 63, 190, 212, 164, 35, 62, 203, 150, 212, 189, 197, 117, 53, 190, 227, 202, 76, 190, 2, 62, 159, 61, 77, 156, 250, 189, 0, 68, 136, 189, 35, 23, 178, 189, 26, 106, 117, 61, 238, 141, 30, 62, 252, 107, 42, 62, 176, 246, 202, 61, 85, 51, 33, 190, 192, 217, 86, 190, 248, 112, 40, 190, 194, 76, 39, 190, 229, 206, 65, 190, 176, 246, 7, 190, 52, 91, 103, 190, 71, 165, 112, 188, 84, 73, 201, 61, 31, 221, 46, 189, 15, 201, 71, 190, 189, 89, 246, 60, 109, 113, 92, 190, 85, 165, 216, 186, 35, 67, 19, 190, 108, 77, 78, 189, 230, 179, 32, 61, 222, 194, 59, 190, 37, 236, 34, 61, 198, 86, 24, 190, 36, 136, 219, 189, 49, 229, 39, 190, 218, 85, 218, 188, 74, 132, 34, 62, 110, 127, 44, 190, 102, 173, 72, 190, 181, 81, 182, 61, 229, 85, 166, 61, 43, 51, 89, 190, 205, 216, 153, 189, 232, 159, 209, 60, 196, 36, 6, 62, 250, 200, 17, 188, 220, 88, 90, 190, 33, 184, 47, 189, 21, 139, 18, 190, 222, 174, 227, 61, 89, 247, 52, 61, 152, 19, 75, 190, 220, 42, 253, 61, 123, 254, 20, 62, 177, 57, 229, 188, 208, 170, 237, 189, 104, 58, 69, 60, 248, 169, 5, 190, 122, 20, 77, 190, 115, 83, 64, 61, 186, 202, 246, 61, 111, 197, 45, 190, 202, 99, 145, 61, 152, 26, 91, 62, 138, 112, 47, 62, 110, 177, 78, 190, 28, 145, 100, 61, 199, 213, 3, 62, 244, 178, 44, 62, 67, 120, 225, 189, 233, 47, 87, 189, 61, 235, 25, 189, 131, 145, 28, 190, 194, 125, 47, 62, 185, 253, 74, 190, 164, 203, 6, 186, 135, 221, 48, 62, 65, 242, 150, 61, 14, 151, 255, 61, 110, 42, 106, 61, 121, 148, 69, 190, 89, 231, 25, 62, 61, 19, 3, 190, 200, 242, 6, 60, 55, 22, 127, 61, 253, 71, 10, 189, 180, 150, 0, 190, 54, 37, 51, 188, 91, 188, 46, 189, 6, 86, 203, 61, 183, 43, 73, 190, 208, 211, 3, 62, 250, 151, 93, 62, 211, 148, 126, 61, 100, 12, 159, 61, 52, 159, 159, 61, 149, 231, 155, 187, 87, 34, 11, 62, 226, 148, 43, 189, 109, 23, 176, 188, 27, 16, 71, 190, 87, 151, 190, 188, 197, 198, 57, 189, 190, 187, 93, 190, 45, 82, 115, 61, 20, 107, 93, 190, 219, 166, 220, 61, 71, 9, 252, 60, 206, 144, 246, 61, 213, 71, 0, 62, 75, 29, 167, 60, 192, 102, 19, 61, 135, 169, 181, 61, 181, 181, 172, 61, 255, 109, 179, 189, 227, 81, 28, 62, 199, 245, 17, 190, 71, 227, 184, 189, 98, 215, 67, 190, 158, 93, 40, 190, 184, 221, 48, 189, 150, 198, 140, 189, 170, 195, 44, 62, 15, 140, 38, 61, 196, 208, 111, 190, 212, 127, 11, 189, 84, 246, 242, 188, 21, 159, 45, 190, 122, 157, 188, 61, 94, 132, 98, 190, 191, 243, 67, 189, 52, 200, 230, 188, 192, 202, 61, 190, 144, 100, 127, 188, 242, 9, 234, 188, 198, 187, 229, 188, 208, 228, 78, 190, 45, 185, 106, 190, 149, 177, 62, 62, 140, 76, 22, 62, 86, 8, 24, 190, 240, 5, 194, 189, 128, 224, 47, 60, 79, 93, 20, 189, 22, 191, 73, 62, 50, 68, 59, 61, 47, 76, 18, 190, 211, 215, 5, 190, 196, 253, 142, 60, 241, 8, 250, 61, 184, 55, 48, 62, 179, 223, 132, 60, 96, 189, 179, 61, 159, 114, 218, 61, 33, 244, 97, 60, 230, 247, 160, 61, 83, 117, 132, 60, 222, 132, 232, 59, 90, 215, 53, 190, 35, 128, 55, 188, 113, 165, 129, 189, 252, 82, 241, 189, 157, 113, 65, 190, 121, 184, 70, 190, 94, 168, 4, 190, 28, 38, 22, 62, 193, 254, 189, 189, 113, 99, 70, 62, 234, 149, 65, 190, 23, 121, 54, 62, 249, 9, 200, 61, 212, 142, 73, 61, 53, 3, 14, 190, 45, 74, 1, 62, 64, 131, 170, 189, 122, 161, 55, 62, 112, 49, 73, 189, 234, 203, 76, 61, 24, 104, 53, 188, 8, 52, 48, 62, 243, 9, 152, 60, 101, 155, 185, 189, 19, 208, 91, 188, 130, 131, 75, 190, 143, 136, 46, 62, 104, 207, 224, 61, 61, 154, 187, 61, 171, 184, 23, 61, 38, 86, 251, 57, 86, 196, 58, 190, 200, 43, 226, 61, 251, 188, 67, 189, 127, 251, 87, 62, 234, 254, 50, 189, 101, 253, 226, 189, 255, 79, 211, 61, 151, 233, 42, 190, 162, 38, 16, 62, 99, 251, 24, 62, 66, 131, 44, 62, 87, 145, 14, 62, 224, 83, 59, 190, 169, 250, 39, 190, 97, 13, 204, 59, 102, 68, 162, 61, 139, 252, 82, 190, 6, 163, 60, 190, 246, 136, 133, 60, 202, 99, 119, 189, 98, 165, 9, 62, 144, 70, 23, 62, 94, 108, 17, 190, 6, 64, 11, 62, 104, 12, 21, 188, 85, 227, 184, 189, 224, 37, 148, 60, 185, 48, 33, 190, 156, 193, 77, 62, 91, 128, 137, 60, 227, 226, 198, 60, 188, 92, 225, 189, 179, 159, 76, 62, 113, 76, 187, 61, 158, 57, 33, 62, 56, 122, 129, 60, 58, 219, 69, 60, 87, 224, 240, 189, 103, 24, 57, 190, 99, 6, 89, 190, 15, 28, 5, 190, 143, 204, 5, 190, 120, 90, 8, 189, 89, 193, 156, 61, 119, 93, 51, 62, 230, 239, 130, 61, 141, 28, 73, 190, 128, 225, 149, 188, 192, 64, 208, 61, 128, 117, 18, 62, 154, 24, 76, 189, 27, 140, 232, 61, 147, 216, 9, 189, 40, 124, 253, 61, 249, 185, 33, 190, 240, 218, 50, 190, 205, 66, 134, 60, 129, 24, 101, 189, 24, 161, 69, 189, 215, 180, 65, 190, 75, 236, 163, 61, 94, 127, 79, 190, 23, 83, 100, 187, 130, 177, 232, 61, 148, 161, 164, 61, 5, 80, 131, 189, 98, 70, 184, 188, 135, 181, 223, 61, 70, 216, 249, 61, 97, 44, 44, 190, 3, 231, 36, 190, 128, 231, 43, 190, 58, 72, 252, 189, 206, 142, 79, 190, 223, 110, 34, 62, 224, 114, 53, 190, 5, 168, 221, 60, 11, 61, 67, 61, 209, 25, 216, 60, 40, 4, 50, 62, 61, 150, 39, 61, 29, 114, 243, 61, 125, 224, 58, 62, 39, 94, 35, 62, 40, 229, 247, 61, 129, 20, 232, 61, 2, 181, 17, 190, 211, 76, 1, 190, 136, 98, 33, 190, 134, 200, 147, 188, 126, 79, 140, 189, 140, 32, 57, 62, 248, 119, 25, 189, 9, 23, 78, 190, 196, 101, 17, 190, 83, 197, 218, 189, 179, 20, 235, 189, 192, 108, 134, 189, 43, 94, 201, 61, 170, 12, 152, 61, 72, 67, 184, 189, 173, 147, 83, 190, 70, 95, 69, 62, 7, 118, 172, 61, 217, 47, 169, 60, 210, 172, 84, 190, 74, 117, 23, 60, 133, 82, 238, 61, 3, 40, 208, 189, 250, 77, 167, 188, 178, 30, 35, 190, 242, 177, 185, 61, 100, 92, 252, 189, 124, 149, 31, 62, 148, 181, 67, 62, 72, 73, 24, 62, 156, 112, 34, 189, 28, 74, 85, 62, 185, 73, 212, 189, 82, 215, 15, 190, 95, 141, 32, 190, 112, 8, 111, 189, 118, 229, 86, 61, 161, 221, 188, 189, 205, 15, 65, 188, 164, 16, 115, 189, 120, 192, 191, 189, 195, 118, 201, 61, 65, 22, 219, 60, 107, 156, 30, 62, 5, 88, 211, 61, 145, 238, 29, 62, 133, 93, 188, 188, 164, 103, 15, 62, 19, 171, 126, 61, 74, 12, 85, 190, 120, 103, 240, 189, 221, 254, 72, 190, 173, 96, 29, 190, 80, 169, 179, 189, 135, 17, 79, 190, 203, 1, 183, 61, 67, 196, 240, 61, 0, 91, 22, 190, 230, 31, 49, 190, 247, 145, 81, 188, 68, 61, 41, 62, 207, 84, 27, 62, 192, 111, 62, 62, 4, 204, 6, 190, 242, 255, 7, 62, 102, 148, 135, 189, 235, 76, 188, 60, 39, 67, 93, 190, 79, 62, 30, 190, 22, 207, 102, 190, 24, 152, 4, 62, 194, 252, 44, 190, 68, 16, 248, 189, 181, 254, 16, 190, 73, 204, 15, 190, 37, 198, 156, 188, 149, 126, 29, 189, 187, 63, 79, 190, 207, 145, 78, 60, 89, 9, 5, 62, 193, 51, 238, 61, 174, 48, 97, 60, 143, 195, 90, 190, 255, 238, 179, 189, 63, 247, 27, 61, 165, 204, 46, 62, 196, 190, 105, 61, 225, 228, 66, 190, 84, 132, 150, 61, 20, 217, 92, 190, 214, 89, 9, 189, 129, 198, 253, 59, 121, 78, 142, 61, 232, 250, 197, 60, 2, 177, 236, 189, 143, 134, 20, 190, 122, 177, 139, 189, 55, 28, 35, 190, 121, 64, 225, 60, 144, 9, 166, 61, 221, 158, 106, 61, 10, 40, 207, 61, 167, 72, 30, 189, 244, 158, 6, 62, 78, 30, 156, 61, 80, 35, 164, 188, 208, 186, 189, 189, 228, 103, 56, 190, 15, 9, 168, 186, 78, 177, 194, 61, 231, 86, 234, 61, 121, 106, 110, 189, 73, 47, 7, 62, 21, 12, 20, 190, 152, 133, 13, 61, 94, 169, 82, 190, 234, 97, 188, 189, 206, 227, 223, 61, 241, 191, 117, 61, 126, 152, 151, 188, 50, 159, 76, 190, 236, 219, 93, 190, 22, 12, 11, 190, 23, 108, 51, 190, 223, 145, 132, 61, 57, 56, 27, 190, 221, 23, 58, 190, 142, 108, 68, 62, 133, 166, 141, 189, 120, 133, 190, 61, 104, 121, 96, 190, 188, 182, 204, 61, 25, 192, 39, 190, 182, 230, 77, 190, 162, 134, 19, 190, 56, 2, 157, 189, 70, 226, 248, 189, 218, 113, 162, 189, 87, 15, 180, 61, 138, 107, 57, 190, 184, 38, 7, 190, 71, 125, 171, 61, 107, 101, 184, 61, 148, 46, 192, 61, 136, 208, 205, 189, 232, 152, 41, 190, 238, 83, 132, 60, 106, 89, 100, 190, 155, 64, 180, 59, 243, 130, 48, 62, 130, 67, 5, 189, 174, 80, 47, 190, 53, 2, 58, 190, 128, 144, 59, 62, 170, 186, 74, 190, 239, 150, 197, 189, 55, 194, 189, 189, 247, 48, 67, 190, 231, 89, 53, 62, 10, 129, 72, 61, 253, 127, 2, 190, 219, 195, 21, 190, 246, 101, 145, 189, 46, 218, 182, 61, 163, 249, 35, 185, 247, 153, 140, 189, 189, 196, 120, 59, 168, 179, 181, 189, 196, 231, 108, 189, 197, 52, 71, 190, 64, 182, 148, 188, 54, 185, 54, 62, 251, 41, 89, 188, 96, 142, 182, 61, 75, 143, 142, 187, 33, 239, 30, 190, 100, 107, 214, 189, 117, 74, 239, 188, 9, 219, 52, 62, 129, 166, 175, 188, 173, 179, 40, 62, 8, 255, 159, 61, 244, 170, 60, 62, 212, 89, 184, 189, 171, 128, 15, 62, 23, 22, 3, 188, 93, 3, 60, 62, 229, 19, 220, 189, 10, 43, 96, 189, 153, 29, 206, 60, 105, 42, 160, 188, 44, 239, 202, 61, 122, 129, 57, 190, 27, 64, 1, 62, 255, 205, 62, 190, 190, 213, 71, 62, 124, 145, 155, 61, 95, 156, 52, 190, 46, 71, 192, 61, 46, 91, 200, 189, 201, 105, 63, 62, 149, 71, 97, 190, 109, 76, 40, 62, 224, 169, 54, 190, 22, 3, 204, 189, 195, 249, 225, 189, 230, 202, 253, 189, 73, 132, 176, 61, 139, 137, 34, 62, 55, 204, 39, 62, 79, 56, 38, 190, 133, 8, 83, 61, 167, 178, 15, 190, 223, 95, 71, 62, 187, 143, 6, 62, 251, 84, 211, 61, 81, 152, 25, 61, 107, 224, 78, 62, 27, 88, 251, 189, 67, 40, 130, 189, 159, 182, 115, 61, 56, 190, 153, 188, 201, 61, 31, 190, 195, 123, 197, 188, 93, 55, 22, 190, 218, 153, 216, 61, 164, 102, 77, 62, 44, 11, 144, 61, 221, 172, 9, 62, 142, 233, 157, 189, 182, 85, 44, 62, 37, 176, 251, 61, 1, 118, 16, 62, 95, 34, 73, 190, 227, 163, 161, 60, 73, 174, 18, 188, 246, 107, 206, 61, 87, 232, 166, 61, 55, 148, 245, 189, 49, 105, 231, 189, 13, 39, 160, 61, 32, 34, 38, 190, 92, 94, 134, 61, 148, 38, 237, 189, 151, 240, 192, 188, 167, 158, 109, 62, 49, 25, 10, 189, 240, 94, 38, 186, 184, 112, 82, 189, 210, 125, 59, 190, 69, 167, 252, 60, 107, 245, 219, 61, 29, 44, 80, 61, 149, 14, 62, 188, 59, 197, 174, 61, 158, 191, 53, 62, 129, 23, 66, 190, 110, 0, 146, 61, 234, 80, 58, 190, 205, 17, 83, 190, 45, 124, 193, 60, 15, 57, 45, 190, 131, 155, 38, 61, 250, 25, 229, 189, 99, 11, 87, 62, 84, 94, 155, 188, 120, 99, 74, 190, 38, 185, 45, 190, 173, 64, 134, 60, 59, 31, 35, 190, 165, 14, 0, 190, 133, 122, 83, 190, 110, 51, 206, 189, 135, 135, 195, 60, 68, 145, 246, 188, 171, 147, 221, 187, 38, 81, 106, 61, 3, 86, 38, 62, 111, 217, 12, 190, 114, 151, 213, 187, 205, 232, 54, 62, 166, 27, 67, 62, 186, 62, 163, 189, 94, 248, 65, 62, 116, 182, 226, 61, 247, 12, 9, 190, 134, 199, 24, 62, 146, 6, 40, 61, 45, 179, 41, 190, 46, 197, 57, 62, 36, 44, 160, 189, 118, 111, 162, 188, 166, 218, 62, 62, 192, 53, 255, 189, 245, 220, 205, 189, 177, 222, 6, 190, 245, 221, 149, 189, 25, 49, 68, 190, 39, 143, 25, 188, 175, 79, 10, 190, 237, 49, 4, 189, 49, 144, 78, 190, 255, 181, 33, 190, 106, 251, 47, 190, 32, 148, 53, 62, 139, 114, 178, 189, 151, 55, 120, 62, 216, 57, 178, 61, 193, 59, 134, 189, 19, 86, 29, 190, 51, 214, 69, 62, 202, 198, 143, 61, 23, 152, 32, 190, 114, 180, 191, 189, 249, 177, 7, 190, 168, 159, 11, 190, 210, 54, 190, 189, 87, 15, 97, 61, 178, 236, 158, 61, 205, 66, 71, 190, 219, 232, 222, 187, 1, 195, 70, 190, 202, 62, 94, 61, 198, 221, 41, 190, 142, 203, 101, 62, 166, 182, 143, 189, 15, 249, 83, 190, 26, 226, 23, 62, 154, 210, 252, 61, 138, 39, 135, 189, 59, 148, 143, 187, 62, 59, 10, 61, 43, 234, 179, 189, 241, 191, 21, 62, 88, 34, 54, 190, 8, 96, 115, 61, 167, 38, 53, 62, 153, 153, 178, 61, 111, 24, 221, 61, 241, 67, 240, 189, 172, 36, 65, 190, 69, 163, 129, 189, 55, 237, 51, 189, 172, 120, 29, 190, 41, 52, 45, 190, 166, 35, 67, 62, 45, 52, 108, 190, 173, 195, 194, 189, 170, 74, 70, 62, 188, 118, 244, 189, 21, 101, 48, 190, 241, 98, 151, 61, 116, 3, 171, 61, 212, 243, 225, 61, 179, 166, 106, 61, 109, 59, 132, 189, 112, 121, 62, 62, 101, 73, 147, 61, 252, 30, 93, 190, 15, 57, 111, 61, 127, 211, 135, 61, 21, 134, 14, 190, 17, 98, 12, 190, 3, 198, 159, 61, 72, 220, 69, 62, 225, 221, 226, 60, 30, 33, 252, 60, 10, 98, 50, 190, 58, 70, 140, 188, 29, 132, 45, 62, 100, 214, 130, 189, 99, 155, 0, 190, 152, 134, 88, 190, 206, 5, 209, 61, 167, 66, 10, 190, 157, 239, 128, 189, 250, 150, 78, 61, 252, 134, 109, 58, 99, 250, 218, 189, 182, 78, 162, 189, 89, 63, 27, 61, 22, 36, 249, 61, 223, 141, 30, 61, 226, 252, 54, 62, 61, 89, 124, 189, 217, 176, 94, 190, 65, 12, 228, 189, 65, 179, 29, 190, 117, 90, 25, 61, 45, 155, 97, 190, 225, 206, 245, 61, 152, 204, 177, 60, 35, 162, 76, 62, 63, 103, 136, 189, 142, 162, 74, 188, 88, 120, 27, 62, 250, 61, 19, 190, 61, 24, 2, 62, 3, 231, 72, 62, 218, 172, 185, 189, 46, 168, 21, 190, 129, 52, 3, 62, 153, 116, 99, 190, 65, 200, 102, 190, 23, 163, 51, 60, 173, 0, 60, 190, 27, 199, 172, 189, 82, 49, 92, 58, 183, 215, 56, 59, 59, 215, 233, 189, 88, 7, 192, 189, 93, 81, 170, 61, 179, 108, 43, 62, 255, 150, 22, 190, 136, 152, 166, 189, 241, 222, 207, 61, 30, 173, 254, 61, 197, 118, 193, 61, 5, 216, 44, 62, 124, 21, 59, 190, 252, 217, 193, 60, 108, 240, 213, 60, 14, 221, 207, 189, 230, 99, 40, 190, 24, 109, 196, 189, 219, 246, 108, 60, 238, 2, 59, 62, 219, 12, 26, 188, 79, 126, 56, 189, 0, 0, 6, 0, 8, 0, 4, 0, 6, 0, 0, 0, 4, 0, 0, 0, 128, 0, 0, 0, 139, 152, 168, 59, 110, 80, 94, 60, 211, 18, 95, 60, 226, 6, 249, 187, 195, 19, 128, 188, 118, 128, 84, 60, 87, 139, 128, 188, 89, 155, 50, 60, 186, 237, 134, 188, 235, 198, 57, 188, 234, 136, 92, 60, 102, 133, 192, 59, 17, 76, 95, 60, 134, 206, 76, 60, 171, 250, 225, 58, 115, 108, 156, 188, 236, 10, 123, 188, 253, 28, 162, 60, 74, 102, 136, 60, 210, 191, 122, 188, 146, 84, 65, 188, 85, 50, 33, 60, 242, 169, 27, 60, 48, 182, 90, 60, 124, 174, 154, 188, 25, 187, 189, 187, 93, 125, 115, 188, 157, 39, 18, 188, 180, 149, 144, 188, 58, 65, 113, 188, 184, 205, 53, 187, 232, 82, 119, 188, 188, 253, 255, 255, 192, 253, 255, 255, 15, 0, 0, 0, 77, 76, 73, 82, 32, 67, 111, 110, 118, 101, 114, 116, 101, 100, 46, 0, 1, 0, 0, 0, 20, 0, 0, 0, 0, 0, 14, 0, 24, 0, 20, 0, 16, 0, 12, 0, 8, 0, 4, 0, 14, 0, 0, 0, 20, 0, 0, 0, 28, 0, 0, 0, 124, 0, 0, 0, 128, 0, 0, 0, 132, 0, 0, 0, 4, 0, 0, 0, 109, 97, 105, 110, 0, 0, 0, 0, 1, 0, 0, 0, 20, 0, 0, 0, 0, 0, 14, 0, 20, 0, 0, 0, 16, 0, 12, 0, 11, 0, 4, 0, 14, 0, 0, 0, 28, 0, 0, 0, 0, 0, 0, 1, 40, 0, 0, 0, 44, 0, 0, 0, 12, 0, 20, 0, 19, 0, 12, 0, 8, 0, 7, 0, 12, 0, 0, 0, 0, 0, 0, 1, 1, 0, 0, 0, 1, 0, 0, 0, 0, 0, 0, 1, 1, 0, 0, 0, 3, 0, 0, 0, 3, 0, 0, 0, 0, 0, 0, 0, 2, 0, 0, 0, 1, 0, 0, 0, 1, 0, 0, 0, 3, 0, 0, 0, 1, 0, 0, 0, 0, 0, 0, 0, 4, 0, 0, 0, 68, 1, 0, 0, 216, 0, 0, 0, 112, 0, 0, 0, 4, 0, 0, 0, 226, 254, 255, 255, 0, 0, 0, 1, 20, 0, 0, 0, 36, 0, 0, 0, 36, 0, 0, 0, 4, 0, 0, 0, 60, 0, 0, 0, 4, 0, 0, 0, 255, 255, 255, 255, 12, 0, 0, 0, 12, 0, 0, 0, 32, 0, 0, 0, 204, 254, 255, 255, 25, 0, 0, 0, 83, 116, 97, 116, 101, 102, 117, 108, 80, 97, 114, 116, 105, 116, 105, 111, 110, 101, 100, 67, 97, 108, 108, 58, 48, 0, 0, 0, 4, 0, 0, 0, 1, 0, 0, 0, 12, 0, 0, 0, 12, 0, 0, 0, 32, 0, 0, 0, 178, 255, 255, 255, 0, 0, 0, 1, 16, 0, 0, 0, 16, 0, 0, 0, 3, 0, 0, 0, 36, 0, 0, 0, 28, 255, 255, 255, 20, 0, 0, 0, 109, 111, 100, 101, 108, 95, 53, 54, 47, 104, 101, 97, 100, 47, 67, 111, 110, 118, 50, 68, 0, 0, 0, 0, 4, 0, 0, 0, 32, 0, 0, 0, 1, 0, 0, 0, 1, 0, 0, 0, 96, 0, 0, 0, 0, 0, 22, 0, 24, 0, 20, 0, 0, 0, 16, 0, 12, 0, 8, 0, 0, 0, 0, 0, 0, 0, 7, 0, 22, 0, 0, 0, 0, 0, 0, 1, 16, 0, 0, 0, 16, 0, 0, 0, 2, 0, 0, 0, 52, 0, 0, 0, 128, 255, 255, 255, 36, 0, 0, 0, 109, 111, 100, 101, 108, 95, 53, 54, 47, 104, 101, 97, 100, 47, 66, 105, 97, 115, 65, 100, 100, 47, 82, 101, 97, 100, 86, 97, 114, 105, 97, 98, 108, 101, 79, 112, 0, 0, 0, 0, 1, 0, 0, 0, 32, 0, 0, 0, 0, 0, 22, 0, 28, 0, 24, 0, 0, 0, 20, 0, 16, 0, 12, 0, 0, 0, 0, 0, 8, 0, 7, 0, 22, 0, 0, 0, 0, 0, 0, 1, 20, 0, 0, 0, 40, 0, 0, 0, 40, 0, 0, 0, 1, 0, 0, 0, 64, 0, 0, 0, 4, 0, 0, 0, 255, 255, 255, 255, 12, 0, 0, 0, 12, 0, 0, 0, 96, 0, 0, 0, 4, 0, 4, 0, 4, 0, 0, 0, 26, 0, 0, 0, 115, 101, 114, 118, 105, 110, 103, 95, 100, 101, 102, 97, 117, 108, 116, 95, 105, 110, 112, 117, 116, 95, 54, 48, 58, 48, 0, 0, 4, 0, 0, 0, 1, 0, 0, 0, 12, 0, 0, 0, 12, 0, 0, 0, 96, 0, 0, 0, 1, 0, 0, 0, 16, 0, 0, 0, 12, 0, 12, 0, 11, 0, 0, 0, 0, 0, 4, 0, 12, 0, 0, 0, 3, 0, 0, 0, 0, 0, 0, 3
};
