#pragma once

#include <cstdint>

const uint8_t layer_23[] = {
28, 0, 0, 0, 84, 70, 76, 51, 20, 0, 32, 0, 28, 0, 24, 0, 20, 0, 16, 0, 12, 0, 0, 0, 8, 0, 4, 0, 20, 0, 0, 0, 28, 0, 0, 0, 152, 0, 0, 0, 240, 0, 0, 0, 212, 7, 0, 0, 228, 7, 0, 0, 64, 10, 0, 0, 3, 0, 0, 0, 1, 0, 0, 0, 16, 0, 0, 0, 0, 0, 10, 0, 16, 0, 12, 0, 8, 0, 4, 0, 10, 0, 0, 0, 12, 0, 0, 0, 28, 0, 0, 0, 64, 0, 0, 0, 15, 0, 0, 0, 115, 101, 114, 118, 105, 110, 103, 95, 100, 101, 102, 97, 117, 108, 116, 0, 1, 0, 0, 0, 4, 0, 0, 0, 144, 255, 255, 255, 3, 0, 0, 0, 4, 0, 0, 0, 15, 0, 0, 0, 98, 108, 111, 99, 107, 95, 50, 95, 112, 114, 111, 106, 101, 99, 116, 0, 1, 0, 0, 0, 4, 0, 0, 0, 222, 248, 255, 255, 4, 0, 0, 0, 8, 0, 0, 0, 105, 110, 112, 117, 116, 95, 50, 52, 0, 0, 0, 0, 2, 0, 0, 0, 52, 0, 0, 0, 4, 0, 0, 0, 220, 255, 255, 255, 6, 0, 0, 0, 4, 0, 0, 0, 19, 0, 0, 0, 67, 79, 78, 86, 69, 82, 83, 73, 79, 78, 95, 77, 69, 84, 65, 68, 65, 84, 65, 0, 8, 0, 12, 0, 8, 0, 4, 0, 8, 0, 0, 0, 5, 0, 0, 0, 4, 0, 0, 0, 19, 0, 0, 0, 109, 105, 110, 95, 114, 117, 110, 116, 105, 109, 101, 95, 118, 101, 114, 115, 105, 111, 110, 0, 7, 0, 0, 0, 224, 6, 0, 0, 216, 6, 0, 0, 168, 6, 0, 0, 144, 0, 0, 0, 136, 0, 0, 0, 104, 0, 0, 0, 4, 0, 0, 0, 114, 249, 255, 255, 4, 0, 0, 0, 84, 0, 0, 0, 12, 0, 0, 0, 8, 0, 14, 0, 8, 0, 4, 0, 8, 0, 0, 0, 16, 0, 0, 0, 36, 0, 0, 0, 0, 0, 6, 0, 8, 0, 4, 0, 6, 0, 0, 0, 4, 0, 0, 0, 0, 0, 0, 0, 0, 0, 10, 0, 16, 0, 12, 0, 8, 0, 4, 0, 10, 0, 0, 0, 2, 0, 0, 0, 2, 0, 0, 0, 4, 0, 0, 0, 6, 0, 0, 0, 50, 46, 49, 53, 46, 48, 0, 0, 210, 249, 255, 255, 4, 0, 0, 0, 16, 0, 0, 0, 49, 46, 53, 46, 48, 0, 0, 0, 0, 0, 0, 0, 0, 0, 0, 0, 124, 247, 255, 255, 242, 249, 255, 255, 4, 0, 0, 0, 0, 6, 0, 0, 143, 88, 69, 190, 147, 77, 37, 189, 221, 146, 199, 189, 84, 16, 62, 61, 191, 181, 7, 60, 146, 250, 123, 189, 144, 44, 84, 59, 147, 246, 24, 60, 248, 135, 194, 190, 147, 254, 216, 62, 22, 221, 11, 190, 8, 77, 200, 62, 51, 136, 198, 62, 49, 44, 43, 60, 53, 95, 108, 62, 4, 39, 86, 189, 77, 118, 156, 188, 98, 123, 253, 189, 21, 134, 212, 60, 18, 172, 57, 188, 194, 41, 32, 189, 213, 97, 16, 189, 128, 198, 147, 189, 35, 99, 2, 190, 117, 143, 116, 61, 150, 1, 162, 190, 65, 24, 148, 60, 209, 95, 74, 62, 143, 82, 76, 189, 82, 21, 22, 61, 12, 89, 59, 61, 137, 112, 0, 190, 1, 127, 176, 187, 154, 108, 138, 190, 251, 25, 179, 62, 179, 9, 170, 61, 164, 52, 188, 188, 188, 143, 148, 59, 196, 87, 41, 189, 72, 60, 140, 189, 125, 169, 203, 62, 165, 98, 208, 188, 142, 125, 31, 62, 138, 106, 198, 189, 84, 28, 230, 189, 22, 96, 138, 61, 18, 254, 104, 189, 70, 206, 89, 189, 108, 208, 218, 188, 55, 136, 54, 62, 17, 156, 39, 63, 45, 112, 13, 61, 146, 53, 142, 188, 20, 32, 16, 190, 252, 102, 234, 60, 155, 218, 205, 190, 223, 44, 10, 62, 182, 254, 137, 60, 95, 168, 218, 61, 17, 146, 56, 61, 150, 168, 192, 189, 106, 124, 252, 60, 245, 205, 61, 189, 77, 167, 23, 191, 153, 21, 63, 61, 70, 227, 150, 190, 223, 111, 65, 61, 142, 247, 102, 59, 162, 206, 28, 190, 31, 129, 16, 62, 16, 161, 222, 61, 249, 144, 71, 190, 240, 131, 192, 189, 71, 44, 36, 189, 39, 93, 131, 61, 102, 78, 14, 188, 82, 160, 92, 61, 249, 92, 168, 187, 170, 218, 87, 61, 127, 32, 193, 188, 238, 16, 188, 188, 138, 239, 88, 61, 230, 46, 183, 61, 25, 78, 65, 61, 252, 156, 165, 189, 137, 90, 41, 190, 146, 10, 156, 62, 139, 46, 154, 190, 7, 71, 145, 61, 219, 251, 54, 62, 68, 79, 70, 189, 30, 103, 240, 61, 69, 255, 172, 189, 130, 160, 190, 60, 178, 21, 11, 62, 31, 232, 213, 188, 200, 253, 78, 61, 242, 66, 175, 190, 217, 9, 218, 61, 245, 107, 156, 190, 70, 72, 95, 62, 76, 235, 82, 62, 94, 44, 57, 189, 139, 163, 95, 190, 64, 3, 43, 61, 244, 174, 150, 188, 154, 214, 54, 188, 8, 232, 172, 61, 180, 26, 143, 189, 64, 179, 210, 62, 109, 8, 85, 61, 162, 224, 165, 188, 93, 205, 127, 190, 210, 91, 102, 63, 145, 116, 50, 190, 35, 106, 93, 190, 17, 12, 189, 189, 43, 73, 54, 62, 21, 172, 138, 190, 228, 79, 100, 189, 99, 66, 88, 63, 154, 212, 181, 59, 247, 118, 97, 188, 86, 99, 3, 189, 119, 1, 69, 190, 114, 111, 95, 189, 89, 50, 225, 60, 89, 38, 133, 190, 241, 249, 75, 189, 230, 175, 168, 189, 56, 124, 200, 187, 65, 229, 165, 61, 202, 180, 80, 189, 244, 24, 199, 188, 127, 170, 166, 189, 158, 8, 45, 61, 54, 174, 206, 61, 180, 120, 251, 189, 212, 95, 253, 189, 110, 65, 20, 60, 232, 65, 212, 60, 193, 151, 57, 62, 180, 186, 51, 190, 43, 93, 132, 190, 62, 231, 143, 188, 198, 238, 16, 191, 242, 17, 26, 188, 91, 145, 137, 61, 199, 253, 233, 60, 130, 100, 79, 189, 94, 11, 105, 189, 83, 103, 131, 60, 10, 83, 115, 189, 79, 51, 122, 189, 90, 3, 197, 61, 150, 53, 28, 62, 252, 80, 170, 61, 16, 234, 148, 189, 135, 89, 160, 62, 33, 36, 162, 60, 14, 186, 139, 189, 123, 174, 35, 190, 55, 20, 139, 60, 188, 203, 251, 61, 242, 97, 113, 189, 41, 16, 228, 61, 67, 208, 30, 190, 122, 200, 157, 59, 129, 76, 245, 60, 251, 209, 174, 62, 243, 111, 177, 185, 235, 219, 182, 60, 92, 137, 92, 189, 88, 170, 66, 61, 235, 5, 80, 63, 94, 60, 137, 188, 19, 151, 192, 61, 253, 192, 223, 60, 241, 67, 158, 187, 102, 208, 141, 188, 132, 45, 32, 190, 231, 60, 150, 189, 139, 61, 131, 189, 41, 88, 140, 61, 125, 205, 65, 189, 60, 157, 24, 61, 215, 162, 135, 189, 137, 49, 42, 62, 81, 51, 139, 189, 105, 129, 249, 186, 63, 150, 128, 188, 88, 120, 86, 62, 72, 202, 254, 190, 108, 169, 159, 60, 243, 211, 160, 188, 35, 79, 158, 187, 192, 43, 225, 186, 69, 13, 73, 190, 75, 184, 136, 188, 240, 21, 17, 61, 65, 5, 85, 62, 33, 191, 78, 190, 2, 51, 192, 61, 11, 185, 208, 189, 232, 45, 49, 190, 103, 234, 218, 59, 235, 45, 143, 189, 135, 250, 86, 189, 162, 158, 3, 60, 67, 206, 130, 60, 93, 102, 142, 188, 161, 150, 238, 61, 140, 233, 70, 61, 114, 132, 9, 190, 40, 46, 94, 61, 88, 125, 171, 60, 78, 38, 221, 188, 178, 131, 123, 62, 119, 17, 68, 61, 118, 88, 11, 63, 19, 182, 111, 187, 155, 17, 138, 187, 229, 69, 59, 189, 156, 178, 38, 190, 179, 44, 122, 60, 144, 65, 36, 191, 209, 70, 34, 190, 138, 101, 151, 61, 116, 87, 171, 60, 167, 240, 197, 188, 106, 149, 17, 187, 98, 206, 110, 188, 146, 158, 133, 190, 121, 70, 171, 188, 237, 106, 140, 189, 65, 150, 175, 61, 178, 16, 146, 190, 36, 126, 59, 60, 168, 40, 194, 60, 246, 126, 23, 61, 132, 208, 163, 189, 104, 17, 229, 61, 54, 120, 155, 61, 229, 233, 121, 60, 105, 255, 89, 190, 149, 222, 110, 61, 36, 121, 136, 59, 36, 61, 74, 62, 177, 131, 217, 61, 212, 72, 243, 59, 68, 230, 128, 61, 234, 255, 70, 60, 201, 188, 8, 189, 88, 82, 56, 190, 142, 172, 218, 60, 210, 239, 19, 62, 68, 230, 17, 188, 49, 21, 182, 190, 54, 174, 159, 61, 210, 155, 0, 61, 38, 80, 67, 62, 167, 192, 30, 190, 230, 135, 129, 60, 84, 128, 52, 62, 20, 131, 61, 61, 26, 82, 198, 60, 108, 103, 178, 190, 228, 243, 44, 190, 209, 94, 55, 190, 57, 192, 247, 189, 72, 65, 152, 61, 251, 182, 194, 59, 72, 56, 83, 187, 36, 208, 142, 190, 103, 126, 150, 186, 40, 72, 129, 190, 190, 179, 140, 62, 247, 66, 66, 61, 215, 247, 67, 190, 86, 63, 40, 61, 139, 132, 183, 61, 40, 167, 48, 190, 59, 6, 53, 60, 153, 226, 218, 60, 133, 243, 16, 63, 172, 247, 78, 189, 67, 112, 60, 190, 235, 14, 27, 188, 208, 236, 220, 189, 2, 148, 239, 189, 218, 127, 177, 189, 151, 90, 59, 189, 233, 37, 36, 62, 147, 223, 252, 189, 184, 176, 24, 187, 246, 82, 12, 190, 237, 239, 18, 189, 185, 188, 71, 189, 212, 160, 23, 62, 154, 226, 214, 189, 239, 9, 67, 189, 111, 149, 65, 62, 250, 223, 244, 184, 19, 179, 143, 190, 100, 76, 192, 56, 2, 242, 149, 60, 56, 89, 163, 188, 6, 219, 190, 189, 21, 239, 15, 190, 70, 100, 111, 62, 1, 50, 204, 188, 1, 29, 174, 190, 23, 123, 101, 60, 50, 168, 84, 189, 0, 147, 133, 190, 101, 227, 145, 190, 246, 27, 228, 61, 36, 158, 64, 62, 101, 249, 141, 189, 241, 126, 225, 59, 27, 206, 89, 60, 227, 79, 131, 190, 175, 154, 168, 189, 83, 9, 151, 62, 119, 190, 145, 190, 219, 250, 128, 190, 128, 214, 63, 61, 238, 229, 142, 190, 235, 129, 151, 189, 227, 179, 148, 61, 159, 123, 172, 61, 154, 149, 66, 62, 52, 43, 20, 63, 47, 200, 237, 189, 29, 238, 59, 62, 129, 180, 121, 61, 126, 0, 76, 61, 89, 81, 76, 62, 115, 66, 201, 190, 107, 137, 32, 62, 209, 120, 242, 189, 233, 175, 137, 61, 130, 242, 38, 61, 251, 214, 177, 62, 48, 247, 2, 189, 183, 92, 133, 187, 14, 67, 173, 62, 249, 29, 42, 190, 108, 84, 81, 61, 169, 188, 64, 190, 208, 54, 105, 189, 26, 169, 82, 58, 210, 105, 238, 189, 19, 199, 60, 191, 213, 47, 89, 62, 225, 195, 130, 190, 67, 182, 161, 62, 197, 115, 77, 62, 40, 202, 198, 61, 12, 133, 173, 190, 147, 154, 193, 61, 114, 109, 239, 189, 185, 226, 243, 61, 65, 165, 32, 188, 184, 242, 194, 189, 201, 200, 45, 62, 161, 167, 161, 189, 252, 189, 223, 59, 149, 100, 246, 60, 229, 6, 51, 62, 61, 190, 136, 188, 114, 231, 38, 190, 108, 140, 162, 189, 103, 91, 144, 190, 174, 91, 103, 190, 206, 249, 181, 190, 214, 60, 130, 189, 102, 35, 46, 190, 88, 183, 91, 62, 163, 76, 166, 62, 192, 59, 60, 190, 164, 68, 238, 189, 114, 65, 241, 188, 106, 103, 179, 186, 0, 0, 6, 0, 8, 0, 4, 0, 6, 0, 0, 0, 4, 0, 0, 0, 32, 0, 0, 0, 0, 0, 0, 0, 0, 0, 0, 0, 0, 0, 0, 0, 0, 0, 0, 0, 0, 0, 0, 0, 0, 0, 0, 0, 0, 0, 0, 0, 0, 0, 0, 0, 192, 253, 255, 255, 196, 253, 255, 255, 15, 0, 0, 0, 77, 76, 73, 82, 32, 67, 111, 110, 118, 101, 114, 116, 101, 100, 46, 0, 1, 0, 0, 0, 20, 0, 0, 0, 0, 0, 14, 0, 24, 0, 20, 0, 16, 0, 12, 0, 8, 0, 4, 0, 14, 0, 0, 0, 20, 0, 0, 0, 28, 0, 0, 0, 116, 0, 0, 0, 120, 0, 0, 0, 124, 0, 0, 0, 4, 0, 0, 0, 109, 97, 105, 110, 0, 0, 0, 0, 1, 0, 0, 0, 20, 0, 0, 0, 0, 0, 14, 0, 22, 0, 0, 0, 16, 0, 12, 0, 11, 0, 4, 0, 14, 0, 0, 0, 28, 0, 0, 0, 0, 0, 0, 1, 32, 0, 0, 0, 36, 0, 0, 0, 0, 0, 10, 0, 12, 0, 0, 0, 8, 0, 4, 0, 10, 0, 0, 0, 1, 0, 0, 0, 1, 0, 0, 0, 1, 0, 0, 0, 3, 0, 0, 0, 3, 0, 0, 0, 0, 0, 0, 0, 2, 0, 0, 0, 1, 0, 0, 0, 1, 0, 0, 0, 3, 0, 0, 0, 1, 0, 0, 0, 0, 0, 0, 0, 4, 0, 0, 0, 72, 1, 0, 0, 228, 0, 0, 0, 112, 0, 0, 0, 4, 0, 0, 0, 222, 254, 255, 255, 0, 0, 0, 1, 20, 0, 0, 0, 36, 0, 0, 0, 36, 0, 0, 0, 4, 0, 0, 0, 60, 0, 0, 0, 4, 0, 0, 0, 255, 255, 255, 255, 24, 0, 0, 0, 24, 0, 0, 0, 8, 0, 0, 0, 200, 254, 255, 255, 25, 0, 0, 0, 83, 116, 97, 116, 101, 102, 117, 108, 80, 97, 114, 116, 105, 116, 105, 111, 110, 101, 100, 67, 97, 108, 108, 58, 48, 0, 0, 0, 4, 0, 0, 0, 1, 0, 0, 0, 24, 0, 0, 0, 24, 0, 0, 0, 8, 0, 0, 0, 166, 255, 255, 255, 0, 0, 0, 1, 16, 0, 0, 0, 16, 0, 0, 0, 3, 0, 0, 0, 48, 0, 0, 0, 24, 255, 255, 255, 32, 0, 0, 0, 109, 111, 100, 101, 108, 95, 50, 51, 47, 98, 108, 111, 99, 107, 95, 50, 95, 112, 114, 111, 106, 101, 99, 116, 47, 67, 111, 110, 118, 50, 68, 49, 0, 0, 0, 0, 4, 0, 0, 0, 8, 0, 0, 0, 1, 0, 0, 0, 1, 0, 0, 0, 48, 0, 0, 0, 0, 0, 22, 0, 24, 0, 20, 0, 0, 0, 16, 0, 12, 0, 8, 0, 0, 0, 0, 0, 0, 0, 7, 0, 22, 0, 0, 0, 0, 0, 0, 1, 16, 0, 0, 0, 16, 0, 0, 0, 2, 0, 0, 0, 44, 0, 0, 0, 136, 255, 255, 255, 31, 0, 0, 0, 109, 111, 100, 101, 108, 95, 50, 51, 47, 98, 108, 111, 99, 107, 95, 50, 95, 112, 114, 111, 106, 101, 99, 116, 47, 67, 111, 110, 118, 50, 68, 0, 1, 0, 0, 0, 8, 0, 0, 0, 0, 0, 22, 0, 28, 0, 24, 0, 0, 0, 20, 0, 16, 0, 12, 0, 0, 0, 0, 0, 8, 0, 7, 0, 22, 0, 0, 0, 0, 0, 0, 1, 20, 0, 0, 0, 40, 0, 0, 0, 40, 0, 0, 0, 1, 0, 0, 0, 64, 0, 0, 0, 4, 0, 0, 0, 255, 255, 255, 255, 24, 0, 0, 0, 24, 0, 0, 0, 48, 0, 0, 0, 4, 0, 4, 0, 4, 0, 0, 0, 26, 0, 0, 0, 115, 101, 114, 118, 105, 110, 103, 95, 100, 101, 102, 97, 117, 108, 116, 95, 105, 110, 112, 117, 116, 95, 50, 52, 58, 48, 0, 0, 4, 0, 0, 0, 1, 0, 0, 0, 24, 0, 0, 0, 24, 0, 0, 0, 48, 0, 0, 0, 1, 0, 0, 0, 16, 0, 0, 0, 12, 0, 12, 0, 11, 0, 0, 0, 0, 0, 4, 0, 12, 0, 0, 0, 3, 0, 0, 0, 0, 0, 0, 3
};
