#pragma once

#include <cstdint>

const uint8_t layer_0[] = {
28, 0, 0, 0, 84, 70, 76, 51, 20, 0, 32, 0, 28, 0, 24, 0, 20, 0, 16, 0, 12, 0, 0, 0, 8, 0, 4, 0, 20, 0, 0, 0, 28, 0, 0, 0, 140, 0, 0, 0, 228, 0, 0, 0, 168, 8, 0, 0, 184, 8, 0, 0, 248, 10, 0, 0, 3, 0, 0, 0, 1, 0, 0, 0, 16, 0, 0, 0, 0, 0, 10, 0, 16, 0, 12, 0, 8, 0, 4, 0, 10, 0, 0, 0, 12, 0, 0, 0, 28, 0, 0, 0, 56, 0, 0, 0, 15, 0, 0, 0, 115, 101, 114, 118, 105, 110, 103, 95, 100, 101, 102, 97, 117, 108, 116, 0, 1, 0, 0, 0, 4, 0, 0, 0, 156, 255, 255, 255, 3, 0, 0, 0, 4, 0, 0, 0, 5, 0, 0, 0, 67, 111, 110, 118, 49, 0, 0, 0, 1, 0, 0, 0, 4, 0, 0, 0, 34, 248, 255, 255, 4, 0, 0, 0, 7, 0, 0, 0, 105, 110, 112, 117, 116, 95, 49, 0, 2, 0, 0, 0, 52, 0, 0, 0, 4, 0, 0, 0, 220, 255, 255, 255, 6, 0, 0, 0, 4, 0, 0, 0, 19, 0, 0, 0, 67, 79, 78, 86, 69, 82, 83, 73, 79, 78, 95, 77, 69, 84, 65, 68, 65, 84, 65, 0, 8, 0, 12, 0, 8, 0, 4, 0, 8, 0, 0, 0, 5, 0, 0, 0, 4, 0, 0, 0, 19, 0, 0, 0, 109, 105, 110, 95, 114, 117, 110, 116, 105, 109, 101, 95, 118, 101, 114, 115, 105, 111, 110, 0, 7, 0, 0, 0, 192, 7, 0, 0, 184, 7, 0, 0, 104, 7, 0, 0, 144, 0, 0, 0, 136, 0, 0, 0, 104, 0, 0, 0, 4, 0, 0, 0, 178, 248, 255, 255, 4, 0, 0, 0, 84, 0, 0, 0, 12, 0, 0, 0, 8, 0, 14, 0, 8, 0, 4, 0, 8, 0, 0, 0, 16, 0, 0, 0, 36, 0, 0, 0, 0, 0, 6, 0, 8, 0, 4, 0, 6, 0, 0, 0, 4, 0, 0, 0, 0, 0, 0, 0, 0, 0, 10, 0, 16, 0, 12, 0, 8, 0, 4, 0, 10, 0, 0, 0, 2, 0, 0, 0, 2, 0, 0, 0, 4, 0, 0, 0, 6, 0, 0, 0, 50, 46, 49, 53, 46, 48, 0, 0, 18, 249, 255, 255, 4, 0, 0, 0, 16, 0, 0, 0, 49, 46, 53, 46, 48, 0, 0, 0, 0, 0, 0, 0, 0, 0, 0, 0, 184, 246, 255, 255, 50, 249, 255, 255, 4, 0, 0, 0, 192, 6, 0, 0, 67, 109, 223, 28, 3, 67, 170, 28, 131, 205, 78, 28, 176, 38, 46, 28, 177, 78, 183, 27, 181, 194, 177, 26, 89, 239, 4, 28, 78, 4, 254, 27, 48, 87, 164, 27, 231, 21, 177, 28, 238, 194, 93, 28, 88, 243, 255, 27, 215, 56, 60, 28, 240, 129, 246, 27, 224, 36, 216, 26, 225, 206, 61, 28, 9, 57, 37, 28, 131, 221, 30, 28, 193, 234, 142, 28, 128, 114, 38, 26, 54, 31, 159, 155, 106, 168, 217, 27, 125, 13, 188, 155, 205, 247, 80, 156, 208, 236, 32, 28, 40, 44, 100, 27, 176, 119, 213, 26, 108, 12, 40, 62, 7, 187, 247, 188, 226, 37, 213, 61, 37, 158, 22, 189, 33, 198, 213, 189, 12, 162, 57, 61, 130, 5, 7, 191, 65, 135, 243, 190, 1, 33, 133, 190, 26, 220, 250, 187, 132, 128, 2, 189, 213, 204, 105, 188, 98, 66, 209, 189, 31, 1, 253, 186, 178, 246, 253, 188, 114, 102, 173, 188, 163, 179, 0, 190, 29, 107, 175, 60, 254, 62, 0, 189, 225, 207, 95, 61, 223, 47, 126, 188, 143, 237, 19, 189, 157, 42, 129, 60, 172, 213, 150, 188, 197, 88, 12, 62, 116, 196, 157, 189, 181, 228, 61, 61, 219, 61, 213, 61, 241, 156, 180, 188, 89, 112, 201, 188, 120, 119, 122, 62, 231, 21, 189, 62, 119, 48, 72, 187, 170, 45, 7, 62, 63, 238, 9, 190, 246, 192, 131, 60, 133, 10, 24, 61, 86, 35, 35, 61, 180, 147, 241, 187, 189, 82, 111, 62, 47, 199, 211, 62, 155, 58, 196, 189, 16, 107, 136, 61, 115, 85, 175, 188, 93, 98, 226, 188, 216, 132, 49, 62, 118, 120, 91, 190, 188, 47, 128, 61, 39, 87, 125, 62, 81, 106, 19, 190, 250, 104, 149, 189, 200, 134, 227, 61, 162, 225, 57, 190, 97, 113, 43, 61, 180, 17, 3, 61, 47, 37, 30, 62, 76, 106, 147, 60, 75, 231, 18, 62, 244, 83, 226, 62, 99, 29, 201, 61, 46, 71, 127, 187, 115, 134, 133, 60, 63, 253, 201, 188, 148, 36, 220, 61, 120, 76, 54, 62, 123, 72, 16, 61, 98, 22, 166, 62, 174, 87, 28, 63, 218, 98, 8, 62, 225, 182, 153, 189, 9, 13, 205, 189, 129, 163, 2, 60, 33, 53, 25, 61, 230, 62, 192, 60, 190, 134, 218, 60, 34, 254, 10, 62, 18, 41, 9, 62, 57, 130, 57, 61, 111, 49, 116, 188, 103, 156, 245, 188, 220, 136, 190, 59, 161, 190, 200, 61, 157, 47, 48, 62, 61, 218, 195, 187, 2, 201, 47, 61, 80, 162, 68, 62, 8, 42, 31, 188, 56, 11, 34, 189, 41, 19, 90, 60, 109, 66, 193, 187, 195, 36, 229, 61, 160, 47, 88, 62, 31, 7, 252, 61, 149, 162, 153, 61, 249, 249, 139, 62, 68, 4, 157, 61, 247, 26, 130, 61, 177, 142, 225, 61, 85, 146, 25, 189, 253, 44, 1, 62, 194, 136, 45, 62, 250, 100, 149, 61, 214, 123, 205, 61, 195, 99, 132, 62, 179, 175, 184, 60, 98, 233, 92, 189, 26, 239, 44, 61, 58, 97, 17, 61, 143, 121, 12, 61, 243, 111, 4, 60, 47, 13, 226, 190, 188, 28, 4, 188, 125, 35, 129, 59, 158, 51, 200, 190, 59, 203, 155, 188, 205, 210, 206, 61, 170, 105, 228, 189, 118, 180, 190, 60, 170, 22, 28, 190, 195, 192, 235, 190, 111, 55, 34, 58, 109, 27, 39, 190, 20, 121, 215, 190, 189, 53, 192, 187, 140, 200, 42, 61, 136, 217, 204, 189, 110, 178, 30, 187, 234, 76, 12, 61, 24, 109, 118, 189, 65, 154, 79, 60, 232, 236, 230, 187, 254, 140, 39, 189, 187, 111, 154, 59, 251, 134, 53, 61, 238, 45, 63, 189, 251, 204, 42, 62, 74, 63, 230, 190, 71, 39, 114, 62, 41, 183, 168, 62, 201, 129, 29, 191, 101, 28, 142, 62, 131, 74, 133, 61, 236, 163, 14, 190, 185, 172, 123, 61, 87, 12, 128, 62, 16, 124, 46, 191, 171, 225, 217, 62, 42, 202, 227, 62, 110, 94, 102, 191, 84, 110, 255, 62, 154, 187, 87, 61, 99, 209, 73, 190, 3, 222, 241, 61, 158, 72, 10, 62, 231, 47, 129, 190, 197, 250, 170, 61, 111, 159, 192, 61, 129, 178, 161, 190, 27, 192, 51, 62, 237, 207, 186, 189, 30, 78, 81, 61, 220, 81, 2, 188, 176, 89, 226, 189, 239, 146, 111, 61, 0, 160, 132, 59, 239, 167, 206, 190, 54, 73, 28, 190, 241, 96, 237, 187, 95, 97, 194, 189, 176, 238, 161, 61, 33, 131, 199, 186, 162, 74, 43, 189, 47, 3, 215, 188, 199, 27, 158, 186, 114, 56, 237, 190, 141, 71, 175, 190, 244, 100, 250, 188, 81, 102, 9, 189, 93, 135, 203, 188, 182, 234, 254, 59, 67, 101, 177, 189, 148, 252, 231, 61, 100, 0, 7, 189, 93, 26, 113, 189, 132, 214, 11, 61, 17, 65, 242, 187, 247, 50, 199, 189, 141, 154, 163, 61, 84, 77, 224, 188, 238, 66, 230, 187, 244, 215, 198, 187, 166, 237, 174, 187, 56, 87, 231, 187, 139, 173, 199, 187, 139, 171, 175, 187, 63, 140, 208, 187, 173, 107, 170, 187, 177, 210, 80, 187, 213, 199, 225, 187, 19, 231, 187, 187, 181, 253, 165, 187, 233, 26, 230, 187, 105, 1, 193, 187, 89, 146, 168, 187, 158, 168, 211, 187, 213, 197, 173, 187, 22, 189, 98, 187, 200, 69, 7, 188, 131, 31, 223, 187, 53, 145, 208, 187, 112, 125, 8, 188, 155, 31, 225, 187, 42, 230, 210, 187, 209, 119, 6, 188, 222, 146, 226, 187, 12, 75, 202, 187, 16, 4, 237, 189, 37, 21, 22, 189, 58, 61, 147, 60, 69, 36, 158, 189, 19, 228, 61, 189, 119, 230, 162, 188, 66, 143, 48, 60, 13, 54, 37, 60, 74, 120, 71, 189, 81, 121, 220, 62, 165, 103, 2, 63, 109, 202, 17, 189, 171, 60, 164, 62, 178, 245, 14, 63, 62, 83, 89, 61, 124, 229, 216, 188, 214, 194, 182, 61, 200, 106, 227, 61, 161, 60, 208, 189, 221, 139, 173, 189, 248, 221, 186, 61, 191, 189, 175, 60, 107, 217, 247, 189, 114, 4, 61, 60, 167, 226, 90, 61, 101, 237, 211, 60, 6, 218, 172, 189, 175, 170, 194, 190, 100, 230, 164, 191, 54, 202, 143, 190, 108, 71, 7, 63, 44, 235, 187, 63, 243, 167, 159, 62, 231, 66, 6, 190, 2, 210, 73, 190, 40, 230, 12, 189, 198, 165, 105, 191, 52, 58, 204, 191, 157, 38, 88, 190, 113, 157, 156, 63, 83, 128, 252, 63, 205, 68, 104, 62, 212, 155, 132, 190, 49, 60, 208, 190, 160, 22, 144, 187, 174, 156, 248, 190, 195, 158, 152, 190, 229, 225, 11, 61, 56, 127, 16, 63, 240, 178, 182, 62, 103, 145, 44, 190, 171, 179, 3, 190, 232, 134, 41, 188, 136, 125, 232, 61, 166, 172, 5, 189, 234, 28, 101, 189, 45, 123, 8, 188, 175, 1, 34, 60, 26, 148, 179, 189, 100, 121, 45, 59, 108, 198, 218, 59, 106, 76, 76, 190, 71, 106, 223, 189, 242, 218, 194, 189, 126, 94, 181, 189, 97, 24, 51, 189, 201, 204, 152, 189, 63, 113, 2, 190, 241, 242, 158, 189, 188, 150, 31, 189, 10, 168, 251, 189, 6, 125, 228, 189, 213, 240, 210, 188, 72, 155, 174, 189, 204, 235, 34, 190, 173, 144, 86, 62, 35, 213, 104, 62, 75, 44, 223, 61, 11, 6, 173, 189, 136, 156, 101, 60, 181, 46, 204, 189, 157, 170, 234, 156, 188, 121, 119, 156, 83, 61, 102, 28, 167, 159, 191, 156, 57, 92, 170, 156, 209, 194, 84, 27, 173, 17, 229, 155, 40, 220, 164, 156, 47, 132, 216, 27, 156, 125, 123, 156, 84, 86, 250, 155, 67, 0, 192, 28, 215, 87, 8, 156, 153, 240, 107, 156, 254, 145, 145, 28, 44, 236, 61, 155, 5, 112, 184, 156, 6, 121, 25, 156, 166, 105, 148, 154, 17, 69, 183, 155, 72, 83, 214, 28, 74, 48, 151, 156, 112, 12, 120, 156, 250, 50, 84, 28, 170, 48, 70, 156, 108, 152, 16, 157, 86, 193, 168, 156, 29, 197, 48, 191, 77, 37, 168, 191, 106, 209, 112, 190, 243, 139, 84, 191, 98, 28, 192, 191, 210, 48, 172, 190, 51, 31, 0, 190, 59, 203, 113, 190, 126, 142, 152, 189, 152, 118, 84, 63, 206, 211, 197, 63, 243, 117, 82, 62, 98, 76, 71, 63, 76, 34, 220, 63, 134, 49, 171, 62, 171, 4, 205, 61, 114, 134, 89, 62, 94, 48, 23, 62, 63, 145, 244, 189, 144, 177, 135, 190, 235, 104, 25, 61, 240, 117, 32, 60, 64, 102, 130, 190, 10, 142, 214, 188, 253, 20, 142, 57, 83, 149, 82, 61, 72, 141, 102, 189, 127, 97, 140, 62, 247, 155, 1, 189, 23, 187, 89, 190, 182, 95, 240, 62, 51, 139, 24, 190, 8, 20, 147, 190, 208, 195, 67, 62, 127, 157, 85, 189, 83, 252, 230, 189, 230, 98, 8, 63, 250, 21, 185, 189, 28, 247, 216, 190, 106, 59, 66, 63, 197, 139, 103, 190, 80, 240, 1, 191, 238, 169, 178, 62, 63, 55, 215, 189, 236, 173, 87, 190, 13, 18, 171, 62, 211, 142, 47, 189, 103, 199, 128, 190, 152, 182, 228, 62, 34, 158, 230, 189, 13, 156, 150, 190, 66, 48, 29, 62, 134, 148, 7, 189, 60, 242, 201, 189, 245, 209, 156, 158, 209, 185, 152, 158, 8, 204, 136, 158, 254, 128, 147, 158, 97, 136, 139, 158, 4, 135, 114, 158, 71, 167, 135, 158, 46, 186, 138, 158, 60, 130, 121, 158, 64, 114, 9, 158, 142, 49, 247, 157, 198, 226, 189, 157, 99, 158, 24, 158, 166, 165, 20, 158, 196, 167, 249, 157, 174, 117, 226, 157, 11, 217, 212, 157, 129, 168, 199, 157, 157, 139, 88, 157, 135, 19, 149, 157, 4, 119, 123, 157, 54, 121, 169, 157, 10, 154, 176, 157, 90, 180, 168, 157, 30, 229, 207, 157, 44, 11, 187, 157, 178, 6, 155, 157, 0, 0, 6, 0, 8, 0, 4, 0, 6, 0, 0, 0, 4, 0, 0, 0, 64, 0, 0, 0, 0, 0, 0, 0, 0, 0, 0, 0, 0, 0, 0, 0, 0, 0, 0, 0, 0, 0, 0, 0, 0, 0, 0, 0, 0, 0, 0, 0, 0, 0, 0, 0, 0, 0, 0, 0, 0, 0, 0, 0, 0, 0, 0, 0, 0, 0, 0, 0, 0, 0, 0, 0, 0, 0, 0, 0, 0, 0, 0, 0, 0, 0, 0, 0, 220, 253, 255, 255, 224, 253, 255, 255, 15, 0, 0, 0, 77, 76, 73, 82, 32, 67, 111, 110, 118, 101, 114, 116, 101, 100, 46, 0, 1, 0, 0, 0, 20, 0, 0, 0, 0, 0, 14, 0, 24, 0, 20, 0, 16, 0, 12, 0, 8, 0, 4, 0, 14, 0, 0, 0, 20, 0, 0, 0, 28, 0, 0, 0, 116, 0, 0, 0, 120, 0, 0, 0, 124, 0, 0, 0, 4, 0, 0, 0, 109, 97, 105, 110, 0, 0, 0, 0, 1, 0, 0, 0, 20, 0, 0, 0, 0, 0, 14, 0, 22, 0, 0, 0, 16, 0, 12, 0, 11, 0, 4, 0, 14, 0, 0, 0, 28, 0, 0, 0, 0, 0, 0, 1, 32, 0, 0, 0, 36, 0, 0, 0, 0, 0, 10, 0, 12, 0, 0, 0, 8, 0, 4, 0, 10, 0, 0, 0, 2, 0, 0, 0, 2, 0, 0, 0, 1, 0, 0, 0, 3, 0, 0, 0, 3, 0, 0, 0, 0, 0, 0, 0, 2, 0, 0, 0, 1, 0, 0, 0, 1, 0, 0, 0, 3, 0, 0, 0, 1, 0, 0, 0, 0, 0, 0, 0, 4, 0, 0, 0, 44, 1, 0, 0, 212, 0, 0, 0, 112, 0, 0, 0, 4, 0, 0, 0, 250, 254, 255, 255, 0, 0, 0, 1, 20, 0, 0, 0, 36, 0, 0, 0, 36, 0, 0, 0, 4, 0, 0, 0, 60, 0, 0, 0, 4, 0, 0, 0, 255, 255, 255, 255, 48, 0, 0, 0, 48, 0, 0, 0, 16, 0, 0, 0, 228, 254, 255, 255, 25, 0, 0, 0, 83, 116, 97, 116, 101, 102, 117, 108, 80, 97, 114, 116, 105, 116, 105, 111, 110, 101, 100, 67, 97, 108, 108, 58, 48, 0, 0, 0, 4, 0, 0, 0, 1, 0, 0, 0, 48, 0, 0, 0, 48, 0, 0, 0, 16, 0, 0, 0, 182, 255, 255, 255, 0, 0, 0, 1, 16, 0, 0, 0, 16, 0, 0, 0, 3, 0, 0, 0, 32, 0, 0, 0, 52, 255, 255, 255, 19, 0, 0, 0, 109, 111, 100, 101, 108, 47, 67, 111, 110, 118, 49, 47, 67, 111, 110, 118, 50, 68, 49, 0, 4, 0, 0, 0, 16, 0, 0, 0, 3, 0, 0, 0, 3, 0, 0, 0, 3, 0, 0, 0, 0, 0, 22, 0, 24, 0, 20, 0, 0, 0, 16, 0, 12, 0, 8, 0, 0, 0, 0, 0, 0, 0, 7, 0, 22, 0, 0, 0, 0, 0, 0, 1, 16, 0, 0, 0, 16, 0, 0, 0, 2, 0, 0, 0, 32, 0, 0, 0, 148, 255, 255, 255, 18, 0, 0, 0, 109, 111, 100, 101, 108, 47, 67, 111, 110, 118, 49, 47, 67, 111, 110, 118, 50, 68, 0, 0, 1, 0, 0, 0, 16, 0, 0, 0, 0, 0, 22, 0, 28, 0, 24, 0, 0, 0, 20, 0, 16, 0, 12, 0, 0, 0, 0, 0, 8, 0, 7, 0, 22, 0, 0, 0, 0, 0, 0, 1, 20, 0, 0, 0, 40, 0, 0, 0, 40, 0, 0, 0, 1, 0, 0, 0, 64, 0, 0, 0, 4, 0, 0, 0, 255, 255, 255, 255, 96, 0, 0, 0, 96, 0, 0, 0, 3, 0, 0, 0, 4, 0, 4, 0, 4, 0, 0, 0, 25, 0, 0, 0, 115, 101, 114, 118, 105, 110, 103, 95, 100, 101, 102, 97, 117, 108, 116, 95, 105, 110, 112, 117, 116, 95, 49, 58, 48, 0, 0, 0, 4, 0, 0, 0, 1, 0, 0, 0, 96, 0, 0, 0, 96, 0, 0, 0, 3, 0, 0, 0, 1, 0, 0, 0, 16, 0, 0, 0, 12, 0, 12, 0, 11, 0, 0, 0, 0, 0, 4, 0, 12, 0, 0, 0, 3, 0, 0, 0, 0, 0, 0, 3
};
