#pragma once

#include <cstdint>

const uint8_t layer_42[] = {
28, 0, 0, 0, 84, 70, 76, 51, 20, 0, 32, 0, 28, 0, 24, 0, 20, 0, 16, 0, 12, 0, 0, 0, 8, 0, 4, 0, 20, 0, 0, 0, 28, 0, 0, 0, 156, 0, 0, 0, 244, 0, 0, 0, 64, 2, 0, 0, 80, 2, 0, 0, 100, 5, 0, 0, 3, 0, 0, 0, 1, 0, 0, 0, 16, 0, 0, 0, 0, 0, 10, 0, 16, 0, 12, 0, 8, 0, 4, 0, 10, 0, 0, 0, 12, 0, 0, 0, 28, 0, 0, 0, 68, 0, 0, 0, 15, 0, 0, 0, 115, 101, 114, 118, 105, 110, 103, 95, 100, 101, 102, 97, 117, 108, 116, 0, 1, 0, 0, 0, 4, 0, 0, 0, 140, 255, 255, 255, 4, 0, 0, 0, 4, 0, 0, 0, 18, 0, 0, 0, 98, 108, 111, 99, 107, 95, 52, 95, 112, 114, 111, 106, 101, 99, 116, 95, 66, 78, 0, 0, 1, 0, 0, 0, 4, 0, 0, 0, 150, 254, 255, 255, 4, 0, 0, 0, 8, 0, 0, 0, 105, 110, 112, 117, 116, 95, 52, 52, 0, 0, 0, 0, 2, 0, 0, 0, 52, 0, 0, 0, 4, 0, 0, 0, 220, 255, 255, 255, 7, 0, 0, 0, 4, 0, 0, 0, 19, 0, 0, 0, 67, 79, 78, 86, 69, 82, 83, 73, 79, 78, 95, 77, 69, 84, 65, 68, 65, 84, 65, 0, 8, 0, 12, 0, 8, 0, 4, 0, 8, 0, 0, 0, 6, 0, 0, 0, 4, 0, 0, 0, 19, 0, 0, 0, 109, 105, 110, 95, 114, 117, 110, 116, 105, 109, 101, 95, 118, 101, 114, 115, 105, 111, 110, 0, 8, 0, 0, 0, 72, 1, 0, 0, 64, 1, 0, 0, 240, 0, 0, 0, 152, 0, 0, 0, 144, 0, 0, 0, 136, 0, 0, 0, 104, 0, 0, 0, 4, 0, 0, 0, 46, 255, 255, 255, 4, 0, 0, 0, 84, 0, 0, 0, 12, 0, 0, 0, 8, 0, 14, 0, 8, 0, 4, 0, 8, 0, 0, 0, 16, 0, 0, 0, 36, 0, 0, 0, 0, 0, 6, 0, 8, 0, 4, 0, 6, 0, 0, 0, 4, 0, 0, 0, 0, 0, 0, 0, 0, 0, 10, 0, 16, 0, 12, 0, 8, 0, 4, 0, 10, 0, 0, 0, 2, 0, 0, 0, 2, 0, 0, 0, 4, 0, 0, 0, 6, 0, 0, 0, 50, 46, 49, 53, 46, 48, 0, 0, 142, 255, 255, 255, 4, 0, 0, 0, 16, 0, 0, 0, 49, 46, 53, 46, 48, 0, 0, 0, 0, 0, 0, 0, 0, 0, 0, 0, 24, 252, 255, 255, 28, 252, 255, 255, 178, 255, 255, 255, 4, 0, 0, 0, 64, 0, 0, 0, 226, 169, 34, 191, 17, 145, 64, 192, 145, 65, 187, 191, 137, 203, 233, 64, 94, 106, 18, 65, 241, 36, 43, 191, 230, 164, 7, 62, 213, 146, 53, 192, 138, 185, 84, 64, 248, 11, 111, 191, 114, 109, 60, 65, 72, 236, 94, 65, 29, 127, 194, 192, 191, 21, 238, 64, 184, 101, 149, 65, 170, 184, 208, 192, 0, 0, 6, 0, 8, 0, 4, 0, 6, 0, 0, 0, 4, 0, 0, 0, 64, 0, 0, 0, 9, 55, 191, 64, 254, 201, 175, 64, 50, 134, 121, 64, 143, 226, 77, 64, 141, 88, 147, 64, 253, 89, 151, 64, 25, 245, 115, 64, 62, 129, 126, 64, 24, 215, 80, 64, 241, 145, 126, 64, 70, 25, 173, 64, 236, 135, 201, 64, 185, 50, 194, 64, 18, 170, 108, 64, 46, 233, 212, 64, 226, 149, 172, 64, 192, 252, 255, 255, 196, 252, 255, 255, 15, 0, 0, 0, 77, 76, 73, 82, 32, 67, 111, 110, 118, 101, 114, 116, 101, 100, 46, 0, 1, 0, 0, 0, 20, 0, 0, 0, 0, 0, 14, 0, 24, 0, 20, 0, 16, 0, 12, 0, 8, 0, 4, 0, 14, 0, 0, 0, 20, 0, 0, 0, 28, 0, 0, 0, 160, 0, 0, 0, 164, 0, 0, 0, 168, 0, 0, 0, 4, 0, 0, 0, 109, 97, 105, 110, 0, 0, 0, 0, 2, 0, 0, 0, 88, 0, 0, 0, 20, 0, 0, 0, 0, 0, 14, 0, 24, 0, 20, 0, 16, 0, 12, 0, 11, 0, 4, 0, 14, 0, 0, 0, 20, 0, 0, 0, 0, 0, 0, 11, 16, 0, 0, 0, 20, 0, 0, 0, 1, 0, 0, 0, 76, 253, 255, 255, 1, 0, 0, 0, 4, 0, 0, 0, 2, 0, 0, 0, 3, 0, 0, 0, 2, 0, 0, 0, 0, 0, 14, 0, 20, 0, 0, 0, 16, 0, 12, 0, 11, 0, 4, 0, 14, 0, 0, 0, 16, 0, 0, 0, 0, 0, 0, 21, 12, 0, 0, 0, 16, 0, 0, 0, 136, 253, 255, 255, 1, 0, 0, 0, 3, 0, 0, 0, 2, 0, 0, 0, 0, 0, 0, 0, 1, 0, 0, 0, 1, 0, 0, 0, 4, 0, 0, 0, 1, 0, 0, 0, 0, 0, 0, 0, 5, 0, 0, 0, 216, 1, 0, 0, 100, 1, 0, 0, 240, 0, 0, 0, 112, 0, 0, 0, 4, 0, 0, 0, 82, 254, 255, 255, 0, 0, 0, 1, 20, 0, 0, 0, 36, 0, 0, 0, 36, 0, 0, 0, 5, 0, 0, 0, 60, 0, 0, 0, 4, 0, 0, 0, 255, 255, 255, 255, 12, 0, 0, 0, 12, 0, 0, 0, 16, 0, 0, 0, 248, 253, 255, 255, 25, 0, 0, 0, 83, 116, 97, 116, 101, 102, 117, 108, 80, 97, 114, 116, 105, 116, 105, 111, 110, 101, 100, 67, 97, 108, 108, 58, 48, 0, 0, 0, 4, 0, 0, 0, 1, 0, 0, 0, 12, 0, 0, 0, 12, 0, 0, 0, 16, 0, 0, 0, 186, 254, 255, 255, 0, 0, 0, 1, 20, 0, 0, 0, 36, 0, 0, 0, 36, 0, 0, 0, 4, 0, 0, 0, 80, 0, 0, 0, 4, 0, 0, 0, 255, 255, 255, 255, 12, 0, 0, 0, 12, 0, 0, 0, 16, 0, 0, 0, 96, 254, 255, 255, 45, 0, 0, 0, 109, 111, 100, 101, 108, 95, 52, 50, 47, 98, 108, 111, 99, 107, 95, 52, 95, 112, 114, 111, 106, 101, 99, 116, 95, 66, 78, 47, 70, 117, 115, 101, 100, 66, 97, 116, 99, 104, 78, 111, 114, 109, 86, 51, 50, 0, 0, 0, 4, 0, 0, 0, 1, 0, 0, 0, 12, 0, 0, 0, 12, 0, 0, 0, 16, 0, 0, 0, 166, 255, 255, 255, 0, 0, 0, 1, 16, 0, 0, 0, 16, 0, 0, 0, 3, 0, 0, 0, 60, 0, 0, 0, 196, 254, 255, 255, 45, 0, 0, 0, 109, 111, 100, 101, 108, 95, 52, 50, 47, 98, 108, 111, 99, 107, 95, 52, 95, 112, 114, 111, 106, 101, 99, 116, 95, 66, 78, 47, 70, 117, 115, 101, 100, 66, 97, 116, 99, 104, 78, 111, 114, 109, 86, 51, 49, 0, 0, 0, 1, 0, 0, 0, 16, 0, 0, 0, 0, 0, 22, 0, 24, 0, 20, 0, 0, 0, 16, 0, 12, 0, 8, 0, 0, 0, 0, 0, 0, 0, 7, 0, 22, 0, 0, 0, 0, 0, 0, 1, 16, 0, 0, 0, 16, 0, 0, 0, 2, 0, 0, 0, 60, 0, 0, 0, 52, 255, 255, 255, 44, 0, 0, 0, 109, 111, 100, 101, 108, 95, 52, 50, 47, 98, 108, 111, 99, 107, 95, 52, 95, 112, 114, 111, 106, 101, 99, 116, 95, 66, 78, 47, 70, 117, 115, 101, 100, 66, 97, 116, 99, 104, 78, 111, 114, 109, 86, 51, 0, 0, 0, 0, 1, 0, 0, 0, 16, 0, 0, 0, 0, 0, 22, 0, 28, 0, 24, 0, 0, 0, 20, 0, 16, 0, 12, 0, 0, 0, 0, 0, 8, 0, 7, 0, 22, 0, 0, 0, 0, 0, 0, 1, 20, 0, 0, 0, 36, 0, 0, 0, 36, 0, 0, 0, 1, 0, 0, 0, 60, 0, 0, 0, 4, 0, 0, 0, 255, 255, 255, 255, 12, 0, 0, 0, 12, 0, 0, 0, 16, 0, 0, 0, 188, 255, 255, 255, 26, 0, 0, 0, 115, 101, 114, 118, 105, 110, 103, 95, 100, 101, 102, 97, 117, 108, 116, 95, 105, 110, 112, 117, 116, 95, 52, 52, 58, 48, 0, 0, 4, 0, 0, 0, 1, 0, 0, 0, 12, 0, 0, 0, 12, 0, 0, 0, 16, 0, 0, 0, 2, 0, 0, 0, 28, 0, 0, 0, 8, 0, 0, 0, 4, 0, 4, 0, 4, 0, 0, 0, 12, 0, 12, 0, 11, 0, 0, 0, 0, 0, 4, 0, 12, 0, 0, 0, 18, 0, 0, 0, 0, 0, 0, 18
};
