#pragma once

#include <cstdint>

const uint8_t layer_3[] = {
28, 0, 0, 0, 84, 70, 76, 51, 20, 0, 32, 0, 28, 0, 24, 0, 20, 0, 16, 0, 12, 0, 0, 0, 8, 0, 4, 0, 20, 0, 0, 0, 28, 0, 0, 0, 156, 0, 0, 0, 244, 0, 0, 0, 56, 4, 0, 0, 72, 4, 0, 0, 188, 6, 0, 0, 3, 0, 0, 0, 1, 0, 0, 0, 16, 0, 0, 0, 0, 0, 10, 0, 16, 0, 12, 0, 8, 0, 4, 0, 10, 0, 0, 0, 12, 0, 0, 0, 28, 0, 0, 0, 72, 0, 0, 0, 15, 0, 0, 0, 115, 101, 114, 118, 105, 110, 103, 95, 100, 101, 102, 97, 117, 108, 116, 0, 1, 0, 0, 0, 4, 0, 0, 0, 140, 255, 255, 255, 3, 0, 0, 0, 4, 0, 0, 0, 23, 0, 0, 0, 101, 120, 112, 97, 110, 100, 101, 100, 95, 99, 111, 110, 118, 95, 100, 101, 112, 116, 104, 119, 105, 115, 101, 0, 1, 0, 0, 0, 4, 0, 0, 0, 162, 252, 255, 255, 4, 0, 0, 0, 7, 0, 0, 0, 105, 110, 112, 117, 116, 95, 52, 0, 2, 0, 0, 0, 52, 0, 0, 0, 4, 0, 0, 0, 220, 255, 255, 255, 6, 0, 0, 0, 4, 0, 0, 0, 19, 0, 0, 0, 67, 79, 78, 86, 69, 82, 83, 73, 79, 78, 95, 77, 69, 84, 65, 68, 65, 84, 65, 0, 8, 0, 12, 0, 8, 0, 4, 0, 8, 0, 0, 0, 5, 0, 0, 0, 4, 0, 0, 0, 19, 0, 0, 0, 109, 105, 110, 95, 114, 117, 110, 116, 105, 109, 101, 95, 118, 101, 114, 115, 105, 111, 110, 0, 7, 0, 0, 0, 64, 3, 0, 0, 56, 3, 0, 0, 232, 2, 0, 0, 144, 0, 0, 0, 136, 0, 0, 0, 104, 0, 0, 0, 4, 0, 0, 0, 50, 253, 255, 255, 4, 0, 0, 0, 84, 0, 0, 0, 12, 0, 0, 0, 8, 0, 14, 0, 8, 0, 4, 0, 8, 0, 0, 0, 16, 0, 0, 0, 36, 0, 0, 0, 0, 0, 6, 0, 8, 0, 4, 0, 6, 0, 0, 0, 4, 0, 0, 0, 0, 0, 0, 0, 0, 0, 10, 0, 16, 0, 12, 0, 8, 0, 4, 0, 10, 0, 0, 0, 2, 0, 0, 0, 2, 0, 0, 0, 4, 0, 0, 0, 6, 0, 0, 0, 50, 46, 49, 53, 46, 48, 0, 0, 146, 253, 255, 255, 4, 0, 0, 0, 16, 0, 0, 0, 49, 46, 53, 46, 48, 0, 0, 0, 0, 0, 0, 0, 0, 0, 0, 0, 4, 251, 255, 255, 178, 253, 255, 255, 4, 0, 0, 0, 64, 2, 0, 0, 181, 130, 1, 192, 95, 192, 216, 63, 76, 41, 47, 192, 27, 150, 226, 193, 16, 133, 178, 64, 125, 245, 73, 192, 127, 119, 66, 65, 182, 138, 108, 192, 255, 211, 192, 191, 131, 48, 21, 191, 67, 221, 146, 191, 224, 244, 233, 63, 79, 166, 200, 63, 219, 213, 66, 63, 172, 161, 54, 65, 48, 87, 141, 191, 46, 108, 115, 63, 186, 139, 15, 64, 152, 61, 135, 192, 81, 121, 227, 65, 185, 202, 145, 65, 200, 205, 191, 192, 153, 22, 155, 65, 162, 223, 197, 192, 8, 222, 181, 191, 97, 140, 191, 65, 69, 81, 146, 193, 234, 182, 81, 64, 39, 191, 165, 63, 176, 77, 93, 63, 186, 54, 215, 65, 88, 144, 190, 190, 253, 151, 230, 62, 61, 210, 9, 192, 41, 226, 65, 64, 252, 142, 233, 190, 55, 86, 37, 193, 143, 81, 75, 64, 25, 148, 103, 193, 138, 47, 113, 64, 25, 121, 203, 191, 47, 199, 164, 192, 220, 164, 5, 63, 68, 229, 129, 191, 2, 192, 65, 191, 152, 49, 80, 62, 114, 141, 172, 193, 24, 66, 223, 190, 212, 114, 24, 192, 71, 43, 55, 65, 181, 246, 64, 191, 30, 40, 64, 64, 111, 116, 199, 192, 102, 245, 59, 63, 228, 246, 140, 192, 46, 117, 44, 63, 187, 230, 239, 190, 24, 148, 193, 61, 122, 184, 208, 62, 197, 100, 222, 192, 187, 236, 26, 63, 243, 100, 177, 63, 249, 5, 202, 192, 28, 30, 87, 190, 82, 241, 187, 191, 215, 196, 108, 192, 250, 148, 244, 191, 135, 225, 80, 192, 236, 41, 135, 191, 218, 24, 155, 191, 162, 149, 151, 63, 128, 62, 172, 191, 138, 151, 232, 191, 89, 36, 134, 193, 66, 136, 62, 64, 57, 251, 65, 191, 55, 116, 164, 63, 106, 23, 168, 193, 114, 37, 6, 62, 202, 210, 177, 62, 36, 111, 134, 62, 205, 170, 246, 61, 186, 143, 10, 64, 37, 48, 235, 62, 115, 180, 207, 62, 35, 14, 204, 63, 194, 144, 121, 192, 4, 223, 206, 63, 12, 142, 8, 192, 56, 242, 155, 63, 189, 146, 136, 190, 205, 82, 125, 61, 196, 89, 135, 62, 116, 166, 245, 63, 6, 49, 92, 191, 49, 152, 39, 63, 66, 93, 10, 192, 44, 80, 207, 192, 6, 127, 17, 64, 164, 12, 241, 62, 243, 219, 97, 191, 192, 107, 234, 63, 156, 179, 192, 192, 228, 173, 33, 64, 84, 222, 163, 191, 191, 222, 92, 61, 154, 241, 87, 189, 228, 24, 153, 62, 51, 131, 253, 190, 146, 133, 152, 62, 209, 123, 183, 192, 55, 69, 175, 62, 224, 110, 219, 62, 86, 227, 176, 190, 23, 161, 132, 63, 104, 255, 192, 190, 249, 112, 117, 192, 75, 62, 241, 63, 22, 129, 167, 192, 111, 217, 127, 63, 185, 72, 6, 192, 181, 116, 29, 192, 41, 1, 83, 189, 60, 50, 171, 64, 245, 122, 54, 63, 136, 178, 172, 187, 108, 24, 194, 192, 151, 26, 215, 191, 249, 102, 197, 62, 40, 214, 28, 191, 5, 198, 35, 63, 217, 199, 235, 188, 184, 198, 31, 63, 181, 166, 44, 63, 22, 143, 172, 63, 147, 149, 137, 63, 114, 218, 246, 191, 128, 57, 82, 63, 40, 69, 8, 190, 185, 97, 0, 193, 213, 16, 169, 191, 147, 210, 225, 62, 117, 16, 100, 64, 241, 40, 246, 191, 0, 0, 6, 0, 8, 0, 4, 0, 6, 0, 0, 0, 4, 0, 0, 0, 64, 0, 0, 0, 0, 0, 0, 0, 0, 0, 0, 0, 0, 0, 0, 0, 0, 0, 0, 0, 0, 0, 0, 0, 0, 0, 0, 0, 0, 0, 0, 0, 0, 0, 0, 0, 0, 0, 0, 0, 0, 0, 0, 0, 0, 0, 0, 0, 0, 0, 0, 0, 0, 0, 0, 0, 0, 0, 0, 0, 0, 0, 0, 0, 0, 0, 0, 0, 168, 253, 255, 255, 172, 253, 255, 255, 15, 0, 0, 0, 77, 76, 73, 82, 32, 67, 111, 110, 118, 101, 114, 116, 101, 100, 46, 0, 1, 0, 0, 0, 20, 0, 0, 0, 0, 0, 14, 0, 24, 0, 20, 0, 16, 0, 12, 0, 8, 0, 4, 0, 14, 0, 0, 0, 20, 0, 0, 0, 28, 0, 0, 0, 120, 0, 0, 0, 124, 0, 0, 0, 128, 0, 0, 0, 4, 0, 0, 0, 109, 97, 105, 110, 0, 0, 0, 0, 1, 0, 0, 0, 20, 0, 0, 0, 0, 0, 14, 0, 20, 0, 0, 0, 16, 0, 12, 0, 11, 0, 4, 0, 14, 0, 0, 0, 28, 0, 0, 0, 0, 0, 0, 2, 36, 0, 0, 0, 40, 0, 0, 0, 12, 0, 16, 0, 0, 0, 12, 0, 8, 0, 4, 0, 12, 0, 0, 0, 1, 0, 0, 0, 1, 0, 0, 0, 1, 0, 0, 0, 1, 0, 0, 0, 3, 0, 0, 0, 3, 0, 0, 0, 0, 0, 0, 0, 2, 0, 0, 0, 1, 0, 0, 0, 1, 0, 0, 0, 3, 0, 0, 0, 1, 0, 0, 0, 0, 0, 0, 0, 4, 0, 0, 0, 92, 1, 0, 0, 236, 0, 0, 0, 112, 0, 0, 0, 4, 0, 0, 0, 202, 254, 255, 255, 0, 0, 0, 1, 20, 0, 0, 0, 36, 0, 0, 0, 36, 0, 0, 0, 4, 0, 0, 0, 60, 0, 0, 0, 4, 0, 0, 0, 255, 255, 255, 255, 48, 0, 0, 0, 48, 0, 0, 0, 16, 0, 0, 0, 180, 254, 255, 255, 25, 0, 0, 0, 83, 116, 97, 116, 101, 102, 117, 108, 80, 97, 114, 116, 105, 116, 105, 111, 110, 101, 100, 67, 97, 108, 108, 58, 48, 0, 0, 0, 4, 0, 0, 0, 1, 0, 0, 0, 48, 0, 0, 0, 48, 0, 0, 0, 16, 0, 0, 0, 158, 255, 255, 255, 0, 0, 0, 1, 16, 0, 0, 0, 16, 0, 0, 0, 3, 0, 0, 0, 56, 0, 0, 0, 4, 255, 255, 255, 42, 0, 0, 0, 109, 111, 100, 101, 108, 95, 51, 47, 101, 120, 112, 97, 110, 100, 101, 100, 95, 99, 111, 110, 118, 95, 100, 101, 112, 116, 104, 119, 105, 115, 101, 47, 100, 101, 112, 116, 104, 119, 105, 115, 101, 49, 0, 0, 4, 0, 0, 0, 1, 0, 0, 0, 3, 0, 0, 0, 3, 0, 0, 0, 16, 0, 0, 0, 0, 0, 22, 0, 24, 0, 20, 0, 0, 0, 16, 0, 12, 0, 8, 0, 0, 0, 0, 0, 0, 0, 7, 0, 22, 0, 0, 0, 0, 0, 0, 1, 16, 0, 0, 0, 16, 0, 0, 0, 2, 0, 0, 0, 56, 0, 0, 0, 124, 255, 255, 255, 41, 0, 0, 0, 109, 111, 100, 101, 108, 95, 51, 47, 101, 120, 112, 97, 110, 100, 101, 100, 95, 99, 111, 110, 118, 95, 100, 101, 112, 116, 104, 119, 105, 115, 101, 47, 100, 101, 112, 116, 104, 119, 105, 115, 101, 0, 0, 0, 1, 0, 0, 0, 16, 0, 0, 0, 0, 0, 22, 0, 28, 0, 24, 0, 0, 0, 20, 0, 16, 0, 12, 0, 0, 0, 0, 0, 8, 0, 7, 0, 22, 0, 0, 0, 0, 0, 0, 1, 20, 0, 0, 0, 40, 0, 0, 0, 40, 0, 0, 0, 1, 0, 0, 0, 64, 0, 0, 0, 4, 0, 0, 0, 255, 255, 255, 255, 48, 0, 0, 0, 48, 0, 0, 0, 16, 0, 0, 0, 4, 0, 4, 0, 4, 0, 0, 0, 25, 0, 0, 0, 115, 101, 114, 118, 105, 110, 103, 95, 100, 101, 102, 97, 117, 108, 116, 95, 105, 110, 112, 117, 116, 95, 52, 58, 48, 0, 0, 0, 4, 0, 0, 0, 1, 0, 0, 0, 48, 0, 0, 0, 48, 0, 0, 0, 16, 0, 0, 0, 1, 0, 0, 0, 16, 0, 0, 0, 12, 0, 12, 0, 11, 0, 0, 0, 0, 0, 4, 0, 12, 0, 0, 0, 4, 0, 0, 0, 0, 0, 0, 4
};
