#pragma once

#include <cstdint>

const uint8_t layer_47[] = {
28, 0, 0, 0, 84, 70, 76, 51, 20, 0, 32, 0, 28, 0, 24, 0, 20, 0, 16, 0, 12, 0, 0, 0, 8, 0, 4, 0, 20, 0, 0, 0, 28, 0, 0, 0, 156, 0, 0, 0, 244, 0, 0, 0, 184, 16, 0, 0, 200, 16, 0, 0, 52, 19, 0, 0, 3, 0, 0, 0, 1, 0, 0, 0, 16, 0, 0, 0, 0, 0, 10, 0, 16, 0, 12, 0, 8, 0, 4, 0, 10, 0, 0, 0, 12, 0, 0, 0, 28, 0, 0, 0, 68, 0, 0, 0, 15, 0, 0, 0, 115, 101, 114, 118, 105, 110, 103, 95, 100, 101, 102, 97, 117, 108, 116, 0, 1, 0, 0, 0, 4, 0, 0, 0, 140, 255, 255, 255, 3, 0, 0, 0, 4, 0, 0, 0, 17, 0, 0, 0, 98, 108, 111, 99, 107, 95, 53, 95, 100, 101, 112, 116, 104, 119, 105, 115, 101, 0, 0, 0, 1, 0, 0, 0, 4, 0, 0, 0, 94, 241, 255, 255, 4, 0, 0, 0, 8, 0, 0, 0, 105, 110, 112, 117, 116, 95, 53, 48, 0, 0, 0, 0, 2, 0, 0, 0, 52, 0, 0, 0, 4, 0, 0, 0, 220, 255, 255, 255, 6, 0, 0, 0, 4, 0, 0, 0, 19, 0, 0, 0, 67, 79, 78, 86, 69, 82, 83, 73, 79, 78, 95, 77, 69, 84, 65, 68, 65, 84, 65, 0, 8, 0, 12, 0, 8, 0, 4, 0, 8, 0, 0, 0, 5, 0, 0, 0, 4, 0, 0, 0, 19, 0, 0, 0, 109, 105, 110, 95, 114, 117, 110, 116, 105, 109, 101, 95, 118, 101, 114, 115, 105, 111, 110, 0, 7, 0, 0, 0, 192, 15, 0, 0, 184, 15, 0, 0, 40, 14, 0, 0, 144, 0, 0, 0, 136, 0, 0, 0, 104, 0, 0, 0, 4, 0, 0, 0, 242, 241, 255, 255, 4, 0, 0, 0, 84, 0, 0, 0, 12, 0, 0, 0, 8, 0, 14, 0, 8, 0, 4, 0, 8, 0, 0, 0, 16, 0, 0, 0, 36, 0, 0, 0, 0, 0, 6, 0, 8, 0, 4, 0, 6, 0, 0, 0, 4, 0, 0, 0, 0, 0, 0, 0, 0, 0, 10, 0, 16, 0, 12, 0, 8, 0, 4, 0, 10, 0, 0, 0, 2, 0, 0, 0, 2, 0, 0, 0, 4, 0, 0, 0, 6, 0, 0, 0, 50, 46, 49, 53, 46, 48, 0, 0, 82, 242, 255, 255, 4, 0, 0, 0, 16, 0, 0, 0, 49, 46, 53, 46, 48, 0, 0, 0, 0, 0, 0, 0, 0, 0, 0, 0, 140, 238, 255, 255, 114, 242, 255, 255, 4, 0, 0, 0, 128, 13, 0, 0, 206, 63, 143, 191, 64, 201, 246, 191, 108, 90, 98, 190, 98, 60, 50, 64, 215, 255, 124, 63, 45, 221, 97, 63, 59, 152, 96, 63, 233, 20, 152, 191, 123, 6, 174, 190, 135, 246, 5, 191, 216, 17, 221, 190, 93, 84, 174, 189, 203, 100, 52, 191, 113, 196, 12, 60, 201, 246, 175, 63, 99, 0, 47, 61, 170, 133, 133, 190, 27, 102, 83, 191, 115, 143, 62, 63, 215, 46, 254, 62, 71, 194, 94, 62, 250, 60, 128, 191, 203, 112, 33, 64, 248, 66, 186, 61, 63, 95, 49, 191, 99, 215, 169, 61, 21, 185, 127, 63, 77, 20, 154, 191, 44, 85, 208, 191, 220, 215, 96, 192, 17, 35, 120, 63, 53, 78, 246, 62, 92, 154, 56, 62, 122, 177, 177, 62, 134, 114, 162, 63, 136, 83, 221, 190, 232, 170, 59, 191, 253, 205, 146, 190, 125, 136, 44, 63, 22, 184, 168, 189, 211, 137, 165, 190, 58, 18, 74, 63, 73, 220, 222, 191, 122, 36, 139, 63, 3, 43, 31, 63, 144, 155, 146, 191, 80, 125, 98, 63, 58, 118, 174, 63, 241, 250, 62, 191, 56, 188, 145, 63, 82, 119, 24, 191, 130, 43, 17, 63, 219, 85, 79, 61, 217, 129, 82, 190, 214, 112, 154, 62, 240, 57, 145, 63, 204, 215, 241, 191, 137, 88, 160, 191, 158, 96, 63, 191, 191, 64, 215, 190, 185, 13, 154, 190, 54, 253, 194, 60, 229, 76, 103, 62, 131, 29, 67, 63, 181, 202, 220, 63, 85, 187, 109, 191, 67, 85, 179, 63, 240, 225, 137, 62, 213, 103, 12, 190, 196, 23, 167, 62, 230, 168, 20, 63, 68, 7, 0, 64, 218, 164, 10, 63, 7, 230, 9, 63, 233, 213, 230, 62, 66, 114, 18, 189, 103, 28, 165, 190, 164, 102, 198, 62, 240, 58, 56, 64, 199, 60, 14, 190, 250, 214, 163, 190, 107, 49, 115, 62, 188, 18, 11, 191, 233, 127, 23, 63, 175, 129, 25, 64, 55, 19, 165, 62, 27, 129, 156, 191, 207, 179, 8, 191, 14, 201, 227, 188, 40, 108, 23, 191, 5, 94, 191, 190, 177, 26, 202, 190, 187, 3, 88, 61, 154, 47, 4, 191, 124, 31, 240, 190, 49, 65, 51, 63, 123, 218, 73, 64, 203, 151, 89, 192, 131, 201, 191, 63, 235, 64, 20, 64, 232, 63, 255, 191, 83, 201, 200, 63, 123, 14, 228, 62, 163, 178, 25, 192, 69, 46, 200, 63, 164, 81, 15, 62, 181, 48, 1, 191, 217, 131, 10, 64, 2, 182, 69, 64, 54, 69, 185, 191, 216, 64, 1, 191, 166, 97, 146, 62, 226, 80, 145, 62, 86, 169, 25, 64, 183, 51, 104, 64, 220, 177, 34, 192, 80, 201, 199, 63, 158, 197, 29, 191, 168, 137, 204, 63, 159, 4, 166, 63, 58, 22, 132, 191, 86, 96, 180, 191, 246, 210, 174, 191, 86, 191, 186, 191, 165, 231, 53, 191, 191, 200, 159, 63, 205, 103, 180, 191, 216, 244, 230, 190, 160, 87, 169, 191, 4, 213, 47, 63, 16, 109, 39, 192, 197, 40, 247, 191, 108, 216, 133, 191, 64, 188, 200, 190, 191, 191, 158, 191, 40, 251, 48, 63, 184, 110, 106, 188, 204, 56, 103, 64, 238, 160, 3, 64, 100, 196, 159, 63, 156, 56, 163, 191, 98, 24, 243, 191, 229, 28, 40, 192, 58, 114, 187, 191, 175, 165, 30, 191, 49, 129, 47, 192, 53, 242, 139, 63, 33, 0, 38, 64, 177, 58, 139, 63, 79, 0, 131, 191, 114, 10, 77, 63, 226, 63, 247, 63, 193, 232, 125, 191, 110, 181, 133, 63, 127, 95, 119, 191, 102, 67, 30, 192, 118, 125, 148, 191, 114, 125, 105, 191, 168, 109, 167, 191, 140, 155, 175, 63, 64, 231, 238, 63, 250, 207, 15, 192, 250, 32, 247, 62, 63, 210, 28, 63, 34, 151, 174, 191, 169, 22, 39, 63, 108, 220, 250, 190, 196, 57, 183, 63, 169, 184, 53, 64, 12, 160, 69, 64, 173, 206, 97, 62, 144, 255, 168, 62, 187, 47, 135, 60, 82, 113, 173, 63, 177, 84, 59, 191, 202, 81, 124, 63, 150, 119, 196, 63, 79, 14, 243, 63, 63, 76, 37, 64, 212, 230, 37, 191, 105, 39, 52, 190, 5, 225, 154, 63, 107, 254, 227, 191, 186, 22, 130, 64, 174, 247, 232, 191, 138, 24, 247, 191, 207, 61, 4, 62, 227, 75, 177, 191, 197, 73, 16, 192, 161, 149, 31, 192, 232, 89, 151, 191, 172, 215, 59, 64, 32, 148, 232, 191, 150, 141, 176, 190, 108, 131, 20, 63, 53, 7, 233, 191, 182, 199, 42, 63, 31, 194, 156, 190, 8, 222, 62, 63, 50, 45, 18, 190, 30, 166, 230, 63, 219, 92, 132, 191, 176, 133, 74, 191, 172, 208, 162, 62, 66, 243, 235, 190, 175, 81, 160, 189, 87, 1, 173, 190, 28, 151, 81, 190, 228, 190, 110, 190, 155, 172, 157, 190, 224, 67, 68, 62, 237, 205, 177, 189, 192, 142, 145, 190, 60, 158, 79, 191, 222, 234, 23, 63, 41, 116, 202, 188, 118, 147, 124, 191, 236, 67, 148, 63, 32, 18, 40, 62, 188, 69, 21, 192, 125, 0, 198, 63, 6, 45, 172, 63, 109, 203, 170, 190, 30, 41, 45, 62, 187, 230, 220, 59, 128, 164, 47, 62, 230, 105, 157, 62, 201, 60, 47, 191, 1, 222, 96, 190, 222, 140, 108, 63, 175, 86, 216, 62, 169, 152, 15, 62, 136, 69, 21, 63, 130, 34, 185, 62, 25, 46, 247, 191, 249, 103, 122, 63, 106, 130, 222, 62, 51, 120, 166, 190, 157, 2, 96, 63, 54, 15, 207, 62, 164, 241, 28, 191, 207, 88, 127, 62, 240, 16, 201, 190, 149, 126, 255, 61, 149, 17, 33, 190, 34, 170, 61, 61, 27, 232, 84, 189, 10, 53, 249, 62, 158, 38, 176, 191, 51, 219, 29, 62, 117, 8, 211, 190, 130, 133, 142, 63, 183, 216, 74, 61, 23, 7, 104, 63, 156, 62, 51, 63, 33, 168, 248, 188, 180, 128, 45, 190, 121, 181, 181, 191, 22, 128, 28, 191, 127, 76, 252, 62, 86, 131, 34, 62, 151, 7, 30, 61, 120, 82, 166, 189, 98, 68, 16, 63, 254, 41, 101, 62, 57, 204, 33, 191, 179, 43, 207, 189, 125, 89, 129, 61, 100, 93, 180, 190, 56, 61, 37, 190, 119, 32, 242, 191, 87, 9, 248, 60, 223, 183, 252, 190, 111, 141, 170, 190, 167, 119, 176, 190, 233, 102, 184, 61, 189, 97, 6, 192, 65, 224, 21, 62, 235, 125, 7, 191, 83, 150, 58, 191, 166, 208, 69, 191, 252, 100, 246, 62, 191, 172, 34, 191, 170, 129, 169, 190, 237, 156, 63, 63, 195, 199, 8, 191, 73, 55, 222, 190, 107, 126, 186, 59, 128, 181, 200, 191, 75, 217, 255, 191, 231, 59, 188, 63, 51, 104, 74, 191, 83, 253, 13, 192, 247, 96, 146, 63, 139, 65, 102, 62, 63, 247, 39, 64, 150, 22, 153, 191, 25, 177, 36, 191, 155, 209, 136, 188, 198, 147, 0, 192, 222, 81, 36, 63, 8, 204, 214, 191, 248, 80, 59, 64, 119, 86, 14, 63, 117, 24, 96, 189, 90, 131, 146, 191, 209, 63, 1, 191, 39, 189, 0, 64, 84, 55, 36, 63, 109, 46, 18, 191, 96, 184, 112, 63, 109, 236, 106, 63, 74, 144, 68, 191, 38, 18, 36, 190, 222, 57, 39, 64, 79, 105, 116, 191, 201, 74, 163, 190, 138, 130, 222, 63, 155, 89, 62, 64, 8, 128, 11, 192, 59, 14, 243, 191, 53, 179, 153, 63, 203, 248, 226, 191, 215, 98, 165, 191, 135, 29, 102, 191, 102, 34, 92, 63, 148, 5, 48, 191, 107, 138, 134, 63, 116, 251, 150, 191, 92, 140, 56, 191, 66, 106, 135, 189, 84, 152, 51, 63, 88, 120, 149, 191, 142, 54, 5, 64, 149, 40, 10, 191, 57, 31, 243, 63, 172, 147, 37, 63, 85, 121, 4, 64, 49, 174, 2, 63, 121, 85, 150, 189, 101, 222, 110, 62, 203, 109, 223, 191, 109, 84, 253, 62, 148, 31, 67, 63, 253, 166, 42, 64, 43, 6, 68, 64, 140, 211, 100, 191, 80, 58, 238, 191, 230, 126, 82, 64, 138, 12, 55, 191, 93, 81, 63, 191, 22, 114, 40, 64, 149, 148, 234, 63, 107, 38, 181, 191, 85, 217, 152, 190, 84, 14, 236, 188, 107, 135, 10, 64, 245, 102, 65, 63, 250, 188, 107, 64, 135, 168, 193, 63, 158, 169, 124, 191, 189, 158, 30, 64, 168, 227, 160, 189, 18, 38, 73, 62, 92, 100, 192, 62, 73, 220, 154, 62, 173, 123, 54, 191, 179, 73, 37, 62, 27, 31, 128, 191, 200, 253, 235, 63, 1, 34, 204, 191, 213, 119, 73, 64, 12, 125, 137, 60, 132, 189, 6, 63, 39, 198, 102, 191, 5, 68, 117, 63, 182, 222, 148, 63, 152, 219, 28, 192, 37, 29, 81, 191, 68, 73, 134, 189, 161, 52, 78, 64, 193, 206, 172, 191, 240, 228, 52, 191, 62, 22, 131, 188, 170, 140, 212, 63, 57, 114, 85, 64, 103, 139, 147, 63, 248, 82, 33, 192, 21, 34, 187, 64, 248, 27, 131, 63, 78, 191, 133, 63, 85, 214, 75, 63, 37, 80, 58, 192, 244, 130, 117, 64, 185, 80, 107, 64, 180, 132, 34, 191, 92, 245, 203, 191, 131, 133, 238, 191, 241, 108, 152, 192, 128, 144, 13, 64, 152, 75, 96, 64, 112, 144, 155, 191, 148, 60, 99, 192, 47, 200, 147, 191, 27, 9, 164, 63, 185, 112, 63, 63, 235, 11, 27, 192, 61, 231, 27, 64, 198, 72, 95, 191, 207, 185, 141, 191, 126, 77, 97, 191, 254, 153, 172, 64, 218, 253, 213, 191, 103, 148, 63, 64, 18, 190, 68, 192, 236, 31, 41, 192, 79, 220, 168, 191, 239, 91, 215, 63, 193, 188, 13, 64, 85, 44, 55, 64, 0, 251, 73, 64, 60, 131, 95, 192, 90, 228, 28, 192, 106, 173, 183, 63, 99, 73, 200, 191, 210, 116, 46, 192, 202, 188, 229, 63, 47, 251, 247, 191, 243, 64, 73, 192, 225, 58, 23, 191, 86, 107, 62, 192, 203, 35, 110, 192, 189, 179, 173, 64, 81, 80, 27, 192, 250, 95, 10, 64, 86, 74, 167, 63, 72, 112, 3, 64, 105, 54, 131, 64, 136, 153, 14, 64, 148, 218, 61, 192, 212, 67, 5, 64, 49, 156, 77, 192, 64, 85, 201, 191, 4, 253, 47, 64, 4, 247, 1, 63, 112, 100, 224, 191, 49, 8, 44, 192, 125, 108, 4, 192, 245, 72, 77, 192, 42, 130, 148, 64, 114, 82, 28, 192, 15, 63, 38, 64, 165, 44, 7, 192, 109, 91, 32, 192, 243, 52, 69, 192, 129, 165, 169, 191, 139, 39, 67, 192, 78, 158, 247, 191, 242, 122, 10, 64, 98, 39, 20, 64, 167, 240, 101, 192, 227, 81, 64, 64, 237, 250, 223, 191, 230, 134, 27, 64, 35, 12, 63, 64, 101, 182, 235, 62, 11, 77, 84, 191, 92, 222, 103, 192, 153, 29, 147, 63, 127, 98, 4, 64, 182, 191, 187, 63, 134, 250, 186, 63, 15, 138, 241, 63, 211, 245, 102, 62, 146, 220, 79, 64, 196, 66, 240, 59, 199, 18, 217, 191, 11, 195, 49, 63, 177, 4, 125, 64, 131, 228, 100, 192, 213, 121, 166, 191, 227, 28, 181, 190, 235, 141, 127, 191, 54, 17, 80, 63, 136, 158, 38, 192, 229, 175, 153, 191, 93, 214, 212, 62, 129, 105, 8, 191, 112, 3, 204, 62, 120, 234, 130, 191, 40, 198, 83, 191, 149, 14, 202, 63, 57, 227, 26, 61, 63, 37, 179, 63, 227, 62, 255, 62, 56, 232, 41, 62, 242, 83, 205, 189, 46, 3, 155, 63, 144, 224, 67, 190, 165, 248, 56, 64, 154, 99, 168, 60, 157, 139, 43, 191, 50, 32, 79, 191, 144, 43, 249, 61, 156, 60, 28, 191, 224, 158, 158, 63, 104, 246, 184, 191, 94, 250, 90, 191, 137, 24, 103, 191, 88, 21, 234, 190, 99, 181, 217, 62, 168, 84, 169, 191, 27, 205, 134, 191, 215, 87, 253, 62, 169, 57, 5, 62, 239, 45, 208, 190, 202, 66, 55, 191, 123, 54, 157, 63, 142, 14, 203, 191, 163, 185, 240, 62, 173, 61, 67, 64, 22, 130, 221, 189, 85, 179, 35, 191, 180, 83, 228, 62, 210, 97, 126, 191, 126, 189, 125, 191, 219, 213, 195, 62, 57, 107, 166, 63, 169, 98, 171, 62, 53, 17, 37, 64, 80, 150, 138, 190, 161, 89, 50, 62, 70, 4, 30, 191, 130, 190, 20, 192, 254, 146, 134, 61, 53, 35, 238, 62, 120, 76, 0, 64, 36, 214, 74, 61, 55, 225, 189, 187, 143, 110, 233, 62, 212, 248, 104, 191, 120, 212, 49, 64, 131, 179, 247, 63, 45, 113, 139, 191, 242, 249, 138, 191, 246, 192, 221, 62, 175, 119, 51, 63, 24, 14, 92, 190, 241, 147, 165, 191, 210, 105, 25, 64, 251, 68, 7, 191, 159, 165, 175, 191, 121, 45, 248, 188, 44, 51, 170, 191, 214, 61, 135, 190, 71, 245, 192, 190, 171, 59, 58, 63, 182, 131, 186, 62, 157, 142, 223, 63, 27, 211, 47, 191, 228, 230, 210, 191, 156, 182, 25, 191, 193, 241, 145, 63, 193, 25, 212, 62, 191, 139, 106, 191, 254, 239, 137, 190, 22, 145, 146, 63, 87, 125, 56, 63, 164, 216, 104, 62, 58, 90, 153, 63, 126, 14, 142, 191, 178, 222, 93, 62, 218, 98, 137, 191, 133, 73, 237, 63, 227, 141, 81, 191, 162, 206, 42, 190, 146, 128, 207, 191, 249, 25, 135, 60, 222, 206, 184, 189, 70, 183, 243, 190, 231, 91, 22, 63, 7, 97, 14, 191, 240, 238, 68, 63, 252, 24, 3, 63, 59, 214, 157, 63, 116, 44, 95, 191, 130, 220, 133, 191, 233, 80, 234, 188, 115, 58, 237, 62, 181, 9, 146, 62, 207, 142, 129, 191, 186, 82, 253, 60, 2, 136, 52, 190, 153, 208, 158, 63, 137, 238, 64, 62, 187, 57, 126, 60, 17, 82, 41, 191, 164, 150, 40, 191, 192, 31, 81, 61, 38, 197, 20, 190, 22, 252, 107, 190, 77, 226, 40, 191, 158, 184, 51, 63, 210, 8, 59, 192, 0, 88, 150, 63, 72, 180, 132, 63, 118, 18, 35, 63, 129, 106, 6, 63, 237, 125, 124, 62, 62, 51, 205, 189, 170, 8, 87, 190, 31, 166, 135, 191, 117, 57, 44, 190, 107, 218, 119, 63, 38, 153, 195, 189, 2, 29, 19, 188, 140, 12, 195, 190, 59, 16, 31, 190, 35, 183, 138, 191, 40, 176, 204, 63, 27, 38, 208, 61, 97, 41, 251, 62, 68, 212, 140, 62, 5, 115, 135, 63, 192, 157, 41, 191, 219, 206, 39, 191, 100, 108, 136, 62, 45, 23, 36, 191, 113, 55, 184, 62, 234, 154, 64, 188, 199, 116, 56, 62, 126, 9, 189, 62, 189, 97, 188, 191, 249, 132, 25, 63, 201, 69, 79, 190, 60, 66, 145, 62, 197, 137, 192, 62, 33, 20, 203, 60, 16, 28, 236, 190, 116, 240, 208, 189, 25, 160, 15, 187, 66, 220, 221, 191, 131, 43, 103, 191, 36, 85, 156, 62, 204, 58, 8, 191, 146, 203, 131, 62, 35, 230, 65, 63, 48, 225, 231, 62, 140, 56, 157, 62, 169, 82, 249, 190, 83, 80, 232, 62, 188, 198, 121, 61, 194, 119, 239, 62, 137, 254, 180, 61, 253, 203, 227, 191, 208, 36, 119, 190, 211, 87, 54, 190, 37, 43, 211, 189, 129, 186, 183, 62, 185, 206, 221, 62, 93, 55, 27, 192, 249, 9, 170, 61, 156, 119, 61, 62, 47, 249, 179, 191, 183, 25, 96, 191, 76, 119, 120, 191, 40, 51, 46, 191, 183, 140, 4, 191, 137, 200, 116, 62, 190, 4, 139, 63, 193, 43, 19, 191, 192, 195, 126, 190, 221, 76, 65, 64, 21, 155, 96, 63, 206, 17, 34, 192, 192, 119, 75, 191, 238, 163, 84, 192, 67, 177, 158, 190, 232, 132, 230, 62, 136, 127, 30, 63, 238, 182, 188, 191, 16, 83, 98, 191, 175, 200, 15, 191, 10, 127, 234, 191, 207, 253, 235, 191, 144, 117, 215, 63, 250, 229, 0, 191, 192, 128, 41, 63, 88, 89, 134, 61, 15, 108, 116, 191, 124, 147, 139, 190, 23, 13, 55, 192, 129, 59, 144, 63, 230, 62, 213, 190, 30, 245, 61, 191, 230, 147, 130, 60, 116, 216, 96, 191, 206, 42, 192, 63, 181, 39, 134, 191, 44, 201, 94, 63, 82, 189, 235, 190, 248, 27, 27, 191, 41, 159, 70, 190, 157, 22, 227, 189, 166, 119, 107, 191, 127, 7, 97, 62, 37, 156, 19, 63, 8, 144, 191, 61, 100, 199, 15, 191, 124, 2, 68, 191, 122, 57, 61, 64, 49, 25, 21, 63, 203, 175, 132, 62, 112, 80, 202, 190, 130, 142, 141, 63, 152, 88, 7, 191, 245, 108, 114, 191, 90, 217, 157, 63, 144, 30, 202, 191, 60, 213, 163, 191, 205, 34, 178, 191, 145, 101, 213, 189, 62, 76, 74, 192, 53, 222, 125, 192, 169, 217, 81, 191, 182, 39, 82, 191, 40, 18, 240, 60, 211, 144, 109, 63, 132, 185, 177, 191, 203, 69, 63, 190, 148, 65, 240, 61, 183, 185, 84, 63, 169, 245, 81, 190, 184, 221, 200, 190, 70, 184, 37, 62, 88, 177, 125, 191, 25, 123, 173, 191, 18, 222, 151, 63, 166, 129, 154, 63, 66, 7, 233, 190, 123, 181, 251, 63, 174, 224, 8, 64, 215, 147, 43, 191, 141, 123, 144, 191, 10, 116, 140, 62, 208, 103, 181, 191, 12, 18, 70, 61, 30, 93, 151, 61, 200, 214, 49, 64, 83, 27, 154, 61, 225, 144, 147, 63, 26, 179, 218, 62, 47, 2, 155, 62, 12, 172, 180, 191, 212, 167, 123, 191, 230, 214, 182, 61, 99, 208, 125, 61, 213, 116, 223, 61, 65, 8, 1, 64, 49, 167, 162, 63, 16, 139, 104, 191, 71, 249, 57, 63, 61, 222, 234, 190, 35, 22, 154, 191, 107, 221, 132, 63, 92, 98, 195, 63, 233, 24, 152, 190, 62, 171, 51, 63, 170, 251, 165, 191, 202, 150, 168, 62, 154, 50, 188, 190, 179, 144, 15, 63, 200, 155, 53, 63, 8, 190, 85, 191, 205, 32, 187, 191, 72, 215, 69, 61, 54, 228, 133, 190, 184, 150, 111, 190, 198, 116, 232, 190, 142, 54, 128, 61, 67, 231, 194, 62, 32, 86, 182, 190, 179, 151, 48, 63, 182, 194, 6, 189, 225, 172, 86, 190, 224, 161, 148, 190, 225, 14, 1, 62, 229, 4, 206, 62, 23, 78, 25, 191, 205, 183, 15, 191, 143, 66, 149, 62, 52, 125, 115, 60, 175, 118, 4, 62, 131, 234, 147, 191, 243, 127, 218, 62, 227, 27, 9, 62, 41, 113, 30, 191, 106, 1, 141, 191, 33, 249, 20, 190, 172, 91, 163, 62, 137, 172, 36, 63, 45, 50, 139, 190, 215, 200, 227, 189, 197, 111, 21, 191, 83, 218, 95, 191, 81, 15, 201, 61, 211, 144, 115, 63, 137, 75, 240, 190, 26, 250, 10, 63, 74, 133, 128, 189, 176, 26, 77, 191, 255, 99, 4, 191, 176, 231, 141, 61, 133, 53, 135, 63, 24, 14, 10, 63, 152, 217, 226, 62, 134, 200, 208, 190, 72, 159, 157, 189, 41, 185, 136, 62, 148, 28, 144, 190, 26, 60, 147, 62, 87, 11, 58, 62, 138, 20, 122, 189, 238, 49, 226, 189, 175, 230, 163, 191, 91, 125, 170, 190, 62, 42, 118, 60, 75, 235, 87, 191, 1, 90, 156, 190, 239, 111, 94, 62, 224, 166, 224, 63, 42, 98, 114, 190, 141, 139, 96, 63, 237, 10, 190, 189, 251, 46, 47, 189, 227, 211, 15, 63, 87, 86, 0, 61, 255, 233, 185, 61, 85, 252, 216, 189, 106, 151, 154, 62, 228, 50, 226, 190, 50, 134, 190, 62, 55, 71, 186, 188, 197, 189, 133, 62, 18, 194, 126, 63, 33, 110, 221, 186, 55, 184, 216, 63, 113, 105, 98, 190, 151, 106, 176, 61, 145, 38, 215, 189, 209, 220, 5, 190, 190, 194, 247, 190, 82, 144, 181, 63, 174, 240, 139, 59, 243, 23, 45, 63, 231, 29, 160, 191, 139, 208, 94, 63, 147, 54, 64, 63, 125, 230, 210, 190, 168, 250, 18, 191, 155, 14, 51, 190, 102, 219, 181, 60, 19, 144, 224, 190, 115, 96, 233, 190, 0, 0, 6, 0, 8, 0, 4, 0, 6, 0, 0, 0, 4, 0, 0, 0, 128, 1, 0, 0, 0, 0, 0, 0, 0, 0, 0, 0, 0, 0, 0, 0, 0, 0, 0, 0, 0, 0, 0, 0, 0, 0, 0, 0, 0, 0, 0, 0, 0, 0, 0, 0, 0, 0, 0, 0, 0, 0, 0, 0, 0, 0, 0, 0, 0, 0, 0, 0, 0, 0, 0, 0, 0, 0, 0, 0, 0, 0, 0, 0, 0, 0, 0, 0, 0, 0, 0, 0, 0, 0, 0, 0, 0, 0, 0, 0, 0, 0, 0, 0, 0, 0, 0, 0, 0, 0, 0, 0, 0, 0, 0, 0, 0, 0, 0, 0, 0, 0, 0, 0, 0, 0, 0, 0, 0, 0, 0, 0, 0, 0, 0, 0, 0, 0, 0, 0, 0, 0, 0, 0, 0, 0, 0, 0, 0, 0, 0, 0, 0, 0, 0, 0, 0, 0, 0, 0, 0, 0, 0, 0, 0, 0, 0, 0, 0, 0, 0, 0, 0, 0, 0, 0, 0, 0, 0, 0, 0, 0, 0, 0, 0, 0, 0, 0, 0, 0, 0, 0, 0, 0, 0, 0, 0, 0, 0, 0, 0, 0, 0, 0, 0, 0, 0, 0, 0, 0, 0, 0, 0, 0, 0, 0, 0, 0, 0, 0, 0, 0, 0, 0, 0, 0, 0, 0, 0, 0, 0, 0, 0, 0, 0, 0, 0, 0, 0, 0, 0, 0, 0, 0, 0, 0, 0, 0, 0, 0, 0, 0, 0, 0, 0, 0, 0, 0, 0, 0, 0, 0, 0, 0, 0, 0, 0, 0, 0, 0, 0, 0, 0, 0, 0, 0, 0, 0, 0, 0, 0, 0, 0, 0, 0, 0, 0, 0, 0, 0, 0, 0, 0, 0, 0, 0, 0, 0, 0, 0, 0, 0, 0, 0, 0, 0, 0, 0, 0, 0, 0, 0, 0, 0, 0, 0, 0, 0, 0, 0, 0, 0, 0, 0, 0, 0, 0, 0, 0, 0, 0, 0, 0, 0, 0, 0, 0, 0, 0, 0, 0, 0, 0, 0, 0, 0, 0, 0, 0, 0, 0, 0, 0, 0, 0, 0, 0, 0, 0, 0, 0, 0, 0, 0, 0, 0, 0, 0, 0, 0, 0, 0, 0, 0, 0, 0, 0, 0, 0, 0, 0, 0, 0, 0, 0, 0, 0, 0, 0, 0, 0, 0, 0, 0, 0, 0, 0, 0, 0, 0, 0, 0, 0, 0, 0, 0, 0, 0, 176, 253, 255, 255, 180, 253, 255, 255, 15, 0, 0, 0, 77, 76, 73, 82, 32, 67, 111, 110, 118, 101, 114, 116, 101, 100, 46, 0, 1, 0, 0, 0, 20, 0, 0, 0, 0, 0, 14, 0, 24, 0, 20, 0, 16, 0, 12, 0, 8, 0, 4, 0, 14, 0, 0, 0, 20, 0, 0, 0, 28, 0, 0, 0, 120, 0, 0, 0, 124, 0, 0, 0, 128, 0, 0, 0, 4, 0, 0, 0, 109, 97, 105, 110, 0, 0, 0, 0, 1, 0, 0, 0, 20, 0, 0, 0, 0, 0, 14, 0, 20, 0, 0, 0, 16, 0, 12, 0, 11, 0, 4, 0, 14, 0, 0, 0, 28, 0, 0, 0, 0, 0, 0, 2, 36, 0, 0, 0, 40, 0, 0, 0, 12, 0, 16, 0, 0, 0, 12, 0, 8, 0, 4, 0, 12, 0, 0, 0, 1, 0, 0, 0, 1, 0, 0, 0, 1, 0, 0, 0, 1, 0, 0, 0, 3, 0, 0, 0, 3, 0, 0, 0, 0, 0, 0, 0, 2, 0, 0, 0, 1, 0, 0, 0, 1, 0, 0, 0, 3, 0, 0, 0, 1, 0, 0, 0, 0, 0, 0, 0, 4, 0, 0, 0, 84, 1, 0, 0, 232, 0, 0, 0, 112, 0, 0, 0, 4, 0, 0, 0, 210, 254, 255, 255, 0, 0, 0, 1, 20, 0, 0, 0, 36, 0, 0, 0, 36, 0, 0, 0, 4, 0, 0, 0, 60, 0, 0, 0, 4, 0, 0, 0, 255, 255, 255, 255, 12, 0, 0, 0, 12, 0, 0, 0, 96, 0, 0, 0, 188, 254, 255, 255, 25, 0, 0, 0, 83, 116, 97, 116, 101, 102, 117, 108, 80, 97, 114, 116, 105, 116, 105, 111, 110, 101, 100, 67, 97, 108, 108, 58, 48, 0, 0, 0, 4, 0, 0, 0, 1, 0, 0, 0, 12, 0, 0, 0, 12, 0, 0, 0, 96, 0, 0, 0, 162, 255, 255, 255, 0, 0, 0, 1, 16, 0, 0, 0, 16, 0, 0, 0, 3, 0, 0, 0, 52, 0, 0, 0, 12, 255, 255, 255, 37, 0, 0, 0, 109, 111, 100, 101, 108, 95, 52, 55, 47, 98, 108, 111, 99, 107, 95, 53, 95, 100, 101, 112, 116, 104, 119, 105, 115, 101, 47, 100, 101, 112, 116, 104, 119, 105, 115, 101, 49, 0, 0, 0, 4, 0, 0, 0, 1, 0, 0, 0, 3, 0, 0, 0, 3, 0, 0, 0, 96, 0, 0, 0, 0, 0, 22, 0, 24, 0, 20, 0, 0, 0, 16, 0, 12, 0, 8, 0, 0, 0, 0, 0, 0, 0, 7, 0, 22, 0, 0, 0, 0, 0, 0, 1, 16, 0, 0, 0, 16, 0, 0, 0, 2, 0, 0, 0, 52, 0, 0, 0, 128, 255, 255, 255, 36, 0, 0, 0, 109, 111, 100, 101, 108, 95, 52, 55, 47, 98, 108, 111, 99, 107, 95, 53, 95, 100, 101, 112, 116, 104, 119, 105, 115, 101, 47, 100, 101, 112, 116, 104, 119, 105, 115, 101, 0, 0, 0, 0, 1, 0, 0, 0, 96, 0, 0, 0, 0, 0, 22, 0, 28, 0, 24, 0, 0, 0, 20, 0, 16, 0, 12, 0, 0, 0, 0, 0, 8, 0, 7, 0, 22, 0, 0, 0, 0, 0, 0, 1, 20, 0, 0, 0, 40, 0, 0, 0, 40, 0, 0, 0, 1, 0, 0, 0, 64, 0, 0, 0, 4, 0, 0, 0, 255, 255, 255, 255, 12, 0, 0, 0, 12, 0, 0, 0, 96, 0, 0, 0, 4, 0, 4, 0, 4, 0, 0, 0, 26, 0, 0, 0, 115, 101, 114, 118, 105, 110, 103, 95, 100, 101, 102, 97, 117, 108, 116, 95, 105, 110, 112, 117, 116, 95, 53, 48, 58, 48, 0, 0, 4, 0, 0, 0, 1, 0, 0, 0, 12, 0, 0, 0, 12, 0, 0, 0, 96, 0, 0, 0, 1, 0, 0, 0, 16, 0, 0, 0, 12, 0, 12, 0, 11, 0, 0, 0, 0, 0, 4, 0, 12, 0, 0, 0, 4, 0, 0, 0, 0, 0, 0, 4
};
