#pragma once

#include <cstdint>

const uint8_t layer_8[] = {
28, 0, 0, 0, 84, 70, 76, 51, 20, 0, 32, 0, 28, 0, 24, 0, 20, 0, 16, 0, 12, 0, 0, 0, 8, 0, 4, 0, 20, 0, 0, 0, 28, 0, 0, 0, 148, 0, 0, 0, 236, 0, 0, 0, 112, 8, 0, 0, 128, 8, 0, 0, 216, 10, 0, 0, 3, 0, 0, 0, 1, 0, 0, 0, 16, 0, 0, 0, 0, 0, 10, 0, 16, 0, 12, 0, 8, 0, 4, 0, 10, 0, 0, 0, 12, 0, 0, 0, 28, 0, 0, 0, 64, 0, 0, 0, 15, 0, 0, 0, 115, 101, 114, 118, 105, 110, 103, 95, 100, 101, 102, 97, 117, 108, 116, 0, 1, 0, 0, 0, 4, 0, 0, 0, 148, 255, 255, 255, 3, 0, 0, 0, 4, 0, 0, 0, 14, 0, 0, 0, 98, 108, 111, 99, 107, 95, 49, 95, 101, 120, 112, 97, 110, 100, 0, 0, 1, 0, 0, 0, 4, 0, 0, 0, 226, 248, 255, 255, 4, 0, 0, 0, 7, 0, 0, 0, 105, 110, 112, 117, 116, 95, 57, 0, 2, 0, 0, 0, 52, 0, 0, 0, 4, 0, 0, 0, 220, 255, 255, 255, 6, 0, 0, 0, 4, 0, 0, 0, 19, 0, 0, 0, 67, 79, 78, 86, 69, 82, 83, 73, 79, 78, 95, 77, 69, 84, 65, 68, 65, 84, 65, 0, 8, 0, 12, 0, 8, 0, 4, 0, 8, 0, 0, 0, 5, 0, 0, 0, 4, 0, 0, 0, 19, 0, 0, 0, 109, 105, 110, 95, 114, 117, 110, 116, 105, 109, 101, 95, 118, 101, 114, 115, 105, 111, 110, 0, 7, 0, 0, 0, 128, 7, 0, 0, 120, 7, 0, 0, 168, 6, 0, 0, 144, 0, 0, 0, 136, 0, 0, 0, 104, 0, 0, 0, 4, 0, 0, 0, 114, 249, 255, 255, 4, 0, 0, 0, 84, 0, 0, 0, 12, 0, 0, 0, 8, 0, 14, 0, 8, 0, 4, 0, 8, 0, 0, 0, 16, 0, 0, 0, 36, 0, 0, 0, 0, 0, 6, 0, 8, 0, 4, 0, 6, 0, 0, 0, 4, 0, 0, 0, 0, 0, 0, 0, 0, 0, 10, 0, 16, 0, 12, 0, 8, 0, 4, 0, 10, 0, 0, 0, 2, 0, 0, 0, 2, 0, 0, 0, 4, 0, 0, 0, 6, 0, 0, 0, 50, 46, 49, 53, 46, 48, 0, 0, 210, 249, 255, 255, 4, 0, 0, 0, 16, 0, 0, 0, 49, 46, 53, 46, 48, 0, 0, 0, 0, 0, 0, 0, 0, 0, 0, 0, 224, 246, 255, 255, 242, 249, 255, 255, 4, 0, 0, 0, 0, 6, 0, 0, 187, 145, 180, 61, 79, 214, 30, 191, 227, 77, 136, 62, 174, 179, 100, 190, 245, 225, 2, 62, 49, 48, 140, 189, 96, 150, 137, 190, 60, 179, 190, 61, 43, 118, 119, 62, 252, 36, 77, 62, 2, 95, 51, 189, 17, 99, 153, 190, 134, 88, 40, 61, 122, 138, 124, 188, 16, 151, 134, 190, 38, 0, 184, 62, 85, 52, 242, 61, 196, 149, 37, 61, 118, 50, 31, 190, 177, 64, 247, 62, 184, 190, 55, 62, 168, 148, 236, 62, 61, 240, 57, 62, 55, 26, 169, 62, 231, 122, 146, 62, 55, 95, 142, 62, 173, 79, 157, 190, 90, 70, 246, 62, 76, 10, 175, 190, 57, 251, 68, 188, 162, 62, 34, 189, 84, 57, 17, 61, 146, 158, 214, 189, 27, 170, 140, 190, 167, 134, 87, 62, 0, 199, 207, 60, 192, 58, 190, 60, 121, 42, 203, 61, 148, 158, 5, 190, 30, 20, 186, 190, 222, 134, 147, 61, 110, 88, 232, 60, 16, 82, 7, 190, 201, 188, 36, 62, 219, 156, 58, 187, 239, 247, 2, 190, 10, 197, 63, 62, 207, 38, 3, 63, 2, 78, 9, 62, 155, 199, 188, 188, 115, 102, 146, 190, 52, 191, 56, 190, 171, 28, 128, 62, 168, 151, 8, 61, 179, 141, 9, 62, 119, 49, 130, 189, 226, 67, 27, 63, 144, 85, 161, 61, 196, 151, 194, 61, 159, 237, 210, 189, 46, 22, 15, 62, 107, 201, 35, 188, 148, 249, 204, 62, 221, 181, 139, 190, 150, 142, 79, 61, 143, 118, 149, 190, 227, 113, 119, 61, 217, 96, 156, 62, 128, 109, 75, 60, 69, 211, 175, 61, 241, 183, 73, 189, 160, 205, 206, 190, 203, 233, 173, 62, 78, 49, 214, 190, 117, 36, 246, 60, 2, 231, 208, 187, 47, 87, 102, 189, 61, 136, 96, 61, 32, 186, 202, 190, 112, 228, 144, 62, 196, 77, 163, 190, 27, 104, 191, 189, 222, 12, 142, 190, 95, 188, 201, 60, 178, 222, 213, 188, 62, 181, 77, 186, 192, 16, 123, 190, 1, 8, 253, 61, 118, 54, 218, 189, 48, 0, 93, 190, 148, 58, 229, 188, 193, 240, 10, 191, 181, 189, 50, 191, 85, 8, 47, 190, 152, 245, 134, 62, 37, 190, 154, 189, 122, 40, 119, 61, 229, 87, 1, 61, 22, 209, 55, 190, 143, 137, 154, 62, 233, 74, 164, 190, 240, 25, 219, 189, 56, 225, 131, 62, 88, 6, 12, 63, 154, 110, 251, 153, 211, 82, 229, 155, 79, 52, 24, 156, 248, 240, 52, 156, 16, 34, 78, 28, 57, 254, 45, 156, 243, 243, 38, 28, 8, 114, 114, 27, 168, 207, 85, 188, 104, 123, 42, 190, 209, 38, 188, 188, 14, 79, 82, 61, 78, 153, 96, 62, 179, 22, 31, 63, 80, 29, 92, 62, 91, 93, 71, 62, 212, 33, 9, 62, 68, 196, 132, 60, 90, 78, 106, 61, 49, 211, 234, 190, 19, 69, 120, 62, 48, 4, 1, 62, 75, 108, 65, 190, 102, 209, 135, 62, 147, 190, 97, 154, 173, 31, 231, 155, 53, 35, 184, 155, 185, 186, 116, 154, 49, 159, 17, 28, 141, 142, 103, 156, 240, 135, 231, 155, 155, 98, 6, 156, 13, 7, 121, 61, 80, 158, 226, 61, 69, 98, 7, 63, 204, 238, 173, 61, 58, 64, 251, 189, 121, 203, 58, 189, 159, 37, 0, 62, 81, 218, 11, 62, 192, 147, 173, 62, 227, 111, 243, 190, 244, 252, 169, 61, 100, 213, 254, 61, 42, 247, 231, 188, 179, 145, 136, 61, 17, 233, 227, 190, 108, 209, 164, 60, 118, 226, 145, 190, 38, 239, 6, 189, 37, 20, 120, 61, 162, 188, 43, 62, 141, 21, 244, 189, 153, 235, 11, 190, 30, 83, 100, 190, 75, 46, 38, 62, 69, 2, 18, 62, 149, 241, 219, 61, 207, 137, 29, 190, 29, 242, 213, 62, 127, 239, 153, 189, 183, 150, 236, 190, 47, 244, 171, 188, 243, 141, 121, 62, 219, 47, 141, 62, 254, 105, 222, 61, 237, 19, 19, 63, 60, 225, 98, 61, 77, 142, 140, 189, 237, 240, 20, 189, 56, 203, 157, 62, 48, 70, 116, 61, 50, 127, 183, 190, 22, 25, 135, 189, 246, 233, 30, 191, 219, 255, 156, 60, 224, 111, 58, 187, 14, 56, 84, 61, 171, 39, 229, 190, 62, 156, 23, 61, 93, 156, 180, 190, 5, 205, 238, 62, 34, 167, 91, 189, 185, 142, 159, 189, 105, 59, 94, 60, 6, 197, 38, 189, 166, 58, 242, 62, 127, 159, 141, 190, 31, 150, 182, 60, 71, 102, 117, 190, 228, 203, 107, 190, 39, 178, 196, 62, 126, 69, 103, 189, 13, 176, 130, 190, 158, 50, 225, 62, 147, 255, 16, 63, 22, 83, 85, 61, 50, 16, 35, 62, 189, 20, 9, 62, 19, 189, 213, 61, 60, 61, 197, 62, 114, 237, 210, 62, 103, 13, 116, 190, 138, 159, 35, 190, 0, 11, 205, 190, 94, 9, 32, 190, 195, 166, 34, 191, 167, 129, 159, 188, 98, 152, 183, 60, 140, 205, 148, 61, 1, 242, 230, 190, 247, 176, 21, 60, 69, 176, 201, 186, 80, 167, 168, 189, 111, 192, 220, 189, 31, 168, 151, 60, 187, 155, 44, 190, 34, 251, 219, 62, 158, 75, 128, 62, 169, 239, 46, 62, 159, 196, 227, 60, 248, 3, 138, 189, 205, 38, 112, 189, 144, 91, 16, 62, 224, 85, 164, 61, 171, 177, 233, 62, 37, 61, 41, 62, 95, 33, 77, 62, 47, 41, 139, 62, 91, 125, 146, 61, 38, 202, 199, 62, 63, 63, 149, 186, 106, 103, 132, 189, 240, 170, 63, 189, 23, 9, 129, 62, 69, 7, 160, 188, 103, 98, 157, 190, 242, 119, 0, 63, 120, 64, 185, 189, 150, 70, 191, 189, 158, 99, 46, 61, 144, 236, 110, 188, 192, 173, 192, 62, 135, 190, 81, 190, 47, 102, 36, 190, 9, 162, 187, 190, 27, 171, 159, 189, 122, 24, 68, 188, 248, 144, 4, 62, 161, 18, 140, 190, 28, 5, 240, 62, 109, 187, 216, 62, 221, 190, 163, 60, 55, 172, 216, 60, 67, 65, 14, 190, 79, 43, 183, 62, 129, 157, 44, 189, 117, 161, 140, 62, 182, 129, 137, 62, 228, 161, 178, 62, 186, 243, 28, 57, 83, 110, 149, 62, 84, 185, 27, 189, 26, 31, 8, 191, 165, 128, 89, 61, 142, 229, 113, 189, 234, 10, 37, 189, 13, 33, 24, 63, 52, 122, 182, 189, 209, 114, 149, 62, 243, 246, 72, 187, 144, 166, 186, 190, 189, 220, 194, 61, 186, 13, 84, 189, 169, 15, 128, 61, 153, 68, 223, 62, 108, 136, 150, 62, 153, 93, 118, 60, 44, 102, 49, 189, 108, 145, 197, 189, 67, 222, 9, 61, 216, 145, 126, 61, 177, 170, 134, 62, 15, 137, 199, 189, 22, 234, 160, 190, 158, 200, 172, 187, 167, 222, 158, 61, 124, 77, 31, 62, 251, 247, 220, 189, 143, 110, 36, 61, 188, 231, 143, 190, 171, 23, 69, 62, 245, 222, 170, 188, 195, 126, 173, 189, 33, 68, 58, 189, 214, 157, 161, 61, 87, 108, 224, 61, 94, 189, 236, 62, 229, 188, 50, 62, 69, 129, 42, 62, 42, 96, 126, 61, 207, 0, 225, 61, 28, 77, 225, 60, 120, 147, 246, 62, 1, 97, 54, 63, 252, 17, 87, 189, 172, 242, 219, 189, 235, 112, 76, 62, 216, 89, 238, 60, 243, 254, 235, 61, 7, 234, 26, 62, 108, 11, 0, 191, 74, 201, 198, 61, 87, 168, 83, 186, 8, 4, 59, 190, 126, 222, 0, 63, 69, 158, 182, 62, 83, 239, 206, 61, 223, 244, 246, 62, 126, 85, 101, 188, 164, 252, 88, 189, 135, 182, 51, 189, 81, 174, 191, 62, 107, 63, 25, 189, 100, 249, 28, 60, 210, 111, 234, 189, 24, 198, 233, 189, 250, 150, 181, 62, 221, 63, 78, 62, 120, 124, 0, 63, 65, 34, 153, 62, 248, 204, 205, 62, 137, 166, 158, 190, 134, 16, 139, 188, 102, 94, 246, 62, 11, 88, 152, 61, 238, 231, 13, 190, 67, 218, 12, 61, 141, 82, 182, 189, 191, 10, 128, 62, 57, 154, 128, 189, 12, 226, 139, 190, 14, 48, 111, 61, 154, 66, 246, 62, 18, 43, 156, 189, 159, 17, 153, 60, 170, 120, 136, 61, 6, 109, 41, 191, 145, 98, 143, 61, 128, 242, 132, 188, 227, 77, 34, 190, 193, 236, 135, 190, 237, 40, 31, 62, 121, 247, 67, 189, 228, 238, 222, 188, 192, 72, 115, 190, 251, 40, 168, 190, 135, 219, 253, 62, 116, 65, 103, 60, 167, 216, 77, 190, 119, 238, 169, 60, 63, 221, 137, 60, 68, 62, 148, 62, 137, 163, 94, 190, 59, 26, 213, 190, 199, 221, 125, 189, 171, 189, 4, 62, 90, 169, 169, 61, 185, 148, 212, 189, 88, 107, 245, 61, 53, 45, 144, 190, 25, 136, 11, 62, 65, 26, 151, 62, 67, 27, 118, 61, 190, 51, 167, 62, 32, 40, 254, 187, 62, 161, 144, 61, 59, 114, 134, 189, 35, 62, 182, 62, 2, 254, 233, 188, 0, 0, 6, 0, 8, 0, 4, 0, 6, 0, 0, 0, 4, 0, 0, 0, 192, 0, 0, 0, 0, 0, 0, 0, 0, 0, 0, 0, 0, 0, 0, 0, 0, 0, 0, 0, 0, 0, 0, 0, 0, 0, 0, 0, 0, 0, 0, 0, 0, 0, 0, 0, 0, 0, 0, 0, 0, 0, 0, 0, 0, 0, 0, 0, 0, 0, 0, 0, 0, 0, 0, 0, 0, 0, 0, 0, 0, 0, 0, 0, 0, 0, 0, 0, 0, 0, 0, 0, 0, 0, 0, 0, 0, 0, 0, 0, 0, 0, 0, 0, 0, 0, 0, 0, 0, 0, 0, 0, 0, 0, 0, 0, 0, 0, 0, 0, 0, 0, 0, 0, 0, 0, 0, 0, 0, 0, 0, 0, 0, 0, 0, 0, 0, 0, 0, 0, 0, 0, 0, 0, 0, 0, 0, 0, 0, 0, 0, 0, 0, 0, 0, 0, 0, 0, 0, 0, 0, 0, 0, 0, 0, 0, 0, 0, 0, 0, 0, 0, 0, 0, 0, 0, 0, 0, 0, 0, 0, 0, 0, 0, 0, 0, 0, 0, 0, 0, 0, 0, 0, 0, 0, 0, 0, 0, 0, 0, 0, 0, 0, 0, 0, 0, 0, 0, 0, 0, 0, 0, 0, 0, 0, 0, 196, 253, 255, 255, 200, 253, 255, 255, 15, 0, 0, 0, 77, 76, 73, 82, 32, 67, 111, 110, 118, 101, 114, 116, 101, 100, 46, 0, 1, 0, 0, 0, 20, 0, 0, 0, 0, 0, 14, 0, 24, 0, 20, 0, 16, 0, 12, 0, 8, 0, 4, 0, 14, 0, 0, 0, 20, 0, 0, 0, 28, 0, 0, 0, 116, 0, 0, 0, 120, 0, 0, 0, 124, 0, 0, 0, 4, 0, 0, 0, 109, 97, 105, 110, 0, 0, 0, 0, 1, 0, 0, 0, 20, 0, 0, 0, 0, 0, 14, 0, 22, 0, 0, 0, 16, 0, 12, 0, 11, 0, 4, 0, 14, 0, 0, 0, 28, 0, 0, 0, 0, 0, 0, 1, 32, 0, 0, 0, 36, 0, 0, 0, 0, 0, 10, 0, 12, 0, 0, 0, 8, 0, 4, 0, 10, 0, 0, 0, 1, 0, 0, 0, 1, 0, 0, 0, 1, 0, 0, 0, 3, 0, 0, 0, 3, 0, 0, 0, 0, 0, 0, 0, 2, 0, 0, 0, 1, 0, 0, 0, 1, 0, 0, 0, 3, 0, 0, 0, 1, 0, 0, 0, 0, 0, 0, 0, 4, 0, 0, 0, 68, 1, 0, 0, 224, 0, 0, 0, 112, 0, 0, 0, 4, 0, 0, 0, 226, 254, 255, 255, 0, 0, 0, 1, 20, 0, 0, 0, 36, 0, 0, 0, 36, 0, 0, 0, 4, 0, 0, 0, 60, 0, 0, 0, 4, 0, 0, 0, 255, 255, 255, 255, 48, 0, 0, 0, 48, 0, 0, 0, 48, 0, 0, 0, 204, 254, 255, 255, 25, 0, 0, 0, 83, 116, 97, 116, 101, 102, 117, 108, 80, 97, 114, 116, 105, 116, 105, 111, 110, 101, 100, 67, 97, 108, 108, 58, 48, 0, 0, 0, 4, 0, 0, 0, 1, 0, 0, 0, 48, 0, 0, 0, 48, 0, 0, 0, 48, 0, 0, 0, 170, 255, 255, 255, 0, 0, 0, 1, 16, 0, 0, 0, 16, 0, 0, 0, 3, 0, 0, 0, 44, 0, 0, 0, 28, 255, 255, 255, 30, 0, 0, 0, 109, 111, 100, 101, 108, 95, 56, 47, 98, 108, 111, 99, 107, 95, 49, 95, 101, 120, 112, 97, 110, 100, 47, 67, 111, 110, 118, 50, 68, 49, 0, 0, 4, 0, 0, 0, 48, 0, 0, 0, 1, 0, 0, 0, 1, 0, 0, 0, 8, 0, 0, 0, 0, 0, 22, 0, 24, 0, 20, 0, 0, 0, 16, 0, 12, 0, 8, 0, 0, 0, 0, 0, 0, 0, 7, 0, 22, 0, 0, 0, 0, 0, 0, 1, 16, 0, 0, 0, 16, 0, 0, 0, 2, 0, 0, 0, 44, 0, 0, 0, 136, 255, 255, 255, 29, 0, 0, 0, 109, 111, 100, 101, 108, 95, 56, 47, 98, 108, 111, 99, 107, 95, 49, 95, 101, 120, 112, 97, 110, 100, 47, 67, 111, 110, 118, 50, 68, 0, 0, 0, 1, 0, 0, 0, 48, 0, 0, 0, 0, 0, 22, 0, 28, 0, 24, 0, 0, 0, 20, 0, 16, 0, 12, 0, 0, 0, 0, 0, 8, 0, 7, 0, 22, 0, 0, 0, 0, 0, 0, 1, 20, 0, 0, 0, 40, 0, 0, 0, 40, 0, 0, 0, 1, 0, 0, 0, 64, 0, 0, 0, 4, 0, 0, 0, 255, 255, 255, 255, 48, 0, 0, 0, 48, 0, 0, 0, 8, 0, 0, 0, 4, 0, 4, 0, 4, 0, 0, 0, 25, 0, 0, 0, 115, 101, 114, 118, 105, 110, 103, 95, 100, 101, 102, 97, 117, 108, 116, 95, 105, 110, 112, 117, 116, 95, 57, 58, 48, 0, 0, 0, 4, 0, 0, 0, 1, 0, 0, 0, 48, 0, 0, 0, 48, 0, 0, 0, 8, 0, 0, 0, 1, 0, 0, 0, 16, 0, 0, 0, 12, 0, 12, 0, 11, 0, 0, 0, 0, 0, 4, 0, 12, 0, 0, 0, 3, 0, 0, 0, 0, 0, 0, 3
};
