#pragma once

#include <cstdint>

const uint8_t layer_50[] = {
28, 0, 0, 0, 84, 70, 76, 51, 20, 0, 32, 0, 28, 0, 24, 0, 20, 0, 16, 0, 12, 0, 0, 0, 8, 0, 4, 0, 20, 0, 0, 0, 28, 0, 0, 0, 152, 0, 0, 0, 240, 0, 0, 0, 244, 25, 0, 0, 4, 26, 0, 0, 96, 28, 0, 0, 3, 0, 0, 0, 1, 0, 0, 0, 16, 0, 0, 0, 0, 0, 10, 0, 16, 0, 12, 0, 8, 0, 4, 0, 10, 0, 0, 0, 12, 0, 0, 0, 28, 0, 0, 0, 64, 0, 0, 0, 15, 0, 0, 0, 115, 101, 114, 118, 105, 110, 103, 95, 100, 101, 102, 97, 117, 108, 116, 0, 1, 0, 0, 0, 4, 0, 0, 0, 144, 255, 255, 255, 3, 0, 0, 0, 4, 0, 0, 0, 15, 0, 0, 0, 98, 108, 111, 99, 107, 95, 53, 95, 112, 114, 111, 106, 101, 99, 116, 0, 1, 0, 0, 0, 4, 0, 0, 0, 222, 230, 255, 255, 4, 0, 0, 0, 8, 0, 0, 0, 105, 110, 112, 117, 116, 95, 53, 51, 0, 0, 0, 0, 2, 0, 0, 0, 52, 0, 0, 0, 4, 0, 0, 0, 220, 255, 255, 255, 6, 0, 0, 0, 4, 0, 0, 0, 19, 0, 0, 0, 67, 79, 78, 86, 69, 82, 83, 73, 79, 78, 95, 77, 69, 84, 65, 68, 65, 84, 65, 0, 8, 0, 12, 0, 8, 0, 4, 0, 8, 0, 0, 0, 5, 0, 0, 0, 4, 0, 0, 0, 19, 0, 0, 0, 109, 105, 110, 95, 114, 117, 110, 116, 105, 109, 101, 95, 118, 101, 114, 115, 105, 111, 110, 0, 7, 0, 0, 0, 0, 25, 0, 0, 248, 24, 0, 0, 168, 24, 0, 0, 144, 0, 0, 0, 136, 0, 0, 0, 104, 0, 0, 0, 4, 0, 0, 0, 114, 231, 255, 255, 4, 0, 0, 0, 84, 0, 0, 0, 12, 0, 0, 0, 8, 0, 14, 0, 8, 0, 4, 0, 8, 0, 0, 0, 16, 0, 0, 0, 36, 0, 0, 0, 0, 0, 6, 0, 8, 0, 4, 0, 6, 0, 0, 0, 4, 0, 0, 0, 0, 0, 0, 0, 0, 0, 10, 0, 16, 0, 12, 0, 8, 0, 4, 0, 10, 0, 0, 0, 2, 0, 0, 0, 2, 0, 0, 0, 4, 0, 0, 0, 6, 0, 0, 0, 50, 46, 49, 53, 46, 48, 0, 0, 210, 231, 255, 255, 4, 0, 0, 0, 16, 0, 0, 0, 49, 46, 53, 46, 48, 0, 0, 0, 0, 0, 0, 0, 0, 0, 0, 0, 92, 229, 255, 255, 242, 231, 255, 255, 4, 0, 0, 0, 0, 24, 0, 0, 81, 73, 175, 189, 203, 97, 146, 189, 140, 5, 96, 187, 73, 226, 23, 190, 246, 242, 135, 61, 110, 242, 209, 188, 151, 87, 39, 190, 98, 235, 128, 59, 186, 225, 179, 61, 161, 228, 56, 60, 125, 125, 137, 189, 29, 232, 92, 60, 185, 65, 57, 189, 202, 1, 108, 189, 198, 13, 233, 189, 174, 179, 45, 61, 37, 156, 248, 188, 0, 95, 103, 60, 170, 180, 160, 188, 73, 233, 217, 187, 187, 129, 46, 61, 162, 216, 25, 190, 80, 241, 27, 61, 208, 73, 29, 61, 212, 233, 84, 60, 107, 31, 76, 61, 24, 184, 117, 60, 41, 238, 10, 63, 11, 52, 16, 62, 87, 140, 52, 190, 199, 214, 51, 62, 76, 68, 135, 189, 14, 142, 133, 188, 249, 210, 6, 61, 51, 159, 55, 60, 26, 92, 113, 188, 54, 34, 37, 189, 224, 224, 148, 61, 55, 109, 50, 190, 1, 185, 186, 188, 54, 113, 135, 189, 232, 59, 198, 60, 163, 214, 171, 188, 189, 35, 42, 62, 56, 78, 97, 60, 175, 66, 131, 61, 149, 205, 72, 61, 204, 149, 191, 60, 166, 221, 174, 61, 7, 233, 38, 187, 18, 123, 46, 189, 194, 120, 228, 60, 43, 227, 179, 61, 55, 14, 194, 189, 198, 208, 95, 189, 75, 43, 190, 62, 244, 223, 126, 59, 223, 179, 45, 61, 240, 145, 236, 189, 17, 254, 49, 190, 95, 66, 2, 189, 55, 138, 220, 61, 147, 145, 171, 188, 133, 184, 218, 189, 170, 146, 43, 190, 164, 144, 157, 190, 154, 145, 164, 189, 241, 40, 42, 62, 139, 83, 176, 60, 199, 55, 103, 61, 69, 214, 168, 61, 151, 86, 83, 189, 235, 70, 33, 189, 145, 37, 14, 190, 189, 118, 20, 189, 13, 96, 204, 189, 65, 179, 226, 189, 183, 173, 101, 61, 145, 248, 110, 60, 238, 73, 171, 60, 218, 158, 138, 189, 159, 63, 10, 190, 229, 237, 231, 61, 221, 192, 214, 61, 245, 170, 105, 188, 73, 82, 122, 189, 16, 1, 113, 189, 89, 204, 219, 190, 241, 68, 206, 59, 45, 83, 167, 189, 252, 60, 170, 60, 62, 92, 33, 189, 72, 162, 71, 62, 77, 51, 20, 190, 72, 248, 35, 190, 129, 99, 1, 189, 192, 51, 197, 61, 97, 105, 69, 190, 128, 133, 59, 190, 156, 165, 5, 190, 182, 38, 171, 62, 215, 214, 17, 189, 228, 140, 23, 62, 87, 119, 210, 61, 255, 49, 45, 189, 107, 157, 84, 190, 202, 197, 4, 190, 251, 2, 76, 189, 113, 250, 205, 60, 237, 128, 148, 188, 55, 98, 17, 190, 69, 152, 158, 61, 110, 198, 20, 190, 212, 158, 153, 59, 38, 21, 231, 61, 91, 23, 231, 61, 39, 60, 114, 61, 99, 194, 183, 61, 66, 47, 47, 189, 179, 74, 10, 190, 88, 89, 104, 60, 211, 65, 29, 188, 167, 186, 27, 189, 98, 66, 54, 190, 148, 198, 139, 61, 234, 74, 45, 189, 116, 157, 12, 190, 93, 92, 212, 61, 180, 121, 128, 189, 119, 37, 154, 61, 47, 204, 150, 60, 81, 132, 114, 188, 14, 136, 32, 61, 144, 146, 160, 188, 1, 191, 122, 59, 66, 228, 82, 61, 41, 2, 107, 189, 200, 226, 198, 61, 130, 164, 172, 189, 130, 173, 59, 189, 34, 43, 170, 189, 141, 42, 112, 62, 130, 195, 245, 60, 242, 184, 186, 60, 45, 21, 16, 61, 129, 161, 51, 190, 210, 117, 47, 61, 66, 113, 212, 189, 183, 87, 149, 189, 192, 35, 221, 61, 15, 34, 252, 61, 79, 181, 123, 61, 146, 87, 246, 189, 143, 135, 60, 189, 219, 239, 218, 189, 35, 110, 160, 189, 214, 213, 118, 61, 228, 242, 20, 189, 78, 165, 191, 187, 59, 134, 187, 189, 87, 42, 92, 190, 226, 198, 133, 62, 8, 15, 41, 189, 216, 233, 138, 189, 244, 60, 113, 188, 48, 34, 126, 189, 221, 35, 61, 189, 218, 98, 61, 61, 202, 7, 28, 62, 177, 131, 129, 190, 118, 107, 116, 189, 244, 2, 53, 187, 106, 236, 179, 61, 9, 28, 218, 189, 105, 17, 226, 61, 93, 38, 16, 61, 242, 113, 221, 60, 29, 97, 156, 189, 103, 161, 133, 61, 151, 72, 76, 59, 201, 199, 6, 190, 26, 202, 203, 61, 214, 161, 217, 188, 158, 85, 133, 61, 20, 255, 187, 61, 241, 60, 209, 189, 120, 147, 144, 59, 238, 12, 174, 58, 129, 90, 162, 61, 87, 22, 44, 61, 97, 190, 147, 61, 166, 181, 133, 62, 77, 90, 177, 59, 1, 69, 204, 61, 162, 96, 74, 190, 155, 42, 25, 189, 210, 91, 38, 62, 240, 203, 57, 62, 108, 252, 120, 61, 204, 114, 19, 62, 119, 40, 196, 188, 62, 0, 105, 190, 21, 221, 0, 189, 200, 89, 4, 189, 221, 7, 17, 188, 216, 91, 197, 188, 19, 61, 125, 61, 62, 113, 151, 61, 238, 230, 0, 188, 217, 64, 48, 189, 173, 49, 236, 189, 2, 121, 19, 62, 168, 79, 26, 61, 108, 1, 161, 188, 241, 163, 52, 62, 117, 255, 171, 60, 219, 39, 217, 61, 106, 17, 26, 61, 156, 114, 78, 188, 235, 143, 208, 189, 85, 189, 142, 61, 52, 196, 5, 189, 37, 126, 167, 61, 16, 21, 8, 190, 61, 101, 97, 61, 134, 227, 165, 61, 91, 101, 155, 189, 152, 159, 76, 61, 18, 41, 144, 190, 213, 225, 51, 190, 218, 227, 13, 61, 21, 42, 48, 61, 251, 32, 140, 188, 130, 245, 176, 189, 166, 39, 82, 60, 235, 156, 25, 189, 232, 254, 37, 61, 163, 73, 159, 189, 229, 205, 134, 188, 111, 238, 237, 61, 53, 247, 177, 189, 166, 39, 188, 60, 25, 152, 131, 189, 78, 44, 41, 189, 233, 109, 49, 62, 61, 109, 135, 188, 98, 3, 9, 189, 7, 121, 10, 62, 247, 136, 58, 61, 226, 95, 187, 60, 70, 41, 127, 61, 93, 103, 54, 60, 235, 57, 71, 61, 147, 147, 80, 61, 42, 4, 20, 61, 219, 155, 109, 189, 53, 82, 46, 61, 125, 91, 255, 188, 217, 70, 149, 189, 156, 168, 155, 186, 100, 94, 217, 189, 253, 48, 53, 188, 153, 153, 154, 188, 55, 105, 137, 189, 108, 138, 152, 189, 134, 132, 30, 190, 130, 26, 79, 59, 44, 225, 241, 61, 82, 155, 8, 62, 242, 127, 150, 61, 217, 96, 146, 61, 6, 234, 7, 189, 215, 229, 1, 61, 242, 143, 228, 189, 228, 183, 211, 60, 148, 189, 39, 189, 198, 88, 165, 189, 8, 143, 14, 61, 236, 145, 163, 60, 191, 58, 114, 61, 119, 51, 140, 189, 25, 124, 26, 61, 96, 14, 38, 55, 233, 207, 86, 189, 27, 138, 98, 188, 61, 183, 169, 189, 175, 224, 30, 190, 159, 151, 138, 60, 190, 4, 4, 62, 6, 123, 92, 61, 73, 205, 59, 62, 44, 21, 204, 187, 227, 102, 210, 61, 83, 197, 138, 189, 24, 247, 52, 61, 97, 8, 25, 189, 94, 183, 1, 189, 202, 123, 21, 190, 217, 83, 77, 61, 172, 144, 148, 189, 64, 225, 136, 59, 141, 0, 148, 61, 122, 211, 152, 61, 236, 24, 86, 62, 191, 239, 134, 61, 81, 236, 235, 187, 195, 1, 146, 61, 214, 178, 139, 60, 98, 134, 133, 62, 93, 159, 232, 188, 15, 1, 155, 61, 188, 204, 40, 61, 105, 174, 212, 61, 140, 101, 138, 188, 39, 169, 192, 188, 115, 245, 64, 61, 117, 6, 105, 61, 238, 235, 158, 61, 199, 174, 145, 188, 231, 255, 42, 62, 107, 86, 86, 190, 180, 211, 82, 61, 137, 85, 130, 61, 177, 21, 47, 60, 239, 244, 90, 189, 241, 100, 110, 189, 232, 198, 54, 187, 84, 37, 153, 61, 106, 52, 18, 190, 199, 54, 135, 189, 132, 102, 34, 62, 103, 255, 6, 61, 242, 230, 134, 61, 239, 27, 153, 61, 116, 132, 187, 189, 170, 98, 29, 190, 170, 224, 221, 189, 158, 235, 97, 189, 194, 67, 231, 189, 27, 141, 174, 61, 95, 95, 215, 188, 186, 235, 129, 190, 76, 154, 55, 186, 2, 242, 40, 61, 178, 5, 85, 190, 157, 22, 41, 62, 44, 223, 236, 61, 126, 18, 160, 61, 96, 185, 23, 61, 47, 66, 84, 62, 147, 44, 245, 58, 147, 24, 202, 189, 206, 179, 118, 61, 151, 137, 34, 62, 235, 112, 129, 188, 42, 67, 231, 189, 5, 47, 124, 61, 216, 216, 135, 189, 115, 9, 104, 60, 62, 32, 8, 190, 141, 164, 205, 61, 83, 11, 112, 189, 22, 94, 207, 61, 3, 214, 75, 189, 182, 21, 46, 61, 71, 128, 15, 60, 6, 207, 206, 61, 147, 171, 181, 61, 76, 247, 24, 189, 24, 218, 19, 190, 99, 132, 71, 61, 23, 110, 37, 188, 196, 230, 129, 189, 39, 241, 36, 61, 118, 22, 72, 61, 52, 168, 187, 61, 52, 22, 23, 61, 9, 21, 53, 61, 251, 198, 128, 61, 241, 120, 150, 61, 68, 10, 174, 61, 172, 197, 76, 62, 70, 146, 225, 61, 210, 255, 186, 189, 221, 3, 128, 61, 236, 50, 29, 59, 20, 141, 99, 61, 174, 43, 137, 188, 191, 32, 181, 62, 208, 84, 218, 61, 218, 178, 117, 188, 20, 74, 116, 189, 27, 12, 216, 189, 189, 52, 23, 190, 27, 240, 173, 189, 252, 179, 202, 189, 219, 232, 20, 190, 173, 124, 98, 61, 101, 141, 62, 188, 48, 220, 41, 62, 227, 170, 175, 61, 39, 222, 87, 190, 27, 172, 246, 189, 96, 170, 105, 62, 185, 227, 129, 189, 139, 197, 169, 60, 223, 157, 130, 61, 8, 51, 95, 189, 221, 227, 244, 60, 231, 250, 213, 188, 39, 172, 194, 60, 171, 181, 200, 189, 14, 73, 23, 61, 250, 255, 53, 189, 79, 235, 34, 62, 204, 139, 206, 189, 94, 46, 129, 62, 160, 149, 191, 60, 213, 254, 159, 189, 228, 9, 24, 61, 142, 139, 238, 61, 181, 71, 83, 61, 81, 230, 123, 60, 69, 244, 8, 61, 208, 173, 173, 189, 15, 40, 143, 187, 230, 233, 166, 189, 19, 104, 163, 189, 220, 100, 168, 188, 68, 173, 26, 190, 53, 7, 240, 188, 190, 182, 215, 60, 160, 116, 235, 61, 90, 9, 209, 60, 13, 81, 68, 189, 160, 220, 136, 60, 215, 127, 92, 187, 180, 66, 192, 189, 104, 209, 40, 61, 249, 179, 167, 189, 118, 239, 148, 61, 45, 222, 54, 189, 196, 37, 152, 189, 25, 222, 169, 61, 235, 158, 165, 188, 229, 251, 35, 62, 198, 46, 49, 62, 81, 82, 57, 61, 24, 25, 220, 61, 88, 205, 13, 62, 219, 201, 134, 189, 218, 210, 136, 58, 7, 192, 255, 189, 18, 36, 246, 186, 208, 51, 235, 61, 132, 2, 30, 62, 15, 63, 19, 61, 137, 73, 91, 190, 18, 180, 240, 189, 148, 207, 106, 189, 96, 81, 194, 61, 241, 128, 225, 61, 192, 37, 107, 62, 23, 202, 179, 189, 113, 246, 190, 188, 26, 217, 192, 189, 161, 37, 54, 188, 147, 86, 219, 188, 134, 50, 62, 190, 220, 185, 55, 60, 123, 130, 244, 61, 255, 26, 23, 62, 92, 31, 13, 190, 89, 175, 164, 61, 137, 97, 182, 60, 163, 20, 199, 189, 61, 46, 24, 61, 8, 182, 22, 61, 244, 188, 165, 61, 61, 66, 177, 189, 6, 197, 176, 60, 237, 131, 204, 188, 219, 87, 196, 188, 43, 48, 39, 61, 88, 182, 206, 61, 159, 138, 133, 189, 178, 62, 246, 61, 228, 197, 155, 189, 227, 169, 93, 189, 182, 170, 236, 189, 42, 7, 196, 188, 136, 156, 169, 60, 113, 201, 158, 187, 107, 77, 184, 61, 223, 112, 49, 187, 143, 140, 204, 60, 246, 16, 28, 186, 108, 37, 78, 59, 190, 62, 125, 61, 11, 25, 193, 188, 100, 105, 175, 61, 247, 50, 74, 61, 129, 153, 16, 190, 18, 221, 74, 62, 126, 144, 36, 61, 62, 83, 51, 188, 172, 24, 14, 61, 209, 247, 141, 190, 204, 136, 233, 187, 101, 92, 205, 61, 25, 165, 88, 61, 0, 83, 214, 61, 192, 40, 53, 58, 145, 110, 3, 186, 236, 25, 14, 61, 150, 133, 30, 190, 125, 128, 168, 61, 151, 83, 144, 61, 3, 132, 134, 186, 126, 113, 50, 61, 227, 52, 137, 187, 73, 80, 244, 188, 114, 43, 192, 61, 12, 204, 130, 189, 81, 181, 166, 188, 163, 163, 49, 185, 43, 12, 217, 60, 132, 117, 88, 189, 206, 22, 253, 188, 53, 94, 25, 189, 51, 228, 14, 61, 80, 131, 225, 188, 165, 251, 88, 59, 29, 192, 142, 189, 56, 115, 209, 185, 37, 67, 51, 190, 209, 98, 8, 59, 155, 59, 59, 61, 231, 142, 141, 189, 172, 155, 35, 61, 145, 93, 75, 62, 234, 158, 5, 61, 143, 41, 237, 60, 144, 252, 209, 61, 61, 17, 189, 188, 68, 235, 71, 62, 116, 251, 217, 59, 200, 23, 104, 62, 151, 176, 38, 61, 33, 234, 147, 62, 129, 133, 201, 60, 177, 42, 157, 61, 25, 222, 135, 60, 207, 154, 236, 60, 113, 35, 135, 186, 54, 233, 101, 62, 38, 61, 159, 189, 30, 17, 223, 187, 202, 60, 53, 61, 144, 213, 65, 61, 52, 227, 76, 59, 47, 0, 110, 188, 163, 166, 186, 187, 98, 107, 138, 61, 96, 184, 200, 188, 0, 186, 122, 61, 111, 215, 187, 188, 27, 215, 201, 62, 46, 121, 27, 60, 255, 247, 195, 61, 219, 149, 53, 187, 177, 231, 232, 188, 31, 49, 139, 60, 39, 201, 53, 61, 21, 184, 27, 190, 139, 240, 66, 61, 6, 108, 129, 61, 59, 233, 85, 190, 141, 60, 214, 60, 176, 206, 253, 189, 21, 127, 227, 189, 204, 128, 78, 61, 123, 157, 196, 61, 154, 49, 64, 61, 186, 72, 152, 59, 19, 8, 10, 189, 139, 27, 132, 189, 12, 68, 77, 190, 136, 48, 222, 189, 94, 235, 80, 59, 255, 41, 205, 189, 152, 101, 220, 61, 26, 219, 89, 60, 166, 255, 170, 188, 69, 181, 250, 188, 190, 129, 245, 188, 162, 74, 218, 189, 27, 197, 211, 61, 145, 79, 98, 61, 228, 121, 155, 60, 175, 13, 64, 189, 215, 159, 154, 188, 2, 63, 62, 189, 203, 236, 100, 189, 165, 172, 87, 189, 2, 97, 198, 60, 26, 22, 206, 61, 36, 16, 245, 188, 92, 212, 14, 62, 30, 1, 18, 61, 164, 198, 17, 62, 46, 172, 14, 189, 28, 137, 217, 188, 100, 6, 237, 188, 172, 229, 252, 60, 124, 210, 139, 190, 221, 168, 167, 189, 22, 212, 101, 62, 134, 168, 59, 188, 241, 57, 195, 189, 165, 62, 198, 60, 133, 90, 149, 189, 176, 236, 144, 189, 76, 16, 246, 60, 68, 75, 121, 189, 58, 156, 161, 61, 27, 50, 161, 189, 201, 217, 36, 62, 57, 154, 78, 189, 147, 100, 53, 190, 219, 216, 66, 189, 55, 204, 48, 188, 78, 116, 154, 187, 151, 84, 38, 190, 181, 10, 171, 59, 188, 167, 60, 187, 118, 94, 41, 189, 173, 61, 29, 62, 251, 226, 182, 61, 57, 179, 85, 190, 95, 156, 179, 61, 111, 115, 214, 189, 110, 13, 47, 60, 82, 110, 27, 189, 237, 123, 194, 188, 73, 114, 145, 186, 222, 194, 179, 62, 181, 4, 84, 186, 195, 171, 212, 189, 234, 53, 130, 60, 145, 5, 216, 189, 57, 143, 110, 61, 238, 61, 122, 190, 255, 149, 73, 189, 108, 86, 99, 61, 202, 236, 67, 188, 9, 210, 83, 61, 14, 179, 199, 61, 138, 213, 131, 61, 113, 36, 113, 188, 240, 167, 136, 189, 160, 66, 242, 188, 91, 140, 186, 61, 208, 76, 27, 61, 20, 213, 117, 60, 216, 238, 53, 60, 100, 108, 222, 61, 177, 83, 195, 189, 117, 221, 137, 189, 178, 212, 7, 189, 88, 9, 225, 189, 196, 218, 180, 188, 188, 77, 10, 56, 229, 213, 163, 62, 203, 246, 205, 61, 231, 150, 2, 61, 251, 182, 146, 62, 185, 72, 9, 62, 233, 207, 209, 61, 248, 78, 197, 189, 103, 48, 106, 189, 204, 90, 148, 189, 149, 43, 180, 61, 171, 174, 143, 188, 211, 132, 152, 189, 196, 170, 170, 61, 209, 169, 102, 61, 100, 165, 98, 61, 156, 34, 50, 61, 74, 22, 197, 189, 74, 124, 211, 60, 29, 163, 148, 61, 143, 160, 186, 61, 219, 130, 166, 189, 201, 23, 217, 61, 99, 158, 7, 61, 127, 43, 121, 188, 201, 180, 68, 61, 192, 10, 23, 61, 246, 22, 85, 60, 113, 0, 50, 61, 169, 249, 89, 189, 81, 13, 207, 60, 59, 27, 36, 61, 170, 72, 207, 61, 51, 106, 131, 187, 117, 114, 211, 189, 127, 119, 242, 60, 134, 226, 100, 61, 60, 58, 199, 60, 65, 135, 190, 187, 219, 105, 72, 62, 218, 156, 254, 189, 16, 70, 99, 61, 70, 12, 44, 61, 43, 203, 47, 61, 74, 144, 7, 189, 21, 144, 144, 189, 164, 193, 148, 61, 94, 64, 63, 189, 93, 222, 153, 189, 249, 7, 149, 189, 196, 115, 170, 61, 161, 129, 196, 60, 183, 176, 78, 61, 175, 65, 217, 189, 57, 170, 176, 189, 188, 3, 243, 61, 183, 185, 247, 61, 140, 228, 224, 60, 91, 95, 48, 189, 28, 189, 163, 187, 205, 212, 0, 189, 132, 111, 222, 189, 174, 30, 17, 59, 253, 169, 148, 188, 75, 32, 12, 190, 82, 177, 51, 62, 130, 174, 166, 189, 9, 82, 91, 190, 114, 144, 236, 188, 121, 56, 185, 189, 199, 251, 33, 59, 95, 185, 37, 62, 102, 194, 79, 189, 42, 194, 117, 189, 221, 14, 241, 60, 170, 122, 9, 61, 39, 59, 16, 62, 18, 24, 13, 62, 140, 151, 188, 61, 15, 131, 61, 189, 74, 152, 200, 189, 20, 117, 191, 189, 46, 247, 192, 188, 153, 142, 148, 188, 255, 75, 55, 189, 255, 227, 6, 62, 137, 241, 2, 189, 239, 80, 131, 188, 186, 183, 183, 189, 198, 129, 154, 61, 169, 138, 157, 189, 133, 146, 205, 189, 238, 204, 4, 190, 170, 199, 56, 189, 62, 106, 151, 61, 227, 206, 166, 188, 223, 65, 176, 188, 140, 95, 178, 59, 82, 157, 17, 62, 234, 255, 99, 61, 254, 154, 164, 190, 179, 206, 158, 189, 14, 48, 236, 61, 113, 42, 68, 189, 14, 204, 197, 61, 78, 204, 112, 62, 60, 49, 50, 62, 103, 42, 210, 60, 133, 235, 31, 189, 228, 91, 6, 61, 184, 131, 145, 61, 89, 166, 181, 187, 129, 83, 209, 189, 159, 69, 13, 61, 19, 176, 241, 60, 94, 44, 72, 60, 187, 106, 182, 189, 39, 163, 3, 188, 75, 210, 159, 190, 181, 93, 75, 62, 207, 206, 5, 61, 212, 180, 161, 189, 102, 106, 33, 62, 123, 255, 173, 188, 105, 172, 13, 60, 214, 233, 15, 61, 50, 214, 72, 60, 95, 67, 6, 62, 244, 242, 74, 62, 120, 52, 110, 189, 97, 133, 103, 60, 152, 221, 44, 60, 114, 167, 79, 189, 229, 39, 3, 189, 107, 171, 8, 61, 158, 218, 217, 61, 95, 67, 112, 61, 254, 3, 172, 189, 173, 32, 7, 62, 146, 209, 201, 60, 175, 73, 221, 189, 64, 64, 1, 186, 70, 93, 5, 62, 89, 209, 150, 60, 29, 51, 130, 190, 118, 123, 88, 61, 68, 36, 127, 61, 205, 249, 164, 61, 100, 122, 47, 190, 76, 29, 201, 189, 105, 170, 161, 189, 3, 232, 201, 61, 249, 152, 132, 61, 9, 200, 14, 190, 132, 189, 111, 190, 187, 139, 78, 189, 152, 208, 53, 61, 65, 158, 176, 189, 229, 87, 141, 189, 68, 182, 8, 188, 252, 141, 168, 60, 140, 250, 97, 62, 198, 122, 148, 58, 166, 212, 21, 190, 200, 23, 64, 61, 190, 177, 175, 188, 5, 207, 253, 189, 178, 192, 114, 189, 58, 243, 178, 61, 61, 251, 14, 62, 31, 149, 29, 62, 138, 108, 65, 189, 102, 74, 108, 189, 126, 255, 201, 189, 239, 208, 71, 189, 155, 89, 175, 61, 196, 239, 81, 190, 3, 253, 255, 60, 68, 149, 120, 189, 184, 132, 200, 187, 229, 192, 94, 61, 132, 203, 151, 61, 187, 106, 40, 62, 41, 113, 1, 62, 132, 125, 154, 61, 195, 221, 175, 189, 21, 4, 6, 62, 7, 176, 242, 61, 204, 245, 165, 60, 159, 117, 14, 60, 60, 143, 2, 62, 249, 43, 15, 61, 109, 209, 128, 60, 143, 0, 78, 190, 2, 165, 144, 188, 211, 210, 54, 61, 251, 12, 88, 62, 41, 58, 29, 62, 157, 127, 148, 189, 60, 65, 55, 189, 169, 134, 148, 61, 83, 219, 137, 189, 115, 128, 90, 62, 61, 164, 61, 62, 212, 4, 15, 189, 85, 125, 35, 61, 8, 37, 67, 62, 159, 33, 112, 190, 89, 254, 128, 61, 99, 176, 84, 189, 175, 140, 102, 59, 28, 190, 7, 61, 97, 165, 217, 189, 213, 148, 182, 189, 2, 107, 70, 61, 17, 123, 128, 188, 174, 186, 113, 189, 13, 131, 1, 61, 121, 152, 50, 187, 65, 33, 154, 61, 157, 215, 109, 189, 47, 31, 204, 60, 220, 182, 3, 61, 181, 47, 144, 188, 90, 170, 40, 61, 118, 26, 214, 60, 192, 132, 69, 190, 60, 80, 176, 61, 210, 68, 244, 59, 140, 236, 214, 60, 51, 146, 54, 188, 113, 168, 13, 62, 83, 34, 177, 61, 233, 236, 29, 190, 143, 150, 211, 188, 197, 129, 0, 62, 225, 90, 111, 59, 97, 32, 133, 188, 5, 173, 12, 190, 101, 179, 66, 189, 202, 26, 165, 61, 181, 21, 151, 61, 135, 113, 203, 188, 22, 136, 28, 190, 70, 88, 235, 61, 195, 171, 142, 61, 251, 85, 242, 187, 184, 90, 237, 189, 207, 84, 78, 60, 56, 49, 51, 62, 140, 236, 19, 189, 142, 155, 161, 59, 203, 130, 89, 61, 47, 116, 225, 189, 14, 209, 77, 189, 221, 109, 137, 62, 180, 93, 44, 190, 223, 233, 221, 187, 168, 247, 106, 187, 216, 225, 79, 189, 77, 250, 105, 60, 140, 225, 151, 61, 5, 119, 4, 190, 30, 144, 41, 190, 142, 1, 162, 61, 27, 185, 219, 58, 0, 76, 138, 60, 27, 69, 100, 61, 126, 9, 1, 62, 110, 120, 213, 189, 42, 106, 23, 61, 205, 90, 176, 60, 122, 208, 203, 59, 183, 185, 235, 188, 132, 84, 203, 59, 208, 193, 115, 61, 136, 100, 33, 187, 84, 139, 230, 189, 61, 251, 97, 61, 216, 92, 104, 59, 58, 37, 182, 60, 178, 202, 123, 189, 43, 145, 224, 189, 255, 82, 148, 61, 163, 58, 223, 189, 17, 84, 152, 187, 53, 94, 216, 59, 88, 102, 217, 189, 0, 72, 57, 190, 146, 5, 187, 189, 239, 147, 12, 190, 50, 205, 45, 190, 161, 141, 225, 189, 0, 187, 49, 188, 213, 90, 124, 62, 186, 22, 189, 189, 29, 225, 255, 61, 218, 104, 138, 61, 80, 83, 167, 61, 211, 202, 5, 62, 58, 109, 179, 61, 217, 180, 124, 189, 72, 239, 237, 188, 118, 234, 248, 59, 218, 79, 54, 189, 35, 73, 143, 61, 25, 45, 214, 189, 251, 155, 121, 189, 196, 83, 189, 187, 225, 251, 202, 61, 163, 209, 165, 61, 135, 22, 162, 61, 48, 1, 22, 189, 31, 104, 33, 189, 78, 211, 13, 61, 8, 228, 254, 190, 39, 172, 183, 61, 138, 98, 56, 190, 131, 41, 57, 62, 61, 95, 25, 190, 123, 3, 11, 188, 23, 179, 159, 61, 136, 83, 25, 189, 143, 147, 103, 189, 135, 168, 199, 188, 5, 171, 247, 61, 160, 248, 183, 187, 158, 64, 31, 189, 181, 49, 90, 60, 96, 248, 0, 190, 252, 244, 145, 61, 231, 36, 52, 190, 68, 191, 189, 60, 128, 253, 194, 188, 116, 45, 187, 61, 119, 221, 71, 61, 182, 104, 47, 189, 131, 40, 244, 61, 255, 0, 234, 189, 96, 47, 168, 189, 30, 16, 5, 190, 103, 3, 210, 189, 123, 131, 17, 189, 44, 72, 63, 190, 11, 184, 86, 61, 41, 125, 79, 61, 16, 206, 27, 188, 102, 188, 34, 190, 204, 161, 162, 61, 4, 122, 31, 61, 98, 226, 79, 188, 164, 226, 9, 61, 88, 138, 249, 189, 32, 140, 155, 62, 187, 88, 88, 189, 32, 48, 204, 189, 9, 52, 25, 61, 15, 38, 231, 189, 47, 88, 156, 59, 16, 184, 78, 189, 37, 107, 192, 189, 88, 246, 221, 188, 176, 152, 99, 61, 241, 149, 68, 62, 87, 136, 131, 188, 218, 120, 243, 61, 248, 168, 107, 189, 194, 228, 102, 61, 139, 184, 202, 189, 18, 246, 176, 188, 218, 162, 229, 60, 124, 1, 206, 61, 92, 104, 172, 60, 225, 157, 171, 189, 117, 106, 66, 189, 248, 97, 208, 62, 120, 121, 205, 188, 128, 209, 1, 189, 22, 18, 49, 61, 142, 94, 255, 60, 152, 90, 145, 61, 244, 200, 25, 190, 209, 99, 12, 62, 225, 171, 222, 189, 25, 250, 141, 190, 41, 190, 152, 61, 48, 1, 8, 60, 244, 216, 146, 187, 221, 77, 85, 61, 213, 241, 60, 190, 216, 82, 104, 189, 57, 98, 86, 188, 248, 156, 29, 190, 234, 28, 32, 189, 192, 195, 84, 187, 41, 199, 151, 61, 251, 36, 171, 61, 231, 227, 151, 61, 232, 102, 163, 189, 155, 210, 16, 189, 210, 191, 44, 62, 26, 45, 173, 60, 204, 72, 63, 190, 64, 13, 37, 190, 209, 136, 152, 61, 168, 115, 253, 187, 254, 232, 183, 188, 135, 141, 178, 60, 98, 62, 77, 62, 160, 14, 58, 61, 51, 135, 62, 62, 94, 26, 165, 185, 58, 201, 147, 189, 46, 57, 179, 61, 96, 216, 255, 189, 42, 25, 75, 61, 136, 116, 13, 189, 216, 84, 117, 61, 141, 39, 205, 188, 148, 153, 107, 188, 44, 115, 31, 189, 79, 170, 236, 59, 68, 246, 168, 61, 85, 217, 104, 60, 47, 32, 31, 189, 134, 101, 7, 189, 44, 66, 107, 60, 104, 22, 143, 186, 68, 254, 119, 62, 36, 116, 22, 61, 84, 87, 119, 62, 228, 96, 140, 61, 88, 183, 41, 62, 24, 98, 25, 62, 236, 47, 145, 188, 247, 231, 252, 61, 194, 92, 25, 61, 148, 226, 81, 190, 156, 156, 143, 61, 149, 156, 14, 189, 189, 156, 75, 190, 56, 7, 66, 189, 253, 124, 194, 189, 63, 215, 18, 190, 88, 85, 135, 188, 238, 116, 70, 189, 250, 230, 176, 60, 208, 243, 136, 61, 204, 34, 44, 188, 245, 199, 124, 189, 103, 148, 192, 61, 253, 107, 71, 188, 28, 75, 133, 61, 32, 52, 44, 61, 0, 45, 83, 188, 76, 200, 208, 61, 8, 11, 185, 189, 35, 185, 89, 61, 106, 217, 149, 61, 217, 203, 228, 59, 251, 68, 112, 189, 25, 233, 127, 62, 26, 20, 201, 190, 2, 232, 71, 62, 53, 167, 201, 189, 78, 133, 100, 188, 19, 165, 76, 190, 0, 242, 65, 190, 47, 104, 189, 62, 138, 75, 171, 61, 243, 84, 219, 61, 128, 12, 169, 188, 179, 143, 215, 60, 222, 244, 21, 62, 52, 7, 156, 189, 174, 58, 43, 190, 241, 161, 152, 189, 65, 167, 3, 62, 70, 182, 117, 189, 246, 234, 199, 188, 56, 62, 87, 188, 49, 171, 121, 188, 196, 35, 176, 189, 207, 148, 36, 187, 251, 14, 70, 62, 41, 72, 84, 61, 152, 179, 150, 186, 73, 28, 1, 189, 0, 216, 82, 189, 17, 1, 140, 61, 149, 184, 158, 61, 130, 68, 175, 186, 45, 8, 167, 59, 36, 58, 58, 189, 36, 202, 165, 61, 66, 190, 114, 188, 20, 155, 151, 189, 254, 33, 226, 188, 65, 235, 32, 61, 112, 3, 52, 189, 223, 105, 40, 189, 205, 203, 114, 189, 188, 82, 182, 189, 211, 12, 5, 62, 120, 97, 141, 189, 155, 46, 232, 61, 131, 97, 34, 189, 172, 197, 135, 62, 49, 143, 74, 189, 106, 119, 202, 61, 95, 30, 150, 189, 153, 52, 247, 59, 193, 121, 33, 189, 12, 37, 172, 61, 21, 159, 235, 60, 217, 66, 137, 61, 181, 153, 68, 189, 107, 222, 8, 189, 129, 21, 16, 61, 188, 150, 226, 60, 5, 108, 2, 188, 122, 130, 89, 189, 84, 234, 13, 186, 43, 145, 41, 60, 201, 77, 47, 189, 149, 194, 195, 187, 39, 234, 53, 61, 21, 6, 17, 61, 109, 114, 193, 187, 164, 13, 128, 188, 191, 110, 33, 188, 7, 236, 164, 189, 151, 35, 18, 189, 168, 60, 144, 60, 90, 253, 218, 188, 145, 194, 44, 189, 206, 207, 32, 189, 87, 49, 36, 189, 244, 210, 93, 61, 218, 157, 120, 61, 220, 118, 154, 188, 242, 211, 71, 189, 56, 101, 64, 188, 46, 97, 11, 62, 188, 110, 227, 61, 210, 24, 94, 190, 131, 87, 183, 60, 207, 220, 9, 62, 119, 215, 155, 189, 102, 248, 185, 190, 189, 235, 142, 188, 102, 75, 14, 62, 170, 215, 207, 59, 22, 65, 37, 61, 163, 96, 231, 60, 68, 123, 119, 62, 40, 177, 214, 186, 244, 115, 173, 188, 50, 136, 37, 188, 179, 188, 71, 187, 81, 49, 138, 188, 225, 82, 155, 61, 219, 140, 206, 189, 238, 89, 159, 60, 123, 22, 29, 61, 233, 192, 103, 189, 253, 137, 128, 59, 186, 41, 246, 189, 240, 109, 198, 187, 106, 209, 40, 61, 18, 8, 152, 60, 173, 177, 40, 59, 169, 33, 199, 189, 137, 46, 186, 61, 182, 25, 179, 188, 123, 4, 144, 61, 235, 53, 64, 190, 102, 9, 15, 62, 130, 122, 254, 188, 145, 51, 244, 188, 83, 129, 43, 190, 166, 252, 8, 61, 222, 180, 250, 188, 252, 217, 229, 60, 104, 136, 205, 189, 105, 244, 166, 189, 63, 69, 166, 61, 134, 167, 108, 61, 139, 193, 50, 62, 42, 254, 194, 60, 35, 233, 115, 189, 87, 240, 157, 60, 255, 211, 103, 189, 162, 154, 134, 61, 71, 154, 232, 189, 141, 215, 255, 188, 154, 231, 135, 60, 73, 108, 253, 188, 105, 150, 20, 62, 236, 33, 11, 190, 255, 1, 27, 62, 40, 6, 147, 61, 123, 235, 55, 188, 59, 136, 205, 188, 15, 90, 139, 60, 243, 4, 174, 189, 96, 2, 189, 189, 233, 164, 119, 190, 11, 223, 101, 190, 225, 46, 119, 189, 152, 49, 117, 188, 80, 33, 10, 188, 185, 5, 193, 188, 162, 249, 120, 61, 233, 129, 133, 61, 65, 247, 106, 189, 58, 117, 206, 189, 238, 254, 57, 62, 222, 120, 169, 188, 177, 231, 7, 61, 106, 196, 185, 61, 75, 185, 88, 58, 76, 148, 50, 189, 8, 92, 167, 187, 169, 90, 254, 61, 224, 180, 50, 189, 198, 176, 135, 61, 54, 99, 31, 62, 44, 158, 43, 62, 158, 186, 43, 190, 233, 103, 45, 62, 81, 67, 167, 188, 125, 21, 160, 189, 2, 187, 247, 61, 86, 234, 254, 61, 175, 180, 32, 58, 244, 96, 186, 60, 251, 43, 141, 61, 50, 55, 75, 189, 47, 12, 30, 61, 83, 39, 29, 60, 130, 42, 161, 189, 241, 189, 171, 59, 254, 213, 208, 60, 34, 140, 174, 60, 147, 235, 26, 61, 134, 114, 134, 61, 51, 75, 144, 190, 215, 150, 237, 60, 93, 170, 113, 189, 73, 205, 77, 190, 146, 152, 130, 60, 55, 22, 210, 61, 174, 126, 150, 61, 79, 190, 196, 189, 56, 239, 244, 189, 47, 22, 44, 62, 165, 70, 128, 189, 213, 99, 54, 60, 172, 127, 133, 189, 105, 80, 159, 61, 45, 250, 215, 189, 136, 48, 66, 62, 191, 94, 65, 188, 163, 145, 144, 189, 178, 29, 213, 188, 70, 198, 131, 189, 229, 79, 107, 61, 43, 97, 140, 61, 142, 203, 226, 189, 83, 36, 129, 189, 231, 56, 244, 60, 23, 106, 196, 189, 42, 26, 27, 61, 17, 83, 26, 189, 137, 147, 26, 190, 126, 196, 172, 61, 252, 88, 234, 57, 175, 174, 42, 189, 190, 51, 172, 61, 90, 187, 117, 190, 145, 148, 135, 60, 242, 3, 147, 61, 134, 38, 198, 60, 56, 63, 131, 189, 253, 115, 54, 190, 137, 201, 91, 190, 46, 226, 165, 189, 252, 239, 89, 190, 115, 139, 247, 188, 11, 182, 61, 62, 111, 167, 196, 60, 181, 34, 174, 61, 91, 138, 152, 188, 202, 59, 101, 61, 144, 73, 149, 190, 210, 245, 248, 189, 76, 135, 23, 61, 31, 63, 12, 190, 42, 68, 128, 189, 71, 251, 251, 60, 36, 119, 76, 189, 50, 186, 218, 187, 66, 118, 222, 189, 252, 198, 75, 190, 18, 237, 151, 189, 30, 86, 121, 61, 124, 77, 9, 61, 118, 113, 247, 188, 206, 53, 88, 60, 201, 86, 138, 60, 45, 66, 146, 187, 127, 10, 207, 60, 117, 43, 113, 62, 171, 227, 80, 190, 20, 192, 9, 189, 170, 95, 28, 190, 175, 33, 114, 61, 54, 27, 128, 60, 179, 61, 97, 60, 31, 112, 185, 62, 195, 142, 116, 189, 55, 109, 154, 61, 23, 181, 254, 188, 85, 174, 98, 61, 23, 219, 10, 62, 182, 122, 151, 190, 52, 0, 138, 61, 233, 136, 145, 189, 165, 22, 135, 61, 77, 194, 155, 190, 34, 73, 0, 61, 243, 153, 222, 60, 207, 127, 197, 61, 199, 252, 200, 61, 108, 89, 205, 61, 205, 171, 233, 60, 169, 249, 136, 61, 89, 233, 12, 60, 145, 168, 206, 59, 239, 92, 32, 190, 236, 241, 111, 61, 110, 145, 41, 62, 173, 158, 205, 61, 17, 52, 198, 61, 49, 167, 95, 188, 28, 230, 177, 189, 217, 173, 84, 61, 230, 95, 2, 62, 41, 195, 69, 190, 235, 226, 190, 189, 205, 45, 137, 190, 179, 161, 15, 61, 113, 53, 187, 189, 166, 105, 251, 60, 80, 254, 252, 61, 165, 30, 229, 61, 219, 78, 99, 190, 245, 239, 227, 189, 245, 24, 194, 60, 43, 228, 188, 189, 171, 100, 138, 61, 99, 80, 186, 61, 215, 71, 4, 62, 164, 119, 82, 61, 174, 73, 231, 61, 224, 33, 77, 61, 159, 169, 237, 188, 86, 74, 253, 189, 239, 36, 128, 190, 128, 113, 47, 189, 251, 26, 4, 190, 209, 175, 17, 188, 227, 193, 69, 61, 204, 136, 255, 187, 219, 196, 74, 190, 139, 9, 153, 189, 5, 130, 108, 61, 1, 255, 22, 189, 47, 198, 174, 189, 167, 173, 225, 61, 125, 191, 126, 189, 207, 233, 9, 62, 15, 172, 241, 188, 253, 31, 156, 190, 169, 224, 173, 188, 77, 188, 131, 189, 141, 61, 60, 61, 223, 119, 95, 189, 135, 127, 59, 59, 128, 210, 59, 190, 47, 84, 5, 190, 161, 83, 177, 188, 50, 53, 59, 188, 126, 200, 49, 188, 218, 238, 9, 61, 88, 80, 127, 189, 222, 172, 111, 189, 206, 90, 50, 62, 245, 191, 150, 190, 34, 140, 9, 189, 223, 5, 190, 61, 223, 102, 45, 61, 190, 244, 169, 187, 184, 19, 250, 188, 222, 155, 126, 61, 192, 114, 154, 190, 246, 80, 156, 187, 249, 99, 135, 61, 82, 161, 93, 190, 96, 89, 181, 188, 235, 7, 194, 61, 133, 225, 172, 189, 209, 254, 19, 190, 231, 84, 22, 62, 238, 201, 150, 61, 200, 111, 3, 62, 89, 95, 21, 61, 206, 165, 62, 189, 169, 65, 209, 190, 22, 174, 128, 188, 3, 189, 4, 62, 165, 51, 223, 188, 6, 77, 15, 62, 58, 95, 184, 61, 224, 221, 241, 188, 194, 205, 46, 189, 91, 150, 251, 61, 165, 25, 48, 60, 146, 34, 139, 187, 58, 160, 222, 61, 104, 43, 145, 188, 60, 53, 136, 60, 42, 67, 76, 189, 121, 27, 240, 188, 166, 110, 39, 188, 42, 213, 177, 189, 49, 51, 101, 61, 103, 79, 16, 61, 88, 207, 252, 61, 60, 232, 228, 189, 95, 49, 181, 60, 6, 131, 165, 188, 124, 172, 1, 190, 24, 237, 179, 189, 15, 151, 95, 189, 155, 111, 249, 60, 87, 240, 128, 60, 177, 226, 33, 189, 79, 178, 208, 61, 128, 170, 85, 188, 73, 158, 75, 62, 136, 116, 93, 189, 110, 194, 27, 190, 2, 72, 239, 189, 41, 67, 248, 189, 93, 38, 22, 190, 34, 147, 33, 62, 175, 26, 149, 61, 38, 45, 108, 62, 150, 144, 255, 189, 197, 114, 185, 188, 120, 253, 173, 188, 40, 104, 120, 188, 0, 0, 6, 0, 8, 0, 4, 0, 6, 0, 0, 0, 4, 0, 0, 0, 64, 0, 0, 0, 0, 0, 0, 0, 0, 0, 0, 0, 0, 0, 0, 0, 0, 0, 0, 0, 0, 0, 0, 0, 0, 0, 0, 0, 0, 0, 0, 0, 0, 0, 0, 0, 0, 0, 0, 0, 0, 0, 0, 0, 0, 0, 0, 0, 0, 0, 0, 0, 0, 0, 0, 0, 0, 0, 0, 0, 0, 0, 0, 0, 0, 0, 0, 0, 192, 253, 255, 255, 196, 253, 255, 255, 15, 0, 0, 0, 77, 76, 73, 82, 32, 67, 111, 110, 118, 101, 114, 116, 101, 100, 46, 0, 1, 0, 0, 0, 20, 0, 0, 0, 0, 0, 14, 0, 24, 0, 20, 0, 16, 0, 12, 0, 8, 0, 4, 0, 14, 0, 0, 0, 20, 0, 0, 0, 28, 0, 0, 0, 116, 0, 0, 0, 120, 0, 0, 0, 124, 0, 0, 0, 4, 0, 0, 0, 109, 97, 105, 110, 0, 0, 0, 0, 1, 0, 0, 0, 20, 0, 0, 0, 0, 0, 14, 0, 22, 0, 0, 0, 16, 0, 12, 0, 11, 0, 4, 0, 14, 0, 0, 0, 28, 0, 0, 0, 0, 0, 0, 1, 32, 0, 0, 0, 36, 0, 0, 0, 0, 0, 10, 0, 12, 0, 0, 0, 8, 0, 4, 0, 10, 0, 0, 0, 1, 0, 0, 0, 1, 0, 0, 0, 1, 0, 0, 0, 3, 0, 0, 0, 3, 0, 0, 0, 0, 0, 0, 0, 2, 0, 0, 0, 1, 0, 0, 0, 1, 0, 0, 0, 3, 0, 0, 0, 1, 0, 0, 0, 0, 0, 0, 0, 4, 0, 0, 0, 72, 1, 0, 0, 228, 0, 0, 0, 112, 0, 0, 0, 4, 0, 0, 0, 222, 254, 255, 255, 0, 0, 0, 1, 20, 0, 0, 0, 36, 0, 0, 0, 36, 0, 0, 0, 4, 0, 0, 0, 60, 0, 0, 0, 4, 0, 0, 0, 255, 255, 255, 255, 12, 0, 0, 0, 12, 0, 0, 0, 16, 0, 0, 0, 200, 254, 255, 255, 25, 0, 0, 0, 83, 116, 97, 116, 101, 102, 117, 108, 80, 97, 114, 116, 105, 116, 105, 111, 110, 101, 100, 67, 97, 108, 108, 58, 48, 0, 0, 0, 4, 0, 0, 0, 1, 0, 0, 0, 12, 0, 0, 0, 12, 0, 0, 0, 16, 0, 0, 0, 166, 255, 255, 255, 0, 0, 0, 1, 16, 0, 0, 0, 16, 0, 0, 0, 3, 0, 0, 0, 48, 0, 0, 0, 24, 255, 255, 255, 32, 0, 0, 0, 109, 111, 100, 101, 108, 95, 53, 48, 47, 98, 108, 111, 99, 107, 95, 53, 95, 112, 114, 111, 106, 101, 99, 116, 47, 67, 111, 110, 118, 50, 68, 49, 0, 0, 0, 0, 4, 0, 0, 0, 16, 0, 0, 0, 1, 0, 0, 0, 1, 0, 0, 0, 96, 0, 0, 0, 0, 0, 22, 0, 24, 0, 20, 0, 0, 0, 16, 0, 12, 0, 8, 0, 0, 0, 0, 0, 0, 0, 7, 0, 22, 0, 0, 0, 0, 0, 0, 1, 16, 0, 0, 0, 16, 0, 0, 0, 2, 0, 0, 0, 44, 0, 0, 0, 136, 255, 255, 255, 31, 0, 0, 0, 109, 111, 100, 101, 108, 95, 53, 48, 47, 98, 108, 111, 99, 107, 95, 53, 95, 112, 114, 111, 106, 101, 99, 116, 47, 67, 111, 110, 118, 50, 68, 0, 1, 0, 0, 0, 16, 0, 0, 0, 0, 0, 22, 0, 28, 0, 24, 0, 0, 0, 20, 0, 16, 0, 12, 0, 0, 0, 0, 0, 8, 0, 7, 0, 22, 0, 0, 0, 0, 0, 0, 1, 20, 0, 0, 0, 40, 0, 0, 0, 40, 0, 0, 0, 1, 0, 0, 0, 64, 0, 0, 0, 4, 0, 0, 0, 255, 255, 255, 255, 12, 0, 0, 0, 12, 0, 0, 0, 96, 0, 0, 0, 4, 0, 4, 0, 4, 0, 0, 0, 26, 0, 0, 0, 115, 101, 114, 118, 105, 110, 103, 95, 100, 101, 102, 97, 117, 108, 116, 95, 105, 110, 112, 117, 116, 95, 53, 51, 58, 48, 0, 0, 4, 0, 0, 0, 1, 0, 0, 0, 12, 0, 0, 0, 12, 0, 0, 0, 96, 0, 0, 0, 1, 0, 0, 0, 16, 0, 0, 0, 12, 0, 12, 0, 11, 0, 0, 0, 0, 0, 4, 0, 12, 0, 0, 0, 3, 0, 0, 0, 0, 0, 0, 3
};
